#version: 0.2
Ù Ī
ÙĪ ÙĪ
ÙĪÙĪ ÙĪÙĪ
ÙĪÙĪÙĪÙĪ ÙĪÙĪÙĪÙĪ
Ø ±
Ø± Ø±
á Ī
ÙĪÙĪÙĪÙĪÙĪÙĪÙĪÙĪ ÙĪÙĪÙĪÙĪÙĪÙĪÙĪÙĪ
á Ĭ
á ī
á ĭ
Ø±Ø± Ø±Ø±
i e
ÙĪÙĪÙĪÙĪÙĪÙĪÙĪÙĪÙĪÙĪÙĪÙĪÙĪÙĪÙĪÙĪ ÙĪÙĪÙĪÙĪÙĪÙĪÙĪÙĪÙĪÙĪÙĪÙĪÙĪÙĪÙĪÙĪ
Ġ d
Ø±Ø±Ø±Ø± Ø±Ø±Ø±Ø±
e r
á Į
a n
Ġ áĬ
e n
Ġ áĭ
Ġ áĪ
áĬ ķ
i n
Ġ v
á į
Ġ s
Ġ o
t e
Ġd ie
Ġ áī
Ø §
ÙĪÙĪÙĪÙĪÙĪÙĪÙĪÙĪÙĪÙĪÙĪÙĪÙĪÙĪÙĪÙĪÙĪÙĪÙĪÙĪÙĪÙĪÙĪÙĪÙĪÙĪÙĪÙĪÙĪÙĪÙĪÙĪ ÙĪÙĪÙĪÙĪÙĪÙĪÙĪÙĪÙĪÙĪÙĪÙĪÙĪÙĪÙĪÙĪ
o r
Ø±Ø±Ø±Ø±Ø±Ø±Ø±Ø± Ø±Ø±Ø±Ø±Ø±Ø±Ø±Ø±
Ġ w
áī µ
Ġ ÙĪÙĪÙĪÙĪÙĪÙĪÙĪÙĪÙĪÙĪÙĪÙĪÙĪÙĪÙĪÙĪÙĪÙĪÙĪÙĪÙĪÙĪÙĪÙĪÙĪÙĪÙĪÙĪÙĪÙĪÙĪÙĪÙĪÙĪÙĪÙĪÙĪÙĪÙĪÙĪÙĪÙĪÙĪÙĪÙĪÙĪÙĪÙĪ
ĠÙĪÙĪÙĪÙĪÙĪÙĪÙĪÙĪÙĪÙĪÙĪÙĪÙĪÙĪÙĪÙĪÙĪÙĪÙĪÙĪÙĪÙĪÙĪÙĪÙĪÙĪÙĪÙĪÙĪÙĪÙĪÙĪÙĪÙĪÙĪÙĪÙĪÙĪÙĪÙĪÙĪÙĪÙĪÙĪÙĪÙĪÙĪÙĪ ÙĪÙĪ
Ġ m
Ġ h
g e
Ø§ Ø§
a a
Ġ b
i s
e l
e t
Ù ĩ
Ġ a
Ġ n
áĪ Ń
Ùĩ Ùĩ
Ġáĭ ¨
áĭ į
a t
áĪ į
áĪ Ŀ
i t
e s
Ġ en
Ġ k
o n
áĪ µ
Ġ p
Ġ ge
l e
r e
Ù Ĭ
Ġ '
Ġáī ł
Ġ t
áĪ Ī
Ġ in
ĠáĬ ¥
Ġ is
aa r
ĠáĬ ł
d e
Ġ j
áĬ ĵ
i k
Ø§Ø§ Ø§Ø§
Ġv an
áī ½
o u
áĭ Ń
Ġ te
áī °
ÙĬ ÙĬ
áĭ «
áĪ ĺ
Ġ áĮ
o m
in g
â Ģ
o e
a r
a l
o s
áī ¥
ÙĩÙĩ ÙĩÙĩ
a s
Ø±Ø±Ø±Ø±Ø±Ø±Ø±Ø±Ø±Ø±Ø±Ø±Ø±Ø±Ø±Ø± Ø±Ø±Ø±Ø±Ø±Ø±Ø±Ø±Ø±Ø±Ø±Ø±Ø±Ø±Ø±Ø±
Ð °
Ġv er
Ġn ie
áĪ ¨
i g
ĠáĪ ĺ
Ð° Ð°
an d
áĬ Ĳ
áĪ «
áĭ °
áĮ Ī
áī ł
áĮ į
Ġo m
áį ¡
áĭ µ
Ġ g
c h
áĪ ĭ
Ġ D
Ġ e
Ġ l
áĪ Ľ
Ġw at
Ġh et
u l
áī ³
u r
Ġ S
Ġo n
i r
w e
Ġj y
er s
i l
o or
a d
o o
Ġ (
i d
Ù Ħ
áī £
Ø§Ø§Ø§Ø§ Ø§Ø§Ø§Ø§
Ġo p
áĪ ļ
s e
áį ¢
Ġ âĢ
áĪ ħ
ĠáĬ ¨
Ġ Ø±Ø±Ø±Ø±Ø±Ø±Ø±Ø±Ø±Ø±Ø±Ø±Ø±Ø±Ø±Ø±Ø±Ø±Ø±Ø±Ø±Ø±Ø±Ø±Ø±Ø±Ø±Ø±Ø±Ø±Ø±Ø±
áĪ °
Ġb e
Ġv ir
áĬ Ń
o l
e er
Ġ c
b r
ÙĬÙĬ ÙĬÙĬ
Ġ A
2 0
u s
l ik
áį į
Ġd it
ĠáĬ Ĳ
ie r
ĠáĬ¥ áĬķ
áĬ ł
a g
áī Ģ
h e
Ġ u
or d
. .
áĮ ¥
Ù ħ
Ù ĥ
Ġáĭ Ń
a k
o t
ÙĩÙĩÙĩÙĩ ÙĩÙĩÙĩÙĩ
ÙĪÙĪ ÙĪ
ÙĪÙĪÙĪÙĪÙĪÙĪÙĪÙĪ ÙĪÙĪÙĪÙĪ
Ġk an
áĭ ¨
Ġáī °
áį £
Ġm et
Ġa an
Ġ f
ĠáĪ Ī
ie n
áĭ ³
Ð°Ð° Ð°Ð°
d er
Ġo f
áĮ ł
t er
Ġs e
Ġd e
Ġa s
áĭ İ
áĪ ī
Ġj ou
áĬ ¨
Ùħ Ø
s k
Ġ H
áĪ ª
Ġw ord
áĪ ³
Ġ M
a an
áī ħ
áį Ī
u n
Ġ N
r o
a m
Ġa l
ÙĪÙĪÙĪÙĪÙĪÙĪÙĪÙĪÙĪÙĪÙĪÙĪ ÙĪÙĪÙĪ
Ø±Ø±Ø±Ø±Ø±Ø±Ø±Ø±Ø±Ø±Ø±Ø±Ø±Ø±Ø±Ø± Ø±Ø±
ĠØ±Ø±Ø±Ø±Ø±Ø±Ø±Ø±Ø±Ø±Ø±Ø±Ø±Ø±Ø±Ø±Ø±Ø±Ø±Ø±Ø±Ø±Ø±Ø±Ø±Ø±Ø±Ø±Ø±Ø±Ø±Ø± Ø±Ø±Ø±Ø±Ø±Ø±Ø±Ø±Ø±Ø±Ø±Ø±Ø±Ø±Ø±Ø±Ø±Ø±
áĬ «
en t
áĭ Ī
Ġáĭ Ī
áī ¸
ie s
Ġ I
Ġw e
áį¡ áį¡
r y
Ġ C
Ġm o
k e
Ġd at
y a
s t
Ġáĭ «
ĠáĪ µ
m b
Ġh ul
ĠáĪ Ľ
áĮ ĭ
Ġ E
Ġs t
áĭ ĭ
ĠáĪ Ŀ
áī¸ áĭį
aa k
áī ¶
d ie
Ġ B
en s
Ġs o
áĬ ¥
Ġáĭ¨ áĪļ
Ġáī ¥
o k
Ã ª
áĭ ²
Ġ re
áĭİ áī½
áĬ Ľ
áĮ £
o on
ĠáĬ¥ áĬĵ
áĪ Ĩ
Ġc on
an g
er k
Ġ r
Ġ J
áĪ ®
o p
Ġs y
Ġs k
a p
Ġon s
Ġ Ø
e k
Ġb es
i ge
Ġ G
´ Ùĥ
Ø§Ø§Ø§Ø§Ø§Ø§Ø§Ø§ Ø§Ø§Ø§Ø§Ø§Ø§Ø§Ø§
ÙħØ ´Ùĥ
ÙħØ´Ùĥ ÙĪÙĪÙĪÙĪÙĪÙĪÙĪÙĪÙĪÙĪÙĪÙĪÙĪÙĪÙĪÙĪÙĪÙĪÙĪÙĪÙĪÙĪÙĪÙĪÙĪÙĪÙĪÙĪÙĪÙĪÙĪÙĪ
ĠD ie
Ġ O
te l
Ġv oor
áĭ Ŀ
Ã «
Ġ T
i m
áī ±
áĪ İ
Ġo or
áĭ Ĭ
Ġh ier
áī ²
áĭ ļ
ĠáĬĲ áĭį
áĬĲ áīµ
Ġ ch
or e
Ġ L
aa t
s l
o d
Ġs al
ĠâĢ Ļ
in d
20 1
Ġhul le
en de
we b
Ġu it
Ġ |
Ġ le
ad a
Ġd aar
r a
Ã Ń
u en
Ø§ ÙĦ
e el
i c
web web
e d
Ġ -
ÙĬÙĬÙĬÙĬ ÙĬÙĬÙĬÙĬ
ÙħØ´ÙĥÙĪÙĪÙĪÙĪÙĪÙĪÙĪÙĪÙĪÙĪÙĪÙĪÙĪÙĪÙĪÙĪÙĪÙĪÙĪÙĪÙĪÙĪÙĪÙĪÙĪÙĪÙĪÙĪÙĪÙĪÙĪÙĪ ÙĪÙĪÙĪÙĪÙĪÙĪÙĪÙĪÙĪÙĪÙĪÙĪÙĪÙĪÙĪ
Ġ ÙĪÙĪÙĪÙĪÙĪÙĪÙĪÙĪÙĪÙĪÙĪÙĪÙĪÙĪÙĪÙĪ
Ø±Ø±Ø±Ø± Ø±Ø±
Ø±Ø±Ø±Ø±Ø±Ø±Ø±Ø± Ø±Ø±Ø±Ø±Ø±Ø±
Ø±Ø±Ø±Ø±Ø±Ø±Ø±Ø±Ø±Ø±Ø±Ø±Ø±Ø±Ø±Ø± Ø±Ø±Ø±Ø±Ø±Ø±Ø±Ø±Ø±Ø±Ø±Ø±Ø±Ø±
es t
ĠáĪ °
áĪ ©
áĪ ģ
áĭ ®
Ġ and
br u
Ġn a
ĠáĬ Ń
t o
Ð°Ð°Ð°Ð° Ð°Ð°Ð°Ð°
e p
om m
Ġ P
Ġmo et
áī ĥ
i a
y d
Ġ K
q u
Ġáĭ į
.. .
Ġáĭ¨ áī°
Ġt ot
Ġb y
ĠáĮ į
áĭ ĺ
he id
Ġo ok
ĠáĪ ĭ
Ġe k
Ã ¡
ĠáĬ £
o g
Ġp u
1 9
Ġb a
Ã ³
Ġhier die
l y
Ġw aar
Ġ y
Ġs u
Ġ =
Ġp or
áī½ áĬķ
el e
t h
Ġs p
u it
bru ik
Ġ W
Ġ V
áĬ ĳ
Ġg r
ĠN or
ch in
Ø ©
Ġde ur
áĬ ĸ
ÙĪÙĪÙĪÙĪÙĪÙĪÙĪÙĪÙĪÙĪÙĪÙĪÙĪÙĪÙĪÙĪÙĪÙĪÙĪÙĪÙĪÙĪÙĪÙĪÙĪÙĪÙĪÙĪÙĪÙĪÙĪÙĪ ÙĪÙĪÙĪÙĪÙĪÙĪÙĪÙĪÙĪÙĪÙĪÙĪÙĪÙĪÙĪÙĪÙĪÙĪÙĪÙĪÙĪÙĪÙĪÙĪÙĪÙĪÙĪÙĪÙĪÙĪÙĪÙĪ
ÙĩÙĩÙĩÙĩÙĩÙĩÙĩÙĩ ÙĩÙĩÙĩÙĩÙĩÙĩÙĩÙĩ
ÙĪÙĪÙĪÙĪ Ø±Ø±Ø±Ø±Ø±Ø±Ø±Ø±Ø±Ø±Ø±Ø±Ø±Ø±Ø±Ø±Ø±Ø±Ø±Ø±Ø±Ø±Ø±Ø±Ø±Ø±Ø±Ø±Ø±Ø±
ĠÙĪÙĪÙĪÙĪÙĪÙĪÙĪÙĪÙĪÙĪÙĪÙĪÙĪÙĪÙĪÙĪ ÙĪÙĪÙĪÙĪØ±Ø±Ø±Ø±Ø±Ø±Ø±Ø±Ø±Ø±Ø±Ø±Ø±Ø±Ø±Ø±Ø±Ø±Ø±Ø±Ø±Ø±Ø±Ø±Ø±Ø±Ø±Ø±Ø±Ø±
u is
Ġ áį
el s
e m
ĠD it
el f
o en
ĠáĪĭ áĭŃ
Ġáī µ
Ġp r
Ġge bruik
Ġw as
aa l
u k
ing s
Ġw il
ĠáĬ¥áĬķ áĭ°
i te
oe k
s te
âĢ Ŀ
áĪ ŀ
aa m
áĭį áĬķ
u ur
an t
i p
Ġba ie
i o
áĪ ½
Ġh y
er e
Ġáĭ Ŀ
áī ¢
Ġm aar
lik e
Ġáĭ °
Ġáĭ ĺ
áĭ ©
i on
áĭ ķ
Ġáī £
Ġm y
Ġwe es
u g
k en
áĪ ķ
Ġp l
ĠáĮ ¥
oe d
er o
0 0
Ġ qu
D ie
Ġge s
ĠS u
Ġáĭ ĵ
Ù Ĩ
w er
Ġa f
ĠI sl
Ġ Ø§ÙĦ
áĬķ áĭµ
áī »
áī ¡
Ã³ n
y o
Ġn om
Ø Ń
Ġqu e
on d
ÃŃ a
Ø µ
mb re
ĠNor te
uen g
ore ya
Ġáĭ µ
áĬ Ŀ
oo t
Ġ R
áĪ Ĭ
a te
ĠâĢ ľ
ĠáĪ ²
áį ĭ
áĪ ±
an n
w y
Ġge v
áĮ ½
áĮ ħ
áĪ ¬
ĠáĬ ¢
áĪĪ áĭį
Ġ "
oor d
áĭ ±
ie se
Ġw erk
áīł áīµ
áĭ Ľ
b a
áĭ ĵ
Ġp ro
Ġm eer
áį ¤
Ġ F
i de
b re
ar t
Ġe en
Ġáīł áĪĺ
2 5
áĪµ áī°
ĠáĮ Ī
Ġáī Ģ
oo p
Ġand er
áĪ Į
ge s
áĪ Ļ
k er
Ġt o
r ik
áĬ Ĵ
ĠáĬ ķ
Ġm aak
m e
ĠáĪ į
Ġv ol
ie t
o v
áĭ ľ
áī¶ áī½
ĠA s
áĭļ áĪħ
áĪ ²
áĬ ¢
áĮĪ áĪŃ
el ik
áīµ áĭ®
ĠáĪ ģ
b l
Ġf e
webweb webweb
Ġt he
Ġn et
ĠáĬ «
Ġh oe
d at
Ġon t
Ġt oe
Ġg aan
áīł áĪŃ
s p
u m
áĬ Ķ
20 2
a c
áĪ »
ie f
Ġso os
áĮ Ģ
Ġge w
Ġm ar
Ġt yd
áĭ« áĬķ
ĠáĬ¥áĬķ áĭ²
áĮ µ
o de
in k
áīµ áĬķ
ĠI n
on t
áĬķ áĮį
áīµáĭ® áĮµ
áĮ ī
a u
en d
s ie
áĪ ĥ
mb er
Ġbe g
áĪµ áīµ
áĪµ áĮ¥
n e
Ð°Ð°Ð°Ð°Ð°Ð°Ð°Ð° Ð°Ð°Ð°Ð°Ð°Ð°Ð°Ð°
Ġs on
Ġv r
Ġáĭ¨ áĪĺ
a z
Ġre g
áĬ ©
b e
Ġb el
or m
áį Ĭ
ĠáĬ ĵ
el d
r ag
i f
Ġk om
en se
âĢ Ļ
áīµáĭ®áĮµ áĭ«
at er
áĪĪ áĪĿ
ch a
áĪª áĭ«
Ġáĭį áĪµáĮ¥
re y
v er
áī ģ
Ġd r
a b
Ġm an
y n
Ġt er
Ø ³
áĭĭ áĪį
or a
re k
we e
Ġáĭ¨ áĬł
Ġp ers
Ø ¯
Ø ¹
Ù ģ
a chin
Ġa g
áĪĨ áĬķ
aa s
Ġge d
Ġal l
ĠH y
Ġ _
an k
áĬ ®
{ {
Ġon der
ĠSu d
ĠáĮ ĭ
ĠáĪĪ áĪĺ
Ġver sk
áĮ ĥ
áĪŃ áīµ
áī ¦
y k
Ù Ĥ
Ġ ÙĪ
... '
Ã¡ s
o el
i Ã³n
ÙĦ Ø
ĠIsl a
ĠØ Ń
Ġbeg in
im ien
Ġch un
est os
Ġm Ã¡s
Ġnom bre
Ġ' {{
Ġfe br
achin a
ie mbre
ĠØŃ ÙĦ
Ġc rey
P achina
ÙĪÙĪÙĪÙĪÙĪÙĪÙĪÙĪÙĪÙĪÙĪÙĪÙĪÙĪÙĪÙĪÙĪÙĪÙĪÙĪÙĪÙĪÙĪÙĪÙĪÙĪÙĪÙĪÙĪÙĪÙĪÙĪÙĪÙĪÙĪÙĪÙĪÙĪÙĪÙĪÙĪÙĪÙĪÙĪÙĪÙĪÙĪÙĪ ÙĪÙĪÙĪÙĪÙĪÙĪÙĪÙĪÙĪÙĪÙĪÙĪ
ÙĪÙĪÙĪÙĪÙĪÙĪÙĪÙĪÙĪÙĪÙĪÙĪÙĪÙĪÙĪÙĪÙĪÙĪÙĪÙĪÙĪÙĪÙĪÙĪÙĪÙĪÙĪÙĪÙĪÙĪÙĪÙĪÙĪÙĪÙĪÙĪÙĪÙĪÙĪÙĪÙĪÙĪÙĪÙĪÙĪÙĪÙĪÙĪ ÙĪÙĪÙĪÙĪÙĪÙĪÙĪÙĪÙĪÙĪÙĪÙĪÙĪÙĪÙĪ
Ġl ueng
ĠC oreya
Ø§Ø§Ø§Ø§Ø§Ø§Ø§Ø§Ø§Ø§Ø§Ø§Ø§Ø§Ø§Ø§ Ø§Ø§Ø§Ø§Ø§Ø§Ø§Ø§Ø§Ø§Ø§Ø§Ø§Ø§Ø§Ø§
ÙĬÙĬÙĬÙĬÙĬÙĬÙĬÙĬ ÙĬÙĬÙĬÙĬÙĬÙĬÙĬÙĬ
Ġpu estos
Ġsu ya
Ġfebr ero
Ġcrey ada
ĠG od
áī Ĩ
Ġg en
Ġáīł áĬł
and er
as ie
is t
áĮ «
Ġáī ¤
Ġk ind
Ġd oen
áĪ ľ
ak el
áĮ İ
Ġáīł áī°
i v
k om
u t
Ġh aar
ĠáĭĪ áĭ°
Ġgr oot
al le
Ġge l
a re
ĠáĪĪ áĪĽ
ĠáĪ ħ
áĮ ¨
áĪĪ áīµ
ĠáĬł áĭŃ
ou d
m p
áĮ Ń
ann eer
áĬ ¤
Ġáī ħ
Ġh and
ge l
áĪŃ áĪµ
ĠáĪ Ĭ
áī ¤
áĭ ¶
ĠáĮ ī
j ie
Ġm e
Ã ©
Ĭ áĭľ
Ġk l
Ġh om
m er
Ġb l
áī ĭ
oe g
ĠE k
Ġs elf
n a
Ġ áį£
ĠE n
Ġm ense
Ġn e
m aak
ĠáĪ ķ
a y
áĪĨ áĬĲ
an de
áĪĨ áĬĳ
ie d
ĠáĮį áĬķ
Ġáī ³
sk ap
n s
áĪ ¥
4 9
Ġb o
ĠáĬł áĬķ
Ġte le
a f
w oord
omm er
Ġl and
áĭ° áĪŃ
t ing
áī Ĥ
ĠáĪµ áĪĪ
áĭ Ļ
Ġpers oon
Ġ [
áī³ áīµ
áĮ ¡
e mber
ĠS ep
aa g
ĠáĬ£ áī¥
oo d
áĪ¨ áīµ
ry f
ĠáĭŃ áĪħ
Ġk le
Ġ áįį
áī° áĬĽ
R ep
áīł áĪ¨
Ġ el
f oon
áĭ° áĪ¨
áĪ« áīµ
s el
ĠáĪ ³
m o
áĭ ´
un d
ie k
Ġb et
ĠáĮĭ áĪŃ
ĠáĪ Ĩ
Ġd an
te ken
l a
in ge
p r
áĬķ áĪĿ
áī ¹
ĠáĭĪ áĭŃ
o f
Ġtele foon
áĪ ¸
ĠáĮ Ĭáĭľ
o c
s elf
1 0
Ġm a
on s
r ad
g or
Ġk ode
a le
Ġo u
áī¸áĭį áĬķ
Ġb er
202 2
t r
Ġu n
Ġh ou
Ġ U
od ig
áĮ ¸
ers te
â ĸ
le k
it u
ĠáĬł áĪµ
p e
Ġb r
p l
ĠâĢ ĺ
ĠáĬ¥ áĭ¨
Ġs l
i z
f rik
on der
es s
ar y
Ġáīł áĪĽ
áĬ £
áĪĭ áĪį
Ġáĭ¨ áĪĽ
t ig
ar i
Ġa re
y s
Ġn o
Ġs ien
Ġpr es
Ġáĭ¨áĪļ áĭ«
o er
Ġsk akel
Ġle we
áĪĭ áĭŃ
Ġk on
ĠáĮ ł
Ãª r
âĸ º
or t
ul le
Ġn u
áī ´
Ġge b
áĪ Ķ
áĮ »
Ġ /
áĪĿ áĬķ
g r
Ġbe h
e f
Ġs Ãª
Ġm ater
Ġge h
Ġw anneer
Ġm in
áĪ Ĳ
i an
k s
eel d
ate gor
áĭµ áĪŃ
en e
w erk
ĠáĪ ĥ
b er
ĠáĪĺ áĬķ
en te
Ġk ry
_ _
ĠáĪ ļ
ar a
ĠáĪ ¥
ĠáĬł áĪĪ
i Ã«
19 7
Ġp a
Ġ áįĪ
) .
v an
Ġn og
Ġt h
Ġt wee
áĪ¨ áĮĥ
t yd
áĪ Ħ
webwebwebweb webwebwebweb
s tel
Ġge le
e c
Ġj aar
áĪ ´
Ġge sk
Ġp art
áĪ ĵ
ĠJ y
Ġver k
Ġáī ¢
áĮ Ĥ
Ġver h
oo g
Ġb in
áĬ ¦
d el
ĠD aar
l ig
áĪ« áĭĬ
e g
ĠC h
áĪİ áī½
Ġl aat
Ġ[ [
Ġs ent
Ġbe v
Ġs i
Ġtelefoon n
Ġb id
aa i
áĪ ¶
Ġbel ang
ĠáĬ¨ áī°
oo f
Ġpro b
an s
Ġge e
ĠâĢ ĵ
Ġwe et
Ġ +
u a
Ġs ie
áĭµ áĪ¨
Ġl ig
Ġver b
Ġe g
or i
ar r
n ot
áĮĪ áĪį
Ġpl aas
o x
áį ī
áĬ¢ áīµáĭ®áĮµáĭ«
i bl
os a
Ãªr eld
Ġh el
t in
Ġw eer
Ġáĭ ķ
Ġn ou
ĠáĬ ¤
Ġg oed
Ġy e
oo i
Ġbes k
Ġal le
áĪĪ áĬķ
Ġv l
Ġt ro
Ġáĭ ĭ
áĬ ª
es e
es te
1 1
aar d
mb ol
Ð°Ð°Ð°Ð°Ð°Ð°Ð°Ð°Ð°Ð°Ð°Ð°Ð°Ð°Ð°Ð° Ð°Ð°Ð°Ð°Ð°Ð°Ð°Ð°Ð°Ð°Ð°Ð°Ð°Ð°Ð°Ð°
Ġel ke
u id
t u
Ġvol g
es us
áĪ° áī¥
Ġa r
it ic
áĬ ŀ
i ol
Ġh uis
il l
Ġa v
áĮĪ áī£
f ens
wy s
áĪ® áī½
ĠS ou
ĠáĭĪáĭŃ áĪĿ
p er
i us
1 2
ĠO m
c a
ĠáĪģ áĪī
o w
áĬķ áĭ«
Ġm or
Ġp aar
c at
Ø§ Ø±
ĠáĬ ®
ang ua
d ien
Ñ ħ
Ġh Ãª
m al
Ø ¨
Ã« l
ĠáĪĺ áĪµ
ĠáĬ¥ áĪµ
ĠáĬł áĪį
Rep ly
Ġs aam
oo k
Ġte en
Ġáīł áĪļ
F i
c om
v alle
iet s
Ġ es
ĠH ier
oe ie
ĠáĪ ĵ
ĠSou th
Ã º
l v
25 0
Ġd os
ĠáĮī áĭ³
es c
áĭ² áĪµ
Ġin te
ĠáĬĲ áīłáĪŃ
io te
ide os
te s
us s
Ġmo b
ibl iote
C omm
Ø ª
en o
Ġs te
us t
d r
Ã© n
} }
est i
ĠJ esus
Ġch il
Ġ Ùģ
Ãª re
áī¥ áĪŃ
Ġeg ter
Ġp oc
mer ic
ĠK ore
Ġáĭ¨ áĪĿ
Ñħ Ñħ
Ġs et
ur a
áĬĵ áĪį
áĬ ĺ
Ã¡ n
Ġc al
Ġcon tin
ĠC ategor
áī± áĬķ
Ġver s
áĭİáī½ áĬķ
c au
áĪĭ áīµ
ĠNor th
ĠL uis
z ia
197 7
B os
ĠM aar
Ġd ÃŃ
ĠØ ³
ĠIsl and
angua ges
u br
z o
ĠáĪ Ģ
áį ĸ
ap a
Ġm ak
áĮ Ĭ
Ġo s
áĮį áī£
Ġa br
Ġwe g
Ġn ov
p x
ÙĪ Ø±
Ġ ~
ad is
i u
Ġpres ent
ĠB ibliote
ĠØ ¨
t os
19 49
se c
Ġáī£ áĪĪ
Ġp ul
Ġen c
ed a
áĪ ł
b aar
Ø§ Ø
am os
ÃŃ s
Ø £
Ġ ÙĬ
áĪĿ áĪħ
S itu
ĠáĬĲ áĮĪáĪŃ
ÙĬ ÙĨ
ĠØ§ÙĦ ÙĦ
Ġ Ø±
Ġ Ùĥ
ch ul
ĠKore a
ch it
az ar
v oor
os to
ĠØ§ÙĦÙĦ Ùĩ
at uur
ac iÃ³n
ÙĦØ º
Ø§ Ø¯
ĠØ µ
L anguages
qu ia
Ø§Ø ¡
Ø «
ĠáĬ¥áĬķ áĭ³
ÙĨ ÙĬ
und o
Ġ ÙĨ
ent ura
ÙĬ Ø±
Ġas c
Ġ esti
ĠÙģ ÙĬ
A rag
mp re
uen a
ĠØ§ÙĦ ÙħØ
ÙĬ Ø¯
rad ig
arr ada
Ġf ora
ĠØ§ÙĦ Ø£
Ø¨ Ø§Ø±
uit ar
Ø³ ÙĦ
Ġber as
20 0
Ġcon sec
ul io
Ġb ander
Ùĥ Ùħ
Comm ons
Ø§ ÙĤ
ien to
ĠØ ²
imien tos
Ġa meric
ÙĦ Ø©
imien to
Ġma yo
iz ip
Øª Øµ
ÙħØ ¯
Ùĩ ÙĪ
Ø¹ ÙĬ
´ ÙĬ
c ada
Ġbander a
Ġb els
Ø§ÙĦ Øµ
Ġchil eno
ÙħØ Ń
Ø§ÙĦ ÙĤ
ÙĬØ¯ Ø©
ØŃ Ø³
Ø¹ Ùĩ
Ġd ÃŃa
ĠØµ ØŃ
Ġm undo
ØŃ ÙĦ
¹ Ø§Ø¯
ĠD ende
Ġsie mpre
esc ubr
Ø± ÙĬÙĨ
Ġb uena
Ġpa ÃŃs
ÙħØŃ ÙħØ¯
ĠBibliote ca
ÙĨÙĬ Ùģ
ĠÙģÙĬ ÙĥÙħ
Ġis la
Ġnom adis
Ġag osto
ĠÙĪ Ø§ÙĤ
Ġmater na
fens a
Ġpoc o
ĠÙĥ Ø«
Ø§ÙĦÙĤ Øµ
escubr ir
C oreya
O valle
Ġ ÙĪÙĪÙĪÙĪÙĪÙĪÙĪÙĪÙĪÙĪÙĪÙĪÙĪÙĪÙĪÙĪÙĪÙĪÙĪÙĪÙĪÙĪÙĪÙĪÙĪÙĪÙĪÙĪÙĪÙĪÙĪÙĪ
ÙĪÙĪ Ø±
ÙĪÙĪÙĪÙĪÙĪÙĪÙĪÙĪÙĪÙĪÙĪÙĪÙĪÙĪÙĪÙĪÙĪÙĪÙĪÙĪÙĪÙĪÙĪÙĪÙĪÙĪÙĪÙĪÙĪÙĪÙĪÙĪ ÙĪÙĪÙĪÙĪÙĪÙĪÙĪÙĪÙĪÙĪÙĪÙĪÙĪÙĪÙĪÙĪÙĪÙĪÙĪÙĪÙĪÙĪÙĪÙĪÙĪÙĪÙĪÙĪÙĪÙĪÙĪÙĪÙĪÙĪÙĪÙĪÙĪÙĪÙĪÙĪÙĪÙĪÙĪÙĪÙĪÙĪÙĪÙĪ
ÙĪÙĪÙĪÙĪÙĪÙĪÙĪÙĪÙĪÙĪÙĪÙĪÙĪÙĪÙĪÙĪÙĪÙĪÙĪÙĪÙĪÙĪÙĪÙĪÙĪÙĪÙĪÙĪÙĪÙĪÙĪÙĪ ÙĪÙĪØ±
Ø§ ÙĪÙĪÙĪÙĪÙĪÙĪÙĪÙĪÙĪÙĪÙĪÙĪÙĪÙĪÙĪ
Ġm apa
Ġb ideos
Ġen cha
Ġen radig
Ġin not
Ġg ari
Ġe mbre
id Ã¡
Ø§Ø§Ø§Ø§Ø§Ø§Ø§Ø§ Ø§ÙĪÙĪÙĪÙĪÙĪÙĪÙĪÙĪÙĪÙĪÙĪÙĪÙĪÙĪÙĪ
Ùĥ ÙĦØ
ÙĩÙĩÙĩÙĩÙĩÙĩÙĩÙĩ ÙĩÙĩÙĩÙĩ
ÙĪÙĪÙĪ Ø©
ÙĪÙĪÙĪ Ø§Ø§Ø§Ø§Ø§Ø§Ø§Ø§Ø§Ø§Ø§Ø§Ø§Ø§Ø§Ø§Ø§Ø§Ø§Ø§Ø§Ø§Ø§Ø§Ø§Ø§Ø§Ø§Ø§Ø§Ø§Ø§
Ġcon ox
Ø§Ø§Ø§Ø§Ø§Ø§Ø§Ø§Ø§Ø§Ø§Ø§Ø§Ø§Ø§Ø§ Ø§Ø§Ø§Ø§Ø§Ø§Ø§Ø§Ø§ÙĪÙĪÙĪÙĪÙĪÙĪÙĪÙĪÙĪÙĪÙĪÙĪÙĪÙĪÙĪ
ÙħØ´ÙĥÙĪÙĪÙĪÙĪÙĪÙĪÙĪÙĪÙĪÙĪÙĪÙĪÙĪÙĪÙĪÙĪÙĪÙĪÙĪÙĪÙĪÙĪÙĪÙĪÙĪÙĪÙĪÙĪÙĪÙĪÙĪÙĪ ÙĪÙĪÙĪÙĪÙĪÙĪÙĪÙĪÙĪÙĪÙĪÙĪÙĪÙĪÙĪÙĪÙĪÙĪÙĪÙĪÙĪÙĪÙĪÙĪÙĪÙĪÙĪÙĪÙĪÙĪÙĪÙĪÙĪÙĪÙĪÙĪÙĪÙĪÙĪÙĪÙĪÙĪÙĪÙĪÙĪÙĪÙĪÙĪÙĪÙĪÙĪÙĪÙĪÙĪÙĪÙĪÙĪÙĪÙĪÙĪ
Ġch arrada
Ġch ulio
ĠL ueng
uen zia
Ġ- ...'
ÙĬÙĬÙĬÙĬÙĬÙĬÙĬÙĬ ÙĬØ±
ĠÙĪÙĪÙĪÙĪÙĪÙĪÙĪÙĪÙĪÙĪÙĪÙĪÙĪÙĪÙĪÙĪ ÙĪÙĪÙĪØ§Ø§Ø§Ø§Ø§Ø§Ø§Ø§Ø§Ø§Ø§Ø§Ø§Ø§Ø§Ø§Ø§Ø§Ø§Ø§Ø§Ø§Ø§Ø§Ø§Ø§Ø§Ø§Ø§Ø§Ø§Ø§
Ġpu et
Ġpu ya
Ġsu yo
chin al
chin ero
ÙĪÙĪÙĪÙĪÙĪÙĪÙĪÙĪÙĪÙĪÙĪÙĪÙĪÙĪÙĪÙĪÙĪÙĪÙĪÙĪÙĪÙĪÙĪÙĪÙĪÙĪÙĪÙĪÙĪÙĪÙĪÙĪÙĪÙĪÙĪÙĪÙĪÙĪÙĪÙĪÙĪÙĪÙĪÙĪÙĪÙĪÙĪÙĪÙĪÙĪÙĪÙĪÙĪÙĪÙĪÙĪÙĪÙĪÙĪÙĪÙĪÙĪÙĪÙĪ ÙĪÙĪÙĪÙĪÙĪÙĪÙĪÙĪÙĪÙĪÙĪÙĪÙĪÙĪÙĪÙĪÙĪÙĪÙĪÙĪÙĪÙĪÙĪÙĪÙĪÙĪÙĪÙĪÙĪÙĪÙĪÙĪÙĪÙĪÙĪÙĪÙĪÙĪÙĪÙĪÙĪÙĪÙĪÙĪÙĪÙĪÙĪÙĪÙĪÙĪÙĪÙĪÙĪÙĪÙĪÙĪÙĪÙĪÙĪÙĪÙĪÙĪÙĪ
ÙĪÙĪÙĪÙĪÙĪÙĪÙĪÙĪÙĪÙĪÙĪÙĪÙĪÙĪÙĪÙĪÙĪÙĪÙĪÙĪÙĪÙĪÙĪÙĪÙĪÙĪÙĪÙĪÙĪÙĪÙĪÙĪÙĪÙĪÙĪÙĪÙĪÙĪÙĪÙĪÙĪÙĪÙĪÙĪÙĪÙĪÙĪÙĪÙĪÙĪÙĪÙĪÙĪÙĪÙĪÙĪÙĪÙĪÙĪÙĪÙĪÙĪÙĪÙĪ ÙĪÙĪÙĪÙĪÙĪÙĪÙĪÙĪÙĪÙĪÙĪÙĪÙĪÙĪÙĪÙĪÙĪÙĪÙĪÙĪÙĪÙĪÙĪÙĪÙĪÙĪÙĪÙĪÙĪÙĪÙĪÙĪÙĪÙĪØ±
ÙĪÙĪÙĪÙĪÙĪÙĪÙĪÙĪÙĪÙĪÙĪÙĪÙĪÙĪÙĪÙĪÙĪÙĪÙĪÙĪÙĪÙĪÙĪÙĪÙĪÙĪÙĪÙĪÙĪÙĪÙĪÙĪÙĪÙĪÙĪÙĪÙĪÙĪÙĪÙĪÙĪÙĪÙĪÙĪÙĪÙĪÙĪÙĪÙĪÙĪÙĪÙĪÙĪÙĪÙĪÙĪÙĪÙĪÙĪÙĪÙĪÙĪÙĪÙĪ ÙĪÙĪÙĪØ©
ÙĩÙĩÙĩÙĩÙĩÙĩÙĩÙĩÙĩÙĩÙĩÙĩÙĩÙĩÙĩÙĩ ÙĩÙĩÙĩÙĩÙĩÙĩÙĩÙĩÙĩÙĩÙĩÙĩÙĩÙĩÙĩÙĩ
Ġmar zo
Ġmar cada
Ġson iu
az iÃ³n
ab entura
Ġall ora
ĠÙĪ Ø¨Ø§Ø±
Ġchun io
Ġchun yo
ĠØŃÙĦ ÙĪÙĪÙĪÙĪÙĪÙĪÙĪÙĪÙĪÙĪÙĪÙĪÙĪÙĪÙĪÙĪÙĪÙĪÙĪÙĪÙĪÙĪÙĪÙĪÙĪÙĪÙĪÙĪÙĪÙĪÙĪÙĪÙĪÙĪÙĪÙĪÙĪÙĪÙĪÙĪÙĪÙĪÙĪÙĪÙĪÙĪÙĪÙĪÙĪÙĪÙĪÙĪÙĪÙĪÙĪÙĪÙĪÙĪÙĪÙĪ
ĠØŃÙĦ ÙĪÙĪÙĪÙĪÙĪÙĪÙĪÙĪÙĪÙĪÙĪÙĪÙĪÙĪÙĪÙĪÙĪÙĪÙĪÙĪÙĪÙĪÙĪÙĪÙĪÙĪÙĪÙĪÙĪÙĪÙĪÙĪÙĪÙĪÙĪÙĪÙĪÙĪÙĪÙĪÙĪÙĪÙĪÙĪÙĪÙĪÙĪÙĪÙĪÙĪÙĪÙĪÙĪÙĪÙĪÙĪÙĪÙĪÙĪÙĪÙĪÙĪÙĪÙĪÙĪÙĪÙĪØ©
Ġlueng a
Ġlueng as
ÙĬÙĬÙĬÙĬÙĬÙĬÙĬÙĬÙĬÙĬÙĬÙĬÙĬÙĬÙĬÙĬ ÙĬÙĬÙĬÙĬÙĬÙĬÙĬÙĬÙĬØ±
Ġbo z
ĠSep Ãº
Ġpart izip
Ġsent imiento
Ġbid a
ori chinal
Ġtro ba
mbol ÃŃa
itic os
Ġav iento
Fi cha
Ġes fensa
lv eda
Ġmob imientos
Ġset iembre
Ġcal idÃ¡
Ġcontin Ã©n
ĠCategor ÃŃa
ĠdÃŃ ya
Ġabr il
Ġnov iembre
Ġpresent amos
Ġpul iticos
Ġenc ara
ĠÙĬ Ø³ÙĦ
Situ aciÃ³n
ĠØ± ÙĪÙĪÙĪÙĪÙĪÙĪÙĪÙĪÙĪÙĪÙĪÙĪÙĪÙĪÙĪÙĪÙĪÙĪÙĪÙĪÙĪÙĪÙĪÙĪÙĪÙĪÙĪÙĪÙĪÙĪÙĪÙĪÙĪÙĪÙĪÙĪÙĪÙĪÙĪÙĪÙĪÙĪÙĪÙĪÙĪÙĪÙĪÙĪÙĪÙĪÙĪÙĪÙĪÙĪÙĪÙĪÙĪÙĪÙĪÙĪÙĪÙĪÙĪÙĪÙĪÙĪÙĪÙĪÙĪÙĪÙĪÙĪÙĪÙĪÙĪÙĪÙĪÙĪÙĪÙĪÙĪÙĪÙĪÙĪÙĪÙĪÙĪÙĪÙĪÙĪÙĪÙĪÙĪÙĪÙĪÙĪÙĪÙĪÙĪÙĪÙĪÙĪÙĪÙĪÙĪÙĪÙĪÙĪÙĪÙĪÙĪÙĪÙĪÙĪÙĪÙĪÙĪÙĪÙĪÙĪÙĪÙĪÙĪÙĪÙĪÙĪÙĪ
chul iol
chit ada
azar osa
ĠÙĨ ÙĪÙĪÙĪÙĪÙĪÙĪÙĪÙĪÙĪÙĪÙĪÙĪÙĪÙĪÙĪÙĪÙĪÙĪÙĪÙĪÙĪÙĪÙĪÙĪÙĪÙĪÙĪÙĪÙĪÙĪÙĪÙĪÙĪÙĪÙĪÙĪÙĪÙĪÙĪÙĪÙĪÙĪÙĪÙĪÙĪÙĪÙĪÙĪÙĪÙĪÙĪÙĪÙĪÙĪÙĪÙĪÙĪÙĪÙĪÙĪÙĪÙĪÙĪÙĪÙĪÙĪÙĪÙĪÙĪÙĪÙĪÙĪÙĪÙĪÙĪÙĪÙĪÙĪÙĪÙĪÙĪÙĪÙĪÙĪÙĪÙĪÙĪÙĪÙĪÙĪÙĪÙĪÙĪÙĪÙĪÙĪÙĪÙĪØ±
Ġasc uitar
Ġesti Ã³
Arag Ã³n
ĠØ§ÙĦÙħØ ¹Ø§Ø¯
Ġfora chitada
ĠØ§ÙĦØ£ ØŃØ³
Ġconsec uenzia
Commons cat
ĠØ² ÙĪÙĪÙĪÙĪÙĪÙĪÙĪÙĪÙĪÙĪÙĪÙĪÙĪÙĪÙĪÙĪÙĪÙĪÙĪÙĪÙĪÙĪÙĪÙĪÙĪÙĪÙĪÙĪÙĪÙĪÙĪÙĪÙĪÙĪÙĪÙĪÙĪÙĪÙĪÙĪÙĪÙĪÙĪÙĪÙĪÙĪÙĪÙĪÙĪÙĪÙĪÙĪÙĪÙĪÙĪÙĪÙĪÙĪÙĪÙĪÙĪÙĪÙĪ
Ġameric Ã¡n
ØªØµ ÙĨÙĬÙģ
Ø§ÙĦØµ ÙĪØ±
ĠØµØŃ Ø©
Ġnomadis mo
ĠÙĪØ§ÙĤ Ø¹ÙĬ
ĠÙĥØ« ÙĬÙĬÙĬÙĬÙĬÙĬÙĬÙĬÙĬÙĬÙĬÙĬÙĬÙĬÙĬÙĬÙĬÙĬÙĬÙĬÙĬÙĬÙĬÙĬÙĬØ±
Ø§ÙĦÙĤØµ ÙĬØ¯Ø©
ĠÙĪÙĪÙĪÙĪÙĪÙĪÙĪÙĪÙĪÙĪÙĪÙĪÙĪÙĪÙĪÙĪÙĪÙĪÙĪÙĪÙĪÙĪÙĪÙĪÙĪÙĪÙĪÙĪÙĪÙĪÙĪÙĪ Ø±ÙĬÙĨ
ÙĪÙĪÙĪÙĪÙĪÙĪÙĪÙĪÙĪÙĪÙĪÙĪÙĪÙĪÙĪÙĪÙĪÙĪÙĪÙĪÙĪÙĪÙĪÙĪÙĪÙĪÙĪÙĪÙĪÙĪÙĪÙĪÙĪÙĪÙĪÙĪÙĪÙĪÙĪÙĪÙĪÙĪÙĪÙĪÙĪÙĪÙĪÙĪÙĪÙĪÙĪÙĪÙĪÙĪÙĪÙĪÙĪÙĪÙĪÙĪÙĪÙĪÙĪÙĪÙĪÙĪÙĪÙĪÙĪÙĪÙĪÙĪÙĪÙĪÙĪÙĪÙĪÙĪÙĪÙĪ ÙĪÙĪÙĪÙĪÙĪÙĪÙĪÙĪ
Ġencha quia
Ġenradig au
Ġinnot os
Ġgari mbolÃŃa
Ġembre cau
ÙĥÙĦØ ´ÙĬ
Ġconox ius
ÙħØ´ÙĥÙĪÙĪÙĪÙĪÙĪÙĪÙĪÙĪÙĪÙĪÙĪÙĪÙĪÙĪÙĪÙĪÙĪÙĪÙĪÙĪÙĪÙĪÙĪÙĪÙĪÙĪÙĪÙĪÙĪÙĪÙĪÙĪÙĪÙĪÙĪÙĪÙĪÙĪÙĪÙĪÙĪÙĪÙĪÙĪÙĪÙĪÙĪÙĪÙĪÙĪÙĪÙĪÙĪÙĪÙĪÙĪÙĪÙĪÙĪÙĪÙĪÙĪÙĪÙĪÙĪÙĪÙĪÙĪÙĪÙĪÙĪÙĪÙĪÙĪÙĪÙĪÙĪÙĪÙĪÙĪÙĪÙĪÙĪÙĪÙĪÙĪÙĪÙĪÙĪÙĪÙĪÙĪ Ø±Ø±Ø±Ø±Ø±Ø±Ø±Ø±Ø±Ø±Ø±Ø±Ø±Ø±Ø±Ø±Ø±Ø±Ø±Ø±Ø±Ø±Ø±Ø±Ø±Ø±Ø±Ø±Ø±Ø±
ĠLueng as
ĠÙĪÙĪÙĪÙĪÙĪÙĪÙĪÙĪÙĪÙĪÙĪÙĪÙĪÙĪÙĪÙĪÙĪÙĪÙĪØ§Ø§Ø§Ø§Ø§Ø§Ø§Ø§Ø§Ø§Ø§Ø§Ø§Ø§Ø§Ø§Ø§Ø§Ø§Ø§Ø§Ø§Ø§Ø§Ø§Ø§Ø§Ø§Ø§Ø§Ø§Ø§ Ø§Ø§Ø§Ø§Ø§Ø§Ø§Ø§Ø§Ø§Ø§Ø§Ø§Ø§Ø§Ø§Ø§Ø§Ø§Ø§Ø§Ø§Ø§Ø§Ø§ÙĪÙĪÙĪÙĪÙĪÙĪÙĪÙĪÙĪÙĪÙĪÙĪÙĪÙĪÙĪ
ÙĩÙĩÙĩÙĩÙĩÙĩÙĩÙĩÙĩÙĩÙĩÙĩÙĩÙĩÙĩÙĩÙĩÙĩÙĩÙĩÙĩÙĩÙĩÙĩÙĩÙĩÙĩÙĩÙĩÙĩÙĩÙĩ ÙĩÙĩÙĩÙĩÙĩÙĩÙĩÙĩÙĩÙĩÙĩÙĩ
ĠÙĪØ¨Ø§Ø± Ùĥ
ĠØŃÙĦÙĪÙĪÙĪÙĪÙĪÙĪÙĪÙĪÙĪÙĪÙĪÙĪÙĪÙĪÙĪÙĪÙĪÙĪÙĪÙĪÙĪÙĪÙĪÙĪÙĪÙĪÙĪÙĪÙĪÙĪÙĪÙĪÙĪÙĪÙĪÙĪÙĪÙĪÙĪÙĪÙĪÙĪÙĪÙĪÙĪÙĪÙĪÙĪÙĪÙĪÙĪÙĪÙĪÙĪÙĪÙĪÙĪÙĪÙĪÙĪ ÙĪ
ĠSepÃº lveda
Ġpartizip aziÃ³n
ĠÙĬØ³ÙĦ ÙĪÙĪÙĪÙĪÙĪÙĪÙĪÙĪÙĪÙĪÙĪÙĪÙĪÙĪÙĪÙĪÙĪÙĪÙĪÙĪÙĪÙĪÙĪÙĪÙĪÙĪÙĪÙĪÙĪÙĪÙĪÙĪÙĪÙĪÙĪÙĪÙĪÙĪÙĪÙĪÙĪÙĪÙĪÙĪÙĪÙĪÙĪÙĪÙĪÙĪÙĪÙĪÙĪÙĪÙĪÙĪÙĪÙĪÙĪÙĪÙĪÙĪÙĪÙĪÙĪÙĪÙĪÙĪÙĪÙĪÙĪÙĪÙĪÙĪÙĪÙĪÙĪÙĪÙĪÙĪÙĪÙĪÙĪÙĪÙĪÙĪÙĪÙĪ
ĠØ±ÙĪÙĪÙĪÙĪÙĪÙĪÙĪÙĪÙĪÙĪÙĪÙĪÙĪÙĪÙĪÙĪÙĪÙĪÙĪÙĪÙĪÙĪÙĪÙĪÙĪÙĪÙĪÙĪÙĪÙĪÙĪÙĪÙĪÙĪÙĪÙĪÙĪÙĪÙĪÙĪÙĪÙĪÙĪÙĪÙĪÙĪÙĪÙĪÙĪÙĪÙĪÙĪÙĪÙĪÙĪÙĪÙĪÙĪÙĪÙĪÙĪÙĪÙĪÙĪÙĪÙĪÙĪÙĪÙĪÙĪÙĪÙĪÙĪÙĪÙĪÙĪÙĪÙĪÙĪÙĪÙĪÙĪÙĪÙĪÙĪÙĪÙĪÙĪÙĪÙĪÙĪÙĪÙĪÙĪÙĪÙĪÙĪÙĪÙĪÙĪÙĪÙĪÙĪÙĪÙĪÙĪÙĪÙĪÙĪÙĪÙĪÙĪÙĪÙĪÙĪÙĪÙĪÙĪÙĪÙĪÙĪÙĪÙĪÙĪÙĪÙĪÙĪ Ø¹Ùĩ
ĠØ§ÙĦÙħØ¹Ø§Ø¯ ÙĦØ©
ĠØ§ÙĦØ£ØŃØ³ Ø§Ø¡
Ġver l
aa d
Ġ er
he de
áĪĺ áĬķ
I n
at ion
v l
áĪª áĬ«
1 5
áĬ Ļ
Ġare a
A frik
Ġáĭ¨ áĬ¥
áĮį áĪ«
áĭ³ áĬķ
Ġe erste
ite it
ĠáĬ¢ áīµáĭ®áĮµáĭ«
Ġkind ers
ge w
áĪ Ģ
áī³ áĪį
Ġáī ģ
áĪģ áĬķ
s ies
ĠáĬł áĬķáĭµ
v ang
Ġa t
áį ķ
j ies
Ġn aam
Ġkle in
Ġg oeie
Ġb u
Ġw Ãªreld
in n
Ġáĭĵ áĪĺ
Ġnu we
le g
Ġhand el
Ġt r
A s
ol g
ĠáĪĺ áĪį
on e
Ġáĭ« áĪĪ
ĠáĬ¨ áĪĿ
ĠS y
ĠO ns
Ġ áį¡áį¡
ĠSu id
ie we
d ag
Ġbelang rik
Ġg l
ĠáĪĺ áĬķáĮį
a e
ĠáĬ¥áĬķáĭ° áĪļ
Ġg er
áīµ áĬĵ
áĭ ī
áĪĺ áĪŃ
Ġm ens
w el
Ġge k
ĠáĪĿ áĬŃ
áĭĿ áī¥
as s
oo l
e es
ĠM ar
b eeld
áī¥ áĪĶ
ĠáĬł áĬ«
ĠáĪ Į
and el
áī ¨
Ġtelefoonn ommer
áį ĥ
áįĪ áĪį
e u
áį ħ
Ġhel p
ĠáĬł áĪµáī°
áĬ¨ áĪį
âĢ ¦
áĮį áĭļ
Ġs ter
sl uit
áĬķ áĪµ
áį İ
áĪĺ áĪĪ
ig heid
Ġáīł áĬ¥
Ġn odig
re ek
ter n
Ġne em
ed s
áĪĽ áĪª
Ġgew oon
Ġáĭ ³
ĠáĪĿ áĪŃ
Ġs w
on g
aar s
Ġs ou
áĬĽ áĭį
áĬ ½
áī³ áĭĬ
wer p
Ġáį ķ
or s
an te
Ġáī ¦
Ġk yk
Ġbes te
wy l
âĢ º
m a
) ,
or g
Ġv ind
ĠA l
áĬĵ áīµ
u re
Ġde el
am e
Ġen ige
áī£ áīµ
ar d
ĠáĬŃ áįį
ĠáĪ° áĭį
áĪĭ áī¸áĭį
Ġter ug
Ġs tel
Ġd ag
áĬķ áĬķ
am er
k el
ad er
Ġ iets
l ing
Ġbes t
Ġbe d
áī¥áĪĶ áĪŃ
Ġvr ou
Ġp lek
áĮĪ áĭµ
áīħ áĪŃ
Ġe ie
Ġk r
1 8
áĮ Ĩ
H oe
st aan
áĪİ áīµ
ĠáĪĿ áĬķ
áĪŃáĪµ áī²
Ġsp es
ĠáĬĵ áĭŃ
ĠáĪ Ļ
is eer
áī Ħ
m and
Ġk ont
áī¥ áĪ¨
Ġd i
ĠáĬ¥ áĭ«
e w
1 4
ge v
Afrik a
is ie
ĠáĪ³ áĭŃ
oe m
áĬ ĭ
Ġáĭ ©
áĬ ³
ĠáĭŃ áī½
Ġp er
âĢ ľ
ĠO p
ov ember
de el
ĠáĬ ĥ
Ġall es
Ġself s
Ġb ly
áĭ¨ áīµ
3 0
Ġm oe
áī¢ áĭ«
Ġal ge
Ġgev al
Ġáī¥ áĭĻ
áĮįáĭļ áĬł
Ġge en
uss en
Ġr es
Ġáī ½
ĠV er
Ġáī¥ áī»
oor t
Ġv ra
Ġd ink
áĬĴ áī¨
Ġs ke
Ġáī¤ áīµ
Ġw ant
áĪĪ áĭ«
st and
áĭį áĭ«áĬķ
Ġal tyd
áĪĿ áĪŃ
= =
al k
os t
Ġl ang
Ġk en
Ġl ief
Ġom dat
ĠáĬĵ áī¸áĭį
st r
Ġbes l
Ġa k
me en
áį Ģ
áī½ áĪģ
áī ·
áĪŃ áĪ²
Ġwaar sk
áĪļ áĭ«
f f
ĠáĬ¨ áįį
áĭĵ áīµ
e b
Ġman ier
ec ember
Ġso dat
Ġb en
áĪī áīµ
is h
Ġgel d
Ġver ander
Ġmak lik
áį ¥
1 6
Ġl ande
oe p
o Ã«
g aan
áĮįáĭļáĬł áī¥áĪĶáĪŃ
v eel
ĠHier die
o os
ĠáĮ ½
áĪĪ áĪģ
Ġd inge
áĮį áĪŃ
áī³ áĭĪ
áĮĪáĪį áĮį
i op
uk k
ĠH ulle
ĠáīĢ áĬķ
Ġáĭ° áĮį
t ige
Ġgewoon lik
y e
in e
Ġf or
om s
Ġle er
Ġbe teken
áĪĺ áĪį
Ġáĭ¨ áĬĲ
om e
d es
Ġon d
1 3
áĮł áīĢ
Ġ .
áĮĢ áĪĺ
áĪŃáĪ² áī²
Ġáī¤ áī°
áī° áĪŃ
áĪĺ áĪµ
en g
Ġt ussen
áĪ« áĪį
áĬĴáī¨ áĪŃáĪ²áī²
D it
áĭŃ áĪį
in t
Ġáĭ¨ áĪ°
áĬŃ áīµ
u b
to ber
âĢ ĭ
ĠáĮ Ģ
áĪĿ áĬĵ
Ġmo ont
Ġk eer
Ġm ag
Ġp as
ie ke
Ġo r
áī° áĭį
áĭµ áĬķ
e il
id del
ĠáĪĿ áĪµ
Ġs it
ĠáĬ ¦
1 7
Ġv as
áī£ áī¢
u d
áĬŀ áī½
uid elik
Ġson der
202 1
Ġdaar van
ĠáĬ¥ áĬĲ
áĪĺ áĪ«
ou s
te mber
Ġáĭµ áĪŃ
áĬĭ áĪĭ
Ġbu ite
ĠD ecember
Ġs leg
Ġk op
Ġwat er
v oeg
Ġáĭ°áĮį áĪŀ
E k
2 2
áĪ¨ áĭį
ug ust
ĠáĮ ¨
a v
Ġse ker
ĠáĬ¨ áĪĺ
áĮ ĵ
ĠN ovember
Ġter wyl
Ġst r
aan se
áĪį áĮ£
áĭ ŀ
áīł áĪ©
áĬĲ áĭį
Ġy ou
Ġges Ãª
2 4
áĭŃ áĭĪ
ĠáĪµ áĪĿ
áĮ£ áĪĿ
h ou
ĠA n
v ol
ĠâĢ ĭ
Ġáĭ« áĪĪáĭį
20 20
ĠF e
ĠâĢĭ âĢĭ
áį ĵ
an u
ĠCh r
oor de
ra f
áĮł áĬĵ
Ġaan ge
áĮ ¦
ĠJ ul
ĠáĬł áī£
áī¦ áī½
ĠJ un
201 3
Ġd ik
áĭµáĪ¨ áĮį
' s
ĠáĬł áī¥
áĪĽ áīµ
áĮ ¤
ĠáĬł áĪĿ
ĠáĪĺ áĪ°
w els
aa p
áĬĶ áī³
ĠS t
Ġpl us
áįĬ áīµ
Ġprob eer
áĪŃ áĭµ
un t
b el
Ġáĭ ľ
ie mand
Ã ¯
ĠSep tember
in s
Ġwe b
Ġk os
ĠH ere
Ġd us
Ġag ter
k ing
Ġw ys
áĪ½ áĬķ
ak t
áĪĽ áĪŃ
ant woord
Ġge be
t rek
áĮ¥ áĪŃ
201 4
c t
webwebwebwebwebwebwebweb webwebwebwebwebwebwebweb
th iop
pr il
ba re
Ġáī ĥ
áĬ¨ áī°
Ġh er
áį Ĵ
ĠáĬ¨ áĬł
a w
c e
áĪª áĬŃ
Ġv orm
Ġge maak
áī³ áī¸áĭį
Ġsp el
ĠA ugust
Ġáīł áĬĭáĪĭ
er ing
áĪĭ áĪī
áī£ áī¸áĭį
c tober
h oud
áīĢ áĪŃ
áīħ áĪĿ
Ġlig g
Ġdaar die
ĠáĮ İ
Ġáį ĸ
áĮĪ áĬĵ
lig ting
Ġáĭ ²
à ¤
Ġv oel
e en
iet jie
ĠáĪĺ áĪĨáĬĳ
ĠáĬ ©
m an
áĪ¨ áĪµ
áĮ Į
áĪ¨ áĮĭ
Ġbe p
u i
Ġáīł áĭļáĪħ
p os
omm ige
201 9
áĪĿáĪħ áĪŃáīµ
Ġplus teken
ĠáĪģ áĬĶáī³
ĠB y
201 8
Ġmoont lik
al l
Ġgeh ad
g en
__ __
m ent
Ġ Â
Ð º
Ġb ietjie
áĪ³ áĭŃ
ro om
Ġ &
Ġsk ryf
Ġge m
ĠáĪ ½
ĠáĪ ŀ
Ġáĭ ¶
áĮł áīĥ
áĬ¨ áīµ
ien d
ĠáĬ¥ áĪŃ
Ġáĭ« áĪµ
l ies
. âĢĿ
ĠO ctober
ĠáĪµ áĪŃ
v oud
ĠáĪĽ áĪµ
ek s
ry s
t ik
Ġáĭ© áĬĴáī¨áĪŃáĪ²áī²
h t
ag te
ĠáĪ° áĭİáī½
à ®
ĠáĪĿáĬŃ áĬķáĭ«
ĠáĬ¥áĭ¨ áī°
Ġa and
wee g
áīĢ áīµ
oe i
it y
Ġbe k
Ġáĭ¨ áĭĪ
a de
áĭ± áĪµ
ĠáĪĺ áĮł
áį Į
áĪį áĬķ
! !
Ġh ele
áĪĽ áĪ«
áĪĿ áĪ®
ĠFe bru
ul t
ĠJ anu
Ġm is
áĬ ¸
Ġn atuur
áįį áīµ
s aak
áĮĪ áĪĪ
Ġal mal
ar k
ĠA pril
Ġprob le
omm ent
ĠJun e
on de
Ġh eel
et s
ĠM ay
Ġáī¦ áī³
A n
t al
áĭ« áīĦ
áĭ ¬
Ġp os
ill ende
Ġg ere
t re
ĠáĬł áĭį
g er
áĪ³ áīµ
p p
ĠáĬ« áī¥
Ġkont ak
Ġáīł áĮ£áĪĿ
b y
self de
w ens
Ġdie selfde
áĮĪ áĪ«
ĠáĬł áĮĪáĪįáĮį
ĠMar ch
as ies
Ġver tel
à ¸
ĠChr ist
ĠáĪĽ áĪĪáīµ
áĬĸ áī½
ry k
áĪ° áĪ«
n is
áī ķ
o b
ĠáĬ¥ áĭ©
ĠáĬŃ áĪŃáĪµáī²
ĠáĪ Ń
ia le
áĪŃáīµ áĪ«
u im
Ð°Ð°Ð°Ð°Ð°Ð°Ð°Ð°Ð°Ð°Ð°Ð°Ð°Ð°Ð°Ð°Ð°Ð°Ð°Ð°Ð°Ð°Ð°Ð°Ð°Ð°Ð°Ð°Ð°Ð°Ð°Ð° Ð°Ð°Ð°Ð°Ð°Ð°Ð°Ð°Ð°Ð°Ð°Ð°Ð°Ð°Ð°Ð°Ð°Ð°Ð°Ð°Ð°Ð°Ð°Ð°Ð°Ð°Ð°Ð°Ð°Ð°Ð°Ð°
Ġle es
ĠáĬŃ áĪį
il ik
áĮĪ áĬķ
ĠT e
ĠJul y
201 5
y f
er de
ge e
ĠáĮ ¸
ĠáĪµ áĪ«
Ġáīł áĪĭáĭŃ
ĠáĬ¨áįį áī°áĬĽ
áī£ áĪį
Ġáĭ¨ áīµ
Ġáīł áīĢ
ry w
áĭ« áĪµ
Ġl yk
áĮł áĪŃ
áī³ áī½áĬķ
r it
Ġáĭ° áĪ¨áĮĥ
Ġd is
2 3
e e
id ing
Ġáĭ¨ áĭį
Ġa d
ĠáĬł áīł
Ġversk illende
áĭĺ áĮĭ
Ġver v
Ġben odig
Ġ Ð
ers k
Ġáĭ¨ áĮį
as t
ot o
Ġv re
Ġv inn
Ġin sluit
ĠáĪĺ áĪ¨áĮĥ
Ġ ide
Ġver w
áĬŃ áĪį
Ġalge meen
aar t
Ġversk e
Ġáį ĵ
áī² áĬ«
ele te
Ġw it
Ġd alk
Ġsp eel
Ġáĭ¨ áĪĨáĬĲ
Ġk w
Ġh oof
Ġst aan
Ġbet er
ĠáĪ² áĪĨáĬķ
D elete
Ġ iemand
ig n
p ro
Rep lies
ĠE thiop
Ġin ligting
d ig
voor beeld
Ġst ad
áĬ¤ áĪį
Ġdik wels
áĭŃ áīµ
a h
ou e
áī³ áĭį
áĬ ¡
Ġbin Ãªre
Ġ Y
áĪŃ áĭ«
Ġop sies
ie l
Ġáĭ Ľ
ĠáĪĽ áĬķ
áī¤ áīµ
ĠáĬ¥áĪµ áĬ¨
Ġpr aat
áĭļ áĭ«
Ġgebe ur
ÑħÑħ ÑħÑħ
áī¶ áī½áĬķ
áĪ³ áī¥
Ġr aak
ĠáĮīáĭ³ áĭŃ
elik e
d uk
ĠW at
Ġd ood
Ġk ies
Ġj ulle
áĭ° áĬķ
am p
ĠáĪ «
Ġs oek
ĠáĬłáĭŃ áĭ°
ges ien
Ġb ied
áī ª
ik kel
Ġ an
Ġver d
en is
áĪ¨ áĭ³
Ġb ere
Ġh oÃ«
áĪħ áĬķ
Ġme este
m in
ĠJanu ary
ar m
ĠáĬ¨áī° áĪĽ
Ġse k
oek om
áĪ° áĭį
ol og
201 1
áĭ°áĪ¨ áĮĪ
Ġp ad
áĭ® áĬķ
áĬĵ áĬķ
w it
201 7
aar de
áĪĭ áĪĽ
Ġáī¥ áĪŃ
at ief
ĠáĬł áĭ²áĪµ
ken d
áĪį áīħ
ĠH om
o h
áĪħ áĪį
Ġeen voud
ĠáĪĪ áĬł
áĬ ¬
Ġvolg ende
Ġand ers
ĠáĭĵáĪĺ áīµ
áĭİ áī¹
Ð ¾
ĠáĪĺ áī¥
lik heid
Ġáī Ĩ
ĠáĬĲ áĮĪ
áĪĭ áĪĪ
ek aar
áī½ áĪį
áĮįáĪ« áĭŃ
ĠG r
áĬĸ áĪŃ
áĪĪáĭ« áĭ©
áĬŃ áĪµ
Ġmoe ilik
Ġver ge
áĮĪ áĬĺ
oo it
ou t
Ġaan v
Ġged oen
i b
áĮĪ áĬĻ
ĠT he
g ie
Reply Delete
Ġgev olg
ĠFebru ary
Ġo op
ĠO n
Ġsk oon
áĪĪ áī²áĬ«
ĠáĪĺ áĬ«
áĪĺ áĮ£
Ġin ter
ĠáĭĪ áĬķ
we g
Ġw ie
ur op
áī° áĬķ
Ñ ģ
en k
ik s
Ġw oord
ĠM et
Ġf orm
Ġáī ¡
Ġba ba
Ġre eks
áĬ ĥ
áĪ £
áĭ² áĪĭ
201 6
ĠáĪ¥ áĪ«
áĪ¨ áī¥
sp r
Ġn ooit
Ġl Ãª
áĬ ħ
ak e
Ġáĭ¨ áĪµ
Ġk oop
re g
Ġe ers
Ġáĭ« áĪį
00 0
Ġdr ie
áĬŃ áĪŃ
ap p
Ġáįķ áĪ®
Ġm aat
Ġs n
ĠA frik
Ġkan t
il i
Ġáĭ¨ áīł
l and
ges tel
âĢ ¹
2 1
Ġv al
ĠáĭĿ áī°
is te
Ġbesl uit
ĠáĮ £
áĭĪ áĪ°
áĮ¨ áĪĽáĪª
áĪĺ áĭµ
áĮį áī¥
de k
ĠáĪĺáĬķ áĮĪáĭµ
ĠáĮ¥ áĭ«áīĦ
ĠáĬ¥áĬķáĭ² áĪģ
ly n
ĠáĪ ¨
Ġgen oeg
Ġth is
Ġw h
y m
am il
Ġver staan
5 0
Ð ¸
w ikkel
áĭİ áĬķ
wer f
i aal
ĠáĬł áĭµáĪŃ
ĠS o
áĮ ¹
ĠE urop
Ġge t
áĬ¥ áĬķ
Ġv ry
Ġm ot
ĠS p
Ġh art
Ġreg te
ĠáĬ¤ áĪŃáīµáĪ«
ĠáĪį áĭ©
áĮ£ áīµ
Ġm aan
áĭ² áĭ«
áĮĢáĪĺ áĪªáĭ«
Ġáī¥ áĪİ
Ġl ank
áīł áĪį
iv ers
Ġs in
l os
Ġf r
Ġuit ge
W at
áĭĺ áī¥
áĭ¶ áī½
Ġbin ne
2 8
Ġst ap
Ġd ae
un s
Ġáī ´
áĮ ¢
f orm
ic e
ĠD uit
Ġvinn ig
oe ke
te d
Ã«l s
2 7
os es
Ġe er
ion ele
ĠáĭŃáī½ áĪĭáĪį
áĭ° áīµ
Ġd oel
Ġáīħ áĭ±áĪµ
Ġer v
Ġnaam woord
áĭ´ áīµ
in de
ĠD an
áĬĲ áī±
2 6
ly k
ar ing
áī£ áĪĪ
ĠI s
Ġw onder
et er
Ġre is
Ġk rag
áĪĭ áĪĿ
r if
l es
ĠáĪĺáĪĨáĬĳ áĬķ
ĠáĪĺ áĪŃ
Ġk n
Ġs oort
Ġáĭĵ áĪĪáĪĿ
Ġske p
Ġl oop
gel aat
Ġbest aan
ig te
201 2
áĬ »
áĪī áĪĿ
ĠáĬł áĪģáĬķ
i al
áĮł áīł
Ġ ,
Ġver al
áĪĭ áĭį
ol l
oe f
áĪ ĳ
om p
g l
áĪľ áĪªáĬ«
vl ak
ge d
áĮį áĪĪ
201 0
Ġk ort
ĠáĪĨ áĬĲ
e is
H ier
áĪĪ áĭŃ
áī· áĪį
áĪ° áĪĽ
ĠáĮ Ń
m s
Ġáī° áĮįáī£
Ġ ...
j ek
áĭ¨ áĬł
gr am
ĠáĪ Ĳ
Ġáĭ¨ áĬ¢áīµáĭ®áĮµáĭ«
Ġgr ond
Ġáĭ¨ áīĢ
s y
Ġbev eel
v ers
i um
p as
Ġgele Ã«
Ġáī° áĭĪ
ĠH oe
g ene
Ġáĭ« áĪī
O m
on k
áĪ¥ áīµ
Ġh oog
Ġw er
ĠáĬł áīĢ
Ġb as
O ns
áĮł áĭį
Ġont wikkel
Ġáīł áįĬáīµ
áĮĨ áī½
m m
Ġáīµ áĪĿáĪħáĪŃáīµ
Ġ ro
áĬĿ áĬĲáīµ
áĭŃ áĬĲáīµ
Ġsleg s
Ġt en
áĬ¨ áĪŃ
Ġre d
áī» áī½áĬķ
h are
Ġgl o
áĭ¨ áĪŃ
áĬ¨ áĪĭ
Ġver vang
s ien
áĭŃáĭĪ áīµ
yn lik
Ġáĭ¨ áĬ¢
Ġar tik
om b
Ġ im
áĪ© áĬķ
áįĭ áīµ
Ġáĭĭ áĬĵ
Ġligg aam
áĭ° áĭį
f er
ĠâĢ ¹
áĪ Ł
á ĥ
áĪŃ áī²
ge b
áĭ® áī½
ĠáĭĽ áĪ¬
Ġop sie
Ġdi Ã©
Ġinsluit end
: :
aard ig
in a
id d
á »
ĠáĬłáĭŃáĭ° áĪĪáĪĿ
ĠV ir
Ġb oek
ou r
skap p
o et
Ġbe kend
ĠáĬ ª
ð Ł
ĠáĬ¨ áĬ¥
J y
or ie
E n
áĬ© áĪį
E R
áĪŀ áī½
áĭĵ áĪĪáĪĿ
áĮį áĪį
áĪĺ áĪ°
ĠáĪĿáĬŃáĬķáĭ« áīµ
ĠP r
áĮ½ áĪĲ
áī± áĪĿ
Ġt ip
Ġste eds
th ou
ĠáĬłáīł áī£
Ġre eds
Ġwaar de
ĠáĬ¥ áĮįáĭļáĬłáī¥áĪĶáĪŃ
Ġre ken
ĠáĬ¥áĬķáĭ²áĪģ áĪĿ
áĪ ı
Ġ it
áĬ ¾
f r
Ġw oorde
Ġvoor dat
Ġreg tig
Ġd ra
áīĤ áĭ«
Ġal tern
ĠA r
3 6
Ġges ien
Ñ Ģ
Ġn ommer
Ġw et
u il
áĪ± áĬķ
ĠT h
ĠáĬ¥ áĭį
d u
áĪ Ĥ
. "
r ig
áĮ ģ
e em
Ġáīħ áĭµ
ĠáĪĺáĬ« áĬ¨áĪį
Ġbes p
u te
m erk
ĠF r
1 00
Ġwaarsk u
2 9
ĠáĪĨ áĬĸ
Ġáīł áĪµ
it er
Ġou ers
Ġáĭ¨áĪĽ áĭŃ
sl and
Ġ Z
tu ig
Ġont vang
Ġáĭ¨ áĪħ
Ġlief de
ĠáĬ¥áĬķ áĭ´áīµ
ĠáĬŃáĪŃáĪµáī² áĭ«áĬķ
Ġdie n
áĪ¨ áĬķ
ĠáĪ ´
Ġáīĥ áĪį
ĠáĬ¥áĬķ áĮĤ
áĮ ª
Ġw el
ĠáĭĪ áīħ
Ġpro duk
Ġle k
k l
Ġr ol
Ġd uidelik
Ġáį Ĭ
áĭŃ áĪĽ
Ġv ier
en n
áĭ° áĪĿ
a ge
Ġáį ĭ
Ġs ommige
i ch
ur s
Ġk amer
Ġvoor t
ĠP ro
S t
ou n
ad at
ar s
l og
Ġtyd ens
Ġáĭ¨ áī³
er n
ĠM y
áĮ¨ áĪ¨
Ġáīł áĪŃ
áī¶ áĪĿ
áĭŃ áĬķ
áĮĪ áĬĽ
Ġverk oop
Ġjou self
ĠG e
áĭĪ áīħ
áĪĿ áĬĲáīµ
te er
en ing
Ġmin der
ĠáĭŃáĪħ áĬķ
ĠáĬ¢ áĬķ
áĪĪ áī½
áĭĪ áĮ£
áĪ ¯
av e
D aar
Ġa b
áīĢ áĭį
Ġvoor kom
áĭŃáĪĽ áĬĸ
ie re
Ġsk ool
ĠDuit sland
áĪŃ áĬĲáīµ
Ġn iks
¾ áī½
et jies
wy der
Ġond ers
Ġge st
ĠáĪ ¶
áĪª áĭİáī½
sl ag
ĠáĬł áĪī
áĪĺ áīµ
p el
n em
Ġv eel
on ym
ier s
p s
Ġáĭľ áĬĵ
Ġverske ie
Ġk ar
at iewe
ĠáĬ« áĪį
áĬ¨ áĪ«
áĬĲ áīłáĪ¨
áĪĺ áĭį
áĪµ áĬķ
ma il
iv e
ĠU n
ĠáĪµ áĪį
onym ous
ik e
r ou
g n
áĭ° áĮĭ
áĮĪ áĬĿ
g ang
ien de
ĠáĬ¥áĬķ áĬ³
Ġen ig
áĪĺ áĪ¨
oor te
áĪ© áīµ
Ġáĭĺ áĭŃ
t ion
áī¥ áĪį
k oop
áĪµ áī²
ĠEurop ese
Ġr ig
3 5
An onymous
y l
ed ia
ĠáĭµáĪŃ áĮħ
Ġpro f
áĪĪ áĮł
áĪĪ áĬĽ
Ġaan gesien
Ġp rys
k ant
ĠáĬ¥áĬķáĭ² áĭ«
as e
ĠáĬ¨ áĪļ
et werk
ĠEthiop ia
g g
Ġbep aal
áĭ³ áĭ°áĪŃ
áĪįáĮ£ áĬķ
en ke
ĠP M
c k
áĭ ¥
' '
áĭį áĪį
áī¥ áĪ¨áīµ
Ġáĭ¨áĬĲ áīłáĪ¨
Ġver se
Ġh e
ĠáĭŃáī½ áĪĭáĪī
Ġáī° áīĭ
Ġbe w
Ġáīł áĪ°
ĠV an
áĭĿ áĪŃ
ĠáĬ¥ áī²
Ġwaarsk ynlik
Ġwaar in
b ied
b es
ĠáĪħ áĭĿ
ĠS k
áī³ áĭŃ
ĠáĬłáĮĪáĪįáĮį áĪİáīµ
ag tige
áĮ¥ áī³
t ers
Ġb ou
v oer
ge maak
Ġm iddel
aa ste
áĪĭ áįĬ
l oop
re e
áĬ¦ áĪ®
an e
Ã¯ n
a ie
Ġr ond
Ġn ood
áĭĺ áĪŃ
Ġáĭµ áĪ¨áĪµ
Ġweb werf
ĠáĪĮ áĪİáī½
Ġt rek
re d
Ġby voorbeeld
Ġáĭĺ áĪĺáĬķ
Ġsl aap
Ġe inde
k amer
ĠT oe
áĪĪ áĭĭáĪį
Ġvolg ens
Ġ aarde
Ġaltern atief
Ġáīł áīµ
Ġf in
u le
Ġp ol
ĠáĬ¥áĬķáĭ° áĪĨáĬĲ
ĠáĬ¥ áĬĽ
Ġbr ing
== ==
ĠáĬ¨ áĭļáĪħ
eb ook
áĬĺ áīµ
iÃ« le
Ġop ge
Ġáī° áĪµ
Ġwat ter
ĠD e
ĠáĬłáĬķ áĭ±
iÃ« n
Ġáĭ¨áĪļáĭ« áĪµ
T U
Ġont werp
i w
ĠáĪ ľ
ac ebook
Ġáī° áīĢ
ĠáĮĪ áĬķ
áī¤ áī°
Ġw oon
Ġdr uk
Ġform aat
8 0
áįĪ áĭį
Ġáĭ¨ áĪķ
is e
ĠL e
âĢº âĢº
b o
.. ..
ĠáĪļ áĬĴ
Ġst aat
os e
Ġsu ks
Ġhoe veel
Ġge kom
áĪĭ áĭĬ
Ġget alle
Ġbesk ik
áĪĽ áĬķ
ĠáĪ ª
Ġster k
l d
Ġsuks es
Ġw ou
áĬ« áĪį
w ing
Ġges p
Ġvan dag
Ġver der
er m
p lek
Ġd ing
Ġf amil
k ode
ĠáĬŃáĪį áĪį
/ /
áĬķ áīĭ
Ġspes if
áįĪ áĪŃ
áįĪ áĪĪ
Ġo Ã«
ĠáĪĽ áĭķ
er v
Ġl ater
Ġgen oem
áĮł áĪ«
áĭŃ áĬĵ
ĠáĪ° áī¥
int lik
o le
t jie
Ġsl uit
áĭį áĪĿ
Ġth at
Ġáĭ¨áĪļ áĪ°
a il
Ġáĭį áĭµ
Ġversk yn
te mal
d ers
ĠáĬ¥ áĬĶ
ĠáĪ Ĥ
es tel
eu se
ĠáĭĵáĪĺ áī³áīµ
ĠáĬł áĪŃ
Ġgew ord
ĠáĭĪ áĪŃ
áī ¼
Ġe et
ĠáĪĿ áĬķáĪĿ
ite ind
ĠáĬłáĬ« áī£áī¢
Ġd ok
áīł áī¥
Ġáį Ģ
áĬ« áĪĦ
Ġvol le
ĠáĬł áĮĪ
Ġáĭį áĮ¤
en heid
ĠChrist us
Ġáīł áĮ¥
áĬĲ áĪ³
Ġbe weeg
4 3
O n
Ġmar k
aan s
Ġ ry
Ġm ekaar
Ġáī ĭ
ukk ig
ĠáĪĪ áĬ¥
r ak
Ġheel temal
áĪī áĬķ
str uk
áīħ áĭµ
Ġe ien
Ġáīł áĪĿ
Ġn ul
áīł áĭį
Ġh em
ĠáĪ ł
Ġle wens
des ign
áĬ¨ áįį
6 0
áĪŃáĪµ áī¶
Ġn ot
áĮłáīĢ áĪĿ
Ġbere ik
f ek
ĠáĪĪ áī°
Ġver wyder
ĠáĪ¥ áĪŃ
Ġj are
ie w
Ġj ong
Ġlek ker
d om
ĠáĬĵ áī¥
áĬĵ áĭĬ
id ent
áī¥ áĪİ
Ġv is
ens ie
- -
u bl
ĠáĮ Į
19 9
P r
áĭ« áīµ
voeg sel
oen ie
Ġver wys
Ġmo es
ĠE l
áĬĲáīµ áĬķ
Ġvoor aan
ker m
Ġver m
áĪİ áĮĤ
in der
S hare
áĬ¨ áī³
w at
Ġgr ot
ĠáĬŃáįį áĪį
dr uk
h oe
ĠáĬł áīµ
Ġge he
ĠáĪĺ áĭ°
Ġv eil
ĠáĬłáĪµ áįĪ
webwebwebwebwebwebwebwebwebwebwebwebwebwebwebweb webwebwebwebwebwebwebwebwebwebwebwebwebwebwebweb
ĠáĮ ¦
ry wer
a we
g an
Ġme es
Ġf il
4 0
áĪŀ áĬŃ
ĠáĬ¥áĬĲ áĭļáĪħ
Ġbet aal
áĭĭ áĬķ
Ġvoor voegsel
Ġge gee
p ie
Ġmaan de
Ġb ele
áĪ« áĬķ
Ġh ard
áĮĪáĪ« áī½áĬķ
ĠI TU
ĠM aak
Ġland kode
Ġtelefoonn etwerk
Ġle i
st ige
skap pe
ĠW anneer
ie g
áĭ°áĪ¨ áĮī
áĪ° áĪŃ
áĪį áĪĿ
ro k
Ġwit h
Ġvoor b
ĠáĪĽ áĪħ
Ġ áį¢
Ġáī° áĬĵ
t on
ĠáĬł áī¶
ĠáĪ³áĭŃ áĪĨáĬķ
Ġgew one
sp el
áĭĭ áī³
áī¸ áĭĭáĪį
áĪ¬ áīµ
Ġby voeg
Ã« n
mp er
Ġbes oek
u e
Ġáī³ áĪªáĬŃ
Ġweg gelaat
Ġáĭ Ļ
áĮĪ áĭį
Ġverh oud
ur g
áĪµ áī³
áĬŃ áĪĿáĬĵ
Ġáīł áĭ¨
r ing
áĭĽ áīµ
áįĸ áĪŃáīµ
áĭµ áĪį
le de
v al
in ter
me e
ĠáĮĪ áĪį
áĮĭ áįį
ĠáĬ¥ áĮħ
ĠáĪĺáĬķáĮį áĪµáīµ
Ġkom b
ide o
p ek
áī Ĳ
Ġm akel
Ġe intlik
áĭ° áĪ«
áīĥ áīµ
Ġd room
iteind elik
w w
Ġs itu
áĪł áĪ«
áįį áĪªáĬ«
Ġáī£ áĪħ
uis ter
Ġbesk ou
Ġáĭµ áĪĽ
Ġge we
áĪĭ áĮĬ
a ch
Ġgeh oor
áĮ½áĪĲ áįį
ĠáĪ² áĭ«
ĠBy bel
ĠáĬł áĪ³
il d
Ġverl oor
ra te
áĮĪ áī¡
: //
áĮĪ áī¥
Ġk or
Hier die
ĠáĪĺ áīĢ
h ang
skapp y
áĪ¨áĮĭ áĮĪ
Ã« r
se er
ĠáĪĺ áĪ³
Ġl ug
s els
áĮł áīµ
Ġmot or
áĪĽ áĭŃ
ĠáĬł áĭ«
le m
Ġk erk
áĭ¨ áĪĿ
ĠáĪĮ áĪĭ
áīĨ áĮ£
Ġvr iend
áĪ± áĪµ
ĠáĬł áĭµ
Ġs iek
ore x
Ġl es
áī£ áĪŃ
ĠáĮį áĪĿ
áĭ¨ áĭį
Ġn ag
omb lik
áĪĻ áĭ«
áī° áĭĭáĪį
ĠR e
c r
Ġgev oel
áī³ áī¸áĭįáĬķ
Ġh oor
ĠáĬķ áĮį
u in
Ġáī° áįĪ
Ġáī¥ áĪĶ
Ġk al
Ġond erste
ig ing
áĭŃ áĪħ
áį¡ -
áĪį áĬĵ
áĮ º
vl oed
Ġhul p
Ġe eu
ĠáĪĺ áĪĪ
áĪĻ áĪī
áĭ³ áĪŃ
Ġin d
s aam
A l
h andel
ĠáĪĺáĬķ áįĪ
áĮ¨áĪ¨ áĪ»
Ġno b
h al
s ig
ĠáĪģ áĪĪáīµ
áīł áĬł
Ġw ag
Ġver oor
Ġáĭĺ áĬķáĭµ
Ġw arm
Ġf un
ĠJ oh
eer de
Ġ *
ĠáĪķ áĭĿáī¥
ĠáĪħ áĭĿáī¥
m at
Ġna v
Ġáĭµ áĬķ
áĬ ¹
áīħ áĪµ
Ġst ud
Ġáĭĺ áĪĺ
h aal
Ġnob ili
áĪŃáĪµáī¶ áĪµ
Ġsek ere
Ġáī° áĪĺ
m et
ĠN ew
Ġak t
un te
k op
Ġproble em
ĠáĪĻ áĪī
Ġm ooi
Ġon ge
im e
ĠáĪģ áĪĪ
Ġo omblik
ĠáĭĪáīħ áīµ
áī¥ áĬķ
Ġver tr
Ġon gel
áīµ áĪŃ
ĠD is
áĪ³ áĪĮ
áī° áĬŀáī½
Ġversk il
áĬĽáĭį áĪĿ
oe te
Ġs ak
áĪ¨ áĪĿ
h uis
Ġaan tal
áĬķ áīµ
eel de
Ġgere ed
ĠáĪĬ áĭ«
et ter
gev eer
ĠA d
ĠáĬ¥áĬķáĬ³ áĬķ
Ġgele ent
re er
áī¥ áĭĻ
re in
200 9
ĠáĪĽ áĭµáĪ¨áĮį
Ð µ
ĠáĪį áĮħ
áĬķ áīĢ
Ġken nis
k r
áĮį áĬĵ
wit ter
Ġhand els
Ġverw ag
Ġs oms
áīĥ áĪį
Â »
ĠáĭĿ áĪŃ
4 4
Ġgrot er
p unt
Ġáīł áĭĵ
Ġartik el
áĪ» áĪ»
áĬ¨ áī¥
ĠáĪĪ áĪļ
Ġv or
Ġfe it
Ġdr aai
Ġhoe f
Ġse un
e der
m os
Ġl aaste
áĪį áĬŃ
Ġhem el
Ġtwee de
áĭĽ áĪ¬
ĠáĬ£ áĭŃ
Ġh ande
Ñģ Ðº
ra de
Ġeenvoud ig
Ġc omment
ĠáĪµáĪŃ áĭĵáīµ
Ġáįĸ áĪĬ
Ġf oto
ann e
Ġg ro
gew ing
áī° áīµ
al iteit
Ġáīł áĬ¢áīµáĭ®áĮµáĭ«
Ġ antwoord
áĬŃ áĬĸ
Ġáĭĺ áĪŃ
Ġáĭĺ áĪİ
v ind
áĮĭ áĪį
aa f
Ġfamil ie
áĪĭ áĬŃ
áĪ¨ áĭĭáĪį
7 0
an ge
Ġin ge
r es
und ige
áĭ ĳ
Ġspes iale
áĪĪ áĪĽ
is s
áĮį áĬĺáīµ
Ġd on
V er
áĪŃ áī¶
202 3
Ġáīģ áĮ¥áĪŃ
áīĢ áĪį
áįĪ áĮ¸
Ġbe eld
mer ik
áĪµ áĬĵ
h er
o te
as ion
áīłáīµ áĬķ
ĠáĬł áĭ³
Ġáīµ áĬķ
áĭ¨ áĪ±áĪµ
ĠáĪĪ áĭį
Ġbl ad
br ing
Ġáī° áĮł
Ġnatuur lik
Ġb ak
k ien
ĠáĬł áīħ
áĬĵ áĮĪ
is ik
Ġyou r
áī£ áĬķáĭ«
Ġáī½ áĮįáĪŃ
ĠB r
Ġáī° áĪ°
ap ier
áĮ Ĭáĭľ
Ġmin ute
Ġwe ek
áĮ ®
Ġbes onder
Ġáĭµ áĪĿ
ge le
áįĸ áĪĪáī²áĬ«
Ġveroor saak
Ġáīł áī³
Ġáĭĭ áĮĭ
Ġver g
áĪİ áĪĿ
áĪµ áĪĪ
ĠáĬł áĮĭ
T he
um ent
Ð°Ð°Ð°Ð°Ð°Ð°Ð°Ð°Ð°Ð°Ð°Ð°Ð°Ð°Ð°Ð°Ð°Ð°Ð°Ð°Ð°Ð°Ð°Ð°Ð°Ð°Ð°Ð°Ð°Ð°Ð°Ð°Ð°Ð°Ð°Ð°Ð°Ð°Ð°Ð°Ð°Ð°Ð°Ð°Ð°Ð°Ð°Ð°Ð°Ð°Ð°Ð°Ð°Ð°Ð°Ð°Ð°Ð°Ð°Ð°Ð°Ð°Ð°Ð° Ð°Ð°Ð°Ð°Ð°Ð°Ð°Ð°Ð°Ð°Ð°Ð°Ð°Ð°Ð°Ð°Ð°Ð°Ð°Ð°Ð°Ð°Ð°Ð°Ð°Ð°Ð°Ð°Ð°Ð°Ð°Ð°Ð°Ð°Ð°Ð°Ð°Ð°Ð°Ð°Ð°Ð°Ð°Ð°Ð°Ð°Ð°Ð°Ð°Ð°Ð°Ð°Ð°Ð°Ð°Ð°Ð°Ð°Ð°Ð°Ð°Ð°Ð°Ð°
ĠS h
áĭŃáĪĽáĬĸ áīµ
áī£ áĭŃ
Ġv oer
áĬķ áĭ³
el de
ĠA an
ers tel
áĭ« áĭĬ
áĪĬ áĭ®áĬķ
Ġl os
hoe wel
Ġkle ur
0 9
u w
Ġáīłáī° áĪĪáĭŃ
Ġf l
R e
à ´
ĠáĬ¨ áĪĨáĬĲ
Ġáīĭ áĬķáīĭ
Ġáĭµ áĮĭáįį
Ġdi rek
Ġoor spr
Ġáī¢ áĪĨáĬķ
ĠB e
Ġáī¥ áĪĪáĭį
3 9
Ġson de
áĪĵ áīµ
Ġverse ker
Ġre de
Ġges ond
ĠáĪµ áī¥
ĠáĪµáĪĪ áĭļáĪħ
Ġe ff
ĠáĪĺáĮł áĬķ
ĠáĬł áĪĽáĪ«
Ġl iter
ĠáĭŃ áĪĨ
ĠáĮ¥ áīħáĪĿ
ĠáĮį áī¥
Ġáīµ áĮįáĪ«áĭŃ
Ġle ef
Ġbes kerm
Ġáĭ¨áī° áĪĪáĭ«áĭ©
Ġbest uur
Ġt oek
Ġáĭ¨ áĮ¥
vol le
Ġpr oses
à ¦
ĠáĪĺ áĮįáĪĪ
Ġa m
ĠáĬł áĪĪáĭį
ol le
áĬŃáĬĸ áĪİáĮĤ
d ele
Ġbeskik baar
Ġaanv aar
áī£ áĭĬ
el l
ĠáĪĺ áĪł
Ġ X
áĬķ áĬŃ
áīµáĭ®áĮµ áĭ«áĬķ
Ġverh andel
Ġeer der
Ġs aak
áĬĵ áī¸áĭį
áĪ³ áĬĶ
Ġaan lyn
ĠP l
áīł áīĥ
áĬ Ĺ
Ð »
Ġvr ug
Ġgen iet
ac k
Ġg od
Ġbelangrik e
d ing
Ġh ar
Ġo og
áĪ° áĮ£
áĪĪ áĪĺ
ĠS oos
ĠâĢ ¦
Ġde k
ĠáĪĢ áĮĪáĪŃ
Ġ i
Ġp unt
áĪ« áī¸áĭį
ok us
áĪ³ áĭĬ
at is
Ġon geveer
ÑħÑħÑħÑħ ÑħÑħÑħÑħ
sk rif
áĬĳ áĬķ
Ġk euse
uim te
ĠáĬŃ áīµ
Ð ½
ĠáĬł áĮĪáĪŃ
Ġge p
Ġte gn
Ġdaar op
Ġverd uidelik
u we
ĠA M
19 6
ĠáĮ¥ áĪ©
m ene
Ġproble me
m iddel
stel ling
of f
ĠáĬ¥áĬķ áī°
ĠáĪģáĪī áĪĿ
per vlak
ĠáĪĺ áĪĺ
à ¥
Ġh ere
Ġvr iende
Ġbesk ryf
áĮĪ áĭ°
Ġw or
Ġáĭ¨áĪļ áĪį
Ġbyvoeg like
áĪŃ áĪ±
á º
Ġbes igheid
Ġver eis
it s
Ġáī½ áĮį
Ġges ig
Ġu ur
Ġgesk ryf
Ġvr aag
Ġide e
ĠáĬ¥ áĭļ
Ġáīł áĬ©áĪį
3 1
ĠáĪ ±
us iek
ĠO f
ul ke
áĪ º
s ter
ied enis
Ġvr oe
b et
Ġp ot
ĠáĪ ¸
ĠáĬĥ áĭŃáĪį
áĬĲ áĭļáĪħ
áĭķ áĪ«
áĪĮ áĪİáī½
Ġáĭĵ áĭŃáĬĲáīµ
áīĭ áīĭ
Ġst il
ar ch
Ġbev at
áĪ ·
áĪ¥ áĪ«
a i
Ġáī° áĪĽáĪª
am el
ĠâĢ¹ âĢ¹
Ġon thou
áĭ¨ áī°
? âĢĿ
et t
Ġvl ak
s ing
Ġges in
áĬķ áĬĵ
Ġst orie
Ġáĭĺ áĪĪ
Ġm ore
áĪªáĭ« áĭİáī½
ĠáĪĥ áĮĪ
Ġmater iaal
ers t
v el
u p
Ġáĭ Ĳ
ĠáĬ¥áĬķáĭ² áĪħ
Ġáīł áĬ¢
c o
Ġt aal
Ġte ken
Ġgel oof
Ġáīµ áĪŃ
ĠDaar om
áī¡ áī¥
Ġfr om
áĪį áįį
Ġd ui
áĪĭ áĮİ
ĠáĬł áĪĽ
u ele
Ġh ond
ĠáīłáĬł áĬķáĭµ
áĪ ¹
Ġnu us
ĠáĬ¨ áĪĽ
a in
n g
____ ____
Ġb al
áĬ« áī³
19 8
áĭŃ áī³
n y
áĮĪ áīµ
Ġgen eem
Ġsw ang
áī ĵ
as se
ĠáĮĪáĬķ áĭĺáī¥
ek tr
i tel
ĠUn ivers
áĪ° áī¡
áĮĪ áĪĽ
Ġáīł áĭ°
3 4
Ġna by
Ġbin n
áĮĬ áĭ«
áĬĲ áĮį
ĠáĭĪ áĪ¨
Ġáĭ« áĪħáĪį
Ġn adat
áĮ¥ áĪ®
on om
áīłáĪ¨ áĪ°áī¥
ĠáĮĢ áĪĿáĪ®
ĠáĮł áīħ
áĭ Ĳ
Ġbl oed
Ġsk rywer
áĭ³áĬķ áīµ
est ig
v orm
Ġ `
ĠáĭŃáĪħ áĬķáĬķ
Ġin tern
pl an
if iseer
ic k
st ig
Ġste m
Ã ¼
ĠáĬłáĬķ áĭ³
áĪµ áĪ«
iv id
is me
áĬĲ áĮĪ
ĠáĪĪ áĪĿ
ĠE en
ĠáĮ¨ áĭĭáī³
Ġbes ig
ĠáĪĺáĬķáĮį áĪ¥áīµ
áī½áĬķ áĬķ
as te
Ġo ut
áĪı áĪį
ĠáĭŃ áĭĺ
p erk
Ġv ak
á ŀ
áĪ¶ áī½
ĠáĪĿáĪŃ áĮ«
ĠáĪĪáĪĽ áĪµ
Ġwe ke
Ġvrou e
Ġáĭ¨áī° áĪ°
og raf
áĬ« áĪĿ
ĠáĮ£ áī¢áĭ«
áĪŃ áĬŃ
A N
Ġversk af
Ġpl at
Ġgr oei
áīĢ áĮ¥
ĠH e
Ġd uur
áĪ³ áī¸áĭį
] ]
áīł áĭ«
0 5
Ġgeb ou
le iding
ĠáĭĿ áĮį
áĭĺáĮĭ áĮĢ
Ġáĭ° áĬķ
Ġst and
Ġu iteindelik
ra y
ĠáĮ ¤
Ġs org
Ġáĭ¨ áĪĿáĬķ
áī¥ áĪ«
áĪĭ áĬķ
u ik
ĠáĪĺ áĪª
ak sie
áįī áīµ
Ġv yf
Ġge deel
te en
Ġvra e
Ġonderste un
t ps
áĭĪ áĭ°
mo et
ne em
áĭ« áĭĺ
Ġáįķ áĪ¬
ĠM al
en skap
ĠáĪĺáĪ° áĪ¨áīµ
Ġverhoud ing
Ġpr agtige
Ġspesif ieke
ĠA m
ĠÂ «
Ġgroot ste
áĪ³ áī°
ie Ã«
ĠáĬķ áĪĿ
Ġver dien
Ġk re
Ġst uur
áĬķ áĬ«
áĪ° áī£
Ġáīł áĭį
áĬ¨ áĪĪ
áīĢ áĪĺ
3 7
ĠáĬłáĪµáįĪ áĪĭáĮĬ
ĠáĬłáĪµáī° áĭ³áĭ°áĪŃ
ĠáĬłáĬ« áĪį
áī §
te ur
áĮ£ áĬķ
bre ek
ek en
Ġáĭ¨ áĪ«
ke ur
áĭ« áĭ¨áīµ
O p
áī» áī¸áĭį
Ġáī¥ áĪĿ
ĠT er
ĠB l
Ġ ele
" .
áĪľ áĬķ
â Ĩ
ĠáĭŃáĪĨ áĬĵáĪį
âĢ ĵ
áĮłáīĥ áĪĭáĭŃ
ĠEn gel
d ige
áĭĪ áĬķ
Ġh oekom
Ġhou t
Ġáĭ ®
áĪ° áĬķ
Ġlang s
le u
Ġb ad
Ġgev ind
is ies
Ġsitu asie
ĠáĬ¥áĬķáĭ° áī°
áīł áĪ«áĭĬ
am ent
m ak
à ¯
Ġge este
Ġáĭį áĪ³áĬĶ
Ġáī°áĪµ áįĭ
áĮł áĪ¨
Ġin dien
s oek
áĮį áĬķ
áĪĮ áĪĭ
áĪ« áĪ²
Ġáįį áĪĭáĮİ
Ġbe weg
Ġbelangrik ste
W anneer
ĠáĬł áĪħ
Ġl ys
áĬ£ áī¥
ĠáĬ¥áĬķáĭ³ áĭŃ
Ġm il
áĪĭ áī½áĪģ
áĭ Į
áī£ áī¥
00 49
w end
Ġou d
áī¹ áĬķ
Ġ ant
Ġ us
Ġtot dat
Ġso veel
Ġs ol
ĠáĪĺ áĭµáĪ¨
st uk
ĠB in
ĠáĬĲ áįĥ
h and
ĠáĭŃ áĮĪáī£
Ġdie p
áĬ¨ áĪ°
Ġáĭ¨ áĪĪáĪĿ
áĭĪ áĪµ
. )
áĬĵ áĭį
ĠB aie
Ġaand ag
áīł áĬĽ
h a
áĮĭ áīµ
Ġver f
k ie
Ġd ank
kom s
ersk ap
ĠáĬĥ áĭŃ
Ġter m
j e
ĠV ader
Ġr isik
áĪģ áĪīáĪĿ
Ġverb and
ot s
m aat
Ġm on
Ġpro jek
4 6
áĮ¡ áīµ
Ġáī° áĮĪ
omm un
Ġt rad
áīĢ áĪ¨
i le
áĮł áĭŃ
Ġáī¥ áĪĪáĭĭáĪį
t jies
Ġáĭ¨ áĬ«
ĠA b
g awe
áĪĪ áĭįáĬķ
Ġwaar op
Ġp ar
ig ht
stand ige
Ġáīł áĪĻáĪī
Ġbl og
f in
olog ie
le is
áĪµáī° áĬĽ
h ank
Ġáī°áĬĵ áĮį
áĪ³ áĬķ
Ġtoe ge
áĪ Ĵ
af el
ÑģÐº Ð¸
Ġr ug
áĭ¨ áĪĺ
Ġbeh eer
áĮł áĪ©
Ġáīµ áĪįáīħ
Ġd or
re ken
et h
ĠS l
est and
ĠJ ou
Ġoorspr onk
Ġáĭ¨ áĪį
ĠG ees
áĭ £
Ġáįĸ áĪĪáī²áĬ«
o es
áīħáĪµ áīĥ
áĬŃ áĬŃ
en ig
ĠáĪĺ áĮ½áĪĲáįį
op e
Ġáĭ¨ áĪĨáĬĳ
ĠM e
asion ale
Ġop en
b aan
d is
à ª
Ġhandel aars
áĬĲ áĮĭ
á Ģ
ĠS e
es sie
Ġbeh andel
ĠáĬłáīĢ áįį
Ġr om
áī¥ áīµ
Ġb ro
Ġgr atis
Ġeff ek
ĠP ost
Ġind ivid
ĠáĪį áĮĨáī½
Ġk ook
ĠáĪĽ áĪµáī°
ĠáĮįáĪĿ áĮĪáĪĽ
Ġáĭ ŀ
áĪ® áī½áĬķ
Ġkl iÃ«n
áĬŃ áī°áĪŃ
ĠM oenie
Ġd ig
Ġáĭ«áĪĪ áĭįáĬķ
on ne
ĠáĬł áĪĺáĪ«
5 2
W ys
ĠáĪį áī¥
áĭµ áĪĿ
áĪµáīµ áĪª
Ġáīł áĪ«
ens te
Ġtoek oms
ĠM a
áĬŃ áĪŃáĪµáī²
Ġpres ies
Ġmaat skappy
áĮĪ áĪª
od ra
Ġpro gram
áĬĸ áĪ©
Ġv ia
Ġalle en
v at
ĠK on
áīħáĪµáīĥ áĪ´
ĠáīłáĪļ áĪį
ĠáĬ¥áĬķ áĮį
Ġv oeg
ĠA merik
Ġou er
Ġbo om
Ġfin ans
áī½ áĭį
áĬ® áĬĸ
Ġtip e
ĠáĪ º
áĮĢ áĪį
Ġt ien
Ġv o
Ġáĭ¨áĪĺ áĮĢáĪĺáĪªáĭ«
ĠáĪ° áĭĵáīµ
áĮį áĪĿ
Ġvan af
Ġáī°áĮįáī£ áĪŃ
Ġs ulke
Ġh ang
t en
Ġáĭ¨ áī£
áĮł áīħ
Ġh uur
ĠáĬ¥áĬķ áĭµ
k eer
áĪģ áĪĪ
áĬĲ áĪµ
bl ad
Ġáĭ« áĬķ
Ġgere g
áĪ¨ áĮ¥
P os
ĠáĭĻ áĪªáĭ«
áįĪ áīµ
ĠD r
Ġprof ess
o ad
u if
er t
áĪµáīµ áĬĵ
an sie
Ġs agte
ĠáīłáĪĽ áĪĪáīµ
ĠáĪµ áīµ
Ġáįĵ áĪŃáī²
ak ter
Ġbesl is
re i
Ġeenvoud ige
áī¡ áĬķ
Ġáī¡ áĭµáĬķ
Ġalge mene
Ġ aard
ĠhoÃ« r
Ġdie ns
Ġáīł áĪķ
Ġkl as
Ġbe ide
c c
ĠáīłáĪĺ áĪĨáĬĳ
an c
ĠT r
áĪ± áĪĿ
ar ie
áĭµ áĪŀ
ann ing
Ġou der
Ġ Å
ĠáĪµ áĬķ
er gie
d o
gene em
ĠP a
. ,
áįİ áī½
ĠáĬŃ áĬķ
áĪ³ áĪį
Ġont moet
Ġáīħ áĪŃ
ĠáĮĪ áĮ½
áĪµ áī¥
Ġst uk
áį ģ
áīħ áĬĵ
áĭ° áĮį
Ġe w
Ġonder werp
r r
Ġpersoon like
as h
Ġ $
pl aas
Ġr us
p ak
4 8
k undige
mo Ã«
Ġáī° áĭĭ
ĠáĭŃáĪħ áĪĿ
Ġpu bl
ĠáįķáĪ® áĮįáĪ«
áĪĿáĪħ áĪŃ
Ġgeleent heid
w ende
k et
Ġver t
Ġbes ef
l ings
Ġvoor beeld
3 3
ĠáĮįáĬķ áĬĻ
ĠáĮ «
áĭ« áĭĿ
áĮł áī¥
Ġáī »
áĪĥ áĬķ
ĠáĬł áĪĭ
ĠáĮĭ áĭľ
w oorde
áĭ² áĪħ
Ġk at
ĠáĬł áĪĺ
L ees
ĠáĪĺáī¥ áīµ
Ġgesk ik
Ġself standige
w are
ĠáĬłáĪĪ áĪĺ
Ġel ektr
b ek
Ġgr aag
Ġáĭ¨áĪĿ áīµ
0 6
Ġbr and
Ġáīł áĬĲ
Ġbesp reek
Ġ Q
ĠáĬĲ áĮ¥
áĪĦ áĭµ
it h
M aar
Ġaf ge
* *
Ġger eeld
ĠáĬ© áī£áĬķáĭ«
áĭ² áĭ®
Ġpl an
Ġbep erk
Ġman iere
it te
ĠáĬ¥ áĭµ
ĠáĬ¥áĮħ áĮį
áĪ« áĭŃ
k ende
áĮĭ áĪ«
Ġenig ste
Ġt oon
Ġgl ad
s ip
ink el
áĭİ áīµ
Ġn oem
c l
áī½ áĪī
Ġper fek
ĠIn d
I E
C h
Ġas of
ene wens
4 5
E mail
áĪµ áĪĿ
ĠáĬ® áĪļ
el k
t uur
ĠáĪĺ áĮ¥
Ġrisik o
oen e
ĠN a
áĮħ áĪĿ
ĠáĪĥ áĮĪáĪŃ
V ir
Ġh oop
gr ond
Ġd og
ĠáĪĪáĪĽ áĭµáĪ¨áĮį
Ġáĭ«áĪį áī°
eil ige
ĠáĪĺ áĪĨáĬķ
Ġspel etjies
Ġáīł áĪħ
ste ek
áĭ® áĪĿ
min der
áī» áĪį
3 8
ens ies
Ġáĭ¨ áĭ²áĪĭ
ist r
Ġver sp
Ġt uis
im p
áĮ ¾
Ġge meen
áĭĺ áĪĺ
ĠáĬłáĮĪáĪįáĮį áĪİ
t ic
áį ²
Ġáĭ« áĪīáīµ
ader ing
ite ite
Ġr uimte
áĭ« áĭį
Ġv oed
áĬķáĮį áĪµáīµ
ink ryk
áīł áī°
Ġbed oel
ĠáĮ¤ áĬĵ
Ġop los
ĠáĭŃ áĮĪáĬĽ
0 8
Ġn ut
ĠO r
ĠáĬ¦ áĪ®
un de
Wys ig
áĭĪ áĪŃ
Ġw are
Ġo ef
Ġto er
Ġerv aring
Ġáī° áīĥ
rok ke
áĮĪ áĬĲ
et ail
en der
áĪŃáĪµ áĭİ
ĠáĬ¥áĬķ áīħáĪµáīĥáĪ´
Ġáīł áįį
ac e
ĠT ig
ĠáĬłáĭŃ áĬĲáīµ
Ġse ks
g oed
Ġop pervlak
ĠáĬ¥ áĭļáĪħ
Ġgem ak
Ġverh oog
áĪĬ áĭĿ
áĪĽáĪŃ áĬĽ
Ġdon ker
B y
áĪ³ áĪ³áĭŃ
Ġh ave
Pos ted
ĠáĪ² áĪį
Ġw en
ĠáĬĥ áĪĭáįĬ
áĮĪáĬĺ áĭį
áī³áĭĪ áīĤáĭ«
áĪĿ áĭµ
Ġmoe ite
t s
Ġáĭ¨ áĪĢ
Ġer n
Ġonders oek
Ġáĭķ áĭµ
Ġhom self
Ġne w
Ġbeg r
áĪģ áĪĪáīµ
Ġdis sip
ĠáĪļáĬĴ áĪµáīµ
he en
uw elik
áĬł áīµ
ĠáĪĺ áĭµ
ĠáĬł áįĪ
Ġrig ting
Ġin st
áī «
áĮłáīĥ áĪļ
ĠáĪĺ áĭĿ
ge er
ĠáĭµáĪŃáĮħ áīµ
Ġáĭ¨ áĭ°
áĭ«áĬķ áĭ³áĬķ
ry d
Ġgev alle
ĠáĪĽ áĪ³
áĬĵ áĭŃ
Ġbeh oort
G e
ĠáĪĺ áĪĿ
ĠW oord
áĪĮ áĬŃáīµ
rate gie
Ġe x
áĭķ áĪĪ
ur ende
Ġ #
Ġteen oor
¦ áĪµáīµ
v oed
áĬ¾ áĬĲ
ad elik
6 6
Ġt og
Ġdaar om
× Ļ
Ġb ot
Ġs ond
áĬķáĮį áĭµ
Ġk uns
Ġbeh oef
Ġvoorb ere
ĠáīłáĪĺ áĪµ
ĠáĮīáĭ³ áĭ®áī½
l ag
ĠW e
ay s
Ġs om
Ġre Ã«l
áĭĬ áīµ
olg ens
Ġv ideo
Ġte k
áĪģ áĬĳ
Ġb ood
áĭ°áĪŃ áĮī
Ġáĭ¨ áįĪ
Ġonder wys
áī° áĬĵ
ĠAfrik aanse
k n
Ġmaklik er
áī°áĬĽ áĭį
áī º
st ad
Ġáī´ áĬŃáĬĸáĪİáĮĤ
áĪ ¾
ĠáĬł áĮ¥
Ġst of
Ġgroot te
eer d
áĭĺ áĬķ
Ġáĭ¨ áĪĮ
ag tes
Ġv uur
Ġbesk ryw
Ġgeb oorte
Ġáį İ
ĠáĬłáĬķáĭ³ áĬķáĭµ
Ġáīł áĮį
áĭ¨ áĬ¥
áįį áĬķ
Ġsw aar
Ġáĭ¨ áĪĪ
is sel
Ġso wel
ber g
áĮİ áī½
ĠáĪĽ áĪ½áĬķ
Ġáīµ áĬ©
o wer
áĪĻ áĬķ
S p
Ġverb y
Ã ł
Ġver antwoord
A r
áĭ° áĪį
Ġgev ra
áĭĪ áĭ³
Ġm uur
áīĢ áĪĿ
Ġvl ieg
n et
woord ig
áĬ« áī£áī¢
Ġpos isie
áĭ¨ áĬķ
ĠáĪ »
áī ¾áī½
ct ion
áĭµ áĪ®
del ing
ĠáĬ¥ áĪĿ
Ġstel sel
áĪĿ áįĴ
Ġm ed
eder land
lik se
i re
Ġinter ess
Ġkos te
Ġwaar om
tre e
Ġb ok
Ù İ
Ġto ets
ĠáĬ¨ áĭļáĭ«
saak lik
st ra
ĠáĮį áĭµ
Ġsn y
ĠN ou
áĪ° áĮ¥
ĠÂ »
áįĪ áĪ«
áĮįáī£ áĪŃ
ĠáĪĪ áĪĿáĬķ
id enheid
b ed
áĪĥ áĪį
ass ing
ĠáĬ¥áĬķáĭ³ áĪĪ
ĠáįĪ áīĥ
Ġverb ind
Ġáĭ« áĪ³
erk en
elf s
leu tel
y ne
ĠáĭĪ áĮĪ
ĠáĬłáĪĪ áīłáīµ
Ġpos it
áį ¦
ĠáĪħ áĮį
Ġte l
b oek
Ġsw art
u ut
à ²
Ġv el
Ġor gan
Ġf okus
v r
áĭ°áĪ¨ áĮį
Ġaan be
Ġl uister
ĠÅ ī
in eer
ĠáĪĺ áī°
Ġmet ode
t ief
id s
ĠáĮ¦ áĪŃáĬĲáīµ
" ,
Ġp yn
áīĢ áīł
áĮĭ áĭĬ
áĭ³ áīµ
Ġg un
ĠáĪļ áĪĬáĭ®áĬķ
l ang
Ġverge et
Ġo ur
sk akel
ĠN ie
ĠáĬŃ áĪŃáĪµáī¶áĪµ
gl ish
4 7
à º
L ike
ĠáĬł áĬŃ
5 5
áĭį áĪ®
áĭ° áĬĽ
Ġk e
Ġh al
Ġwonder like
áĬ« áīµ
Ġto el
áįį áĪ«
! âĢĿ
Ġáĭ¨áĪ° áĭį
ĠáĭŃ áĪĺáĪµ
áĭ« áĪį
ĠS ommige
ry p
in o
áĪĽ áĪį
à ¨
Ġsp an
m ekaar
áĬŃ áī¶
ĠáĪĺáĮįáĪĪ áĮ«
I s
ig tig
Ġe ind
Ġmin ste
Ġaan soek
u se
Ġverh aal
áĬ« áĭŃ
áīĤ áīµ
Ġw ins
Re ad
Ġm usiek
E N
áĬķ áįĪ
Ġge me
Ġvol k
ĠáĪĿ áĪį
ĠN et
Ġmo del
en ie
áĬ¨ áī±
áĬŃáĬŃ áĪĪáĬĽ
Ġplek ke
o it
áĪ° áī¦áī½
ĠáĬŃ áĪŃ
Ġom gewing
ic a
Ġverske idenheid
Ġáīł áĪ½
i j
ak ker
k aart
ĠáĬĲ áī²
Ġoor weeg
Ġe mos
ĠáĪĢ áĮĪ
áī¥áĪ¨ áī°
Ġkan s
ĠáĪķ áĭĿ
ĠáĪĺ áĬĲ
ĠáĪĺáĬķ áĮĪ
Ġgr oep
es k
ĠáĬŃáĪŃáĪµáī² áĭ«
ĠáĪµáĪį áĮłáĬĵ
Ġl a
et r
0 7
Ġge lyk
Ġvol w
F oto
áī£ áĬ¤
ĠH ou
áĬ¨áįį áī°áĬĽ
áĪµ áĪŃ
bl ief
S k
Ġe iend
Ġgek ry
Ġst u
áįĪáĪį áĮī
en a
ĠáĪĪ áĭļáĪħ
Ġbe Ã¯n
áĪĿáĬķ áīµ
Ġs we
Ġen s
áĬł áĬķ
Ġd adelik
Ġw y
Ġdie gene
0 2
ur o
de ur
et te
200 8
áĪŃ áĮį
Ġáī° áī¥áĪİ
Ġáĭ¨ áĬŃ
Ġsleg te
Ġáĭ¨áīł áĪĪáĮł
0 3
Ġáĭ¨ áįĸáĪĪáī²áĬ«
Ġbas iese
et jie
Ġáĭ³ áĭŃ
áĮ Ħ
áī³ áĬķ
Ġáīłáī° áĮ¨áĪĽáĪª
I D
Ġn orm
áĬ¨ áĭ«
Ġen k
áĪ¨ áī°
ĠáĪĺáĪł áĪ¨áīµ
Ġáīł áĪĢ
ĠEthiop ian
áĭį áĬĵ
Ġwerk lik
Ġvl oer
áĬ® áī½
Ġpr et
ation s
Ġgesk iedenis
al ing
áĭ°áĪŃ áĮį
áĭ± áĪµáīµáĪª
áīħ áĪ¨áī¥
ĠáĬł áĭ°
áī¦ áīµ
âĢ ĺ
en aar
Ġs os
n er
áĪµ áįĴ
ĠáĬ¥ áĭįáĬķ
ĠáīłáĪŃ áĬ«áī³
áĮĢ áīµ
Ġin houd
se blief
M et
Ġbet rokke
Ġv ul
Ġver lede
áī¥ áĬĿ
is ter
áį² áį
ĠáĪħáĭĿ áī¢
at or
ĠáĬ¢ áīµáĭ®áĮµáĭ«áĬķ
Ġt op
v iew
ĠáĪµáĪĪ áĪĨáĬĲ
áĮĪ áĭĽ
ann es
ak ing
áĪĭ áĪ½
Ġáĭĵ áĪĭáĪĽ
E S
ist or
Ġáīł áĪĨáĬĲ
áī¡ áĪŃ
áĮĭ áĪļ
ĠáĬ ĸ
ĠáĭįáĮ¤ áīµ
áĬ½ áĬ¥
áĪ«áĭĬ áīµ
Ġreken ing
Ġse e
áĪĭ áīħ
ande er
Ġver n
ĠK an
Ġk ol
áī£ áĪĪáĭį
ĠáĬ¢áīµáĭ®áĮµáĭ« áĭĬ
Ġgele er
ĠáĬ¢áīµáĭ®áĮµáĭ« áĭįáĭ«áĬķ
sk i
Ġnav ors
Ġáī° áĬ¨
Ġh uwelik
Ġt uin
Ġáī¤ áī¶áī½
Ġver minder
áįĬ áĭ«
Ñ ĥ
ĠC omment
ĠáĬĲáĮĪ áĪ®áī½
áĪķ áĭ¶
re f
ĠáĬ« áĪŃ
Ġdaar in
Ġfun ks
on es
Ġpr akt
b urg
áī Ń
ie er
ĠáĪ Ħ
Ġh as
áĬķ áĮ«
ist iese
áĪĪ áĪį
Ġmo der
Ġáĭ¨áĬĲ áīłáĪ©
áĮł áĪį
áĪ¨ áĭµ
8 6
am es
Ġáī ª
Ġáī£áĪĪ áĪĻáĭ«
áĮ« áĭĪ
áī£ áĪī
Ġáĭ« áĪĭáī¸áĭį
? ?
at s
v e
áĪĿ áĮĥ
Ġbek ommer
ĠO or
iw iteit
Ġáī£ áĭŃ
0 4
Ġd aag
Ġl aag
Ġbeteken is
ĠáĪ ©
Ġgew ild
áĭ ĥ
ĠáĬ¥ áĪĿáĬĲáīµ
áĭ°áĪ¨áĮĪ áĭį
ĠáĪ İ
Ġáįį áĪŃáĭµ
Ġproduk te
os te
Ġged agtes
ĠW aar
Ġáĭį áĮŃ
Ġma and
Ġdr oog
áĮł áĬķ
Ġas seblief
Ġáĭ¨ áĪŀ
ĠáĪ° áĪ«
aardig hede
ĠáĪĺ áįįáīµ
Ġgeb ore
áĭ ĸ
ĠáĪ° áĪĭáĪĿ
áĬ¨ áĬĵ
at t
Ġáĭ¨áī° áįĪ
heid s
ukk ie
ĠáĮįáĬķáĬĻ áĬĲáīµ
Ã ¶
ĠáĪĵ áĭ°
h o
áīµ áĪĿ
Ġáī ±
be i
áĮłáīł áīħ
ul p
O R
Ġres ult
l an
Ġgedeel te
aa ie
j ar
Ġb re
áĪ® áĪĿ
áĬ®áĬĸ áĪļ
Ġvre em
áĮĢ áĪĺáĪŃ
Ġkar akter
re is
9 9
r aad
s dien
I N
Ġmo enie
áĪħ áĬĵ
Ġvrug te
p ers
b eer
áĪĭ áī¸áĭįáĬķ
Ġin t
Ġvol t
ograf ie
b od
Ġsu b
b as
áī³ áĪĽ
ĠáĪĽ áĪ¸
ĠáĪķ áĭŃáĭĪáīµ
Ġáīµ áĭįáĪį
Ġar g
ĠáĪĪáĪĺ áĪµ
áĮ£ áĪª
f l
ĠáĪĿáĬŃ áĪŃ
ul d
d it
ĠáĪĺ áĮ£
Ġswang erskap
Ġl etter
st of
Ġbe en
áĭ«áĬķáĭ³áĬķ áĭ±
Ġveil ig
Å ¡
áĮħ áīµ
áĬĲ áĪ±
áĬĲ áīł
Ġvoor sien
Ġvers igtig
S A
mm ing
ĠáĬł áĪ¸
Ġoorspronk like
on eel
ĠáĮį áĪ«
tu re
w aard
Ġáī°áĬĵáĮį áĪ¨áĭĭáĪį
Ġp apier
Ð° Ñ
Ġd o
ĠáĪĺáĬķáĮį áĪµ
F acebook
ĠF acebook
Ġvre es
ĠG re
Ġl ae
Ġp e
áĮĪáĬķ áĭĺáī¥
Ġmet er
Ġverantwoord elik
Ġdie re
Ġgeh ou
áĪģ áĬķáĪĿ
Ġne g
ĠEl ke
al s
Ġgemeen skap
Ġr ooi
Ġáĭ« áĭ°áĪŃ
áĪŀáĬŃ áĪ«áĪ²
ĠáĬł áĭĭ
ĠáĬłáĪħ áĪĺáĭµ
Ġkl aar
s onder
Ġg ooi
Ġáīł áĪ¨
uid ige
Ġk inder
Ġh t
Ġáīł áīł
áĮŃ áīµ
Ġáī£ áĪį
b ou
áĭĺ áĭŃ
am a
o om
ĠáĮ½ áĪĳ
áĭĽ áĭĿ
ĠáĮ Ĩ
Ġge Ã¯n
he d
Ġáĭ¨áĪļ áĪĪáĭį
áĪ° áīł
at ur
Ġv eld
áĭĪ áĪĵáīµ
Ġsp y
ch n
Ġman s
w et
Ġver pl
ent r
Ġerv aar
Ġverb eter
ĠáĪĺ áĭį
Ġbl oot
Ġhoog te
m as
Ġáī°áĪĽáĪª áĭİáī½
áĭŃ áĭŃáīµ
Ġverl aat
Ġáĭ¨ áĭĭ
ĠáĬķ áĮī
Ġwil l
ĠáĭŃ áĪĦ
Ġb oeke
m el
Ġvers amel
al i
ĠáĬŃ áī¥
ĠGr oot
Ġáīł áĪį
Ġfinans iÃ«le
ante er
Ġáĭ¨ áĬ¤
Ġab s
Ġged agte
Ġblad sy
ĠáĮį áĭľ
ĠáĮį áĪį
Ġáīħáĭµ áĪļáĭ«
Ġ ryk
Ġb ang
er ings
3 2
áĬĲ áī±áĬķ
Ġp ak
Ġáīģ áĮ¥
áĮł áĬĽ
ĠAfrik aans
áĪ° áīµ
ĠáĪį áĪĽáīµ
Ġo oit
Ġge gaan
Ġb reek
d oen
Ġwaar van
Ġrond om
k ies
t iewe
áĮī áĪĿ
Ġtyd perk
Ġh erstel
áĮ¤ áĬĵ
at h
ĠáĭĪ áĬķáĭµ
áĪĪ áĪħ
áĪİ áī½áĬķ
oed ig
Ġwe d
Ġw enke
um ente
m ente
Ġverk ies
Ġpr iv
Ġáī° áĮ¨áĪĽáĪª
or ies
Ġáī° áĪ«
Ġon e
Ð ·
ers e
áĮ¥ áĬķ
áĮ ³
Ġgesk ep
ik asie
áĪŃáĭ« áĪĿ
ĠA f
ĠáĪĺ áī³
Ġáīł áĭĪ
ĠáĪĺáĪį áĪµ
Ġbesonder hede
áīĭáīĭ áĪĿ
Ġkomb uis
áĪĺ áĭĺ
as a
Ġto estel
Ġouder dom
S ub
áĭ Ĵ
Ġon ver
Ġáĭ¨áĪĺ áĪµ
Ġáĭ¨áĪļáĪ° áĮ¡
5 3
omm e
Ġáī£ áĪķ
enig de
Ġel k
Ġen ergie
Ġmakel aar
Ġs ig
Ġr el
en es
Ġwer d
T h
Ġdaar na
Ġkr uis
ĠáĬłáī£ áĪĭáīµ
ĠáĬłáĭµáĪŃ áĮİ
ĠáĮįáĪĿáĮĪáĪĽ áĭİáī½
Ġsl ag
áĪĽ áĪĽ
Ġs h
Ġaan bied
Ġnie mand
Ġster f
ĠáĪĤ áĭ°áīµ
ĠP ol
áĮĪáĪª áī±
9 7
Ġred elik
Ġver r
Ġbe plan
âĢ Ķ
Ġáī¥áĪĶ áĪ«áĭĬ
Ġáĭ¨ áĮİ
ĠáĬ£ áĪĪ
Ġh anteer
ĠK om
Ġáīł áĭŃ
l op
Ġlang er
Ġmakel aars
Ġm eng
Ġáĭ¨áĬĲáīłáĪ¨ áĭį
Ġsoort ge
Ġh uidige
ol d
Ġm at
per man
ow ige
áĭ³ áĪļ
Ġged rag
ĠáīłáĪĽ áĭµáĪ¨áĮį
Ġkl ere
O N
tel ling
Ð ³
Ġtr ans
áĪ» áĪĪ
Ġgev aar
Ġwaar heid
ĠK ers
áĭ« áĬĶ
áĭĺáĮĭ áĮħ
Ġáĭ¨ áĬ®
T witter
ig hede
Ġnatuur like
áĪ¯ áĪį
ĠáĮ¨ áĪĿáĪ®
od es
ĠáĮ¥ áĪ«áīµ
Ġm ond
ul dig
ĠáĬłáĬķ áīĢ
Ġáĭ¨ áĭĺ
Ġhoeveel heid
Ġe uro
ĠáĭŃ áĪģáĬķ
E T
áĬĲáīµ áĬĵ
Ġbe wys
Ġverv aardig
Ġh oek
áĭ³ áĭ³
ver t
ak ke
ĠP ers
Ġged ink
P ro
áĬĲ áīłáĪŃ
ĠáĪĿ áĬķáĭµ
Ġb ors
ĠS ch
ĠáĬĲ áīłáĪ¨
A an
Ġdok ter
Ġged r
áĭŃ áĬĳ
Ġre p
ĠN ederland
ĠáĭĪ áĮ£
áīĢ áĪµ
Ġenk ele
Ġverm y
áĬª áĭ«
Ġreken aar
Ġbele gg
áĬł áĭŃ
áĮ ©
Ġr aad
Ġp at
Ġbes it
ĠáĪĿ áĭķáĪ«
p h
Ġa mper
ĠáĪĺáĬķáįĪ áĪµ
webwebwebwebwebwebwebwebwebwebwebwebwebwebwebwebwebwebwebwebwebwebwebwebwebwebwebwebwebwebwebweb webwebwebwebwebwebwebwebwebwebwebwebwebwebwebwebwebwebwebwebwebwebwebwebwebwebwebwebwebwebwebweb
ĠáĪį áĬŃ
Ġdat a
Ġsk il
áī£ áī³
Ġle wer
áīł áī³áĪį
Ġont dek
Ġg raf
áĬ¦áĪ® áĪŀ
Ġek stra
Ġm as
ðŁ ĳ
Ġv oet
áī² áĬŃ
Ġkl ip
c es
ĠáĪĺ áĪĨ
wy n
áĬŃáĪŃáĪµáī² áĭ«áĬķ
Ġelke en
i aanse
Ġvor ige
áĭ³ áĮħ
Ġvoorkom s
áĪ¨áĮĭ áĮį
áĬł áĭ´
à¥ Ģ
Ġáĭ¨ áī¥
ol f
ag tig
Ġge sl
Ġf orex
Ġ )
Ġge es
H y
ĠB el
Ð¾ Ð¾
áĮ¥ áĬĲáīµ
ĠáĪĽ áĬħ
Ġ ident
, âĢĿ
u ier
Ġbinn ek
Ġn Ã¡
ĠáĬŃ áĪħ
l ie
ĠáĬłáĪĿ áĪĭáĬŃ
Ġverk eerd
j a
Ġáĭ¨ áīĨ
Ġd ele
ĠáĬ¨áĪĿ áĭĿ
Ġsie l
b ly
Ġáī¥ áĭĿ
áĪ³ áĪ°
le i
Ġvroe Ã«
Ġwerk likheid
áĭ³ áĪį
ĠáĪµ áĪľ
Ġte mp
ĠS odra
Ġpr ent
áĪĺáĪĪ áĪµ
áĬķ áī°
Ġge plaas
áĬķ áīħ
Ġáĭ³áĭŃ áĪ¬
áĪĭ áīĢ
ĠáĬł áĪ°
5 9
ĠáĮ ĵ
Ġáĭ¨ áĪĻ
Ġp re
Ġver moÃ«
ĠáĬłáĪµáī° áĭ«áĭ¨áīµ
Ġde eg
Ġdog ter
ĠáĬł áīħáĪŃ
se m
ĠáĪ° áī£áīµ
áįķ áĪ®
áĪĺáĪĪ áĬ¨áī°
ĠVer enigde
die se
A R
áĬĲ áįį
áĬ« áĪª
m ark
áĮ£ áĭŃ
ief de
áĭļ áĪģ
gev oer
Ġsp andeer
Ġdaar oor
gen aam
n al
Ġdaar aan
áĮ« áĭĭ
Ġáĭ¨ áĪĥ
Ġbas is
we er
Ġa pp
ĠáĬł áĪľáĪªáĬ«
ov en
Ġbeweg ing
áĪ´ áī¶áī½
6 7
ĠáĬłáĬ« áĪĭáīµ
áī¶ áī¹
Ġtoel aat
Ġáĭ¨ áįį
áĮ£ áĪį
ĠáĪµáĪĪ áĪļ
im um
ĠM in
áĪ¨ áī³áĭĬ
áĮł áįĭ
us tr
ĠáĪĨ áĪµáįĴ
0 1
Ġgel ukkig
áĪĭ áĪŃ
ra el
ĠTig ray
il de
p le
ĠáĮ¥ áīħ
Ġte ks
ĠáĬ£ áĪİ
Ġk aart
ĠbeÃ¯n vloed
ryw ers
il le
Ġáį ¤
Ġs am
áīĥ áĭİáī½
Ġgen e
áĭ« áĪĿ
Ġs leutel
ro on
k sie
ĠáĪĿ áĪŃáīµ
wy f
Ġgeb ied
ĠáĭŃáĮĪáī£ áĪį
áĪŃ áĬķ
Ġgeme ente
Ġplaas like
ĠáĪĺ áĮį
x t
Ġstud ente
Ġvoor af
Ġeiend om
áĪµ áī´
ĠV oor
5 8
we k
Ġste ek
r on
k rag
áįĸ áĪŃ
áīĭ áĪį
ĠNew s
Ġgew ig
Ġoor tuig
Ġáīłáī° áĪĪáĭ«áĭ©
ion s
áĬĲ áĬķ
Ġhel der
ation al
Ġeien skappe
un st
áī£ áīłáĪŃ
S o
w es
atuur lik
ĠáĪĺ áĬ¨áĪĭ
áĭĺ áī°
Ġáĭ¨ áĮĪ
Ã §
ĠáĪ° áĬķ
ĠL aat
Ġsw ak
Ġáĭ° áīĤ
ĠáīĢ áĬĵáīµ
ĠáįįáĪĭáĮİ áīµ
áĪĽ áĪµ
Ġáĭµ áĪį
áĪĽ áĭĬ
áĪĪ áĭ¨
l er
Ġvolt ooi
ĠáĪµ áĪħ
Ġbly k
um an
aat s
ĠAmerik aanse
4 2
ĠáĬ¨ áī£
==== ====
ste m
áĬ© áĪĿ
ou te
Ġstr uk
i be
an se
ĠáĪ¥áĪŃ áĭĵáīµ
Ġmil j
Ġh eer
ĠáĪ ®
ĠáĬł áĪģáĬķáĪĿ
St ap
ĠáĭĿ áĪĿ
áĮĪáĪįáĮį áĪİáīµ
áī½ áĪĭ
áīł áĪ¬
) ;
ĠáĬ¨ áĬ£
is hed
ĠáĮĪ áĬĵ
el le
v olg
Ġres ep
s cr
t or
à¯ į
Ġkon ing
r am
v en
áĬĽ áĪį
ic al
ĠáĬł áĭ°áĮĭ
áĮł áĭ¨
Ġáī «
Ġtoe gang
l ine
ĠáĪĿáĪŃ áĮ¥
áī³ áīµáĬķ
ĠáĪķ áĮį
áī³ áĭ°
ĠáĪĺ áĮ»
áĬ¦ áĪĿ
Ġt ye
Ġaange bied
9 0
Ġ :
f ees
áĪŃ áī£
j aar
ĠáīłáĪĽ áĪµ
áĬ¨ áįĭ
ow n
ĠáĪĿáĪŃ áī¶áī½
ĠáīĢ áĪĭáĪį
teen woordig
at iese
ĠáĪĺ áįį
Ġbr on
ĠáīĢ áĮ¥
an ce
Ġj a
ĠáĮ ³
Ġs a
áĬ© áīµ
ge sk
áįĪáĪį áĮĭ
ĠDe ur
áīĨ áĪĿ
L e
Ġv at
ĠA br
ĠáĪµ áĪĭ
d ra
áĮį áīł
ĠáĬł áįįáĪªáĬ«
áī£ áĪª
ie de
Ġáī¢áĪĨáĬķ áĪĿ
de er
áī³ áĭİáī½
ĠE r
ic s
Ġdr ink
Ġáīł áīħ
ĠáĪļ áĭ²áĭ«
Ġge tr
v i
Ġgesp rek
ĠáĪ ī
áĭĭ áĬĵ
k unde
ĠIn dien
Ġwerk like
5 7
A T
Ġmis kien
Ġgewe et
ĠáĪĺ áĪĭ
Ġby na
Ġgun stel
oem de
ĠS c
5 4
Ġg ou
ĠáĪĽáĭķ áĬ¨áĪį
ĠkliÃ«n te
oun t
th er
Ġáīłáĭĵ áĪį
l us
ug u
ĠáīĢ áĭ°áĪĿ
W aar
Ġop s
áĭĪ áĪĥ
Ġonders ke
ĠáĪŃ áĭķ
áĪĭ áĬķáĭµ
Ġáĭ¨ áī¤áī°
áīł áĪĺ
Ġe ens
áīµ áĪį
ĠáĪ° áĬĲ
áĭ° áĮĪ
ĠáĮĪ áī¥
Ġgod sdien
is m
Ġáīł áĮİ
Ġre Ã«ls
ĠáĪĺ áĭĭ
ut s
ĠáĮī áī£áĬ¤
Ġal bei
Ġáĭ° áĪħáĬķ
ĠW ant
Ġáĭ¨áĪĿ áĪŃ
Ġbe geer
and ag
to g
sk ool
Ġn ader
Ġbe dien
Ġbew us
kom ste
Ġgesk enk
Ġst y
h oek
Ġster re
N ovember
âĢ ¢
ĠáĮ¥ áĬķ
ĠáĪ° áĪŃ
Ġliter atuur
an je
áį Ķ
u an
áĮ® áī½
ĠáĪĨ áĬĲáĭį
eng te
Ġbood skap
ag ged
ĠUnivers ity
be w
ĠS elfs
ĠáĪĺáĪį áĬ©
Ġvertr ou
ĠáĪĬ áĪĨáĬķ
Ġáĭ¨áīĢ áĪ¨
st yl
ent s
áĭ ¢
Ġáī¥ áĪį
Ġkl im
Ġl ied
ke d
áĪĺ áĬĵ
Ġwaar mee
stel sel
i h
ĠáĭĪ áĮ¥
wer pe
Ġverk ry
×Ļ ×
ĠáĭŃáĮĪáĬĽ áĪį
Ġáį ħ
áĭİ áĪĿ
it ies
áĭĭ áīµ
Ġáīħ áĭ±
ĠIs rael
ĠR ep
Ġd er
le er
Ġáīµ áĬŃáĬŃáĪĪáĬĽ
ĠK aap
áĪ³ áĪµ
Ġartik els
áīĢ áĬķ
rit re
ĠáĮ ĥ
Ġfil m
à ·
Ġkle ure
Ġpers ent
ĠáĪĺáĬķáĮį áĪ¥
b est
Ġáĭ¨áĬ¥ áĮįáĭļáĬłáī¥áĪĶáĪŃ
áĪ« áĪī
ĠK yk
Ġsos iale
r oep
ĠáĪĽ áĪŃáĭ«áĪĿ
Ġáĭ ´
Ġber g
ðŁĳ ī
Ġa p
M aak
Ġme de
â Ŀ
Ġs ag
ad io
ĠáĬ¥áĭį áĬĲ
Ġbe dek
at an
sp an
áĭĿ áĭ³áĬķáīµ
op le
E L
Ġáī°áīĭ áĪĽáīµ
áĮłáĬĵ áīĢ
b ak
áĭķ áĪĬ
áĭĭ áī¸áĭįáĬķ
Ġkor rek
ĠáĪ° áĪĽ
áĬŀ áī½áĬķ
à °
áĭľ áĬĵ
áĭ°áĪ¨ áĪ°
Ġb ank
I S
Ġintern et
h ar
Ġk amp
n ers
Ġvers ier
Ġre des
Ġh aal
áī¦ áī½áĬķ
ule er
Ġst op
oe pe
Ġáīł áĮįáĪį
Ġ ite
ra e
Ġsiek te
ur k
ĠáĬ¢ áĭ¨áĪ±áĪµ
áĭĪ áĮ¥
à ±
Ġsp aar
ĠáĬłáĪį áĮĭ
ap e
ĠL u
ĠC r
Ġs maak
áĪĺ áĭĿ
áĪĪáĭį áĪĿ
ie le
ĠJ a
áĬķáĬ« áĪ«
ar is
w ag
Ġáĭ¨ áĭ©
Ġl yn
or n
ate d
w aar
Ġáĭ¨áī° áĭĪáĪ°
mer ke
ĠáĬ¥áĬķáĭ°áĪļ áĭ«
Ġkon se
ĠáĪĿ áĭĥ
ĠáĪ² áĪī
ĠáĪļáĬĴáĪµáīµ áĪŃ
áĪ° áĪ©
áīģ áīµ
áīĢ áĭĿ
Ġkont rak
V oor
áĮłáīł áīĢ
Ġáīł áī¥
t iese
ĠáĬĲ áĮ»
Ġged urende
áĬĴ áĭ«
ww w
áĭ° áĪŃáĪµ
Ġb oon
áĪŃáī¶ áĭ¶
Ġbek ende
áĬ¥áĬķ áĭ°
ĠáĬłáĪį áī°
A d
i or
ĠáĬ ¬
idd els
ĠáĬ¥áĪŃ áĪĿáĮĥ
Ġuit ste
Ġby kom
Ġgeeste like
ĠáĮį áĪĪ
Ñ Ĥ
áīĨáĮ£ áĮłáĪŃ
Ġges tel
ĠTer wyl
Ġf out
áĬ¬ áīµ
áĪĪ áĭĭ
áī½áĪį áĪĿ
Ġkal ender
ĠáĪº áĪħ
Ġn eer
Ġaf stand
áįķ áĪ¬
áĪĪ áįį
áĭ« áĭĻ
Ġontwikkel ing
wer we
áĬķáĮį áĪ¥áīµ
ĠAl hoewel
is kien
Ġak sie
Ġáī° áĪĺáĪį
áī¡ áĬĲ
m eer
B aie
áĭį áĪµ
áī¥ áĭĽ
o we
ĠG en
P h
Ġmoder ne
Ġ Ä
ĠáīµáĬ© áĪ¨áīµ
áīł áĪĭ
omment aar
Ġvoor deel
áīł áĪĪ
Ġad v
áĪµáī° áĬ«
Ġkom p
as ting
Ġa sem
ĠáĪµ áĭ°
k le
Ġer f
ĠH a
áĬķáīĢ áĪ³
ĠáĪĪáĭį áĮ¥
Ġhar de
áĭĪ áĪĪ
áĬķ áī²
ĠJoh annes
E D
Ġas ook
ĠáĬłáĭ³ áĭ²áĪµ
Ġáį Į
Ġskoon maak
pr aat
áĭ° áī¥
Ġof f
áĪĿ áĪ¨
Ġprofess ionele
áĬł áĬķáĭµ
ĠPa ul
Ġáī£ áĪĪáĭį
áĪ¨áĮĭáĮĪ áĮ¥
Ġgunstel ing
Ġd erde
b enewens
j ien
Ġáī¡ áĭµ
à ¹
Ġst rategie
áīģ áĪŃ
áĪĲ áĬķáĪµ
Ġv oete
Ã ¨
ont werp
áĪĮ áīµ
ĠáĭĪ áĪ¨áĭ³
ik a
m od
m ar
Ġh or
áĭ ·
at ing
ĠáĬ¨ áĬĲ
áĪĭ áī½áĬķ
ĠOp perman
Ġvak ansie
ĠáĭŃ áī»
ĠáĬĲ áīłáĪ©
es ter
ĠáīĢ áĪŃ
ĠáĭĪáĬķ áĮĢáĪį
Ġs es
ĠáĪĥáĮĪ áĪ«áīµ
ĠáĪĺáĪį áĬŃ
Ġk ap
ĠH et
ion al
ĠáĭŃ áĪįáīħ
áĪ³ áĪ½
B e
Ġ áį¡
Ġlig te
il la
Ġsp r
Ġh are
sp er
ĠS te
áīħáĪŃ áī¥
olle ge
Ġn ame
Ġáĭ¨áĪļáĪ°áĮ¡ áĭĭáī¸áĭįáĬķ
Ġuit voer
Ġgeb ed
ĠAn d
Ġáĭ¨ áĭĵáĪĪáĪĿ
akt ers
ĠáĪĺáĪį áĬ«áĪĿ
ĠáĪµ áĪįáĮ£áĬķ
Ġáīł áĬŃ
Ġáįį áīħáĪŃ
ĠáĬ« áĪĪ
l aai
. +
Ð°Ð°Ð°Ð°Ð°Ð°Ð°Ð°Ð°Ð°Ð°Ð°Ð°Ð°Ð°Ð°Ð°Ð°Ð°Ð°Ð°Ð°Ð°Ð°Ð°Ð°Ð°Ð°Ð°Ð°Ð°Ð°Ð°Ð°Ð°Ð°Ð°Ð°Ð°Ð°Ð°Ð°Ð°Ð°Ð°Ð°Ð°Ð°Ð°Ð°Ð°Ð°Ð°Ð°Ð°Ð°Ð°Ð°Ð°Ð°Ð°Ð°Ð°Ð°Ð°Ð°Ð°Ð°Ð°Ð°Ð°Ð°Ð°Ð°Ð°Ð°Ð°Ð°Ð°Ð°Ð°Ð°Ð°Ð°Ð°Ð°Ð°Ð°Ð°Ð°Ð°Ð°Ð°Ð°Ð°Ð°Ð°Ð°Ð°Ð°Ð°Ð°Ð°Ð°Ð°Ð°Ð°Ð°Ð°Ð°Ð°Ð°Ð°Ð°Ð°Ð°Ð°Ð°Ð°Ð°Ð°Ð°Ð°Ð°Ð°Ð°Ð°Ð° Ð°Ð°Ð°Ð°Ð°Ð°Ð°Ð°Ð°Ð°Ð°Ð°Ð°Ð°Ð°Ð°Ð°Ð°Ð°Ð°Ð°Ð°Ð°Ð°Ð°Ð°Ð°Ð°Ð°Ð°Ð°Ð°Ð°Ð°Ð°Ð°Ð°Ð°Ð°Ð°Ð°Ð°Ð°Ð°Ð°Ð°Ð°Ð°Ð°Ð°Ð°Ð°Ð°Ð°Ð°Ð°Ð°Ð°Ð°Ð°Ð°Ð°Ð°Ð°Ð°Ð°Ð°Ð°Ð°Ð°Ð°Ð°Ð°Ð°Ð°Ð°Ð°Ð°Ð°Ð°Ð°Ð°Ð°Ð°Ð°Ð°Ð°Ð°Ð°Ð°Ð°Ð°Ð°Ð°Ð°Ð°Ð°Ð°Ð°Ð°Ð°Ð°Ð°Ð°Ð°Ð°Ð°Ð°Ð°Ð°Ð°Ð°Ð°Ð°Ð°Ð°Ð°Ð°Ð°Ð°Ð°Ð°Ð°Ð°Ð°Ð°Ð°Ð°
ht tps
Ġstad ig
die t
D e
Ġthe ir
ink s
Ġoplos sing
l in
5 00
m ed
Ġm en
Ġonder houd
Ġk oek
ĠáĪĿ áĮįáī¥
áĮłáīĢ áĪĻ
Ġp unte
lik s
ĠáĬ® áĪĮ
re de
Ġo ord
Ġsk ou
ĠáįķáĪ® áĮĢ
ĠáĪĿ áĭµ
P ost
scr ibe
âĿ ĸ
áĭĭ áīĤ
áī¢ áīµ
at ies
werk ing
ĠáĮĪáĪį áĮ¸
ĠáĬ¦áĪ® áĪŀ
áĬ¨ áįĪ
ĠáīłáĪĺ áī¶
g ooi
Ġgene ig
er ende
ĠáĮ Ĭ
Ġverk l
ĠBy voorbeeld
ĠáĭĿáĪŃ áĭĿáĪŃ
b le
ĠáĪĨ áĭŃ
al ings
ens ter
áĭĿ áĪĿ
ĠáĪĿ áĪħ
al te
in ese
áĭī áĬķ
Ġáĭ¨ áįĢ
Ġst re
i y
b ep
Ġáĭ¨áĪĨáĬĲ áĭį
áĪĽ áī¸áĭį
Ġaf gel
áĪµ áī±
áĬĲ áī¶áī½
áĪĭáĪĽ áĭĬ
ĠáīµáĭįáĪį áĭµ
ad ig
Ġvoor dele
Ġan al
ĠW ord
Ġdissip els
ĠE ritre
ĠáĭĪ áĭĺáī°
ĠáĬĲ áĬĿ
ĠáĬĵ áīµ
ind ers
áĮ¸ áĪİáīµ
Ġwy se
200 7
ĠáĪĺáĬķáĮį áĪµáī²
ges p
Ġgest uur
er p
Ġvl ug
ĠáĬ¥ áĪ«
Ġáįį áīµ
áĪķ áĪª
ĠD es
Ġher inn
t ings
Ġk ons
Ġáĭ¨áĪļ áĮĪáĬĻ
Ġont staan
er y
áĬĵ áĮĪáĪŃ
ĠáĪĽ áĬ¥
ĠP h
Ġáĭį áĪĥ
ĠA fr
Ġver teenwoordig
Ġto estand
ĠáĭŃáī» áĪĭáĪį
aar te
S e
br and
ĠR om
um s
Ġvr oeg
Ġáĭĭ áĬķáĮ«
hang ende
Ġáĭ¨áī° áīĢ
áĮ¦ áĪŃ
Ġp ost
gemaak te
el ing
le d
ĠP ort
Ġh istor
Ġáīł áĪĥ
Ġw issel
baar heid
áĬŃ áī¥
áĮī áĭ³
Ġgemak lik
ra le
Ġk ult
oord at
S S
der t
áĮ¥ áĪ¨áīµ
ĠáĬŃáįį áĪİáī½
áĬł áĪģáĬķ
Ġme isie
o ers
or ld
V an
Ġin sp
áĪµ áĪį
áĭĪ áĮ¡
ĠI tal
ĠB es
áĮ¥ áĪĿ
k a
Ġpl ant
ĠáĪĽ áĮįáĬĺáīµ
â ĺ
ĠáĮ Ĥ
os s
Ġligg ing
w ater
Ġaan trek
áįĪáĪį áĮĭáĪį
ĠáĪĨáĪµáįĴ áī³áĪį
Ġwer ke
Ġpart y
ig h
Ġáīł áĭµ
áĬ¨áī³ áī°
ĠáĭĪ áĮĪáĬķ
Ġáĭ¨áīµ áĪĿáĪħáĪŃáīµ
Ġge ly
Ġáĭ¨áĭį áĮŃ
tel l
ĠáĭŃ áĪ°áĮ£
Ġar m
Ġd uis
on a
ĠE g
Ġby woord
Ġw akker
ĠáĪĺáĪį áĬ¥
ĠáĪĿ áĪĭáĪ½
ĠáĬłáĭµ áĪ«
ĠL at
us ting
ĠN uwe
Ġwet enskap
ar n
áĬª áĬĵ
ĠáĮĪ áĪĪ
Ġwerk woord
áĮĪ áĪĿ
Ġop er
Ġáĭ¨ áĭµáĪŃ
reek s
p unte
Pr ent
Ġgele de
áĪ³ áī¸áĭįáĬķ
áĪĭ áĪĭ
Ġsp ort
áĭ¨ áĭ²áĪĭ
p or
Ġvers oek
art y
Ġhandel aar
Ġun ivers
ĠáĪģáĪī áĬķáĪĿ
Ġbr ief
ĠáĪĨ áī´
l Ãª
g ende
olog y
Ð ²
ĠáĪĪáĪĽ áĮįáĬĺáīµ
Ġáī¤ áī±
Ġáĭ¨áĪļ áĮĪáī£
Ġverge lyk
Ġáīµ áĭķ
or k
h et
Ġáī° áĮłáīĥáĪļ
áĪŀ áīµ
áī² áīµ
áĬŃ áĪ®
ĠáĬł áĮį
ĠGe bruik
Ġthe y
áĪĻ áīµ
Ġáĭķ áĪĪáīµ
áĪ« áĪ½
áįį áĪª
Ġl et
áĬ¨ áĪ¨áĪĿ
bre k
struk sie
gg end
Ġh itte
áĭ³ áĪĿ
Ġposit iewe
Ġáĭ¨ áĬķáĮįáĭµ
Ġáĭŀ áĬķ
ĠáĪĪáĪĽ áĪ³
Ġáĭ¨ áīħ
Ġáī£ áĬķáĬŃ
áĬŀ áī¹
áĭĿ áĬĵ
15 0
Ġge bring
Ġk ommun
Ġdaar voor
do ende
pr oses
ĠáįĢ áĪ¨
áĭĵ áĪį
Ġáī° áĮ«áĭĭ
Ġv leis
ĠáĪľ áīµáĪŃ
Ġreg ter
Ġf akt
sk e
age er
ĠáĬĲ áĬķ
Ġáī¢ áĪ®
Ġt afel
ĠáĪ ¦áĪµáīµ
Ġaanbe veel
áī¶ áī»áī½áĬķ
Ġc an
ĠáĬŃáįį áĪĪ
ĠáĮ¥ áīłáīĥ
ĠáĬ¨ áĪ°
áĭķ áī£
Ġáĭĵ áĭŃ
P L
ĠáĭŃ áĬĸ
Ġuit dag
áĬķ áĭ°áĪŃ
ĠH eilige
ĠáĪĺáĪ³ áĪªáĭ«
p assing
Ġáĭ¶ áĪĭáĪŃ
ra b
Ġm edia
s ite
ĠáĭŃ áĭŀ
ĠáįĪáīĥ áĭµ
Ġáĭ³ áĪŃ
ĠáĬł áĭ¨áĪŃ
ro g
Ġf iets
s w
ĠáĬł áĪĺáīµ
Ġm erk
áī£ áĬŃ
áĪĮáĬŃáīµ áĪªáĬŃ
ĠInd ones
ĠáĪĽáĪħ áīłáĪ¨áĪ°áī¥
ĠáīłáĬł áĭ²áĪµ
Ġáĭ° áī¥
Ġáīłáī°áĪĪáĭŃ áĪĿ
áĪ³ áīģ
ere g
â ľ
ĠáĪĽ áĪķ
ĠáĪĺ áĮ½
ĠáįĸáĪĬ áĪ²
k ont
oe tel
u ite
Ġs eer
áĮįáĪŃ áĬĽ
Ġáīł áī£
áĪĪ áĬĿ
not ice
Ġk ategor
as eer
Ġbeh oor
n ame
ĠáĪŃ áĬ¥
iv ier
áĪį áĪµ
áį ³
áī° áĭĭ
ul l
Ġáĭ¨áĪļ áīĨ
af f
ĠáįķáĪ®áĮįáĪ« áĪĿ
ĠáĬł áĭ¨
áī¥áĪ¨áī° áĪ°áī¥
áĪį áīģ
!! !
áĬ¨áī° áĪĽ
Ġplat form
áĪŃ áĪ»
Ġáī³ áĪª
Ġgro en
ĠO u
áĪĦ áĪŃ
ĠáĭŃ áī³
áīĢ áĭµ
ĠáĪĺ áĪ¥
áĭ¨ áĬ¢áīµáĭ®áĮµáĭ«
áĮ¨ áīµ
ĠS w
Ġsk ie
âĢ¦ âĢ¦
ĠáĪµáĪħ áī°áīµ
ĠR eg
oe der
áĬĹ áĪį
ĠáĮ¥áĭ«áīĦ áĭİáī½
áī¥áĪŃ áĬĵ
it aal
Ġre al
af hank
Ġáĭ¨áĮį áĪį
Ġ et
áĪĭ áĪ´
Ð° ÑĢ
áĪª áīµ
Ġide es
áĭ° áįį
ac t
ter f
áĭ± áĬķ
p ad
inter est
Ġáĭ° áĪŃ
Ġmens like
Ġte mper
áĬĵ áī¸áĭįáĬķ
Ġáĭĵ áĪĿ
ĠáĪ° áĮ¥
ĠáĮī áĭŀ
Ġges els
Ġgel uk
ĠáĭĪ áĪį
Ġáĭ¨ áĬ¦
áĭĽ áī¤
el p
Ġv ars
ĠáĪ³áĭŃ áĬķáĪµ
t enis
Ġáĭį áĭŃáĭŃáīµ
w in
ĠáĬ ³
áĮī áĪį
Ġáī ¶
w a
ĠáĬĲ áįį
Ġáī° áĮĭ
ĠáĪ° áįĬ
áĭ² áīµ
ubl iseer
b ot
áĪĬ áīµ
ar te
Ġab out
est a
áĮĭ áĭŃ
ĠáĬł áĪ¨
Ġvers org
áī¤ áī±
áĬĽ áĭįáĬķ
áĪĺ áĮ¥
áĭį áĪŀ
Ġáĭ° áĪĿ
ĠU it
er g
áĬ¨ áĪ¨
Ġbr ood
ĠGre gor
ese arch
Ġgen er
Ġfe ite
Ġvoor spel
áĮ¥ áĪ¨
áĮ §
5 6
ĠáĭĿ áĪĵ
Ġv ader
los e
áĮĪáĬĵ áĬĽ
ĠáĪµ áĭµ
ĠáĭŃ áĪĭáĪį
Ġ à¤
am ers
t y
tig heid
en ce
wyf el
ĠáĬķ áī¥áĪ¨áīµ
ĠáĪĺ áī¶
áĪ¨áĭ³ áīµ
Ġon middel
Ġo ggend
ĠáįķáĪ¬ áĭļ
Ġáĭĺ áĭ´
Ġáĭµ áĪ¨
us se
op tion
Ġd ro
ing er
Ġf ond
áĪĺ áĮ¡
Ġin str
Ġbelang stel
Ġu se
Ġsl im
Ġáī° áĭ°áĪŃ
áī ¾
Ġsl aan
Ġgebruik ers
áĪģ áįį
áĭįáĪ® áįĵ
gestel de
Ġáī°áĪĺ áĪ³áĪ³áĭŃ
Ġáĭ¨áĪļ áįĪ
it co
áĮ£ áĪļ
áįĪ áĬķ
áĬ½áĬ¥ áĪį
Ġ Ã³
ĠáĪĽáĪ¸ áĮĬáĭ«
Ġb uit
os p
áĭ³ áī³
Ġoor een
alle er
Ġáĭ¨ áĭļáĪħ
t a
Ġt ree
Ġim m
Ġdaar mee
Ġáīłáī° áĪĺáĪĪáĬ¨áī°
Ġáĭķ áĭį
ĠáĪĽ áĭį
ĠáĪĿ áĬ¥
áīł áĭļáĪħ
Ġáīłáī³ áī½
ĠáĮ¥ áĪª
Ġbe elde
at al
Ġin s
áī¥ áī¡
ank lik
u mb
áĪµáī° áĪŃ
Ġáī£ áĬķ
Ġáī£ áĪħáĪį
Ġáĭ³ áĬķ
ĠáĭŃ áī³áĭĪ
tel s
ĠáĮĪ áīłáĭ«
ast iek
ĠáĪĺ áĪ¬áīµ
ĠáĪł áĪ«
e h
ĠáĬ¥áĬķáĭ° áĮĪáĬĵ
áĪµ áĪĬ
áĪĿ áĪĭ
G od
ĠáĮīáĭ³ áīµ
Ġbere id
Ġkop er
Ġf is
áĪ¬ áĬķ
ĠY ou
b and
Ġb yd
ĠG u
Ġdie r
Ġversp rei
áĬĸ áĪĿ
ĠC on
Ġbed ryf
Ġgek ies
on ie
Ġa mp
van gel
on ing
Ġgel owige
stand ighede
áīĢáĪŃ áī¥
áĭ°áĪ¨ áĮĥ
oog le
Ġdr ome
Ġgew erk
Ġgl as
ĠTh is
ĠC l
ÑħÑħÑħÑħÑħÑħÑħÑħ ÑħÑħÑħÑħÑħÑħÑħÑħ
Ġse is
áĬĲ áĪ£
Ġáī° áĬķ
Ġwoon stel
Ġbesp rek
Ġk oue
ĠáĪĪáĪĺ áīĢ
áĬĴ áīµ
ĠáĬ ĳ
Ġkw aliteit
Ġsk rywers
Ġhal f
ur r
ĠáĪĺáĪµ áĪĺáĪŃ
Ġ erken
ord er
áīł áĬŀáī½
áįĪáĪį áĮį
E thiop
Ġtrad is
áį¢ âĢĿ
v ersk
ĠáĮł áĬķáĬ«áĪ«
el der
Ġon lang
Ñ ĭ
Ġgesond heid
Ġkar akters
v is
áī³ áī½
ĠT yd
Ġ z
áĬ º
ug de
ĠáĪĺ áĪ£
Ġwh o
aa ier
A M
Ġreg s
Sub scribe
ah am
os ter
Ġáĭ« áĭį
Ġpot ens
ĠN o
sk a
áįĭ áĬķ
Ġpe ople
t oe
Ġt itel
n ie
Ġvo Ã«l
ĠT witter
áĪ´ áīµ
Ġnu ut
Ġáīł áĭĵáĪĪáĪĿ
áĪ² áĬĸ
áĭ± áīµ
Ġklein er
ĠáĬł áĮłáīĥáĪĭáĭŃ
Ġw inter
Ġe f
áĪľ áĪį
Ġáĭ¨ áĬķ
s er
u ip
Ġáī½ áĪİ
Ġh onde
áĭ³áĭ³ áĪª
Ġv enster
Ġtyd skrif
áĬłáĭ´ áĮį
ĠM eer
ĠOn der
sie ke
áįį áĪį
Ġb ene
ĠT V
oc k
Ġd w
at te
áĮĢáĪĺ áĪ¨
ĠáĬ®áĪĮ áĮħ
ĠáĬł áīħáĪĿ
Ġak k
Ġme est
S oos
ĠáĪĺ áĪ«
áĬ¸ áĭįáĬķ
Î »
Ġáī° áĬ¨áī³
ĠáĭµáĪŃáĮħ áī¶áī½
áĪĬ áĬŃ
áĬĸ áĪ¨áĭį
T er
Ġge praat
Ġk unst
Ġoef en
Ġles er
Ġas pek
ĠáĮ¥ áĬĵáīµ
ĠR uss
Ġb or
áĮĪ áĭ³
Ġtr oetel
Ġ Ã
B log
v eld
ĠIn tern
Ġvoorb eelde
Ġht tps
it ter
N e
ĠáĪĺáĪĺ áĪªáĭ«
Ġbekommer d
Ġbed rag
h ats
ĠáĮłáīħ áĪĭáĭŃ
áĪĬ áĭ«
Ġst ories
Ġhard loop
Ġk ern
Ġverv al
áĭ© áĬķ
áĬŃ áĬŃáĪį
Ġoop maak
Ġsk oot
Ġgeb aseer
Ġáĭ¨áĪļ áī³
Ġged ig
áĮĪ áīł
ĠT ante
Ġstad ium
v erk
ĠáĬ¨ áĭŃ
, +
áĮĢ áĪĿ
m oon
ĠáĮ½áĪĳ áįį
áĪĺ áĪ©
Ġf ig
ĠáĪ± áĭ³áĬķ
Ġreg uit
ĠáįĬ áīµ
Ġweer gawe
Ġg rade
b al
ok ke
I T
áĮ¥ áįį
Ġte ens
Ġáīµ áĪĿáĪħáĪŃ
Ġáĭ«áĬķ áī¥áī¡
Ġm ass
áī» áī¸áĭįáĬķ
Ġmoe der
Ġhul self
Ġm ate
áĪ« áī¢
áĪĺáĪĪ áĬ¨
Ġspes ial
struk sies
Ġef fens
Ġongel oof
!! !!
áĬ«áĪĦ áĭ°
áº ¿
áĬķáĮį áĪĬáĭĿ
ĠÃ³ f
k w
ĠK r
Ġgew eld
Ġpriv aat
ĠáĬłáī¥ áĭĽ
et se
ĠS am
Ġon afhank
Ġre Ã«n
i am
áĮŃ áĪŃ
Ġb ut
Ġin druk
ĠáĬ¥ áĭĭáĬķ
Ġpr os
áĭ« áĬĳ
aw es
ĠN e
ĠR es
ĠáĪħ áĭŃáĭĪáīµ
m y
áī¢ áĭŃ
m yn
ĠC ol
ĠáĪµ áĬĲ
Ġhier van
ra in
áĭ° áī£
Ġvre de
áī¡ áĬĵ
Ġged ra
áįĢ áĪĿ
ĠS oms
Ġw ind
ĠM on
gen ame
E en
áĪį áĪĽáīµ
M y
8 5
ĠáĪĥ áĭŃáĪĽáĬĸáīµ
ĠáĮ ħ
áĪ® áĬķ
Ġern stige
Ð ¿
Ġs ommer
Ġbegr ip
áĮ Ĳ
Ġskil der
Ġim p
d f
ĠM ag
Ġáĭ¨áĭį áĪĥ
Ġged igte
Ġs ake
ĠáĬ¥áĭ« áĪĪ
ĠáĪĿ áĭµáĪŃ
áĬĸ áī½áĬķ
ĠT rad
is to
ĠáīłáĪĺ áī°
jar ige
ĠDaar benewens
áĮĪ áĭĭáĪį
Ġl y
áĪŃáī¶áĭ¶ áĬŃáĪµ
áĮį áĬĻ
ĠáĪ³ áĪĿáĬķáīµ
f e
Ġ' '
Ġs c
Ġperfek te
áĪŃ áĬĵ
M oenie
ĠáĬŃ áĪ³áī¥
Ġto es
Ġáĭ¨ áįĮ
áĮĭ áĪª
Ġvoor werp
Ġtr ou
olog iese
Ġp og
áīł áĪī
ĠáĪĽ áĪ½
áīł áĪµ
áĪ® áĬĵ
i x
áĮ¥ áįĭáīµ
oo ie
Ġáĭ¨áīµ áĮįáĪ«áĭŃ
Ġt oekom
d rag
áī¡ áīµ
od ige
ĠáĪĺáĭµáĪ¨ áĬŃ
y ou
il ip
Ġar tic
wend ig
áĬ¥ áī²
Ġdien ste
Ġáī¦áī³ áĭİáī½
ĠS al
ĠáĮ¥ áīĥáīµ
d ay
gr oot
Ġdaag likse
ĠáĪĽ áĪĪ
Ġgen ade
Ġn at
nem ing
g o
Ġbet rou
áī¥ áĪªáĬ«
ĠI ma
Ġáĭ¨ áīģ
reken ing
o y
Ġop tree
Ġmoont like
ion eel
Ġt ans
Ġre ageer
pro gram
Ġvolle dige
Ġwaar voor
ĠS atan
Ġl engte
ec t
Ġsu ur
áĮ ¾áī½
ab el
áĪĺ áĬĵáĬķ
Ġáĭ¨áĬ¥ áĬĽ
áĬĲ áĭĪ
ryw ing
Â Ń
ĠS tu
áĭ« áĭŃ
ĠáĬĲ áĭĭ
Ġnavors ing
g h
áįĭ áĪį
Ġáĭ® áĪĲáĬķáĪµ
ĠáīłáīĢ áĮ¥áī³
ĠM an
Ġuitste kende
áĮĪ áĪ¨
Ġvern iet
Ġdor p
ĠáĬłáĬķ áī°
u ide
A C
i ver
ĠT agged
hou t
ĠáĬ¥áĪµ áĬ«
Ġáīł áĪĮáĪĭ
Ġm os
áĬ¨ áĪĿ
áĪĺ áī±
T oe
áĪ° áĭµ
Ġhier onder
iw iteite
ĠM iskien
Ġáĭ¨áĬł áĪĽáĪ«
Ġm elk
Ġáī°áĮĪ áī¢
Ġr oep
i á»
áĬ¥ áĬĵ
áĬ« áĬķ
ĠáĪĿáĬŃáĬķáĭ« áī±áĪĿ
Ġabs ol
Ġáī ²
Ġáį Ĵ
u uk
Ġre k
Ġm aag
ĠO ok
Ġkl ink
s h
áĪĭ áīµáĬķ
Ġvinn ige
v ry
ĠáīģáĮ¥ áĮ¥áĪŃ
Ġpl ak
ĠáĭĿ áīħ
áĬĴáī¨áĪŃáĪ²áī² áĭį
ĠáĬ¥áĬĵ áĪĿ
áīł áĪ«
vers ek
Ġkw aad
Ġbehoef tes
et ting
Ġnut tig
Ġp an
Ġáī° áĪ³
ĠáįĸáĪĬ áĪµ
Ġáī° áī¥
ĠáĬłáĪµáī° áĭĭ
ĠáĭŃ áįĪ
a ir
Ġsk uif
áį³ áį
ĠáĪĺáĪµ áīĢáĪį
áīħ áĪ¨
Ġeien aar
os koop
ĠG er
Ġf yn
ĠT est
Ġse dert
st il
áĪµáī´ áĪŃ
Ġáĭ¨áĬ¢ áĬķ
Ġge Ã«
el and
ĠáĬ¥áĬķáĭ³ áĪį
ĠáįĪ áĮ£áĬķ
áĮĭ áĬĵ
áīł áĬ¥
Ġgoed koop
ĠáĬłáĭį áĪ®
ĠáĪ ¬
Ġk lik
st ens
itco in
ĠB rit
T we
Ġsk yn
ĠAbr aham
ate s
Ġaan sien
in asie
Ġáĭ¨áĪļ áī½áĪį
áĪ ¡
Ġpol it
ĠáĬ£áī¥ áī²
d ier
ĠáĪĥ áĭŃ
Ġáĭ¨ áĪ¥áĪ«
ĠáĬłáĪµ áī³áĭį
ĠH aar
áīª áĭµ
ĠáĪ¥ áĬĲ
Ġvroe Ã«r
áĪ»áĪ» áĪį
áĭ² áĪ±
ne e
er f
ĠáĬŃ áī¥áĪŃ
Ġsukses vol
Ġg ang
wy se
Ġuit ers
Ġom standighede
Ġver trek
Ġbe ur
áĪĺ áĬĲ
eg in
ĠáĮ ¾
áĭ« áī¸áĭį
áĬł áĭ²áĪµ
ĠáĮ¦ áĪŃ
Ġges onde
Ġdoel wit
Ġh of
áĬ¦áĪ® áĪļáĭ«
gl o
Ġáĭ¨áī° áĪ»áĪĪ
Ġs ir
Ġvoor stel
J ou
áĪļ áĬĴ
ĠW il
bre aking
ra we
Ġáī¥ áĭ¬
Ġb os
áĬŃ áĪĪ
Ġstu die
Ġverk eerde
áĮ¦ áī½
áĮĪ áĪ©
Ġáī° áĬ¨áīµ
le es
ab le
ĠáĭŃ áĪĨáĬķ
PL F
Ġáīł áīĤ
à¤ ¾
d ae
ĠáĮį áĭ´
Ġd es
Ġd om
áĪĥ áī¥
t oon
ĠJ ap
Ġt wyfel
6 8
a x
à¦ ¾
im lag
Ġout om
Ġs imp
br ief
ĠáĬ¨ áīĢ
Ġáĭ° áī¡áī¥
ĠKon inkryk
ĠáĮĭáĭľ áĮ£
Ġs oorte
ĠáĭĿ áī¥áĪį
Ġáī¦ áĪŃáĭµ
Ġstap pe
Ġvre ugde
áĪ³ áĪ°áī¥
ĠáĬłáīµ áĪĮ
4 1
ĠS a
Ġw ol
ĠáĪį áĭķáĪĬ
ĠáĬŃáįį áĭ«
áĭ° áĬĵ
Ġbet rek
Ġbeh ulp
áĪį áĭ©
áĬĵ áįĬ
Ġe il
ĠáĬ£ áĪĺ
S y
Ġger us
Ġsk erm
ĠOm dat
ĠGregor iaanse
ĠáĪĿ áĬ½
Ġverander ing
P ubl
y p
áĪ± áīµ
áĭ® áĪŃ
un g
áĮĵ áĪį
ĠOn thou
Ġb and
áĭ°áĮĭ áĮĭáĪļ
âĢĿ .
Ġl id
Ġge brek
Ġv aardighede
ĠáĪĥ áĪ³áī¥
ter k
Ä į
Ġp m
ĠáĪĺ áĮĭ
ĠáĪĿ áĪķ
áĪµáī° áĭĭ
áĬł áĪį
en ter
Ġo b
Ġloop baan
Ġáīħáĭ± áĪ³áĬķ
ĠBin Ãªre
A L
áĪ½ áĬ¨áĪŃ
Ġs ens
Ġáĭ¨ áĮ¨
sl ae
ĠC O
Ġsk r
áī ¿
áĮ« áĭį
áī´ áīµ
ĠCh inese
áī° áĮ¨áĪĽáĪª
Ġv enn
Ġvoort d
p rys
áĪĿ áĪ¨áīµ
ĠB os
Ġáĭ¨áĪµ áĪ«
áĬŃáĪį áĪī
ĠB log
áĭ« áĮŃ
Ġáĭ³ áĭĬáīµ
j are
oun d
ĠáĪ´ áīµ
ĠáĬ¨áī£ áĭµ
áĬ¨ áī£
P S
Ġáĭ ī
Ġst yl
ĠáĬ¥áĭį áĬĲáīµ
áĭĭ áĪļ
Ġagter grond
is asie
áĪ¥ áĪŃ
Ġáĭķ áĭµáĪį
áĪ³áĭŃ áĬķáĪµ
Ġter me
) áį¢
Ġf ant
7 5
d aag
u al
t heid
an ese
Ġverhandel ing
Ġj e
áĬķ áĬĲáīµ
Ġdr ank
u th
ĠáĬł áīĭ
ĠáĭĪáĭŃ áĬķáĪĿ
ĠS we
ĠM oet
ĠSe un
m iddels
Ġsukses volle
ĠáīµáĬķ áĪ½
iv eer
Ġáĭ¨ áĪ½
Ġáīģ áĪ³áīģ
áī¥ áīħ
ĠáĪĪáĪĿ áĪ³áĪĮ
al th
áī¶áī½ áĬĵ
Ö ´
áĪĪ áĮ¥
u ff
ov ern
ĠEngel se
áĭ« áīĤ
k yk
ik ip
Ġso wat
áĮĪ áĭĿ
Ġstruk tuur
Ġt ake
Ġáī°áĪµ áĪĽ
Ġs en
ĠO k
ĠáĬ¥áĬķáĭ² áĪĨáĬķ
houd ing
áīłáĪ© áīµ
áĪŃ áĪĽ
ĠO ost
ĠK l
be h
áĬķ áī³
áīł áīħ
Ġweg ge
Ġteens telling
id ings
Ġáĭ¨áĬł áĬķáĭµ
3 00
áī³áī½áĬķ áĬķ
ĠáĮĮ áī³
O O
Ð¾ Ð½
o tel
áĭĵ áĭĬ
m ag
Ġy s
Ġbad kamer
Ġáĭľ áĮİáī½
ĠáĪµáĪĿ áĪĿáĬĲáīµ
áįįáĪª áīĥ
Ġweb werwe
Ġbepaal de
ĠW el
ĠáīłáĪļ áĭ«
ĠáĬ«áĪŃ áī³
an i
Ġre aksie
ĠáĬłáĪĪ áī£áī¸áĭį
Ġplaas vind
áĬ¥ áĬĶ
Ġas s
oll ow
áĬĲ áĬĽ
ĠU S
Ġgehoor saam
Ġst ryd
ĠáĮį áī¥áĪ¨
ry se
Ġj uis
ett y
Ġad dis
Ġvoor raad
ĠáĪĬ áīĢ
ik er
Ġsk ad
Ġa cc
oe de
ie ur
áĮ¥ áĭ«áīĦ
ĠW ees
ĠáĪĽ áĮ£
Afrik aanse
ĠáĬł áĪīáīµ
ari an
Ġsk uld
áį Ĳ
ĠáĬĲ áĮĭ
ĠáĬłáĪĿ áĪ«
Ġáīµ áĮįáĪŃáĬĽ
Ġsom er
ĠáĪĺáĪ³ áĪªáĭ«áĭİáī½
m on
áĬĵ áĭŃáīµ
us ie
Ġskie lik
a Ã
Ġoor bly
ur ch
a and
ĠáĪĺ áĬ¨áĪ«
k ings
áĭĺ áĭį
al we
ge we
Ġn ek
Ġsi mbol
áīĥ áĭĪ
ĠáĪĿáĪį áĬŃáīµ
Ġele mente
á Ł
ap pe
ĠáĬ¥ áĭ®áĪĿ
Ġvas te
Ġme diese
Ġsk ade
Ġindivid uele
Ġn aak
Ġmak s
Ġger aak
ĠáĬ¨ áĭį
Ġse Ã«n
Ġáīł áĭļáĭ«
Ġk ommentaar
Ġáĭ¨áĪļ áĪĪáĭįáĬķ
Ġwerk nem
ĠAn der
Ġvol doen
Ġsi mb
áĬ«áĪĦ áĭµ
ĠáĪĽáĪµ áī³áĭĪáīĤáĭ«
ĠáĮĪáĪį áįĢ
eth iop
ĠáĪĺáįįáīµ áĪĦ
Ġla er
Ġáĭ¨ áĮł
Ġop w
Ġl og
u ba
Ġsou t
Th is
Ġáĭ¨ áĭķ
áĪĺ áĪĿ
áĪ° áĮ¡
ĠáĪ¶ áĪµáīµ
Ġinteress ante
Äį ina
iÃ« r
Ġstand aard
Ġbest and
aad jie
Ġp ark
ĠT PLF
Ġn ad
Ġtradis ionele
Ġd ak
áĪĿ áī£
Ġit s
áĭ³ áī¤
Ġe p
áĬĵ áĭ³
ä ¸
a j
Ð ¹
f eer
Ġáĭ³áĬķ áĬ¤áĪį
und el
Ġneg atiewe
p apier
Ġbel Ãª
áĪĺáĪĪ áĬ¨áīµ
ĠáĪĿáĪŃ áĪĺáĪ«
im es
k ry
ĠáĬ¥áĪµ áĬª
ĠF l
moon t
ver f
Ġske pp
áįį áĬĵ
best uur
oad ing
Ġáī¥ áĪĪáĬķ
ĠV ry
áĪ¨ áĪŃ
az on
Ġbeskryw ende
Ġgep ubliseer
Ġfis iese
l oos
tion s
ĠáįĪ áī°áĬĵ
Ġt re
Ġkamer a
Ġl yf
ĠáĭĪ áĮª
ĠáįĸáĪĪáī²áĬ« áĭĬ
ĠSt ate
Ġvl oei
Ġher haal
Ġgro ente
áĪī áīµáĬķ
Ġe mail
dr aai
ĠáĪĺáĬķáįĪ áĪ³áĭĬ
U n
áī¸ áĭī
ĠáĪĺ áĬĸ
Ġáī° áĮ½
we ek
Ġew ige
Ġt aak
ĠV olgens
Ġgele i
áĬ¨áĬĵ áĭĪ
b at
Ġw es
Ġbl ou
ĠL aw
ĠáĭĪáĮĪ áĬĸáī½
ĠáĬ¥áĬĲáĭļáĪħ áĬķ
. âĢĻ
Ġ ....
Ġh elf
dr ess
wer ke
if e
ĠTest ament
Ġle wende
? "
Ġáĭ¨áĬł áĪľáĪªáĬ«
pro duk
Ġáĭįáĭµ áĭµáĪŃ
Ġp ap
Ġr ot
áĭ« áī½áĬķ
ikip edia
áĬķáĮį áī°áĬķ
áĬķ áįĥ
áĬ¨ áīłáĪŃ
ĠáīłáĭļáĪħ áĪĿ
Ġvolw ass
ĠG l
s o
Ġbev estig
sk ryf
áī» áĪĪ
áĬĲ áĪŃ
Ġaan wys
Ethiop ia
Ġrom an
d en
ur ger
ĠáĪµáī¥ áĪ°áī£
Ġáĭ¨ áĮ¤áĬĵ
ĠáĪ° áĭĵ
ĠáĮī áĭµ
ĠáĭĪ áĭ³
Ġáĭ¨áĪĿ áĪŃáīµ
ĠáĬłáĪĿ áĪµáīµ
o est
Ġin vloed
ĠáĪĺáĪµ áĮłáīµ
ĠIma ges
ĠW ie
Ġby mekaar
yd s
Ġgen ees
áĬł áĭĬ
ĠIn st
áĪķ áįįáīµ
ver h
Ñ Į
36 5
Ġo lie
Ġv y
pro jek
Ġverd wyn
Ġwh ich
áį ı
min istr
ĠáĬ¥ áĬ®
ĠáĪĺ áĬĵ
áĭ® áĬĵ
ĠáĬĲáĮ¥ áī¦áī½
Ġresult ate
Ġbeh alwe
Ġm oed
Ġaand ele
Ġm id
Ġl ike
Ġáī° áī£
Ġáī¥ áĭĽ
m en
Ġtoekom stige
Ġge Ã¯
Ġgek oop
ĠUnivers iteit
ly ke
ĠN aam
spr aak
Ġáĭ¨ áįĵ
G r
ĠáĪĺáĬ¨áĪĭ áĬ¨áĭ«
Ġf as
Ġpl ane
Ġba bas
Ġer g
Ġhoof saaklik
ĠáĪĺáĬĲ áĪ»
ĠáĬ¥ áĪ±
áī¦ áĪĿ
Ġáīµ áĪ«
Ġáīł áįĪ
en ryk
Y ou
ite k
ä¸ Ń
áĭ© áīµ
áĭ¨ áĪļ
d elike
Ġáīł áĪµáī°
áĪħ áĬłáĭ´áĮį
Ġdr aad
, "
u us
áĬĵáĪį áī£áīµ
Ġthe m
Ð¸ Ðº
ĠáīłáĪĺ áĮłáīĢáĪĿ
ĠáĬ¥áĬķáĭµ áīµ
bo om
der tyd
Ġaf deling
ers elf
ĠáĬłáĪĺáĪ« áĪŃ
5 1
ĠG el
ot ing
Ġk off
æ ĸ
N ew
ĠáĬł áĪ«áīµ
áĪľ áĭŃáĪį
áĬĵ áī½áĬķ
ink els
Ġsp reek
ĠáĪį áĮĨ
Ġáĭ¨ áī¤áīµ
ĠáĮį áī¥áĪŃ
Ġkon inkryk
áĭ® áīµ
Ġ à®
à® ¿
Ġáĭ° áĪµ
à ©
áĮ¸ áīµ
ĠáĬķáĮį áĭµ
áĮįáī£ áīµ
ĠFebru arie
áĪĦ áĭ±
ĠáĪ° áĪĪ
Ġde fin
Ġv et
áĬĲ áī³áī¸áĭį
áĭ®áĪŃ áĮĬ
ĠO l
Ġáī³ áĪĭáīħ
Ġsp oed
En glish
skapp ye
ĠáĭµáĪŃ áĮĬ
Ġin komste
i áº¿
áīħáĪŃ áī¡
ĠAfrik a
ĠPaul us
áĭŃ áĭµ
ĠáĪ´ áī¶áī½
æĸ ĩ
áĪ² áĭ«
le we
Ġme e
Ġtoe gelaat
Ġgehe im
Ġáīł áīģ
ĠáĪļáĬĴ áĪµáī´áĪŃ
à² ¨
ĠáīµáĪŃ áĮīáĪĿ
Ġpl as
Ġs im
áĭŃ áĪĿ
s al
Ð ´
Ġd ub
Ġgeh alte
ly king
áī» áĭŃáĬĵ
ĠS m
áį Ħ
Ġs ays
ĠáīłáĬ¢ áĭ¨áĪ±áĪµ
Ġmoeilik e
Ġgehe el
Ġáĭ¨áĪĺ áĮ£
rig ting
Ġgew ilde
Ġáīł áĮĪ
iz e
ĠK ar
à ¶
s n
ĠáĭĪáĬķ áīłáĪŃ
Ġáĭµ áĪķáĪª
ĠB ek
z a
t im
i Ã©
áī§ áĪį
ĠáĬ¥áĬķáĭ° áĬĲáīłáĪŃ
ĠL ou
áĪĭ áĬ©
Ġáĭ¨ áĭµ
ĠáĭĪ áĪĭ
ad ing
v ir
Ġsp ring
ĠáĭĪ áī³áĭ°
áĭ°áĪ¨áĮī áīµ
en b
le ef
Ġf oute
Ġáĭ° áĮĭ
d or
Ġg aste
ĠáĪĺáĪį áĭķ
ĠáĭŃ áĪµ
S l
áĪ ¾áī½
ĠáĮ¥ áĪ¨áīµ
Ġek s
A pp
Ġáĭ ±
Ġtoe passing
Ġun ieke
ow s
erself dertyd
ĠL a
ĠáĬł áįį
ä¸Ń æĸĩ
Ġáĭ¨áĪĿ áĬĵ
ĠV ol
Ã¼ r
Ġáī¥ áĪ¨áīµ
ĠáĬ¨ áĭĪ
ĠáĬł áĪĪáĪĿ
Ġenig iets
Ġpl ante
Ġh eg
áĭŃ áĪ¨áĪµ
Ġk omm
Ġáĭ« áĪµáī°
ĠáĬ¢áĬķ áĭ±áĪµáīµáĪª
b ele
Ġver maak
áĭŃ áĪ©
ĠáĭĪ áĪĪ
ul u
áĬĲ áī³áīµ
Ġver st
tre de
ĠáĭŃ áī£
Ġs us
ly f
ĠáĮ¨áĭĭáī³ áĭİáī½
b lik
áī³áĭĪ áīĢ
Ġáī¥ áĪĵ
Ġop voed
Ġáīħ áĬķ
Ġgesp eel
ĠN og
ĠáĬ© áĪī
Ġa mb
ĠáĪģ áĪį
Ġmilj oen
ah ili
Ġl ok
Ġwh at
b an
áĪŃ áĪĺáĬķ
ĠâĢ Ķ
Ġern stig
ge kom
áĬ¦áĪ® áĪĿ
ĠáĪĺ áĮłáīĢáĪĿ
ĠáĪĪ áĬ¢áīµáĭ®áĮµáĭ«
áĪµ áī¶
áĪĪ áī¥
m oedig
ĠâĢ Ŀ
D is
áĪ© áĪĿ
ag ram
Ġáĭ¨ áĮī
i as
áĭİ áī³áĪį
u ig
ĠáĪµáĪľ áīµ
iv es
H et
ĠáĬł áĪĭáī¸áĭį
Ġv ee
ess ies
Ġherinn er
Ġd ryf
Ġverl ies
áĬ¢ áĬķ
ĠáĪį áĪĿáĭµ
T A
w ig
áįį áĮłáĪŃ
Ġtoe pas
Ġop leiding
Ġm ure
Ġáīł áĭ©
Ġmy self
áĮ ´
ĠáĬł áī£áīµ
Ġr and
ĠáĪĺ áįĪ
le erde
à± ģ
ĠG al
Ġmet aal
Ġge glo
Ġkr it
Ġvert oon
ĠGr iek
Ã ´
P l
Ġáī¤áī° áĬŃáĪŃáĪµáī²áĭ«áĬķ
ĠAugust us
Ġáīł áĬĥ
áĭĭ áĪŃáĭ«
ĠáĮ »
áĮ£ áĮ«
Ġkre diet
Ġt we
áĪĿ áįķ
________ ________
Ġvinnig er
on iese
Ġnood saaklik
Ġklas sieke
d aad
Ġoor e
Ġuit gevoer
áĭİáī½ áĬĵ
b org
Ġsk erp
ĠB itcoin
ĠáīłáīĢ áĪĭáĪī
ĠáĬ¨áĪĿ áĭĺ
ĠOost enryk
iddel de
Ġáī£áĪĪ áī¤áīµ
áĬ¥ áĮįáĭļáĬłáī¥áĪĶáĪŃ
Ġáīµ áĬĵáĬķ
Ġd un
Ġp en
os of
áįĸ áĪĬ
áĪ« áĪª
áĬķ áĮ»
Ġop merk
Ġvoorbere i
k ers
Ġhelf te
Ġaan bod
ĠáĬ« áĪ²áĬĸ
Ġp oÃ«
ĠR ome
ĠÂ ©
Ġek onom
Ġu re
i ografie
r as
ĠáĬłáĪĪ áĬķ
Ġonmiddel lik
Ġver deel
ind ing
Ġmo d
ib le
u c
ukk ing
Ġáĭ¨áī° áĪĺ
ĠáĬłáĭµáĪ« áĪ»
ad ers
ĠH oekom
Ġliter Ãªre
E l
Ġv ari
áĭ³ áĪ´
Ġvertr oue
Ġfunks ies
Ġvas ge
áĬ¨ áĬķ
Ġag t
ĠáĬ¥áĬķáĭ° áĪĽáĭŃ
à «
Ġres ensies
) :
ĠáĬł áī¡áĬĲ
ĠáĪĽ áĭ¨áīµ
st ers
Ġg as
aat se
Ġse uns
Ġáĭ¨ áī´
w yd
re m
áĬ«áī£áī¢ áĭį
áĮ¸ áĬķ
ar ings
áĬ« áĬ¤áĪį
Ġh is
áĪ¨ áī±
áĬķáĮį áĪį
Ġv eg
Ġverb ond
z e
áĪ¨ áī³
áĭķ áĪį
Ġspy te
Ġáĭ¨áī° áĬĲáĪ³
ĠáĪĺáĪ° áĪį
Ġáĭ¨áĪĽ áĪħ
Ġbu ig
Ġvoor heen
Ġafgel ope
ĠáĪĽ áĪ¨
Ġso dra
Ġ â
ĠV ers
áĪ¸ áīµ
ĠáĬłáĪĽ áĬ«
le in
áīĢ áĭ°
áĪħ áĪŃ
áĮ¹ áĪĿ
Afrik aans
Ġáĭ¨ áĪ¶
vangel ie
áĬĵáĭŃáīµ áĭµ
Ġbe antwoord
Ġprent jie
Ġáī½áĮį áĪ®áī½
Ġoore enste
áĬĲ áĮĪáĪŃ
ĠEn glish
Ġáī° áĪ³áīµ
D F
Ġst at
Ġsond es
áĮĬáĭľ áĭį
áĪµ áįĭ
Ġu p
Ġáĭ¨áĪķ áĭĿáī¥
w on
Ġseis oen
ĠG aan
Ġoor w
ag s
ĠÄ ĳ
áĪ« áĪµ
Ġbel of
áĬ ¼
h ip
ĠáĪĪ áīµ
ĠáīłáĪĽ áĬķ
Ġge wys
Ġen d
áĭ« áĭ¨
Ġv uil
ĠáĪĺ áīģ
áĮ£ áī¢áĭ«
Ġl ag
áĮį áĭ³
ĠJoh n
áĪ° áĮł
w en
ĠF orex
C ont
Ġger ed
ĠáĬł áĪ»
Ġgevoel ens
ĠáĮĪáĪįáĮ¸ áĭĭáĪį
ĠáĪĺ áĪªáĭİáī½
áĬ¤ áĪµ
ĠáĮł áī¥
Ġáĭ¨áĬł áĭ¨áĪŃ
ĠáĮĪ áī¢
v a
áĮł áĪĺ
op er
t p
Ġáĭ¨áĮį áĬķ
áĪµáī° áĭ³áĭ°áĪŃ
ĠáĪĺ áĮĢáĪĺáĪªáĭ«
âĨ ĳ
Ġver lig
Ġbehandel ing
ĠN atuurlik
K yk
áĭį áĬĲáīµ
g ing
áĪ° áĪĪ
Ġh osp
Ġl in
áīłáīµ áĪĿ
Ġáī°áĭĭ áĪķáĭ¶
ĠáĪĨáī´ áĪį
áĬ¥ áĪµ
ĠáĬłáĪĺáĪ« áĪ®áī½
ĠáĪŀ áīµ
s ye
Ġduidelik e
ĠáĪĺ áĪĪáĭ«
Ġme ub
áĪĭ áĪħ
ĠáĬ¨áĬł áĬķáĭµ
áĬĲ áīłáĪ©
Ġáī£ áĪī
Ġonder vind
ĠáĪĽáĬķ áĬĽáĭįáĪĿ
áĭ¨ áĪĽ
Ġsek ond
est asie
ĠáĪĺ áĪ¸
I R
Ġele ment
at form
ĠáĪµáĭ° áī°áĬĽ
áĮ» áĪļ
Ġhart seer
ge wer
Ñ ĩ
ĠáĪĢ áī¥
Ġw inkel
ĠáĭĺáĪĺ áī»
Ġt oneel
ba ch
Ġáĭ¨ áĭ«áĭĺ
Ġáīĥ áĪĪ
ot t
ĠáĬ¢ áĭ©
ĠáĬ¥áĪŃ áĪ±
áĮį áĪª
áĪĲ áĪ´
Ġmeest al
Ġáīł áĬ®
Ġun der
Ġáĭ¨áĪļ áĬ¨áī°
Ġáĭ°áĪħáĬķ áĬĲáīµ
re at
Ġverge we
g awes
ĠáĬ£ áĪµ
áīłáĪ¨ áī³
áī£ áī¸áĭįáĬķ
áĪİ áĪµ
n am
áĬ¨ áĪĽ
ct or
áĮĮ áĪį
w Ãªreld
ĠáĪĿáĭĥ áĬĳ
ang s
oon lik
áĪ¥ áĬĲ
F e
ĠáĪ° áĪ«áĭĬáīµ
ĠEg ip
áĬĴ áĬŃ
ĠáĬĲ áĭļ
Ġgele es
P R
O or
áī² áĬŃáĪµ
ĠJ er
Ġbere i
eeld ing
Ġverpl ig
waard es
áīĥ áĪī
ĠStu d
ĠáĬŃ áĪµ
f ess
ĠáĮ¥ áĪĭ
ĠáĬłáĮį áĬĿ
ep lan
áĪķ áī²
A b
áįĪáĪĪ áĮī
ol ge
ĠáĪĺáĭµ áĬĥ
K om
ĠáĪķ áĭŃáĭĪ
im eter
âĢ¹ âĢ¹
ĠBin ary
it o
Ġwer f
ĠB ar
O M
u me
áĪĺ áĬķáĮį
áĪĪ áīĢ
s ak
ĠAfr ica
ĠáĬ© áĬª
r ie
f il
áīĢáĭĿ áīĢ
ĠáĬłáĮĪ áĪ®áī½
Ġáīł áĭĺ
d heid
us es
Ġfun ksie
J oh
áĭĿáĪŃ áĭĿáĪŃ
áīĢáĭĿáīĢ áĭ£
p ies
ĠáĬłáĭŃ áī½áĪįáĪĿ
Ġáīł áī¥áĭĻ
áįī áĬķ
Ġp red
áĭ®áĪŃáĮĬ áĪµ
Ġgebeur tenis
áĬ¨ áĭį
ĠáĪĪáĪĺáĪµ áĮłáīµ
áī· áĬķ
áĬ¥ áĪĿáĪ®
ĠáĬ£áĪĺ áĪªáĬ«
ĠáĭĿ áĬĲáīłáĪ¨
ĠáĪļ áĬĵ
Ġáĭ¨áĪĺ áĮ¨áĪ¨áĪ»
ĠáĭĿáĮį áĮħáīµ
áĭ°áĬķ áīµ
ow we
âľ ŀ
Ġver werk
ĠáĮĪ áī¥áĪ¨
Ġbehoef te
Ġkonse p
áĪ« áī±
8 8
ĠáĪµáĪŃ áĭĵ
enn ing
Ġáī¥áĪŃ áĪĥáĬķ
áĪ³ áī¢
áĬŃ áĪ²
ĠáīłáĪ½ áī³
Ġvl oe
C ategor
Ġbro er
sl aan
ĠáĬłáīħ áĮ£áĮ«
ter myn
it or
Ġles ers
Ġ ir
áīģ áĪĿ
ĠáĪĽ áĭĪáīħ
ĠG oogle
dat um
ond ig
áĮ¥ áĪ©
ĠW Ãªreld
Ġl aai
Ġáī¥áĭĽ áĭķáī£
Ġáĭ« áĭµáĪŃ
ĠáĬ£áī¥ áĭļ
áĪĪáĪĿ áĬķ
Ġáĭ¨áĪħ áĭĿáī¥
ĠP etr
ĠáīłáĭŃ áįĭ
am b
ĠáĬ¥ áī¶áĪĿ
ĠáĪĿ áĪ³áĪĮ
ĠáĭĪ áĪ«áīµ
Ġáĭľ áĮĭ
7 2
Ġc l
Ġuit vind
Ġsl ot
tu ie
gev ind
áĪĭáĪĪ áįį
Ġst ok
Ġm al
áĭĪ áĭµ
Ġonderwys er
Publ ished
Ġo ver
9 5
Ġhoe wel
st uur
per d
Ġge ken
Ġeind ig
ĠN adat
ĠAan gesien
áĬł áĪŃ
ĠáĭĪáĭŃ áĪµ
áĮĪáĪ« áī¸áĭį
Ġáĭ¨áī° áĬĵáĮĪ
Ġáĭ¨áĪĿ áĮįáī¥
ĠW et
Ġáī° áĪ¸
áĭ¶ áī½áĬķ
áĭ³ áĪĽ
Ġt oen
Ġm aal
áī½áĪĭ áĪĪáĬķ
ĠáĭŃáĪ°áĮ£ áĪį
ĠáĬł áĬĵ
har ic
r ol
Ġáĭ« áĬĲ
Ġbl ok
ĠáĬłáĮĪáĪįáĮįáĪİ áī¶áī½
Ġboon ste
Ġged etail
áī½ áĪģáĬķ
Ġáĭ° áĪ¨
ĠáĬ¨ áĪĨáĬĳ
Ġáī° áĪį
Ġpro v
Ġ if
ĠAm azon
ĠSk rif
i os
Ġáīł áĬ¨áįįáī°áĬĽ
ĠáīłáĬł áĪģáĬĳ
ĠáĪħ áĬŃáĪĿáĬĵ
Ġtemper atuur
a is
Ġverg adering
ĠáĬ¥áĬķ áī½áĪĭáĪĪáĬķ
ĠDes ember
áĮĭ áĭľ
Ġnood wendig
áĭ° áĪ°
t inge
Ġverge lyking
' t
ĠáĭŃ áĪĺáĪį
ĠáĪķ áĮĪ
ĠH ol
áĮĪáĪĪ áĮ¸
áĪģ áīµ
Ġáįĭ áī¥áĪªáĬ«
Ġdok ument
áī° áĪ¨
moont lik
áĪŀ áĪĭ
ĠáĮ¥ áīĤáīµ
E r
ĠM el
pl ant
ĠáĬ® áĭŃáĬĳ
Ġáĭ¨áĭĪ áĬķ
ĠáĪĺáĭ° áīłáĬĽ
ar de
ĠáĬłáĭµáĪŃ áĮĪáĭį
áĪ« áĭį
c y
ĠáĪĻ áĬ¨áĪ«
ĠáĬłáĪĽáĪ« áĮŃ
ĠáĬ ħ
Ġinge sluit
Ġbl are
ĠáĪĺáĪµ áĬ¨áĪ¨áĪĿ
ĠáĬłáĭį áī¶
ĠáĭŃ áīĢ
ov e
áįĪáĮ¸ áĪĿ
ĠáĪĪ áĪµ
áĬ¥ áĬĽ
g end
urs us
ĠSl oven
áīµ áĪª
b ank
ĠáĪĺáĪ¨áĮĥ áĭİáī½
Ġskoon heid
ver haal
ĠáĭŃ áīħáĪŃ
Ġáī° áĬĲ
o ch
Ġondersteun ing
ight s
áĭĺáĮĭáĮĢ áĭį
ab or
y pe
an ke
ĠT wee
ak te
áĪŀ áī½áĬķ
ĠEngel s
áĪİ áĬķ
áĬĿ áĪĿ
Ġáįİ áī¶
ĠáĬ¥ áĬ©áĪį
áį ©
ĠH uman
ank s
Ġáĭ¨ áĬ¦áĪ®áĪŀ
Ġlied jie
áĪł áĪ©
áĪĺ áĪ³áĪ³áĭŃ
iste like
m ie
Ġswang er
h osa
Ġwaar na
Ġsp asie
Ġr ukkie
Ġbykom ende
Ġgl imlag
Ġáĭ°áī¥ áĭ³áī¤
il lig
6 5
Ġd en
d an
ĠáĬ¤áĪŃáīµáĪ« áĭįáĭ«áĬķ
ĠáĪĺ áĮ¨áĪ¨áĪ»
ĠW ill
áīĢ áĭĭáĪį
Ġdank ie
Ġsoortge lyke
áīĨáĮ£ áĮł
ĠáĪĺáī¥ áī¶áī½
áĬŃ áī°
esta ur
áĪĿ áĪĮ
ĠáĪĽáĪµ áĪ¨áĮĥ
ĠáĪµ áī³
Ġb v
ĠKaap stad
Ġa dr
Ġw yn
ĠáĬłáī£ áĪį
Ġres pek
Ġteen woord
Ġfin ale
ĠáĬķáĮį áĮįáĪŃ
Ġáī£áĪĪáĪĻáĭ« áĭİáī½
áĬ¨ áĪĺ
ĠáĪ« áĪµ
qu e
Ġh onder
Ġreg ver
st ryd
Ġáī°áīĭ áĪĿ
Ġoor deel
Ġw ye
Ġáįį áĪŃ
Ġo ond
u pp
áīł áĭŃ
) áį£
áĮ«áĭĪ áīµ
áĬ¤ áĪĿ
Ġh ers
áĭĪáĪĥ áīµ
iá» ĩ
Ġp df
áĬ® áĪŃ
áĭĪ áĪį
ĠáĪģáĪĪ áī°áĬĽ
n el
ad es
ĠáĭĺáĪŃ áįį
áĬ¦ áīµ
ĠáĪĿ áīµ
tre f
Ġ ..
Ph one
ig er
Ġhuis e
Ġt alle
Ġáĭ³áĭŃáĪ¬ áĬŃáī°áĪŃ
ad res
Ġbu itel
ĠG etty
áĭ³ áī¸áĭį
ĠáĬ¨ áĬ¢áīµáĭ®áĮµáĭ«
Ġáī°áĮįáī£ áĪ«áĭĬ
áī¥ áĪī
ĠáĪĮ áĪĭáĭį
Ġgedetail leerde
tre ff
6 2
gel ukkig
Ġpl astiek
Ġvereis tes
as y
ĠáĬ¥áĭ« áĪī
Ġgem iddelde
Ġnog al
Ge bruik
áĪĭ áĪ³
ĠáĮįáĬķ áī£áī³
Ġáīłáī°áĮ¨áĪĽáĪª áĪĿ
áĬ¨ áĪī
h i
Ġáī³ áĭĭáīĤ
Ġkw al
ĠáĭŃ áĪĺ
Ġd uim
Ġte v
ĠM o
áĪĬ áĬķ
ic an
Ġgeleent hede
Ġd op
ĠáĭĿ áĬ¾áĬĲ
ĠáĪ¥ áĪįáĮ£áĬķ
ĠáĪĿáĬķáĭµ áĬķ
ĠáĬłáĭ¨ áĪĪ
Ġáĭ¨áĬł áįįáĪªáĬ«
Ġges terf
V ID
áĪĪ áĪµ
áĪį áĪį
D an
ele ct
Ġakt iwiteite
Ġáĭ¨áī° áī£áĪĪ
urr ent
ĠáĮį áĭĽáīµ
ĠáĬ¥ áĪŃáĪµ
ĠáĬłáī¥ áĪ®
áĮł áĬĲ
áĪŃ áīħ
Ġite ms
Ġw ese
ĠI S
Ġp le
Ġkult uur
áĪ¨ áĭ±
Ġgev orm
ĠáĬĲ áĭī
Ġakt iwiteit
Ġon gew
Ġverl ore
Ġáī¥ áĪĦ
Ã ¢
áĬĶ áīµ
ĠL ig
W e
este mming
Ġáįį áĪ¬
Ġvry e
ak sies
áĭŃ áī¶
ĠáĬĲáĭį áĬĵ
Ġwe erst
Ġkn op
end ing
ĠáĬłáīħ áĪ«áī¢
S h
Ġm ik
s on
ĠáĬ® áĪŃ
ethiop ia
Û Į
ĠáĬ¦ áĪŃáī¶áĭ¶áĬŃáĪµ
ĠáĪģáĬĶáī³ áĭİáī½
Ġáĭ¨áĪĺ áĬķáĮįáĪµáīµ
áī³ áĪī
Ġpros ed
Ġvry heid
H oekom
Ġkon struksie
Ġgereed skap
ĠKers fees
áĪ° áĪį
Ġsagte ware
áĭµ áĭ«
ĠAb iy
áĪĢ áĮĪáĪŃ
is ering
áĭ¨ áīĢ
overn ment
áĭķ áĬĵ
ente er
or eer
áĭ¨ áĭµ
Ġme isies
Ġst raf
ĠL oading
Ġáĭĭ áĪµáīµáĬĵ
áĭĪ áĮį
ĠW orld
Ġáĭ« áĪĭáī¸áĭįáĬķ
ieur ontwerp
Ġáĭį áĪŃ
ater iaal
Ġáī°áĬ¨áīµ áĪİ
Ġwaarde er
Ġáĭ¨ áĪĪáĭįáĪĿ
áĭĽáĪ¬ áĭį
ul es
6 9
r an
Ġmak like
ĠL ees
ĠáĬł áĬĲ
Ġaan hang
Ġk oer
at ter
ge gaan
Ġemos ies
ge t
Ġe ier
un e
Ġáī£áĪĪ áĪµ
iáº¿ ng
áĬ¤ áĪŃáīµáĪ«
ĠáĬ®áĪļ áī´
ĠM ens
ĠáĬķ áĭĿ
Ġvolw asse
áĪªáĬ« áĭĬ
Ġoor log
ĠáĬł áĪ°áĪ«
Â «
Ġide aal
Ġst oor
gr oep
Ġkom plek
Ġmaks imum
áį ª
áĬ© áĬķ
Ġof fer
8 1
ĠáĬłáī¥ áĭŃ
áĭĭ áĪŃ
Ġe we
ĠáĪĿáĪŃ áĪĿáĪŃ
Ġpr im
ĠC omm
áĬ¨áĪĭ áĬ¨áĪį
ĠPr et
ĠE x
áĪį áĮłáĬĵ
Ġáĭ«áĪī áīµáĬķ
3 80
Ġakk ur
áĪŁ áĪį
p an
Ġpor n
áīĢ áĪ³
le ep
Ġáĭ¨áī° áĪĺáĪ°
v es
'' '
áĬ¨ áĭļáĪħ
Ġt ime
ĠáĬ¥ áĭ«áĬķáĭ³áĬķáĭ±
Ġveil igheid
Ġarg itek
Ġfig uur
ge bruik
Ġnorm ale
in ste
ĠáĬ Ĵ
áī£ áĬķ
áĭ³ áĭŃ
f ul
Ġd etail
Ġindivid u
Ġm oo
s ame
ĠáĬłáĬķ áĭ³áĬķ
Ġvan g
áĪĿ áīłáĪŃ
Ġsk iet
Ġbeskryw ing
n aam
áĮ£ áī¸áĭį
Ġ x
Ġáī° áĮĪáĬĿ
Ġtroetel dier
le ur
ĠMar ia
ĠK erk
ĠW erk
eil ig
on ies
ass ings
Ġterug keer
à¤ ¨
Ġeil and
áīł áĬķ
D ecember
an to
áĭİáī¹ áĬķ
Ġáĭ¨áĪĽ áĪµ
ĠM idd
ĠáĬ³ áĪµ
Ġverander inge
Ġsk ak
Ġáĭĺ áĪĭ
Ġl inks
áīħ áĭ±áĪµ
ĠáĮ¸ áĪİáīµ
ĠW h
if ic
ĠáĪĨáĬĸ áĪĿ
Ġken merk
Ġkon te
W ie
h oor
ĠáĪĢ áī¥áīµ
áīĥ áī¸áĭį
ĠáĪķ áĬŃáĪĿáĬĵ
ong er
ĠáĬĲáĮ¥ áī¥
ĠáĭĪ áĪµ
Ġs j
il et
Ġsu k
áĭ³ áĬĵ
áĭķ áīµ
áĬĲáĮĭ áĮĪáĪŃ
ĠáĪĿáĬķ áĮŃ
geb ou
Ġvreem de
áĪĺáĪį áĬ¨áīµ
à¸ ²
áī ¬
met ode
áĪĽ áī½áĬķ
ĠáĬ¨ áĪµ
áī° áĬĿáĬĲáīµ
se k
Ġ âĨ
at ure
ĠáĪĺ áīĨ
áĬ® áīµ
áĮ¥ áīħ
Ġáĭ¨áĪļ áī½áĪī
ĠPr es
ĠJul ie
Ġba te
áĭµáĪ¨ áĪµ
iseer de
Ġbehoor lik
ĠáĬ ¡
Ġg at
ĠáĭµáĬķ áĮĭ
dien s
ĠáīłáĪĺ áĮ¨áĪ¨áĪ»
ĠáĪµáĪį áĬŃ
áĪ· áĪį
ĠáīłáĪĺ áīĢ
áĭķ áĬĸ
I C
áĪķ áĮį
ĠáĬ¥áĪµáĬ« áĪģáĬķ
ĠAl le
ĠáĬķ áĭµ
Ġmis l
Ġges it
J esus
Ġkant oor
Ġsp oor
stuk ke
Ġst room
geb ore
ik lus
is ensie
áĪĽáĬķ áĬĽáĭįáĪĿ
ĠáĬłáĪį áī£
ĠH aw
N ou
Ġse we
raf t
ĠN oord
or oskoop
ĠV r
Ġwonder lik
Ġn oord
áĪĪ áīłáīµ
Ġb on
Ġad vert
Ġáĭ¨áī° áĪ³
Ġsuk kel
Ġger eelde
i aan
or ia
Ġstr eng
áĮĭ áī¸áĭį
or ge
of fer
ĠáĬłáĭĭ áĮħ
Ġáīł áĭļáĪģ
Ġáī£áĪĪ áįĪáĭį
ĠN eem
Ġbegeer te
ĠáĭĪ áĭ²áĭ«
ĠáĬłáĪį áįİ
Ġbegin ners
ĠáĮ¥ áĪŃ
Ġáīģ áĪŃ
j i
ĠA z
ĠáĪĿ áĬĵáĪįáī£áīµ
ĠáĬł áĪĺáĪį
ĠEurop a
Ġgr am
pr et
g ies
t d
ĠG een
. [
te like
net iese
Ġáĭ¨áĪĿ áĪµ
an a
Categor ies
b um
ĠáĬłáĬķáīĢ áĮ½
ĠAn t
áĭİ áī»áī½áĬķ
7 7
Ġhar te
Õ ¥
trek king
ent oe
áĬ£ áīµ
áĭµ áĪ©
Ġáīµ áĮįáĪį
Ġbl omme
ĠáĮŃ áĪĿáĪŃ
re we
áįĪ áĪ¨
Ġáīł áĮĭáĪ«
Ġt al
ĠáĬł áĪłáĪ«
ĠáīĢ áĭŃ
E M
ĠáĪİ áĪļ
N a
Ġf ot
u wee
ĠáĪĪ áĪħ
Ġvenn oot
áĪŀ áĬķ
Ġáĭ¨áĭĪ áĮ£
tu ele
Ġongel uk
Ġinteress ant
áĪ¸ áĪ«
áĮħ áī±
Ġl as
ĠOk tober
od a
b ok
n ing
is is
ĠáĪµáĪ« áĭİáī½
Ġáĭį áĪį
ĠáĬ¢áĬķ áī°áĪŃ
ur end
die re
Ġáĭ¨áĬĲáīłáĪ¨ áĭįáĬķ
ch e
Ġkategor ie
Ġvoor uit
Ġw ens
ĠOn t
aÃ ±
ĠF or
áĮ¡ áĬķ
Ġáīħáĭµ áĪµáīµ
ĠáĬłáĬ«áī£áī¢ áĭİáī½
Ġáī¥ áīµ
ber t
Ġáĭ¨áī° áĪ°áĪ«
áī² áĬķ
Ġverniet ig
Ġb rein
Ġg ids
Ġfakt ore
200 6
Ġs il
ĠáĪĽ áĪŃ
6 4
áĪĽ áĪ½
d ent
ĠáĮĬ áĭ®áĪŃáĮĬáĪµ
áĬĲáīłáĪ¨ áĭį
áĮĪáī£ áĭį
Ġle de
áĪ¨ áĬĽ
sp reek
ĠT en
t he
ĠPetr us
m ot
Ġáĭķ áīħáĭµ
ĠáĮįáĭ´ áī³
áĬ«áĪĦ áĭ°áĭį
ĠH er
ĠáĬ¨ áīµ
áī³áĭĪ áīħ
ĠáĪĽ áĬķáĪĿ
ba ck
ibl a
Ġgewoon d
Ġtip es
ly ne
Ġvan uit
Ġstuk ke
áĮł áīģ
Ġkl ank
ĠAd am
ĠM os
ĠáĮįáĪį áĮ½
ĠáĪĺáĪĨ áĬĵáī¸áĭįáĬķ
áī´ áĬķ
áī³ áĪŃ
Ġb ord
áĮĮ áī³
Ġáĭ¨áĪĺ áĪ³áĪ°
Ġn odige
Ġop drag
ĠTrad ing
Ġaan gaan
ĠkliÃ«n t
ĠLe we
ER E
le x
ĠáĬłáĪĿ áĪĭ
it al
ĠáĬł áī¥áĪ¨
a ya
du seer
ĠáĪĽ áīĢáĭĿáīĢáĭ£
oef en
ur es
Ġber eken
áĪ¶ áī½áĬķ
ĠáĭŃ áĭį
áĭ° áĪ«áĪį
ĠáīłáĪĺ áĪĨáĬķ
Ġáīł áĭ°áĬķ
áĪĽ áī²áĬŃ
ĠáĪį áĬķ
áĪĪáĭ« áĭ¨
áī¥ áī»
Ġan y
áĬ¥ áĬĲáĭļáĪħ
angua ge
ĠáĪĺ áīħ
ĠáĪĢ áĪ³áī¥
ĠáĬ¨ áīł
Ġopen baar
ged ra
ĠáĪĺáĪ° áĪ¨áī³áĭĬ
b eelde
Ġverhoud ings
áĪķ áĬķ
Ð¾Ð¾ Ð¾Ð¾
p re
ĠáĪĨ áĬĹáĪį
áĮ½ áĪĳ
Ġáĭ¨áĪĨáĬĲ áĭįáĬķ
Ġvloe isto
Ġs and
ĠMaar t
ic t
Ġwerk s
áĪ° áĮłáĭį
áįį áĮ¨
Ġver stand
Ġáįĭ áĭŃ
um a
tr ent
ĠAl l
Ġáĭ¨ áĮ¦áĪŃ
f s
áĭ« áĭ«áĭĺ
Ġak teur
j in
Ġáĭ«áĪµ áįĪáĪįáĮĭáĪį
Ġte Ã«ls
Ġin tel
Ġstr es
ĠU s
R L
ic es
k re
ro p
Ġáĭ² áĭ«
ĠDan iel
ĠáĬĥáĭŃ áĪİáī½
n ag
ĠI t
áĮł áĪĭ
u ter
Ġstud ent
ur f
ĠáĬ¥áĬķ áĭµáĬķ
Ġk er
it ale
áī¶ áĬķ
k an
áĪ ¦áĪµáīµ
Ġp op
áĪ³ áĭį
áĮĪ áĮ½
Ġáĭ¨áĪĽ áĭ«
áīł áī³
re Ã«ls
Ġre f
Ġwaar oor
Ġsl aag
ĠáĪĪáĪĽ áĭĪáīħ
Ġn asionale
áīł áĭĿ
ter ing
áĪ¬ áĪ½áĬķ
ĠáĮİ áĬķ
áĬ¥ áĪ°
ĠáĬłáĪį áĬĲáīłáĪ¨
hats App
ĠáĬł áĪĽáĪŃáĬĽ
Ġr as
ĠáĪĺ áĬŃ
b b
áī½ áĬĭ
áĪŃ áĪĿ
ĠF in
Ġnaam lik
ĠáĬ¥ áĭŃáī³
Ġgebe ure
Ġop stel
Ġant woorde
gev al
áĭ¶ áĪĿ
kont rak
Ġáĭ¨ áĬĥ
ĠáįķáĪ¬ áĭĿáĭ³áĬķáīµ
ðŁ Ķ
Ġáĭ¨ áĭ°áĪ¨
a ith
am mer
ĠM ore
Ð° Ð·
è ª
èª ŀ
Ġspesif iek
20 00
iz ed
áĭ ª
áįķ áĪİ
Ġoef ening
Ġtyd s
áĭŀ áĪĿ
ĠáĪĥ áĭŃáĪį
z bek
á ł
ĠáĬłáĪµáī° áĪ³áĪ°áī¥
h ard
áĪ ¦
u ch
ĠV l
áįķ áĪĭ
ĠáĪµ áįįáĪ«
Ġr estaur
ĠáĪ¥áĪŃ áĭĵ
ĠáīłáĪĺáī° áī£áīłáĪŃ
Ġc m
Ġge slag
Ġver de
Ġáĭį áĮª
Ġen gel
Ġde mo
Ġb ome
Ġpol isie
vel op
ĠáĬ¨áĭļáĭ« áĪĿ
áĭ° áīħ
Ù ı
áĪµáīµ áĪ«
áįĬ áĭį
ĠáĪħ áĭŃáĭĪ
ĠáĪµ áī´áīµ
sk ep
C all
Ġaand ui
Ġsk aars
ĠáĬ Ķ
ĠC o
Ġsu per
Ġáĭ¨áī° áĮłáīłáīĢ
Ġáī´ áĪĮ
áĪ« áīħ
áĮłáīĥ áīĢáĪĿ
áīĥ áĬķ
Ġkoff ie
ĠáĪĬ áĮį
ĠáīĢ áĪĪáĪĿ
ie Ã«l
Ġverder e
ĠS ien
ĠM ac
oen der
Ġdig ter
stel lings
Ġben adering
b oeke
Ġsam ele
er d
Ġ ?
Ġáĭ ļ
aÃ± ol
áĪĻ áĪµ
ap per
Ġare as
áĪĲ áĭŃ
ĠáĪ° áĭŃ
ĠG oeie
on te
Ġvers terk
ĠJun ie
Ġonlang s
gew ers
i br
ĠpoÃ« sie
áĭį áĮ£áīµ
áĮł áĪĪ
Ġáī£áĪĪ áĪĺ
hal we
d ish
Ġt ra
ĠáĪĺáĪµ áįĪáĪŃ
ien ce
ab il
Ġt w
Ġne us
áĭĪ áĮĪáĭµ
Ġbet ref
áĪĺáĪĪ áĬ«
B r
h art
ĠáĪĺ áī¼
áĮ´ áĭĽ
ĠW ind
y r
áĭĪ áīµ
ĠS ond
áĭ«áĬķ áĪµ
Ġon moontlik
Ġsp anning
Ġk oel
Ġverkl aar
Ġkl omp
cl ick
b in
ĠáĪ Ĵ
ale m
Ġme et
B es
ite d
áĪŃ áĭķ
ak s
ĠáĪĿ áĪįáĬŃ
áĪµ áī¡
ĠA rab
Ġonge mak
ĠR us
ĠáĭĪáĮ£ áī¶áī½
Ġáĭ¨ áĮĪáĬķáĭĺáī¥
Ġverv ul
Ġvoortd urend
Ġh eilige
L aat
ĠPro beer
Ġáīł áĪĮ
pl atform
om i
Ġbeh els
u be
Ġáī¥ áĪıáĪį
ĠáĬł áĭ°áĪ¨áĮĪ
ĠlÃª ers
du cat
rit ten
Ġh otel
ĠáĪĺ áĬĸáĪŃ
áīł áĭĭáĪį
ĠG es
ĠS er
it z
ĠáĪ° áĪĭáĪĽáĭĬ
i wer
áĮłáīħ áĪĭáĭŃ
x e
Ġspel er
Ġnorm aal
Ġáĭ¨áĪħ áĬŃáĪĿáĬĵ
Ġin sk
Ġgodsdien stige
Ġáī°áĪµáĪĽ áĪļ
áĮĢáĪĺ áĪ©
Ġáĭ¨áĪĮ áĪĪáĭį
Ñ ĸ
7 8
ĠA k
áĪĻ áĬĵ
ĠPort ugu
áĪı áī¸áĭį
Ġbesprek ings
áĪķ áĭĿ
is se
Ġtegn iese
Ġveil ige
Ġáī¥áĪŃ áĪĥ
Ġtoer usting
ĠáĭŃ áįĭ
ĠM art
Ġ }
Ġle iers
áĭ³ áĭ°
Ġc r
ĠáĭĺáĪĺ áĬĵáĭĬ
ĠáĭŃ áĬĸáĪŃ
ind ig
Ġáĭ¨áĪļáĭ« áĪ³
Ġáĭ«áĭµáĪŃ áĮī
ĠáĬ¥áĬķáĭ° áĪĿ
áĭ°áĪŃ áĮĪáĭį
Ġáī¥ áĭĽáīµ
Ġinstr ument
áĬł áĪµáī°
ĠáĪª áįĸáĪŃáīµ
Ġáīł áĪĿáĪŃ
ĠáĮĪ áī£
gr oei
Ġáĭ«áĪĪ áīłáīµ
ĠáĪĿ áĪģ
áĪĪ áīħ
Ġst am
ĠáĮįáĬķ áĭĽáī¤
Ġs ame
ĠáĪĬ áĭ«áĪµ
B l
Ġper d
U S
áĪĽ áĪī
ank ie
Ġwe ier
Ġb undel
Ù Ĳ
ĠáĬ¥ áĭļáĭ«
Ã ¤
ĠáĪ¥ áĮĭ
áĪ¨ áĮį
Ġo re
áī½ áĪĪáĭį
ĠáįķáĪ¬áĭļ áĭ³áĬķáīµ
Se arch
ul ture
áīłáĪ¬ áī³
Ġal hoewel
Ġident ifiseer
Ġwys ig
ĠáĮ Ħ
ist reer
ĠáĪ°áĪ« áī°áĬŀáī½
ĠáĮł áĪĭáīµ
Ġáį ¥
áĪĿ áĪ«
Ġáīł áĪĮáĪİáī½
Ġáĭ¨áĪĺáĮĢáĪĺáĪªáĭ« áĭį
ĠáīłáĮįáĪį áĮ½
ĠáįķáĪ®áĮĢ áĬŃáīµ
áī ĳ
ĠW ar
Ġáĭ¨ áįĭ
t ome
Ġall er
Ġop trede
áĮĵ áĭ´
Ġt ou
br onne
Ġkan te
T C
áĬ¹ áĬķ
Ġself oon
áĮįáĪ« áĪĿ
áĮĪáī£ áīµ
E B
ĠáĬ® áĬķ
Ġáĭ¨áĪĺáĪµ áĪĺáĪŃ
Ġte les
ĠáĪĿáĭķáĪ« áįį
Ġáī°áĮ«áĭĭ áī¾áī½
Ġadr es
ĠáĪĺ áĪĿáĪħ
Ġt ande
Ġop gew
ĠáĬ¨ áĪį
áĮ½ áĬķ
U R
ĠáĬĥ áĮ¢
on ian
Ġm ening
ĠáĪĺáĮ» áĪķáįįáīµ
G es
áĮ« áĭİáī½
ĠV ra
Ġm oeg
Ġwe ers
id elik
Ġáīł áĪģáĪĪ
Ġáī° áĮ¨
b ord
bew us
ast iese
ar g
ĠFr anse
áīĤ áĭİáī½
ot ho
Ġs ing
ĠáĪĺ áĭĵáĪį
ĠK or
Ġáīł áĬķ
áĭĭ áĪĪáĪģ
² àº
àº ²àº
ĠáĭŃ áĮĪáĪį
ĠB er
Ġf ir
ukk ige
Ġverl oop
w n
Ġr aam
Ġstrategie Ã«
Ġáĭ ĳ
m it
ĠáĮįáĪ« áĬĿ
áĭĪáĪ° áĬĲ
Ġbe ker
áĬ£ áĭĬ
áĭ Ķ
áĪ¨ áįį
ĠAr tik
áī° áĪĺ
áĪĺáĬķ áīµ
Ġom ge
Ġwe ens
lem toon
Ġp ryse
ĠJanu arie
Ġont sp
Ġáī» áĭŃáĬĵ
ĠlÃª er
Ġpro te
Ġáĭ¨áĬ¥ áĬķ
ĠáĪĽ áĭ³
Ġáĭ¨ áĮĭáĪ«
áĮł áĬĿ
A pril
if ied
ĠáĮ¥ áĪ«áĭŃ
áĬĵ áĪ½
o ere
** **
sk as
áĭ° áĬĽáĭį
áĭ¨ áĪ©
Ġkunst enaar
Ġsimb ool
ĠáĪĻ áĪµáĪĬ
Ġáī°áĮįáī£ áĪ«áīµ
ĠáĪĺáī° áĮįáīł
áĮĪáĪĪ áĮį
Ġáī° áĬŃáĪĪ
áĭ« áī°
Ġáī¥ áĭĺáĭŃ
Ġáĭ¶ áĬŃáī°áĪŃ
G ew
Ġbl om
v ent
Ġbestaan de
bep erk
ĠáĮ¥ áīłáī¥
Ġst aal
Ġdoelwit te
lig gende
am ing
áĭĪ áĪ«
Ġr ele
J a
áĪŃ áĪ³
áī¥ áĪ©
ĠáĮł áĪĭ
Ġáīł áĭĭ
ĠáĬ¥áĬķ áĪµ
áĬĸ áĪµ
Ġáĭ« áĪĭ
Ġen t
áĪµ áĬŃ
Ġop hou
ĠáĬł áĪ«
bes k
áĪ¨áĬķ áĮĵáĭ´
re ig
Ġbev ind
Ġáĭ¨áĬł áĭ²áĪµ
Ġsk at
ĠáĬ®áĪļ áĪ½áĬķ
Ġar ms
áĭĪáīħ áī±
4 00
k ens
M A
Ġd u
áĪ³ áĭ«áĪµ
ĠáĬŃ áįī
ĠwÃªreld reis
Ġhosp itaal
Ġdan s
Ġbeh ou
Ġger ief
áĮł áī£
ĠáĪįáĭ© áĬĲáīµ
Ġbelegg ing
áĬ© áī£áĬķáĭ«
Ġáīł áī¤áī°
N et
Ġáī¥ áĪ«
at r
ine e
6 3
Ġpred ik
áĪĺáĪµ áĪį
ĠáĬ¥ áĭµáĪį
Ġg oud
Ġteenwoord igheid
Ġkomb inasie
Ġhistor iese
Ġáĭ¨áĬ« áī²áīµ
ĠáĬ¨áĪĿ áĬ¡
ĠáĮ£ áĪį
ĠáĭįáĮ¤ áī³áĪĽ
Ġk il
ap en
or y
Ġs la
ĠáĬª áĭ³áĬķ
ĠáĬ¨ áĪĭáĭŃ
ĠáĬ¥ áĮįáĪŃ
ook ies
ĠChr istelike
ĠáĪĥ áĭŃáĪĽáĬĸ
áĭ¥ áĬķ
et iese
Ġeen heid
Ġtr ots
Ġstr aat
Ġáĭ¨áĬł áĬ«áĪį
ĠN ee
Ġse ine
áĭĪ áĪ¨
ĠáĪµáĪĿ áĪĿ
Ġreg ering
ip e
Ġgelowige s
ĠáĪ° áĭİáī½áĬķ
Ġber oep
áĮĪáĬĵ áĬĿ
ĠáĪĺáĭ° áī¥
Ġmeng sel
Ġáīł áīħáĪŃáī¡
Ġaf hangende
Ġont le
Ġaspek te
Ġáīł áĭ²áĪĭ
Ġmeub els
ĠT og
áĮ» áĮ¸
áĭ³ áĭį
áĪ¨ áĮħáĪĿ
ĠáĬ¢ áĬĵ
Ġh eld
Ġgr aad
ĠáĪį áĪĽ
Ġdro Ã«
áĭĪáĮ£ áĭį
Ġsoortge lyk
ton ing
Ġgeb ly
Ġreg oor
v ul
es ier
Ġop roep
org an
cr ip
ĠM ed
Ġmak e
Ġt ier
ĠáĭŃáĪĺáĪį áĬ¨áī±
à® ®
ĠáĭĪ áĪ³
ĠB as
Ġáĭ¨ áĮ¸
ut ion
Ġe iers
P re
áĭĺáĮĭ áĮģ
Ġr ad
Ġge gewe
w inkel
ĠÐ ľ
Ġáĭ¨ áĪ°áī¥
O S
ĠáĮįáĬķ áī£áĪŃ
v rou
ĠMe i
áĭµ áĬĵ
áĬĳ áīµ
S im
Ġáĭ¨ áĭ²
áĬķáĭ³ áĬķáĭµ
ĠáĪĿáĬŃ áīµáĪį
ĠáĬĥáĪĭáįĬ áĬĲáīµ
áĮįáĬĻ áĬķ
áĪĪáĬĽ áĪį
áį Ĩ
áī° áĬĵáĪį
áĬķ áĪ²
Ġáĭ« áĭ°áĪ¨áĮĪ
ĠáĭĪáĪ¨ áīĢáīµ
Ġmil it
Ġhoog ste
áī£ áī¸áĭĭáĪį
ĠN asionale
Ġtegn ologie
Ġmaat skappye
vi ous
Ġst oel
Ġbestand dele
áĪŃ áĪ½
Ġin form
ien s
Ġgr as
áīĢ áįį
ĠáĮ³ áĮ³
áĪį áĪĽ
or ing
ĠáĪĺ áĮ¨
ĠáĪĺ áĪĢ
ĠáĬĲ áĪĲáĪ´
ĠáĪĽ áĪ°
áī³ áĪĿ
mat ige
áĮī áĬķ
Ġgev ang
Ġspel etjie
áĪŃ áī¥
Ġverh oed
Ġprakt iese
áīĢáĪŃ áī¡
ĠáĮĨ áĪ®
Ġelektr iese
ĠáĮī áĪį
ĠHaw ai
ig ers
ĠáĭĿáī° áįĪ
Ġblad sye
Ġons self
m ateriaal
ĠLe ave
Ġsekond es
art s
p ing
Ġgev olge
w aarde
-- --
áĪĨáĬĲ áĭį
ilip ino
t om
áĭļ áĬĸ
ĠáĬ¥áĪŃ áĮį
Ġbinnek ort
us a
Ġhier voor
Ġpolit ieke
ur iteit
Ġsk rik
áĭį áĭį
ĠáĭŃáĪĺáĪµ áĪĭáĪį
Ġstr and
ĠáĬłáī¥ áĭ®áīµ
H ou
ĠáīłáĪĺáĪµ áĮłáīµ
Ġáĭįáĭµ áĭµ
ĠáīĢ áĭ³
ĠT urk
7 9
us k
ĠáĪĺ áĬªáĬĵ
ĠáĬ¨ áĪĮ
Ġdat um
Ġvlieg tuig
S odra
ĠáĭŃáī£ áĪĭáĪį
ĠáĪ° áĪĭ
ĠMar k
Ġb lik
Ġaf laai
reken aar
Ġsamele wing
ĠáĪ« áĪ±áĬķ
iÃ«r s
Ġanal ise
áĬĴ áĪįáĬŃ
Ġáī« áĭŃáĪ¨áĪµ
Ġáī¥ áīĥáīµ
D r
Ġso k
ĠG ed
áĪį áĬĿ
Ġáĭĺ áĮĭ
Ġnood saak
ac y
m ense
ĠD ep
Ġkon f
ĠáĪ ¦
gew end
ĠR ights
áĭ¨ áīħ
áĪĽáĪª áĭİáī½
ĠáĬ¥ áī£áĬŃ
ðŁ ĺ
ĠFr ank
áĭ° áī¡áī¥
ĠáĬ¥áĬĲ áĪŃáĪ±
ĠWill iam
Ġáī° áĭ°áĪ«
Ġges ag
ĠáĬłáĪ¸ áĬĵáįĬ
áĪĿ áįĵ
Ġtek ens
Ġge ur
Ġbes tel
webwebwebwebwebwebwebwebwebwebwebwebwebwebwebwebwebwebwebwebwebwebwebwebwebwebwebwebwebwebwebwebwebwebwebwebwebwebwebwebwebwebwebwebwebwebwebwebwebwebwebwebwebwebwebwebwebwebwebwebwebwebwebweb webwebwebwebwebwebwebwebwebwebwebwebwebwebwebwebwebwebwebwebwebwebwebwebwebwebwebwebwebwebwebwebwebwebwebwebwebwebwebwebwebwebwebwebwebwebwebwebwebwebwebwebwebwebwebwebwebwebwebwebwebwebwebweb
Ġpotens iÃ«le
ĠáĪłáĪ« áī°áĬŀáī½
áĢ ¬
áĮ ¿
b ar
i oen
áĪĿ áĪµ
Ġáĭĺ áĭį
w ord
áī³ áĪ¨
áĮł áĪ¨áĭį
c onom
oc ide
Ġtot ale
ĠáĬŃáĪħ áĬĲáīµ
Ġin won
ĠEritre a
ens y
Ġsu iwer
áī° áĪĿ
Ġo ther
Ġso genaam
Ġsu iker
áĬ¨ áī£áī¢
áĪİ áī¹
Ġat mos
ian o
ĠáĪĪ áīł
sper anto
ĠáĮĮ áī³áī¸áĭį
áī£ áī£
áįĭ áĪŃ
ĠH ERE
ĠS om
ĠáĬ¥áĭµ áĮĪáīµ
ĠáĭĽáĪ¬ áĪĿ
Ġáīł áĭļ
ĠáĭĪáīħ áī³áĭĬ
Ġpersoon lik
âĢ¦ ]
ĠáĬ¨ áĪĮáĪİáī½
ĠáīĢ áĪ¨
ĠD ink
ĠáĭĪáĭ° áįĬáīµ
ĠáĪµ áįĸáĪŃáīµ
ĠHe alth
áĭĽ áī¥
Ġsa id
k uns
áĬ® áĬĲáĬķ
iÃ«n t
Ġvoor keur
áĭļ áīĥ
áīĥ áĪļ
áĬ£ áĭŃ
Ġsogenaam de
an ish
Ġáī¢ áĭ«
Ġáĭ¨áĪļáīĨ áĮłáĪ©
áįį áĪŃ
m ong
ĠA t
Ġáīħáĭµ áĪĺ
ĠáīłáīĢ áĮ£áĭŃ
Ġvo Ã«ls
Ġáī°áĪ³áīµ áįİ
Ġvoor werpe
Ġbetrou bare
áĬ¾ áĬĳ
oer nal
ĠáĮį áĬĵ
Ġdui wel
áĬ« áī°
áĪĽ áĪ©
Ġáĭ¨áĬ¢ áīµáĭ®áĮµáĭ«áĬķ
Ġbre ed
Ġk as
áĭ Ł
ba y
ag asy
Ġimm ers
Ġom trent
Ter wyl
Ġverl os
Ġpas sie
áī° áĪĵ
Ġin gew
Ġle ier
to ck
Ġfunks ion
D eel
ĠáĪĺ áĮĪáĪĪ
ĠáĮ½ áĭ®áĬķ
Ġverwys ings
Ġnav ig
Ġáī°áīĥ áĭĭáĪļ
te se
áĪĨáĬķ áĪĿ
Ġáī°áĪ° áĮ¥
âĺ Ĩ
ĠComment s
ĠHe bre
áīĢáĪĺ áĮ¥
ĠA h
áįĥ áĬĵáīµ
áĭĿ áĮį
t anje
Ġáīª áĭ²áĭ®
ount ry
Ġor al
ĠáīłáĪ« áĪµ
Ġaan b
Ġverde dig
ĠáĪĵ áīłáĪ¬áī³
áīłáĪį áĮ¥
Ġgewe es
S ommige
Ġspes iaal
to ets
ĠáīĢ áĪĪ
! "
s s
uts ch
Ġj ag
ĠáĬ¢ áĬ®áĬĸáĪļ
Ġb ind
áĪĻ áĪŃ
c an
ĠáĪĺáĪ£ áĪªáĭ«
ĠáĪĺ áĮĪ
ĠáĬ«áĪį áĬ¥
ĠT eken
N A
R E
ĠáĪ°áĬĲ áĭµ
ĠáĪĿ áĭķ
Ġgel iefde
l aat
Ġver slag
Ġs erv
ĠD ire
Ġpres ident
áĭ´ áĪ«áĪį
Ġáĭ°áīĤ áīĥ
Ġáĭ¨áĪļáĭ«áĪµ áī½áĪį
áĪ« áĬĴ
Ġd uik
ĠáĬ¢ áĪī
Ġáī¥áĪĶ áĪ¨
ĠG ro
Ġcomment s
Ġbot tel
or r
o a
Ġv ark
ĠáĬ¨ áī³
ple eg
huis e
s oos
Ġoor sk
Ġbelang stelling
áĪĽáĪŃ áĭ«áĪĿ
ĠáĪµáĭ°áī°áĬĽ áī³áīµ
áĪĺáĪ° áĮįáĬĵ
ing ers
æ ľ
ĠáĬłáĮĭ áĮ£áĪļ
áįĬ áĭİáī½
pr ent
ĠáĪĪáĪĽ áĬķ
Ðº Ð°
o an
is k
áĭĭ áĭŃ
Ġbinnek ant
oor deel
m iese
Ġbes tu
mas jien
Ġm idd
Ġáīłáīµ áĮįáĪ«áĭŃ
ag n
8 9
ĠáĮĢ áĪĺáĪ¨
áĭµáĪ® áĪµ
ĠáĮį áĮŃáīµ
ĠáĪĽ áĭŃ
áĪĥ áĭµ
Ġhou er
Ġb atter
Ġáī°áīĥ áĭįáĪŀ
Ġ ur
Ġáĭ¨áīĢáĪ¨ áīł
U it
ĠáĪĺ áĪĿáĪħáĪŃ
Ġabsol uut
sp aÃ±ol
Ġnet werk
pie Ã«l
áĪĭáĭĬ áĬĲáīµ
Ã«r s
ik wels
Ġkre atiewe
áĭĮ áĪŃ
ĠáĪħáĮį áĭ°áįį
áĥ Ĳ
r om
ĠáĮł áīĥáĪļ
Ġbo er
k ar
ĠáĭµáĪĿ áĮº
ĠAl les
Ġaf gele
N og
Ġáī¢ áĪĬáĭ®áĬķ
am ma
Ä ĥ
Ġáĭ¨ áĪ²
Ã§ ais
es otho
áĭĽ áĬķ
Ġl us
Ġáīµ áĪįáīģ
ĠáĪĽ áĬŃ
áĪĽ áĭį
ĠáĮ¥ áĬĵ
ĠáĮī áī¥áĬĿ
Ñĥ Ñģ
Ġto estemming
áĬł áĪµ
Ġáĭ¨áĭĭ áĮĭ
Ġuit sonder
Ġdoel treff
Ġop geneem
Ġgev ul
ĠáĬłáĬķáĭµ áĬĲáīµ
áĭ¨ áĪģ
Ġsk oene
Ġte orie
ĠáĭĪ áĭ«áĬĶ
ĠáĭµáĪĿ áĮ½
ĠáĪ° áĪĿ
lop ende
Ġáī° áĪĺáĪ«
Î ½
áĪĺ áĭĭáĪį
Ġuit s
ĠJ os
ĠáĬ¨ áĪļáĭ«
Æ °
Ġgetr ou
ĠáĪĿ áĭĿ
op pel
ĠáĮĪ áįħ
Ġvor entoe
Ġbek lemtoon
Ġáī¥ áĬķ
Ġopen bare
Ġu ite
S E
Ġgel Ãª
re ed
d s
ĠF aith
áĪ½áĬ¨áĪŃ áĬ«áĪª
áĮĪ áī¥áĪŃ
Ġs ite
ĠáĪįáī¥ áĪµ
ĠáįķáĪ® áįĮ
Ġch em
ĠC ar
áĪĺáĪĪ áĬ¨áī±
ĠáĪ° áĪį
áīħáĪŃ áĮ¸áīµ
Ġáĭ° áī¥áĪ¨
ĠáĬĥáĭŃ áĪĪ
00 1
ĠáĬŃ áĪµáī°
ĠáĪį áĪĿ
Ġáī° áĭĺáĮĭáĮħ
eer der
Ġon se
ĠO ff
Ġáĭ¨áīł áĪĭáĭŃ
Ġim pak
Ġide ale
Ġáĭ¨ áĮĪáĪĪ
oon op
Ġbele ef
Ġmet odes
áĭ°áĪŃ áĪ±
áĪ° áī¢áĭ«
ĠáĪļ áĬ«áĬ¤áĪį
áĮİ áī¥
ĠáĪ¥ áĪĭáĪ´
áī£ áĭŃáĪį
T e
áĬĸ áĪ«áī¸áĭį
aal d
ĠáĭŃ áĬ¸
g bo
ĠáĬ¥áĮįáĭļáĬłáī¥áĪĶáĪŃ áĬķ
áĬ¹ áĪĿ
Ġáĭ¨áī° áĭ°áĪ¨áĮĪ
Ġe ver
IN G
ĠáīĨ áĭŃ
Ġver ken
ĠV oordat
Ġpat roon
Ġaange d
ĠáīłáĬ¥ áĪŃáĮį
áĬķáįĪ áĪµ
ĠáĪĵ áĭµ
Ġ[ âĢ¦]
at ors
Ġáī°áĮł áĭ«áīĤ
í ķ
áĮį áĪ©
N o
áĭ° áĪµ
Ġpr om
ĠV SA
áĪĽ áĭįáĭ«áĬķ
ĠáīłáĪ« áĪ±
ĠV oeg
ĠáĪ½ áĪįáĪĽáīµ
Ġpl esier
7 6
Ġuit bre
Ġáĭ¨áĪļ áī°
Ġáī° áĮĪáĪį
áĭĺáĮĭáĮĢ áīµ
áĬĴáī¨ áĪŃáĪµáī²
Ġb oot
áĭĭ áĭĪ
Ġáī½ áĪ®
Ġáī¡ áĬĵ
ĠáĪĽ áĪ«
H uis
ĠáįĪ áĮ½
ĠáĪĬ áīĥ
Ġbegr oting
f un
r aag
ĠD us
ian s
Ġskepp ing
ĠáĪĭ áĪĪ
ap h
Ġáīł áĬ¦
áĪµáī² áĬŃ
Ġáĭ¨ áįķáĪ®
áĭ« áĭİáī½
âĢĿ ,
ah asa
ap s
ank like
ĠáĭŃ áĮįáī£
Ġpers one
áĬł áī£
ĠM er
ĠT el
ĠChrist en
erst ens
ad d
Ãª s
gr aad
ek ening
Ġhier bo
áĪįáĮ£ áĬĵáīµ
áĬ¨áī° áĪį
áĪ½ áĬĳ
ĠW it
iá»ĩ t
ol ie
áĪĿ áĪµáīµ
g ro
Ġáīłáįį áĮ¥áĬĲáīµ
ĠCO VID
ĠáĪĿ áī¹
áĪ® áī¹
g rad
M ay
Ġop stand
Ġc omp
ĠS tr
Ġmin stens
p on
W ees
Ġmodel le
ol k
ĠáĬķáĮī áĪ¥
Ġbestuur der
ou ers
ĠáĭŃáī³áĭĪ áīĥáĪį
Ġáĭ¨áĪĿ áī³
inn ing
Ġg overnment
ĠHa usa
ĠáĬł áĭ«áĪµ
ĠáĬ¥ áĮ¥áĪ¨áīµ
Ġgek yk
Ġverv oer
Ġaf hank
Ġbev order
Ġalle daag
ĠáĪĺáĪįáĭķ áĬŃáīµ
ĠáĭŃ áĮłáīĢ
Ġne e
K an
áĪ³ áī½áĬķ
T H
ĠáĬłáĪĿ áī£
ĠáĬ« áĪī
ĠáĮį áī¢
áĮĪáĬĻ áīµ
ĠáĪĽáĬķ áĬĲáīµ
ĠDuit se
ĠIn f
ĠB eeld
Ġvoort gaan
weg ing
l aag
Ġw ar
ĠáĬ¥ áīµ
áĭķ áĭµ
tin a
Ġag ain
200 5
áīĢ áĭµáĪŀ
R ec
ĠQ u
Ġsimp tome
áĭ° áīł
st ap
Ġh uil
Ġr it
Ġt ref
áĪĺáĪį áĪµ
Ġverantwoordelik heid
ĠáĮ¥áīħáĪĿ áīµ
ĠáĬ© áĬĲáī³áīµ
ÑģÐºÐ¸ Ð¹
áĭĽ áĪĽ
áīĭ áĬķáīĭ
ĠáĬ¤ áĪį
áĪ¸ áĬķ
Ġkn ow
ĠA p
Ġartic le
Ġáī³ áĭį
n odig
Ġvoed sel
ĠáĭŃáĮĪáĬĽ áĪī
Ġáį ī
Ġterug ge
Ġsig baar
Ġbeh aal
Ġonderske i
Ġsitu asies
st alleer
áīłáīµ áĬĵ
Ġvol doende
Ġav ont
ĠáĪµáĪĪáĪĨáĬĲ áĪĿ
ke p
25 1
gew ende
ĠáĭŃ áĪĭáĪī
w ard
ĠâĢ ¢
áĪ¨áĮĭáĮĪ áĮ«
le wer
ĠW ikipedia
ĠáĪĽáĪĪáīµ áĪĿ
áĪħ áĪ¨
W eb
ĠáĭĺáĪĪ áĭİ
Ġáī¥áĪĶ áĪŃ
Ġáĭ¨áī° áĪĪáĭ¨
is ion
Ġáĭį áĮį
áĪ« áĪŃ
áĬŃáĪį áĪį
Ã¢ n
Ġbok ant
Ġbegin sels
og en
Ġhor is
áĮ¥ áĬĵ
Ġkop pel
op sies
Ġáī½áĪ® áī³áĭį
in ess
âĢĻ ,
Ġad dress
Ġro k
ĠáĪĺáįįáīµ áĪĶ
Ġ ×
ĠáĪļ áĪĬ
Ġr et
áĭµ áīħ
v all
áĮ¿ áĪį
ul asie
áĪĺáĭĺ áĮĪáī¡
est ande
saam heid
ĠP e
ĠáĪķ áĮĤ
ĠáĬłáĪµ áī¸
Ð° Ðº
Ġoutom aties
ĠáĬ ¸
ĠáĪħ áĭĪáĪĵáīµ
Ðµ Ð»
áĭ® áī½áĬķ
ĠáĬ µ
Ġáīłáī° áĭ°áĮĭáĮĭáĪļ
T op
áįĬ áĪį
ĠáĭŃ áĪĭáĬ©
Ġáĭ« áīĢáĪŃ
ĠSond ag
gev oeg
Ġáĭ¨áīĢ áĮ¥áī³
ĠáĮ¥ áĪ«
Ġver werp
Ġmoontlik heid
b estand
ĠG et
áĭ¨áĪĿ áĪŃáīµ
ĠáĭĿáīħ áī°áĬĽ
ĠáĬł áĪĺáĪĪáĬ«
Ġáīģ áĪįáįį
Ġop tim
áĪĨáĬĳ áĪĿ
c ess
Ġáĭ¨ áĭĵ
áĭŃ áĭĺ
ĠáĪĢáĮĪ áĪ«áīµ
áĪ» áĬķ
Ġtien er
áĪĿáĪĭ áĬ½
áīĢ áĬĲ
Ġstu deer
Ġaansien lik
ond erstel
Ġgew aar
ĠPl aas
Ġsu id
Ġh erken
st al
Ġáĭĺ áĭŃáīµ
áĬ« áī¥
Ġom gee
Ġba tes
» áį
ĠáĭŃ áĪ°
áī Ĵ
ĠáĪĺ áĪµáī°
Ġm es
Ġáĭ¨áĬĲáīłáĪ© áīµ
ov er
áĭ¬ áĬķ
à¸ ¢
ĠáīłáĬ¥ áĮħ
áĪ³áī° áįī
ĠG ew
áīĥ áīĦ
áĬ® áĬķ
l et
ĠChrist ene
Ġáī° áĪ¨
A merik
áĪ° áĪµ
m aal
ĠáĭŃáĭĺ áīµ
Ġáĭ¨ áĭĺáĪŃ
áĪĽ áĪ¨
Ġáĭ¨áĪļ áĪĨáĬĳ
ĠH ome
ĠJ ob
áĮİ áĪį
ĠQ ibla
en aars
áĪĽ áĪĿ
Twe et
Ġbesl uite
Ġáī° áĪŀáĬŃ
we Ã«
Ġsus ter
ĠáīłáĪĺ áĮĢáĪĺáĪªáĭ«
Ġalledaag se
ĠDaar na
Ġvoer tuig
Ġskak els
Ġtrad isie
Ġsent imeter
Ġ ç
ĠáĪĺ áĭ³
entr um
ĠG ee
l l
Ġ ill
ĠD am
ĠáĪħáĭĿ áī£áĭĬ
ĠL et
Ġáĭ¨áĪļ áĪĺ
áĮ£ áī±
ĠáĪħ áĪį
ĠáĭĿ áīł
ĠáĪ ¹
áĪĿ áĪķ
I M
te lik
Ġáĭ¨áĪļ áī£áĪį
.... ....
Ġhers ien
Ġaanbied inge
Ġ !
Ġver j
A m
pos ito
ÑĥÑģ ÑģÐºÐ¸Ð¹
ĠV al
ĠLou w
Ġáīł áĬ«
ĠS in
ĠP interest
áīĢ áīłáĪį
ĠáĬ£ áįįáĪªáīĥ
áīħáĪĿ áīµ
áĭĿ áĬķ
ĠáīĢ áĪµ
ĠH uis
ĠC om
ĠáĪħ áĮĭáĭĬ
Ġáĭ¨áĪĢ áĮĪáĪŃ
ĠáĪĺáĪĭ áĬ¥
Ġvloeisto f
Ġáĭ¨áī° áĪĪáĪĺ
Ġbeskerm ing
Ġrel atief
Ġe vangelie
áī± áīµ
Ġken merke
áįĪáĮ¸ áĪĺ
Ġprosed ure
áī¥áĪŃ áĪĥ
Ġaan koop
Ġv lees
áī°áĭĭ áĪķáĭ¶
Ġver rig
b els
Ġmass a
ĠáĬ¨ áĪħ
ðŁ Ĵ
ĠáįĪ áĪ¨áĬķ
ĠRe ad
ĠáīłáĬł áĮłáīĥáĪĭáĭŃ
ĠáĬ¥áĪµ áĪ«
ĠáĪµáī´áīµ áĪµ
omm el
Ġver e
pek tief
áĭį áĪİáĪµ
ster ne
Ġáīł áĪģáĪĪáīµ
A f
ĠáĪµáĪĪ áī°
te urs
áĪĮáĬŃáīµ áĪ®
Ð°Ð°Ð°Ð°Ð°Ð°Ð°Ð°Ð°Ð°Ð°Ð°Ð°Ð°Ð°Ð°Ð°Ð°Ð°Ð°Ð°Ð°Ð°Ð°Ð°Ð°Ð°Ð°Ð°Ð°Ð°Ð°Ð°Ð°Ð°Ð°Ð°Ð°Ð°Ð°Ð°Ð°Ð°Ð°Ð°Ð°Ð°Ð°Ð°Ð°Ð°Ð°Ð°Ð°Ð°Ð°Ð°Ð°Ð°Ð°Ð°Ð°Ð°Ð°Ð°Ð°Ð°Ð°Ð°Ð°Ð°Ð°Ð°Ð°Ð°Ð°Ð°Ð°Ð°Ð°Ð°Ð°Ð°Ð°Ð°Ð°Ð°Ð°Ð°Ð°Ð°Ð°Ð°Ð°Ð°Ð°Ð°Ð°Ð°Ð°Ð°Ð°Ð°Ð°Ð°Ð°Ð°Ð°Ð°Ð°Ð°Ð°Ð°Ð°Ð°Ð°Ð°Ð°Ð°Ð°Ð°Ð°Ð°Ð°Ð°Ð°Ð°Ð°Ð°Ð°Ð°Ð°Ð°Ð°Ð°Ð°Ð°Ð°Ð°Ð°Ð°Ð°Ð°Ð°Ð°Ð°Ð°Ð°Ð°Ð°Ð°Ð°Ð°Ð°Ð°Ð°Ð°Ð°Ð°Ð°Ð°Ð°Ð°Ð°Ð°Ð°Ð°Ð°Ð°Ð°Ð°Ð°Ð°Ð°Ð°Ð°Ð°Ð°Ð°Ð°Ð°Ð°Ð°Ð°Ð°Ð°Ð°Ð°Ð°Ð°Ð°Ð°Ð°Ð°Ð°Ð°Ð°Ð°Ð°Ð°Ð°Ð°Ð°Ð°Ð°Ð°Ð°Ð°Ð°Ð°Ð°Ð°Ð°Ð°Ð°Ð°Ð°Ð°Ð°Ð°Ð°Ð°Ð°Ð°Ð°Ð°Ð°Ð°Ð°Ð°Ð°Ð°Ð°Ð°Ð°Ð°Ð°Ð°Ð°Ð°Ð°Ð°Ð°Ð°Ð°Ð°Ð°Ð°Ð°Ð°Ð°Ð°Ð°Ð°Ð°Ð° Ð°Ð°Ð°Ð°Ð°Ð°Ð°Ð°Ð°Ð°Ð°Ð°Ð°Ð°Ð°Ð°Ð°Ð°Ð°Ð°Ð°Ð°Ð°Ð°Ð°Ð°Ð°Ð°Ð°Ð°Ð°Ð°Ð°Ð°Ð°Ð°Ð°Ð°Ð°Ð°Ð°Ð°Ð°Ð°Ð°Ð°Ð°Ð°Ð°Ð°Ð°Ð°Ð°Ð°Ð°Ð°Ð°Ð°Ð°Ð°Ð°Ð°Ð°Ð°Ð°Ð°Ð°Ð°Ð°Ð°Ð°Ð°Ð°Ð°Ð°Ð°Ð°Ð°Ð°Ð°Ð°Ð°Ð°Ð°Ð°Ð°Ð°Ð°Ð°Ð°Ð°Ð°Ð°Ð°Ð°Ð°Ð°Ð°Ð°Ð°Ð°Ð°Ð°Ð°Ð°Ð°Ð°Ð°Ð°Ð°Ð°Ð°Ð°Ð°Ð°Ð°Ð°Ð°Ð°Ð°Ð°Ð°Ð°Ð°Ð°Ð°Ð°Ð°Ð°Ð°Ð°Ð°Ð°Ð°Ð°Ð°Ð°Ð°Ð°Ð°Ð°Ð°Ð°Ð°Ð°Ð°Ð°Ð°Ð°Ð°Ð°Ð°Ð°Ð°Ð°Ð°Ð°Ð°Ð°Ð°Ð°Ð°Ð°Ð°Ð°Ð°Ð°Ð°Ð°Ð°Ð°Ð°Ð°Ð°Ð°Ð°Ð°Ð°Ð°Ð°Ð°Ð°Ð°Ð°Ð°Ð°Ð°Ð°Ð°Ð°Ð°Ð°Ð°Ð°Ð°Ð°Ð°Ð°Ð°Ð°Ð°Ð°Ð°Ð°Ð°Ð°Ð°Ð°Ð°Ð°Ð°Ð°Ð°Ð°Ð°Ð°Ð°Ð°Ð°Ð°Ð°Ð°Ð°Ð°Ð°Ð°Ð°Ð°Ð°Ð°Ð°Ð°Ð°Ð°Ð°Ð°Ð°Ð°Ð°Ð°Ð°Ð°Ð°Ð°Ð°Ð°Ð°Ð°Ð°Ð°Ð°Ð°Ð°Ð°Ð°Ð°
t ot
ĠáīłáĪµáī° áīĢáĪŃ
Ñģ ÑĮ
' ,
Ġbe Ã«
áĪĪ áĪŃ
H ulle
Ġdor pie
Ġf iks
áĪĽ áĮį
ĠâĨ Ĵ
Ġáĭ° áĪµáī³
l as
ÑĢ Ð°Ñ
Ġge de
Ġbro ers
áĮĵ áĮĵ
Ġw yd
ur ele
Ġje ug
ĠM ense
Ġle wend
os tig
Ġe is
Ġk aarte
Ġ Î
áĭĪáĪµ áĭµ
áĭľ áĪĽ
áĪ« áī´
8 00
Ġáĭ¨ áĭ³
ĠáĬ«áĪį áī°
áĪ ĸ
áĪ¸ áĬĲáįį
Ġáī³ áĪªáĬ«áĭĬ
áĬ© áĪµ
íķ ľ
áĪĺáĪĪ áĪ±
áĪ» áĮĪáĪŃ
ont ak
ĠK e
Ġbew aar
Ġversamel ing
Ġbyd ra
versek ering
áįĪ áĭĭáĪį
áĪ°áĮ£ áī¸áĭį
Ġmon th
ĠS im
áĬ« áī½
T r
Ã ·
ĠS elect
Ġc ountry
ĠáĮ¥áĬķ áī³áĭĬ
ĠA pp
Ġin struksies
200 3
áĭĪáĪ° áĬķ
ĠáĬłáĪĪ áĬĿ
Ġh oender
áĮĢ áĬķáĭ³
Ġpog ing
ĠáĬ¥áĬķ áī³áĭŃ
rou ens
Ġb us
ok ol
áĮĭ áĭį
Ġversp re
ĠáĮ½ áĪģáįį
Ġáīł áĪĲ
Ġáĭ¨áī° áī£
áĭ¥ áĪĿ
t z
I A
áĮįáī£ áī¥
ê µ
Ġuit dr
ĠáĮĪáĪįáįĢ áĭĭáĪį
ĠMal ay
Ġáī¥ áī¸
Ġáĭķáĭµ áĪľ
reg te
ĠáĪĤ áĭ°
G aan
omm ing
oor log
Ġgesk enke
Ġverwys ing
H ome
Ġtev rede
ĠáīĢ áĭµáĪŀ
Ġtoes ig
áĪĭáī¸áĭį áĪĿ
ĠáĪµáĪĪ áĪĺ
áīģ áĬķ
ĠAb ba
áĪ° áĪĭáĪĿ
ì ĸ
Ġáīłáī° áĪĺáĪ³áĪ³áĭŃ
áĪĪ áįĪ
áĭĪ áĮĪ
Ġáī³ áĪµ
T E
Ġm m
K ur
ĠáĪĽáĪħ áīłáĪ«áĭĬ
iew ers
Ġfil ms
ĠáĪģáĪĪ áī±áĪĿ
Ġwerk gewer
Ġáī½áĪİ áī³
Ġnou keur
Ġbed rog
à¸ Ĺ
g ere
ĠáĬł áĭĿ
áĬł áĭ²
áĪģ áĭµ
i ber
ĠáĮł áĪ¨
ĠL td
áĮĪ áĭįáĬķ
ĠB en
Ġd oll
Ġáī°áīĢ áī£
Ġaddis ethiopia
áĭµ áĬ«
áĭ Ģ
us alem
Ġbel asting
Ġval s
Ġáī° áĪĪáĭĭ
áĬĵáĬķ áī°
me ester
ĠH ar
Ġverb aas
Ġáįį áĮ¹áĪĿ
aw a
Ġpl anne
Ġgel de
ĠáĪĺáĬķáĮįáĪµ áī³áīµ
J anu
Ġáīłáīµ áĬŃáĬŃáĪį
Ġáĭķ áīĥáĭİáī½
Ġáīħáĭµ áĪļ
ĠP arty
Ġd el
ĠáĬĸ áĪ®
ĠáĭŃ áīł
Ġáī¤áī° áĪ°áī¥
Ġo om
ĠáĮ¥ áĪĿ
Ġáĭ¨áĪļ áĮł
Ġsp ieÃ«l
m oed
ĠáįĪ áĮ£áĪª
ĠáĪĪáĪĽ áĪ¨áĮĭáĮĪáĮ¥
te gn
Ġl ot
Ãªr ens
Ġop gel
Î ¹
Ġgedr uk
Ġgeb iede
ĠAn ders
Ġpr estasie
áĪĿ áĪ©
áĪŀáĬŃáĪ«áĪ² áĭ«áĭĬ
áī£ áĪħ
w or
ip s
Ġáīłáĭ°áĬķ áī¥
crip t
Ġáī°áĬ¨áī³ áī³áĭŃ
áįĪáĪĪ áĮį
ĠáĬ¨ áī£áī¢
ĠáĮįáĪĪ áĪ°áī¦áī½
al ly
ĠáĭŃ áĮ¨
ĠáĬ¥áĬķáĮį áĭ³
he ers
Ġsak eplan
ĠáĬ¥áĪŃ áĭ³áī³
ĠP er
d uidelik
op sp
Ġdirek te
áĬķáĮįáĪĬáĭĿ áĬĽ
ĠgeÃ« et
Ġwaar aan
br ood
ach ew
Ġáīł áĪģáĪīáĪĿ
ĠK ur
áĮłáĭŃ áīħ
ĠáĪħ áĮĪ
ĠPret oria
h an
anc el
áī£ áīł
Ġweb site
Ġh een
ĠáīłáĬ¥ áĮįáĭļáĬłáī¥áĪĶáĪŃ
áĭµ áĪµ
ĠR SS
à¤ ¿
Ar ch
ĠáĬŃáĪį áĪİáī½
Ġmoo iste
Ġeffek tief
ĠáĮĪ áĭ°
ne eu
ĠWind ows
Ġk ursus
æ Ĺ
Ġsk yf
Ġmag netiese
áįįáĮ¨ áįĭ
Ġsent r
Ġsol d
áĮį áĪ¬
áĮħ áī¶áī½
Ġáī¢ áĭ«áĬķáĪµ
ly s
chn ology
ĠáīłáĬł áĪľáĪªáĬ«
ĠK ies
êµ Ń
Ġáī¡áĭµ áĬĸáī½
íķľ êµŃ
N ie
Ġst rek
Ġresult aat
ĠN am
oh ol
New s
i red
áĪĿ áĮ£áīµ
áįĪáĪį áĮĪáĭį
ĠáĮį áĭĽ
ĠáĪĽáĪ¨ áįĬáĭ«
Ġáī°áĮł áīħ
ĠáĮł áĪŃ
w al
ĠáĪ° áĪįáįį
Ġa ks
áĭĺ áĪĺáĬķ
Ġinter pret
ant iese
Ġakt ief
h oof
Ġáĭ¨ áĪĲ
ĠáĪĪáĪĺ áĪĨáĬķ
k on
Ġge sluit
Ġk elder
áĮ£ áĬĿ
ĠáĭµáĪĿ áįħ
áĭĺ áĪ¨
A D
ĠAh med
æĹ ¥
b ere
áī¥áĪĶ áĪ«áĭĬ
Ã¼r k
Ġáĭ¨áĪĨáĬĳ áīµ
áįı áĪį
Ġbegin sel
ec raft
áĮħ áĪĪ
y ar
Ġge el
ĠVer al
áīħ áĬķ
Ġont span
Ġheer like
Ġdeeg lik
Ġk ollege
ig ting
ges it
áĭ« áĪĪáĪģ
ĠV iá»ĩt
áĢ Ļ
at i
áĪģ áĪī
Ġal k
ĠáĭĭáĬĵ áĭį
Ġáĭ«áĪį áĪĨáĬĲ
I G
áĪª áĬķ
id er
Ñ Ĭ
áĪ¥ áĮ¢
et ers
i mb
Ġáĭķáĭį áīĢáīµ
Ġvy and
ĠáĪĺáĬķáĮĪ áĭ¶áī½
áĪĥ áīµ
ew a
Ġd wing
Ġth ink
Ġvoor ste
Ġkol leg
u er
Ġáįį áĮ¥áĬĲáīµ
Ġterm yn
vr iend
Ġst ate
ĠOp sies
Ġmot ors
ĠáĬłáĪĪ áī¥áĬķ
ĠP ower
ĠáĬ¥ áĪŃáĪµáĭİ
Ġth ere
ĠáĮĪ áĪĬ
ĠáĪħ áĭ³áĪŃ
W hatsApp
Ġáī° áĮłáĬĵ
ĠJer usalem
áįĥ áįĢáĪĿ
Ġsit plek
ĠáįĪ áĬĲáĭĪ
or teer
áĪĽáĪµ áī³áĭĪáīĤáĭ«
ĠW al
Al hoewel
gele ent
Ġtoestel le
oel ie
ĠI I
Ġtemp el
Ġa y
Ġcon t
áĬĵ áīµáĬķ
Ġáī£áĪħ áĪŃ
Ġáĭ¨áĬ¢ áĬ®áĬĸáĪļ
ĠáĮįáĪĿ áīµ
Ġh ip
u es
áĪĿ áĪ«áīµ
Ab out
ĠMin ecraft
ĠT ot
áĭŃ áĭŃ
æľ ¬
Ġáĭ² áĭĽ
es seer
ies ter
El ke
Ġaan gename
ĠPres ident
sper im
áĪŁ áĪĭ
Ġen gele
Ġáīł áĪĿáĬķ
V oordat
ĠáĬ« áĪĪáĭį
áĪĿ áĪį
áįį áĪ¨áīµ
ĠáĪĵ áĭŃáĪį
Ġáĭ¨áĪĻ áīĢáīµ
áĬł áĮįáĬĻáĬķ
áī¦ áĬĵ
ĠáĪĺáĪ¥ áĪ«áīµ
áĭŃáĬĵ áĬķáĪµ
áĬŃáĪŃáĪµáī² áĭ«
áĪĪ áĮĭ
ort s
ĠáĪģáĪĪ áī±
ĠáĪ¶ áĪĽ
ĠáĪŃ áīĢáīµ
áĮ§ áĪį
ĠáĮī áĪŃáĪ»
Ġprof e
u eer
v isie
Ġkonte ks
Ġkrag tige
Ġsk aam
áĮ» áĪŃ
Ġmas jien
ĠáĬłáĪĺ áī³áīµ
ige er
bet aling
Ġorgan isasie
ist iek
æĹ¥ æľ¬
áĭ¨ áĪµ
íķľêµŃ ìĸ
áĪĬ áĭ«áĬķ
ĠáĪĺáĪĪ áĪµ
ĠRom an
áī£ áīµáĬķ
Ð½ ÑģÑĮ
Ġdie et
áī° áĪĽ
ĠáĬ¨ áĮ¥
ĠNederland s
Ġge tu
Ø§Ø± Ø³
¤ Ĵ
Ġáĭ«áĭ°áĪŃ áĮĭáĪį
ĠáīµáĬĵáĬķ áīµ
Ġwaar borg
Ġsek uriteit
Ġte ik
â ¤Ĵ
ðŁĶ Ĺ
â¤Ĵ ðŁĶĹ
Ġteenoor gestelde
Ðº ÑĢÐ°Ñ
Ġbesoek ers
ÐºÑĢÐ°Ñ Ĺ
ing sk
Ġl at
ĠáĬłáĭįáī¶ áĪĽáī²áĬŃ
b it
ĠáĪ² áī£áĪį
áĪŃ áĬ«
áĪª áĭį
áĪĬ áĬĵ
ĠK lein
áĮħ áĬĲáīµ
if ik
ÐºÑĢÐ°ÑĹ Ð½ÑģÑĮ
áĬ¨ áī¡
Ġáĭ¨áĪļ áĮĪáĬĺáĭį
8 2
Ġplane et
ukk ies
Ġkal m
B rit
Ġst yf
Ġske i
ĠáĬ¥áĬĲ áĪ±
Ġs aad
Ġont trek
Ġstof s
Ø§Ø±Ø³ ÛĮ
áĬ¦áĪ®áĪĿ áĭ«
Ġáī°áĪŀáĬŃ áĪ®
ĠáĮ¾ áĪĿ
ĠáĪĪ áĮĪ
áĪĨ áĬĵáī¸áĭį
ĠáĭĺáĭŃ áĬ®
Ġáīł áĪ°áĭį
ÑĢ Ð¿
áĬĽáĭįáĬķ áĪĿ
ond ers
ui wer
ĠáĬ£ áī£
Ġtoege pas
Ġv ingers
áī¸áĭį áĪĿ
ĠáĬł áĭĺ
Ġk oe
áĬķ áĭ±
ĠáĪĿáĬ¥ áĪĺáĬĵáĬķ
Ġáī¥ áįį
d a
ĠáĭŃáĭĺ áĭį
Ġkommun ik
ĠY ork
Ġal bum
ĠIndones ia
áī³ áī½áĪģ
On t
ĠáĮįáĭµ áĭ«
Î º
áĬĵ áī¥
áĪĽ áĭķ
áĪĿáĪħ áĪŃáī²
S ep
Ġáī° áĪŃ
oon like
Ġkop ie
Ġletter lik
re Ã«l
Ġst ukkie
Ġbe pl
op pervlak
Ġáīł áī²
ĠáĬĲáĮĪ áĪ®áī½áĬķ
ĠáĬ¥ áĪ³áīµ
Ġm ult
ĠáĬłáĪµáī° áĭ«áĭ¨
v ie
áĪķ áįĪáīµ
Ġst ort
áĮ½ áĬ¥
Ġinst all
Ġm us
ĠáĮ¸ áĮĭ
Ġew ig
Ġ Ñ
Ġste de
ĠB o
wys ings
Ġaanv anklik
áĪī áĭŃ
Ġwh en
Ġatmos feer
it iewe
ĠáĬ¥áĬķáĭ° áĪĺ
Ġrig ht
ord ering
Ġbetrek king
Ġb ose
à¤ ¦
Ġkoek ies
ĠáĭĪ áĮ£áīµ
ĠáĬŃáī¥ áĭ°áīµ
ĠáĪ³ áĭ«
áĮį áīłáĪŃ
ĠP ar
ĠáĬłáĪĿáĪ« áī½
áĮĤ áī³áĪį
ĠáĬ«áĪį áĪĨáĬĲ
ĠáĪľ áĭ³
Ġáī£áĪĪ áįīáīµ
Ġáīĥ áĪĭáīµ
9 1
áĪµ áī¶áī½
Ġs hare
om eter
ud aya
Ġd est
áĬĲ áī³áī¸áĭįáĬķ
Ġsk rif
st oot
Ġgeh elp
Ġspel ers
Ġkommun ikasie
K ry
k ier
tel sel
gen oemde
io de
i reer
Ġm anne
Ġbr uin
ĠáĪĺ áįħ
udaya chn
áĪ´ áĬķ
Ġáĭ¨ áĮ½
Ġk m
Ġto ilet
áĪ³áī° áįį
ĠáĪ« áĪ±
æĹ¥æľ¬ èªŀ
ĠáĬ¤áĪŃáīµáĪ« áĬķ
áĮł áĬĿáĬĲáīµ
n ommer
ĠáĭŃ áĪŃ
Ġsir kel
áīĢ áĮ£
ut ch
ĠáĭŃ áīĨ
9 8
Ġáī£áĪķ áĪŃ
áįį áĭ«
Ġáī°áĭĪ áĬ«áĭŃ
is sie
Ġáĭ¨áĪļ áĮĪáĬĿ
c ed
Ġb aas
a el
áĪ¶ áĪĿ
ong ol
der ing
Ġáīł áĭĭáĬĵ
âĢ İ
Wat ter
Ġonder kant
aal de
Ġáįį áĪį
Ġnad ele
oor een
ĠáĬ¥áĬķáĭ°áĪļ áī½áĪį
ĠáĬł áĪĭáĪĽ
Ġso et
Ġmin imum
áĬ³ áĬķ
v ere
áĬĺ áĭį
ĠáĬ£áĭŃ áĬ®áĬĲáĬķ
y en
Ġáīłáīł áĬ©
Ø± Ø¨
ĠáĮ Ĳ
Ġal so
en ings
Ġáĭ¨áī³ áĪªáĬŃ
áīĥ áĪĪáĬķ
áĭ¨ áĪį
Ġáĭ¨áĪķ áĮį
Ġl am
ĠáĬ¥áĬĵ áĬķáī°
ĠS tell
áī¥ áĬĵ
ĠáĪĽ áĭµáĪ¨
ĠS od
Ġont slae
ist s
staan de
ĠB oonop
ond heid
ĠáĬ¢ áĪ³áĭ«áĪµ
Ġwaarde ur
áīĨáĮ£áĮł áĪªáĭ«
ĠWat ter
Ġh oud
Ġbr aai
ĠáĬłáĮĪ áĭĽáĭĿ
áĬ ļ
Ġsk uur
Ġáĭ¨áĪļ áįĪáĪįáĮī
ĠáĪ½ áįĭáĬķ
âĨ Ĳ
ĠáĪ¨ áĮĪáĭµ
áīħáĭµ áĪĺ
Ġáĭ¨áĪļ áī£áĪĪáĭį
Ġáĭ° áĪħáĬĵ
m es
Ġl ui
áįĪ áĬĵ
áĪ ¼
p ut
áĬķ áĪ°
Ġáĭ° áĪ«áĪ²
O f
áĮ¨ áīł
Ġvoorbere iding
Ġpu blik
Ġgek oppel
Ġb aan
ĠgeÃ¯n stalleer
Ġbek ostig
Ġplaas gevind
áĪĭ áĪµ
ĠáĭĪáĬķ áĮĢ
Ġáĭ¨áĪĺ áĬķ
Ch r
m mer
oo ks
Ġde posito
áĪķ áĬĵ
áĪĭáī½áĬķ áĪĿ
ĠáĬ¥áĭįáĬĲ áī°áĬĽ
Ð°Ñ ı
ĠáĪĿáĬ½ áĬķáĭ«
áĬĲ áįĥ
Ġáĭ¨ áĭ°áĬķ
w ahili
áīĥ áĭµ
Å¡ tina
Î ·
Ġáī£áĪħ áĪªáĭ«
le y
ĠáĬŃ áī¡áĪŃ
ÙĬ Ø©
áĭĭ áĪ³
l im
velop ment
ĠJ ak
ĠVry dag
ĠZ ulu
aan de
Ġ iewers
Ġáī°áĭĪ áĪĭ
Ġdr ing
blad sy
ĠBrit se
Ġmoeilik er
ĠáĪĪáĪĽ áīħáĪ¨áī¥
ĠáĭŃ áĪ°áĪĽ
ĠáĮ£áī¢áĭ« áĭİáī½
áĪ« áĪ¨áī¥
og r
Ġáī³ áĪĭ
áīĥ áĪ½
Î ¬
Ġs er
Ġáī£áĪĪ áĪ¥
ĠáĪ» áĪĿáįĴ
áĮ¦ áĪŃáĬĲáīµ
áīĥ áĭŃ
Ĥ ¬
iol og
ang rik
N adat
ĠáĪĺ áĭĽ
à¥ į
is iteit
Ġk uier
ĠR ob
ĠáĪĺáĪµáįĪáĪŃ áī¶áī½
ges el
ĠE th
pos adres
× ¨
áĪĺáĪĪ áĬŃ
T rad
ĠáĭĿ áĪĺ
Ġdr am
Ġáĭ¨ áĬ¨áī°áĪĽ
ĠáĬłáĭŃ áĮĪáī£
áĭ° áĭ±
Ġáīł áī´
Ġpr ior
P interest
6 1
áĭŀ áī½
ĠD at
áĭ° áĭµ
Ġvolwass enes
Ġkl ub
Ġeen dag
Ġs el
Ġster ker
Ġi Phone
ĠáĬĲ áĮŃ
Ġbeweg ings
Ġkl op
Ðµ Ð´
Ġeer lik
Ġerv arings
ĠC ors
áī¤ áī¶áī½
Ġterug voer
at her
Ġ ign
áĬłáĪµáī° áĭ«áĭ¨áīµ
Ġsu pp
Ġmis kr
ĠM edia
ĠI r
a br
ĠáĪĽ áĪ¨áĮĭáĮĪáĮ«
áĬŃáī¶ áĪ¬áīµ
áĪĭáįĬ áĬĲáīµ
áĮ£ áĪī
as ino
Ġge f
ĠFr an
Ġáĭĺ áĮĪáī£
ĠáĬ¥áĭ¨ áĪ°áĪ«
el y
Ġite m
200 4
ĠáįĬ áĪįáĪĿ
e Å¡tina
áĬŃ áĪŃáĪµáī¶áĪµ
ĠáĪĵ áī¢
Ġgesk e
Ġv og
il j
iss ion
aan bod
Ġbeur t
Ġre uk
ĠáĬ¤ áĪĿ
áĬĲ áĪŃáĪ±
áīĢáĮ¥ áĪį
ĠáĮłáĪ¨ áĮ´áĭĽ
t and
áīĨ áī½
ĠáĬ ¾
Ġbe f
Ġor de
Ġáĭ¨áĪļ áĪĨáĬķ
ĠáīłáĪĢ áĮĪáĪ«áī½áĬķ
áĪ¨áĮĭáĮĪ áĮł
Ġgetr oud
Ġáī°áĪ³ áī³
Ġw ay
xe mb
Ġen kel
ĠáĬ¥ áīħáĭµ
sk erm
ĠáĬĲáĮĪ áĪ¨
Ġh onger
Ġáĭ« áĪ¨áĮĭáĮį
Ġweers pieÃ«l
ÐºÑĢÐ°ÑĹÐ½ÑģÑĮ ÐºÐ°
Ġsty g
Ġuitge bre
ger us
áīł áĪ³
Pre vious
ĠW yk
ĠJ an
áĪĪ áĪ½
áĪµáĪĪ áĭļáĪħ
Ġg om
áĭ¨ áīł
Ġáī ¸
ĠW es
Ġáīł áĭĪáīħáī±
in ale
ĠáĭĪáĪ³ áĬĿ
ge st
ĠS it
áĮī áĪŃ
áĪ¨ áīĥ
áĪŃ áĪĭáĪĽ
ĠáĬł áĭĪ
áī¥ áĭİáīµ
ĠáĬ¥ áī³
Ġsou s
Ġáī°áĭ°áĪŃ áĮİ
gen oot
Q u
áĪ« áĬķáĪµ
áĬķ áī£
Ġd if
Ġoper asie
ĠáĭĪáĪ¨ áĪŃáĪ½
Ġh eu
áĬ¨áĪĭ áĭĬ
ĠRus land
ĠáĪĿ áĬĵ
ĠV is
áĭĪ áīµáĪŃ
áĭĭ áĮŃ
ĠáĮį áįį
Ð¾ Ð²
o ets
Ġáĭį áĪ½
ĠáĪĺáĪµ áĪ«áīµ
Ġh um
g ryp
ĠDire ctor
ĠáĭµáĪŃ áĪ»
Ġges ny
ĠVer der
w we
Ġkorrek te
Ġáīł áĪ¶
Ġl ap
ĠB egin
Ġáĭ¨áīĢ áĭµáĪŀ
Ġm ay
áīł áĪ°
áĪį áĬ«
Ġáĭ¨áī° áī£áĪĪáĭį
ĠáĭŃ áĬ¹áĬķ
ĠEgip te
Ġsk ole
ĠáīłáĪ° áĪĭáĪĿ
áĬ« áĪĤ
áĪµáĪ« áĬ¤áĪį
bl ok
ĠáĪ° áĮł
áĭ¶ áī¹
el o
v aar
Ġv ele
Ġaanhang ers
Ġverh ale
Ġop staan
h oog
ĠáĬ¥áĬķáĭ° áĪĮ
Ġn aaste
ĠD oen
Ġver brand
ier ing
áĬ¨ áĪ©
Ġreg st
Ã§ e
Ġáĭ¨áĪĿáĪµ áĬŃáĪŃ
ĠáĪĺáĪįáĬ¥ áĬŃáīµ
Ġdok umente
ĠCh ar
áĭķáĪĪ áī±
Kur man
ĠáĭĿ áĬ£
Î¹ Îº
ven ska
Ġs ome
áĬ¨ áīłáĪ¨
ĠáĪĽ áĪ»áĪ»
áĪµáī° áĭį
Ġst rate
ĠC atal
Ġt on
ĠáĭĪ áĪ²
Ġáīł áīĥ
ĠD em
Ġsin ne
Ġle Ã«
Ġbel and
Ġgel ukkige
Ġbeperk te
Ġops igte
ĠáĬ¥áĬķáĭ³ áĪĪáĭį
Ġl ente
Ġongel ukkig
ut asie
Ġfl iek
ĠáĪĽ áĮį
Ġáĭ¨áĪĽ áĬķ
áĭĭ áĪª
áĪĻ áĪĭáīµ
A S
struk tuur
amil ie
áīµ áĪŃáĭ«
áĭĭ áĪĪáĬķ
áĪ½ áīµ
ur ig
Ġj ust
Ġver y
ï ¼
Ġkomp on
k ante
sk aatse
ĠáĪĿ áĮį
ĠH and
In dien
Ġpro duseer
Ġtr uuk
ĠáĪª áįĸáĪŃ
Ġáĭ¨ áĮ¸áĪİáīµ
ĠH andel
vl oer
bed ryf
Ġle iding
Ġbe weer
Ġteles koop
Î Ķ
M ag
i ot
or sk
áīĢ áĪī
Ġáĭµ áĬķáĮįáĪį
ca de
áįķáĪİ áĪĽ
Ġin de
Ġbyd rae
Ġwor tel
Ġm eel
Ġonse ker
ĠáĭĪ áĭ²áĪħ
Ġt erselfdertyd
Ġverh uur
enb os
Ġopgew onde
Ġaan spreek
ĠáĬķ áĪµ
Ġr oete
Ġc ase
geb ied
ĠáĪĺ áĪ¨
ĠáĮł áĭŃ
ĠáĪĿáĬŃáĬķáĭ« áī¶áī½
áĭ° áīłáĬĽ
ĠáĬłáĪ°áĪ« áĪŃ
A ugust
Ġv ide
ĠáĮĪ áĭĽ
Ġmed ium
áĪĽ áĮŃ
ĠáĬłáĬķ áĭ²áīµ
Ġáĭ¨áĬ¤ áĪĮáĬŃáīµáĪªáĬŃ
Ġinsp ir
Brit tanje
ĠáĬłáĪµ áĪĺáĪį
Ã¼rk Ã§e
st room
ĠE st
Ġáĭ¨ áĭĽáĪ¬
Ġinwon ers
ik us
Ġt ak
Ġtoer iste
áī¦ áĬķ
in ia
ĠáĮ¥ áīģáĪŃ
vry e
áĪħ áĬĲáīµ
Ġáĭ¨áĪļ áĪī
ĠáĭŃ áĪ¨áĭ³
Î½ Î¹Îº
ĠáĬ¥áĬķáĭ³ áĭ«
Î» Î·
Rec ent
áĪĺáĮ£ áĪį
V ers
h ande
áĬ °
ĠáĬ¥áĬķáĭ° áĭļáĪħ
áĮ¥ áĮ¥áĪŃ
ĠT ra
à® ´
dr en
Fe bru
v leis
Ġs leep
oe iende
ĠáĬ« áĪĿáįĵ
J une
áįĪ áĪµ
ĠÐ ĳ
On der
groot te
Ġpers oneel
Ġg ryp
ĠáĬ£ áĪľáĪªáĬ«
Ġon bek
aam d
áī» áĪī
Å¡ Äįina
ĠáĮ¥ áīĥ
Ġ {
Ġr ak
Î» Î»Î·
Î»Î»Î· Î½Î¹Îº
Ġáĭį áĪµ
7 4
áī° áĮĪ
Ġt end
en ch
áī»áī½áĬķ áĬķ
r or
fess or
Ġáĭ¨áĬĥ áĭŃáĪį
ĠáĭĺáĪĪ áĭī
Ġáī¥ áĬ£
ĠáĮĪ áĮ¾áī½
ĠáĬķ áī¥áĪ¨
áĭ´ áĪį
Ġbet aling
ĠáĭŃ áīĢáĮ¥
Ġáĭ¨ áĪ´áī¶áī½
S ien
M eer
Ġongeloof like
Ġseks uele
ĠáĪĥ áĪ³
k ure
Ġvor me
e ens
r aam
ĠáĬ¥ áīĥáĭİáī½
Ġlief het
Ġresep te
sp l
Ġ room
as ing
Ã¢n Äĥ
Ġht tp
ĠáĬłáĭįáĪ® áįĵ
ĠáĪĥáĮĪ áĪ«áĭĬ
ĠáĪĿáĪµ áĬŃáĪŃ
t ro
ĠS ol
ducat ion
Ġáĭ« áīĢáĪ¨
áĮĢáĪĺáĪŃ áĭ«
Ġáīł áĮŃ
áī¥ áī¥áĪŃ
ĠáĪĽ áīħáĪ¨áī¥
g a
ĠMal agasy
ĠáĬ¥áĪĿ áīłáĪŃ
Ġy em
ĠáĬłáīĭ áĪĿ
ĠY or
Ġin gestel
ĠSh ona
Ġáĭ¨áĪļ áĬĸáĪ©
Ġunivers iteit
Ġtip ies
Ġáĭ¨áĪĺ áĬķáĮįáĪ¥áīµ
Ġbot ter
Ø±Ø¨ ÙĬØ©
Ġáī´ áĭİ
Ġáī°áīĢáī£ áĭŃáĬĲáīµ
áĬĲ áī¥
Ġr esearch
es se
ĠX hosa
ł áĥ
áĥ łáĥ
ÑĢÐ¿ ÑģÐºÐ¸
oest yn
iet u
ĠáĪĺáĪµ áĭĭ
à¹ Ħ
áĭĺ áĬĽ
gel d
Ġklip pe
as ter
ĠAl mal
Ġwor ld
Ġs neeu
ĠV andag
áĭįáĬķ áĪĿ
ĠáĬłáĪįáĬĲáīłáĪ¨ áĪĿ
lig te
ĠáīĢ áīł
ĠN ik
h en
Î»Î»Î·Î½Î¹Îº Î¬
f ers
ĠáĪĪáĪĺ áĮłáīĢáĪĿ
oun c
iz ation
ĠáĬłáĬķ áįĥ
ĠE N
ba ba
ĠáĪĿáĬķáĭµ áĬĲáĭį
un a
Ġaange pas
ĠáĪ°áī¥ áĬ£áĭĬ
ĠArtik els
áį «
ĠM aat
Ġd wel
r aak
Ġuitdag ing
Ġrek ord
am ente
Ġkop pie
ĠáĮŃ áįįáĮ¨áįĭ
Ġstok perd
ĠLat in
Ġmark te
ĠáĬłáĬĲ áĪµáī°áĬĽ
Ġfr an
ie te
ang er
áĪķ áĭĿáī¥
o in
ĠV erk
Ġ ðŁĳī
at ive
ĠE speranto
ÐµÐ» Ð°ÑĢ
Ġbesp aar
ĠáįķáĪ®áĮĢ áĬŃ
u f
ĠB ul
Ġgesl aag
Ñĥ ÑģÐº
ÐµÐ»Ð°ÑĢ ÑĥÑģÐº
Ġvervaardig er
Ġaanbe vel
Ġtoe gerus
del ings
áĪĭáĪĪ áī½
Ġke uses
Ġant ieke
Ġáīł áĪŀ
áīħ áĭ±
áī° áĬ®
Ġw ere
ķ Î»Î»Î·Î½Î¹ÎºÎ¬
Ġg o
ĠA g
ay u
áĬ¤ áĬķ
Ġáĭ³áĭŃáĪ¬ áĬŃáī¶áĪ¬áīµ
is wahili
ĠáĪģáĪĪ áī°áĬĽáĭį
el oos
áĪĺ áĬĶ
áĬ³ áĭŃ
Å ³
un ing
áīł áī£
ur ige
Ġfant asie
g y
Ġl aas
ÑĬ Ð»
áĭŃ áĪħáĬķ
N eem
áĪªáĭ« áĭį
Ġáĭį áĬĥ
c ial
Ġdr ama
áĪĤ áī¥
áĪĺáĪį áĬ¨
áĬł áĬŃ
Ġáĭ¨áĬł áĬ«áī£áī¢
áĬ¤ áī½
ĠáĪĮáĪİáī½ áĪĿ
ĠGer man
áį Ĥ
âĢĻ .
ĠáĪĿ áĮįáī£áĪŃ
N S
Ġbors voed
á ®
Ġonderwys ers
ic ation
Ġspeel goed
Ġáīł áĪĭ
Ġsiek tes
Ġversk rik
Ġverl ang
ĠáĬ¨áī° áĪŀáī½
Ġáĭķ áīĥ
Ġvriend elik
Ġheel al
Ġbestu deer
mal ige
Ð³ Ð°ÑĢ
Ġadv ies
Ġverb eelding
G eb
Ã¶ r
áī½ áīłáīµ
ĠáĮ« áĪĽ
Ð³Ð°ÑĢ ÑģÐºÐ¸
ĠáĮ¥ áĬķáĬ«
are a
Ġáī³ áĭ²áĭ«
áī° áĭĪ
Ġom vang
ĠáĪµ áĪįáĮ£
áĭµáĬķ áī½
p ar
ĠáĬ¥áĬĵ áīµ
áĪļáĬĴ áĭ¨áĪĿ
Ġte ma
ĠáĭŃáĪĺáĪµ áĪĪáĬĽáĪį
pr ess
áĪ¬ áĭµ
vi Å³
ĠAmerik a
Ġ <
uth or
áĪĭ áĪĪáĪģ
Ġr uil
sp eel
Ġk eis
Ġver ste
Ġakt iewe
Ġh aat
Ġooreen koms
ĠStell enbos
Ġpubl iek
tal ing
00 43
âĢ¦ .
ĠáĮīáī¥áĬĿ áīµ
ur ing
ap er
ÑĬÐ» Ð³Ð°ÑĢÑģÐºÐ¸
áĬĸ áĪ¨
áĪŀ áĬĳ
× ĳ
áĮĢ áĬķáĪ²
ĠáĭĪ áĮ»
áĬ« áĭĬ
atur day
áĮĪáĬĲ áī£
Ġk o
áĪħ áĪĿ
ietu viÅ³
Ġbl aas
ĠCh ich
Ġr ivier
9 6
Ġsimbol iseer
ĠáĬĲ áĭŃáĪ©
Ġv aar
Le ave
N uwe
Ġj ammer
G en
áĪŃ áįį
áīł áĬ¢áīµáĭ®áĮµáĭ«
áĪ« áī¥
Ġamb agte
Ð°Ðº ÐµÐ´
Ð°ÐºÐµÐ´ Ð¾Ð½
ĠA ir
áįĭ áĭŃ
oor s
ĠáĬŃáĪį áī°
uis e
ĠS pr
ĠáĬķ áĪĵ
ĠáĪĿáĪµ áĮ¢
' .
y le
áĬ¨áĬĵ áĭĪáĬķ
ĠáĪĿ áĬĴáĪįáĬŃ
p els
áĬ« áĭ®áī½
Ġin sig
ĠáĬł áĪĬ
ĠáĭŃ áĮĢáĪĿ
Ġro oster
erv aring
sk aats
Ġáĭ¨áĬł áĪĪáĪĿ
Ġry p
ĠI gbo
ĠMal tese
Ġgewild ste
tyd ig
op en
Ġt ik
art ment
Ð°ÐºÐµÐ´Ð¾Ð½ ÑģÐºÐ¸
Ġáĭ¨áĪļ áĪ°áĪ«
Ġk ers
Ġáĭ¨áĮį áī¥
áĥ ļ
Janu ary
Ð ¼
In ter
p ort
Ġonafhank like
Ġtrans aksie
Ġáī° áīĵ
ĠáĬĵáĭŃ áī²
Ġáī¥ áĪ©
ĠáĪĪáĪĺáĪµ áĪ«áīµ
Ġáĭ¨áĪĺ áĮ¡
re view
ĠáĬ¥áĭµ áĪľ
Ġnoodsaak like
be v
Ġw an
ĠáĪ° áĪľáĬķ
h ele
Ġpl af
Ġrep ly
j ect
Ġuit sig
Ġbet ree
Ġrus tig
ĠáĭŃ áĭĪ
sk aart
R om
ĠáĮĭáĭľ áĮłáĬĽ
áĪ³ áĪī
ĠáĪĺáĪŃ áĪĥ
áĬĵáĮĪ áĪ©
al ity
ÐµÐ»Ð°ÑĢÑĥÑģÐº Ð°Ñı
áĥļ áĥ
and id
ĠáĬ¨ áĬ¢
ĠáĭĪáĬķ áĮĮáĪį
Ġ âĸ
ag ina
áįĪ áĮ¥áĪ®
áĮĢáĪĺ áĪ¨áĭį
ĠáĮĬáĭľ áĭ«áīµ
áĮ½ áĪį
áĬ« áĭ¨áĭµ
áī¨ áĪŃ
ĠáīłáīĢ áĪĪ
Ġwerknem er
Ġsol ank
Ġopge merk
ĠáĪĪáĪĽ áĭ¨áīµ
ĠáĪĺáĪµ áĬŃ
áīł áĭ¨
áĬ¥ áī³
mel t
Ġnuut ste
oe ier
ĠD iÃ©
Ġgesond heids
áįĭ áī¸áĭį
à® ķ
Ġakkur aat
ĠH mong
ĠR ef
Ġáī°áĮ½ áĭķáĬĸ
áĭ³ áĪľ
ĠáĪĿáĪµ áĮĭáĬĵ
Ġa ct
áĮĪáĬķ áī£áīµ
ĠM ad
Ġáī° áĪĵ
ĠáĬ¥ áĮįáĭļ
T S
ĠáĬĲáĭĭ áĪªáĭİáī½
ĠH ind
ĠáīłáĪĽáĬķ áĬĽáĭįáĪĿ
C l
F ollow
ĠT een
áĬ¨áĪĭ áĬ¨áĭ«
à¦ ¬
áĪħ áĭĿ
t op
pl aat
Ġáĭ¨áĪļáĭ« áĭ°áĪŃáĮī
Ġge trek
V olgens
Ġrestaur ant
ograf iese
arte ment
Ġst aar
ĠáĪĪáĭļáĪħ áĪĿ
Ġge pas
Ġgeb oue
et isie
ik sie
áĭ² áĬķ
ĠáīłáĪĽ áĭŃ
Ġáīł áĭĺáĪĺ
Ġáĭ¨ áĭ°áĪ¨áĪ°
Ġáĭ¨áī° áĭĭ
q ip
ĠáĬł áĮĢáĬķáĭ³
ĠOp tions
Er ena
à¸² à¸
ĠS esotho
ĠáĬķ áĮ¹
om en
ĠáįĬ áĪį
in es
Ġáĭ« áĬ«áīµ
áĪĦ áĭ°
Ġad min
áĮĪ áĪĺ
áįĪ áī³
ĠáĭŃ áįį
áĭ°áĬĵ áīĤ
Ġch urch
Ġbel owe
rig ht
Ġaan de
ĠáĬłáĬķáīĢ áįħ
Ġver onderstel
Ġpas gemaakte
áįį áĪ¬
áĪ» áĪį
Ġprakt yk
áĪł áĪ¨áī°
Ġk oud
hou er
Ġont stel
houd elike
Ġverm oed
ĠS oc
ad o
Ġd enke
ĠáĪĺ áĮ¡
Ġáĭ¨ áĬŃáĪįáĪī
Ġáĭ¨áĪĿáĪŃ áĮ«
áĥĲ áĥłáĥ
à¦ ²
R A
or me
ĠáĬłáĭµáĪŃ áĮĵáĪį
áī¥ áĪĦáĪŃ
ĠáĬª áĪİ
ĠáĪł áĪ«áĭĬáīµ
áī Ľ
áĪ° áĭĭáĪį
ĠJ our
Ġáĭ© áĬĴáī¨áĪŃáĪµáī²
if y
Ġbe ing
U M
Ġfe es
ĠáĪĥ áī¥
ĠáīłáĬĲ áĮ»
Ġáī°áįĪ áĮ¥áĪ®
m eng
ĠS onder
Ġver bruik
Ġryk dom
ĠA arde
áĮ½ áĮįáĬĵ
Ġemos ionele
Ġt ensy
ste en
Ġte e
Ġoor saak
áĬ¨áī³áī° áĪį
ĠM ongol
Ġhoud ing
I K
d i
ĠInst agram
áĪ¥ áĪ«áīµ
ĠC V
Ġáīµáĭķ áĭĽáĭĿ
ĠK en
Ġáī¥áĪĦ áĪ«áĭĬ
Ġáīµ áĪĿáĪħáĪŃáī²
Ġle g
ĠáĮł áī£
áĪµáī¡ áĬŃ
ĠáĮ³ áĭįáĪİáĪµ
áĬĲ áī³áī½áĬķ
Ġpr agtig
ĠL and
Ġgebruik er
Ġgel aat
Ġgehe ime
Ġopw ind
ur m
Ġpres iese
Ġvol maak
Ġoomblik ke
Ġáĭ°áĬķ áīłáĬŀáī½
Ġsam estel
f o
Ġskou er
Ġlewend ige
ĠáĬłáĮĪ áĪ«áīµ
sl en
1 20
O P
in c
áĪĺáĪĪáĬ¨ áī°áĭį
h ara
ĠS C
áī¡ áĪ«áīµ
h aaf
u ie
W il
ĠM oses
ar us
áĭķ áĭĿ
áĭ°áĪŃ áĮĭ
ĠáĬłáīµáĪĮ áī²áĬŃáĪµ
áĬ¨ áīł
ĠáĬłáĭŃ áĪĺáĪµ
6 00
áĭĪ áĭŃáĪĿ
áĬ¥ áĭļ
sk rywer
Ġmeer der
ble me
Ã¯ ne
ek ra
Ġdie per
ĠL eer
ĠS an
ĠáĪį áĭĳ
Å¡ u
vie Å¡u
Ġstil te
Ġwed stryd
Ġwaar des
m oeder
Ġinst alleer
Ġnoukeur ig
áīª áĭ²áĭ®
Ġs hou
Ġprogram me
Ġv lek
N ame
Ġ( '
Ġáĭ¨áī°áĭĪáĪ° áĬĲ
ĠáĬł áĮłáīĥáīĢáĪĿ
Ġmo de
Ø¹ Ø±Ø¨ÙĬØ©
ĠáĬŃáĪŃáĪµáī²áĭ« áĬĸáī½
áĭĵ áĪĺ
ĠS und
Ġ áĥ
hal ing
Ġáīłáĭµ áĮĭáĪļ
ĠáĬ¥áĬķ áĭ´
ĠáĬ¥ áĪħ
Ġáīł áĮī
Ġáī¢ áĬĸáĪŃ
he il
ĠáĪµáĪŃ áĮŃáīµ
ĠáĬł áĪ³áĭŃ
l ood
lik es
in se
Ġpers pektief
Ġspesial iste
gew ings
Ġek sperim
Ġte Ã«
Ġduis ende
Ġswe m
Ġvrou like
áĭ· áĪį
Ġverh it
Ġverg oed
ĠáĪģáĪį áĮĬáĭľ
Ġever y
à¦ Ĥ
à¦¾ à¦Ĥ
áĪ¨ áĬ½
áī³áĭĪ áīĢáĭį
ob al
Ġáĭ¨ áĮŃ
Ġat t
Ġáīµ áĬ¥
áĪŃ áĮĭ
Ġr ou
Ġint ens
sp ro
ĠR ed
áīł áĪ«áīµ
ĠM att
ĠáĪ £
Ġde m
Ġl im
áīłáĪ¨ áĪ°áī¡
y t
áī ĸ
Ġpersoon likheid
Ġvry gestel
¥ áĥĲáĥłáĥ
Ĺ áĥ
Ġk amers
¥áĥĲáĥłáĥ Ĺáĥ
Ġfeit lik
Ġkonse kw
sluit ing
ĠD aw
ĠáĬ£ áĪĿáĪĭáĬ½
re dig
Ġt akke
Ġbelegg ings
Ġáĭ«áīĢáĪŃ áī£áĪį
J ul
Ġb ar
ĠáĪĺáĭĭ áīħáĪŃ
áī¤ áī³áī½áĬķ
Ġwor k
Ġáī£ áīµáĪª
Ġreg ul
! )
ĠIn ter
áįĵ áĬķ
Ġáīł áĭĪáĬķ
ĠáĭŃ áĪ¸
ĠáįĪ áĮłáĪ«
sk ik
b ate
áĥļáĥ ĺ
áĭį áĪ°áĭµ
áĬĲ áīħ
ĠáĬ«áĪį áĬ¦áīµ
ĠáĪĪáĪĽ áĪĪáīµ
ĠO ekra
ate er
kop er
Ġteik en
Ġáī¥áĭĻ áĪķ
Ġbuitel and
ogen oemde
ĠK lik
ak teur
áĪĪáĭį áĮ¥
l ank
áĪĪ áĬĵ
ĠáĪĪ áĪģáĪīáĪĿ
ĠáĬł áĭĺáĮĭáĮħ
Ġg h
ĠM ess
mak er
R eg
ĠáĪĺáĮįáĪĪ áĮº
ĠáĪķ áĮĭáĭĬ
in ked
ĠáĪµáĭµ áĪµáīµ
Pr ess
Ġáī° áīĨ
op y
ĠáĪ¥ áĪįáĮłáĬĵ
ĠLu xemb
Â °
áĪķ áĪŃ
ĠáĬŃáĪŃ áĪµáīµ
Ġs ay
ale go
ĠáĪĵáĭŃáĪį áī³áīµ
Ġáĭ«áĪ³ áĭ«áĪį
ĠáĬł áī³
N atuurlik
ĠJ ode
ĠáĬ£ áĪį
ĠMel ayu
ĠáĪĿ áĪ¥áĮ¢
Ġbal ans
Ġh ek
Ġbesigheid s
wee f
Ġst reek
Ġsent rale
s ch
Ġáīł áĮĢáīµ
áī¤ áĬķ
Ġb od
ĠáĭŃ áįĪáĪįáĮĭáĪį
ĠáĬ¢ áĪİáĪĿ
áĪ± áĭ³áĬķ
Ġáĭ² áĮįáĪª
- ,
áįİ áī½áĬķ
áĮ½ áĬ¦
ĠáĪµáĪ« áĪķ
ĠáĪĺáĬķ áĬ¥áĪ°
Ġtre ff
áĪ³ áĬ«
Ġge breek
Ġgev estig
Ġkommunik eer
áĬĵ áĪī
Ġvlak ke
ĠáĮĪ áĭ³
áŁ Ĵ
On thou
áĭ¨ áīħáĪŃáĮ¸áīµ
áĭ¨ áĬ«
áĭ° áĭŃ
ĠA lex
áĪĽáĪĽ áĬĿ
áĬ¨ áĬł
ĠMa ori
M e
Ġáīłáĭį áĪµ
áŀ ļ
áįİ áĪŃ
ĠEn ige
o int
Ġáĭ¨áĬ¥ áĪŃáĪµ
Ġáīł áĮ¾
T en
áĭķ áĬ®
E G
Ġtyd elike
r ip
Ġon aan
Ġter rein
vorm ige
rr r
Ġgodsdien s
Ġaanged ui
áĪ° áĪ³
áīĭ áĪ¨áĮ¥
Ġintern asionale
à¸Ĺ à¸¢
à¹Ħ à¸Ĺà¸¢
Ġalk ohol
slen ska
c ted
v ideo
ðŁĴ Ń
Ġáī° áīł
Ġbe m
Ġk am
ĠáĬ¥áĬĶ áĪĿ
Ġwat ers
ĠáĮ¥áĪĭ áī»
ĠáĭŃ áĮłáĭŃ
ĠáĪĪ áī¥áĭĻ
n as
Ġge br
Ġáī°áĭĪ áĭ³áĭ³áĪª
H AN
ot h
ĠáĬ¥áĬķáĭ° áĪĽ
ĠG B
ĠáįĪ áĪŃ
Ġbatter y
Ġdr upp
ĠP aar
Ġdaag liks
De ur
Ġtoepas like
áįĭ áĪµ
Ġrep utasie
ĠáĪµ áĮĭ
av a
Ġign oreer
Ġt rein
Ġuit r
Ġpas t
áĪµáī°áĬ« áĬ¨áĪį
ĠU r
Ġverpl igte
Ġw inste
ĠáĪĺ áīĨáĮ£áĮłáĪªáĭ«
áĪª áĭĿáĪĿ
ĠE erste
ĠáĬłáĪµ áĬ¨
ĠáĬķ áĬ£
áĪĭ áĪĪáĬķ
áī³ áĬĶ
ĠáĬ¨ áĮį
D A
ĠáĬ« áĭļáĬĸ
ĠáīłáĬł áĪĽáĪ«
Ġshou ld
áĭĺ áĭĿ
ĠáĬ ĭ
ĠC am
enes is
áī¥ áĬĵáĪį
ustr al
p t
Ġd aai
k as
áīª áĭ¥áĬķ
Ġinter ne
Ġdek or
Ġseker lik
Ġaan hou
gaan de
Ġvier kante
Ġsn aak
st yd
aad jies
Ġsp uit
Ġk aste
áīĢ áĬĵ
der daad
200 2
ĠáĪĲ áĪ³áī¥
áĮł áĭįáĬķ
200 1
áĪµáī° áĬĽáĭį
áĭŃ áĪĬ
áīłáĪŃ áĬ«áī³
ĠáĬłáīħáĪŃ áī¦áīµ
Ġáĭ¨áĬł áĪµáī°áĭ³áĭ°áĪŃ
Ġáĭįáĭµáĭµ áĪ®áī½
áĭ¨ áĬ¢
áĪĺ áĬķáĮįáĪµáīµ
áĭį áĭµ
ĠáĬ¨ áĮİ
ĠAd dis
? âĢĻ
áĮĢ áĪĿáĪŃ
à¤ ²
qu ired
ab i
ĠáĬ¥ áĮį
r vat
áĪ¨ áįįáīµ
ĠáĪĽáĬķ áĬĽáĭįáĬķáĪĿ
Ġáĭ¨áī° áĮ»
pe ct
áĮĪ áĪµ
rvat ski
Ġge se
áĪĽ áĪħ
Ġáĭ¨ áī£áĪĪ
om ent
áĪĥ áĭ°
er ba
ĠáĪĽ áĮ¥áįĭáīµ
áĭį áīģ
aard igheid
áīĥ áī¤
Ġrol le
ĠJohannes burg
Ġgr ense
Ġkon v
Ġr uim
Ġnut tige
ĠU iteindelik
Ġoorbly wende
Ġtr ap
okol ade
opsp een
áĬĲ áĪħ
ĠáĬłáĭŃ áī»
áĮģ áĬķ
áįķ áĪĭáĬķ
s c
áĪ® áĭį
em ent
at o
gen er
S tock
ĠáĪĲ áĪĿáĪĮ
ĠáĮĮ áī³áī½áĬķ
Ġc ookies
áŀ ĺ
Ġáĭ¨áĪ° áĪĭáĪĿ
áįį áī³
Ġgr ens
ag ter
pos isie
gesp reek
ĠOn gelukkig
ĠT rouens
Ġger ig
al iseer
ĠáĪ¨ áĮħáĪĿ
áĪ° áĬĵ
Ġgen aamd
Ġonder liggende
áĬł áī¶
Ġp h
ĠP ark
ĠáĬ¨áĬ¥ áĬĽ
ĠR adio
à¤ °
áŁ Ĥ
Ġáįķ áĪª
ĠHou se
áŀ ģ
áŀ ¶
Ne xt
ĠáīłáĬł áĪĪáĪĿ
Ġv eer
áįĪ áĬĲ
Ġdiep te
Ġlang termyn
es h
Ġáĭ¨áĪĽáĪħ áīłáĪ¨áĪ°áī¥
ĠK ry
ĠáĬłáĪłáĪ« áĪŃ
we d
ĠáĬ¨ áĬķ
gew oon
T yd
sp oed
us ic
Ġr ots
ĠTyd ens
ĠáĬłáĬķáįĥ áĪŃ
áĬŃáĪŃ áĪµáīµáĬĵ
ja bl
ĠA ff
ĠGriek se
ĠáĪ° áĬĶ
ĠK h
áĭį áīĢáīµ
iv ing
ĠáĪħ áĮ»
in i
áĪŀ áĪĿ
áĪŃáīµ áĪ«áĭĬ
áĮ¸ áĪį
ĠáĮįáĬķ áī¦áīµ
W ritten
áĮ£ áĭĬ
ĠáĪµáĪĪ áĪļáĭ«
áĬł áī¥
¤ à®®
âĿĸ âĿĸ
ĠCh ina
Ġl ine
áĮĪ áįį
ĠáĬĲáįĥ áĬĲáīµ
ĠáĭĿáĮį áĮģ
Ġvoed ing
ver w
Ġvoor gestel
ist ies
ans ies
Ġoor tre
áĮ« áĬķ
Ġaanv anklike
£ ÐºÑĢÐ°ÑĹÐ½ÑģÑĮÐºÐ°
áĬĲáĮĪ áĪ¨
áĪ® áĬķáĪµ
ar io
Ġáī° áĭĵ
Ġmiskr aam
ĠáĬłáĭŃáĭ° áĪīáĪĿ
Ġáī º
ĠD ag
Ð¾ Ð»
à ³
Ġl ink
ĠáĪį áīµ
or de
ĠáĭŃ áī°
ĠT rek
Ġáī°áĪ« áĪ«
áĬ» áĪį
S aturday
ĠáĬŃ áĬ¸áĭįáĬķ
áĪ² áĪµ
is yen
áĪĪ áī²
tu be
à¤ ª
Sep tember
ĠáĭįáĪ³áĬĶ áĬĵ
der y
áĮħáĪĿ áĪĭ
Ġáĭ« áĬķáĬķ
Ġbelof te
É Ļ
×Ļ× ª
áĭİ áĪµ
Ġekonom iese
ĠOekra Ã¯ne
air s
Ġmid dag
ĠáĬ¥ áĪĺ
ĠJ ood
ĠáĬ« áĪ³
áĬ® áĪį
tel and
vl ug
Ġvreem d
áī£ áĭĶ
Ġr uk
Ġskou ers
ĠáĪĪ áĪį
ĠW ater
uan o
ph p
áĮłáĭ¨ áīħ
ĠáĪĺ áīĥ
ĠáĭĪ áĬª
H e
ĠáĪĢ áĭŃ
ĠáĪŃáĭķ áĪµ
ĠáĪ¥ áĪįáĮ£
áĪŁ áĪĭáīµ
I V
Ġáĭ¨áĬ¢áĬķ áĭ±áĪµáīµáĪª
Ġwys heid
Ġáĭ¨ áĪĭáīĢ
h of
Ġelektr oniese
olg ende
on teer
ĠáĬłáĪĪ áĪĽ
Ġna b
Ġhier oor
Ġdaar deur
Ġonder rig
áī³áĭĪ áīģ
Ġfunksion eer
Ġgew en
Ġgev eg
Ġtr oue
Ġw is
áī¥ áĮ»
eb uano
ĠáĬłáī£ áī¶áī½
ĠáĬłáĪĺáĪĪáĬ« áĬ¨áīµ
ĠáĬ¥áĭį áīĢáīµ
ĠáĬķ áĬ½
áĭĺ áĪĿ
pl ace
v o
áĭįáĭ«áĬķ áĬķ
Ġáī£áĪħ áĪª
áĭ© áī¥
áĮįáĪĪ áĮ½
Ġâĸ ª
ĠL ond
Ġáĭ¨áīģ áĪĽáĪŃ
Ġv en
Ġnew s
Ġlin ker
ĠáĪµáĪĪ áĭĿ
Ġáĭ¨áĪļ áĭĪ
K or
Ġáī° áįħ
Ġh ef
áĮįáī£ áī¡
to om
Ġmede ding
Ġpu t
Ġoorspr ong
Ġsk ud
Ġáĭ«áĭ°áĪŃ áĮĪáĭĭáĪį
ĠáīłáĪħ áĮį
Ġverl eng
unt jie
áĮĭ áĪĿ
br eng
ĠáĭµáĪŃáĮĬ áīµ
áĪ· áĬķ
ĠáĭįáĪŃ áĪŃáĭµ
ĠáĭįáĮį áĬ¥
áī£ áĪ¨
ĠáĮĵ áĭ°áĬĽ
m eld
áĬŃ áĬŃáĪŃ
áĭį áĬĳ
ĠáĭĻ áĪŃ
áĬł áĪĭáĪħ
Ġag gr
áĮĪáĪĪ áįĢ
áĬ¾ áĬķ
Ġjong er
ĠP ubl
Ġ ik
d oek
Ġvorm s
Ġhe ers
Ġs mal
ĠáĪĺ áĮ½áĪĲ
Ġstel sels
ĠS Ãª
ul Ãªre
Ġprim Ãªre
ak h
áĭ¨áĪ© áĪ³áĪĮ
Ġk ool
Ġkont ant
Ġswe mb
Ġp aaie
Ġoor leef
ĠáĭĿáĪŃ áĭĿ
Ġáĭ¨áī°áĬĵáĮĪ áĪ©áīµ
áĬ« áī¤
Ġáĭĺ áĪ¨
W el
ie p
ĠáĬł áĮł
áĮ¹ áīµ
sk u
E W
ĠáĪĽáĬ¥ áĬ¨áĪį
ĠáĬłáĬķ áī£áī¢
Ġuit gawe
Ġáĭ«áĪį áĪĨáĬĳ
Ġáĭ Ĭ
ĠáĬ¥áĬķáĮį áĭ²áĪħ
à¥ ĩ
Ġáĭ² áĪĭ
áĭ°áĮĪ áįį
Ġg oue
ĠC or
áĪĺáĮ£ áĭį
verh ale
en iging
Ġver le
Ġondervind ing
by t
m is
inn ige
ĠáĮİ áĪį
Ġd ob
teken ing
Ġoop gemaak
Ġproduk sie
áĭįáĬķ áīµ
ĠFrank ryk
B eeld
Ġwetenskap like
áĬķ áĪ°áĪŃ
ĠáĪĺáīģ áĪ¨áĮ¥
áĭķáĪĪ áī³áĭĬ
ĠáīĢáĮ¥ áĪİ
r el
ĠáĮį áįĬáīµ
ĠáĪĪáĪĺ áįįáĮłáĪŃ
Ġáī¥ áĪĭ
ĠáĬłáĭį áī³áĪ¨
Ġáĭ¨ áī¥áĪ¨áīµ
ĠáįĵáĪŃáī² áĭİáī½
à³ į
ip pe
ĠáīłáĬĥ áĪĭ
Ġagain st
d in
ĠáĪĪáĪĺ áĬ¨áĪĭáĬ¨áĪį
áĪį áī£
ķ à²¨
à² ¡
à² ķà²¨
à²¨ à²¡
ĠÐ ¢
g ereg
ĠáĬ¥áĭį áīħáĬĵ
ĠáĪĪáĬł áĬķáĭµ
yd ing
en ces
áī¨ áĪµáīµ
Ġ angs
Ġb aar
O U
Ġpro kure
Ġpog ings
Ġvert aal
Ġher fs
Ġoorspronk lik
Ġafhank lik
gor de
ĠáĭĪáĪŃ áīħ
ĠáĬ¨áĪĿ áĭļ
S u
ĠáĪĿ áĮ½
ĠáĬķáĭµ áįį
Ġt imes
áĪ¬ áĭį
íķľêµŃìĸ ´
Ġs m
áįĪ áī°
áĭ¨ áĮį
Ġpol itic
ĠS wit
ĠáĬłáĪµáĪĺáĪį áĬŃáī¶
ĠáĮ ´
Ð°Ð· Ð°
ĠáĪµ áĮĭáīµ
ĠáĬ¥áĬķáĭ°áĪļ áī»áĪį
Ġl ie
Ġper man
Ġt enk
Ġgebe de
Ġbel y
ĠP as
Ġaan pas
Ġáĭ¨áĭĪ áĭ°
ĠáĮ ¡
Ġon ly
ite er
Ġpart ye
Ġteen woordig
áĬĶ áĬķ
Ġs iklus
Ġkat te
Ġopvoed kundige
Ġbon us
m uur
ĠáīłáĪķ áĮį
Ġmater iale
Ã ²
Ġáĭ¨áī°áįĪ áĮ¥áĪ®
ĠáĮī áĮħáĪĪ
ĠáĬ©áī£áĬķáĭ« áĭİáī½
s it
áĪħáĬķ áĬĲáīµ
Ġbl ink
ĠáĬłáįĪ áįĥáįĢáĪĿ
ĠáĪµ áĬĵ
Ġth an
ĠáĬłáĬķ áĮ»áĪŃ
à· Ĵ
áĭ« áĪī
à· ĥ
à· Ħ
ĠáĭĪáī³áĭ° áĪ«áĭĬ
Ġáīł áįĮ
Ġáĭ¨ áįĬ
à·Ħ à¶
ĠáĬ¨ áĪĥ
ĠáĬłáĪµ áī³áĭĪáīĢ
à¶ Ĥ
à·Ĵ à¶Ĥ
à·Ħà¶ ½
Ġáĭ¨áĪļ áĪīáīµ
ĠáĪģáĪī áĬķ
Ò Ľ
sk ou
áĪĪáī² áĬ¨
Ġom skep
Ġenig iemand
Ġto estande
Ġb uur
Ġso doende
ind es
Ġby gevoeg
Ġwerknem ers
¡ ÑĢÐ¿ÑģÐºÐ¸
áĭį áĬĲ
Ġáĭ¨áĬł áĬķ
Ġhaar self
Ġgesk ied
b ad
Ġknop pie
Ġb anke
áĬ¨ áĪĪáĬĽ
ĠMidd ele
Ġwaar uit
ĠáĪĪáĪĺ áĮį
Ġf opspeen
áĭĭ áī¸áĭį
ĠáĪļ áĪį
ate st
u ke
áĬ¨áĪ° áīµ
áĬ Ģ
áĬ¨áī° áĪĪáĭį
ĠT op
ĠáĮ« áĬĵ
iet nam
áĬ£ áĪį
i cha
Ġáīł áīĢáĪŃ
áĭ© áĪĿ
ĠáĭĪ áĮį
áī¦ áĪŃ
Ġ Ġ
ĠáīĢ áĮ£
áĬħ áīłáĪ«áĭĬ
Ġoor vloed
ĠáĬłáĪ» áĪ«
l inge
Ġre c
S elfs
ĠáĪķ áī¶
Ġv estig
Ġw inkels
áĭį áĭ«áĬĳ
ĠáĪ° áĪļ
elf de
Ġnuus kier
est iging
Ġtegn iek
Ġongeloof lik
ĠáĬª áĭ³
Ġl isensie
ĠáĪµáī¥ áĪµáī¥
ur n
ver b
ĠáĮĪáĬķ áĭĺ
ĠáīłáĪĢ áĮĪáĪŃ
ar ge
ik ale
ĠáĬłáĪ³ áĪį
k ap
sk yn
le e
áĭµ áĪ«
Ġgevaar lik
Ġn aald
ĠH oroskoop
B egin
Ġ @
Ġver dr
S tel
bet aal
® à´
² à´
Ġáīł áĭ¨áĬł
à´ ³
à´ ¾
à´ Ĥ
à´ ®à´
²à´ ¯
à´®à´ ²à´¯
ĠáĬ¥áĬķáĭ³áĪĪ áīłáīµ
iÃ«n te
Ġâ Ĥ¬
Ġgele idelik
ĠáĭĺáĪĭ áīĤ
Ġslaap kamer
Ġmilit Ãªre
ĠáĬĲ áī¶áĪĿ
G l
áĪĭ áįį
ĠáĮĪ áī¥áĪŃ
áĪľ áĪ«
áĮ¥ áĪį
áĮį áĮįáĪŃ
ĠáĪµ áĪĽ
ĠáĬ¤ áĮĢáĬķáĪ²
ĠáĪĺáĪĿáĪħ áĪ«áĬķ
áĪ¯ áī¸áĭį
Ġm ost
om er
u el
ari um
ĠáĬ®áĪŃ áįĸ
Ġo k
áĭĭ áĮĭ
ĠáĭŃ áĮłáī¥
ĠáĬ£ áĬķ
omm ers
v in
à¨ ª
à¨ ¬
à¨ ¾
à¨ ľ
à© °
à© Ģ
ĠSp el
ĠáĪĺ áĪĲ
ĠáĪĿ áĭį
Ġáĭ¨ áĮĮ
Ġdeur s
áĮł áĬķáīĢ
áĪ´ áįį
Ġl uuk
Ġek sterne
an ski
Ġte st
Ġkw essie
Ġáīµ áī½
Ġáĭ¨áĪħ áĮį
gesk iedenis
Ġl ess
áĭ¨ áĭ°
Ġbood skappe
Ġáĭ¨áĭį áĭµ
ĠN ep
ĠáĪµ áĬ¬
® à¤°
à¤ ł
áĬ®áĬĸ áĪļáĭ«
18 0
1 000
ĠáĪĺáįį áĮłáĪŃ
Ġáīł áīħáĪŃáī¥
ĠáįĪáĮ½ áĪŀ
Ġáĭ° áĪĺ
ĠáĭĪ áĪ°
uk as
Ġáĭ« áĮĪáĬĽ
áįį áī³áīµ
p a
Ġáĭ¨ áĪĭ
ĠáĪĽ áī¥áĪ«
Ġpr osa
ĠSa ul
Ġb itter
Ġde p
áĬĽ áĭİáī¹
ĠO ut
Ġtele ur
Ġb urg
Ġso dan
à° ¤
à° ²
à° Ĺ
à± Ĩ
ĠMo der
Ġster rek
dor f
Ġvolle dig
ĠD ikwels
Ġtydskrif te
Cont act
Ġregver dig
Ġuit ges
Ġro er
Ã´ re
ĠC an
ĠáĬŃáįį áīµ
ĠáĪ° áĮª
ĠáĪĺáĪ¨áĮĥ áĭİáī½áĬķ
Ġn am
áī¥ áĪµ
Ġáĭī áĪµáĮ¥
áĭ¶ áĪĽáĭįáĭ«áĬķ
ĠáĬłáĬķáĭµ áĪĿ
áīĨ áĬķ
om o
ĠáīłáĭĭáĬĵ áĬĲáīµ
áĪ® áī¹áĬķ
áĬŃ áįĪ
áĭµ áĭ®
br on
eh ov
ĠL og
Ġáĭ« áĭ°áĪ¨áĮī
van ese
le ase
áĭķ áī¥
ĠáĬ« áįĴ
Ġvis uele
ĠáĪĻ áĭ«
sp ir
Ġtro os
Ġ.. ...
Ġonge ag
ĠMaat skappy
Ġáĭ¨áĬł áīµ
ĠáĬłáĬķ áĭ°áĬĽ
Ġbep alings
ast ies
oop baan
wys er
sk ut
Ġbev ol
in houd
ĠáĮ½ áĪķáįĪáīµ
Ġagter kant
Ġáĭ¨áī° áĮĪáĬĺ
Ġáī£ áĪ»áĮĪáĪŃ
ĠáĬłáĪĽáĬ« áĬĿáĬĲáīµ
ĠáĪĨ áĬĵ
¹ ģ
Ġáīł áĭµáĪŃ
ĠáĬłáĪĽáĪ« áĮ®áī½
áĮİ áĬķ
t i
E P
end el
Ġáī° áĭ«áĭŃ
Ã ®
áį ¬
áĮĭ áĪŃ
Ġi Stock
áĪĽáĮį áĪĮ
ĠáĬ¥ áĪŀ
Ġg if
ĠáĬ« áĪŃáĭµ
âľŀ âľŀ
áīĢ áĪ±
loop s
ĠN iemand
áī£ áī½áĬķ
Ġc omm
Ġinterpret asie
áĮĢ áĪŃáĪĺáĬķ
Ġhemel se
ĠStellenbos ch
Ġkom pas
Ġben ader
Ġdoeltreff end
s ake
Ġref lek
Ġaf sonder
essie we
Ne wer
kn app
áĪļ áĬķ
ĠáĭŃ áĭ°áĪ¨
áĪ¨ áīł
ĠRep ly
Ġáīł áĬ¤
Ġáīłáĭ° áī¡áī¥
áĪĿáĪ¨ áĮ¡
ĠáĬĲáĮĭ áĭ´
ĠáĭĿ áĮ¸áĬķ
ĠáĬ ¹
ĠáĬ£ áįį
áī° áĬ©
Ġáĭ¨áĮ¨ áĭĭáī³
Ġimp lem
ĠÐ ¼
áĮĪáĬĵ áĬĻ
áĭ°áī£ áī£áĭŃ
ĠáĪķáĭĿ áī¦áī½
T ube
ĠáĭĪáĬķ áīł
In houd
Post s
ĠáĬ¥ áĮĪáĭĽ
ĠáĬł áī¤áī±
áĭµ áĪľ
Ġgen es
Â ©
Ġd ade
ĠáĪĺáĪį áĪ¶
áĪµ áįĸáĪŃáīµ
oord ele
ĠáĪĲ áĭĭáĪŃáĭ«
us iness
ľ àª
Ġkomb ineer
àª ¤
àª ¾
àª Ĺ
àª ľàª
à« Ģ
à« ģ
àªľàª °
Ġge tuig
ĠáĬł áĪķ
áĪħ áĬĵáīµ
ĠáĬŃáĪŃ áĬŃáĪŃ
ĠH el
at ie
Ġáĭĺ áĮį
ĠáĪĽáĪħ áīłáĪŃ
áįİ áī¶
áĪ« áī¸áĭįáĬķ
ĠáĪµáīµ áĪ«áī´
Ġáĭ¨áĪ« áĪ±áĬķ
Ġáī° áĭĺ
ĠáĬłáĪµ áīĢáĭµáĪŀ
áĬ¨ áĪĭáĭŃ
áĪ® áīµ
áĪª áĪµ
ÉĻ r
áĪµ áĪĽ
Ġáĭ°áĬķ áīł
áĭĽáĪĽ áĮħ
Ġtele visie
Ġaltern atiewe
Ġo ul
áįĪ áĮłáĪŃ
ĠáĪ° áĪĽáĭŃ
Ġak ade
áĪĿ áĬķáĪĿ
ĠáĪ¨ áĭ³
ĠIntern et
« Ķ
é «Ķ
¹ģ é«Ķ
ĠMon th
r us
m ens
áĪ¨ áįĪ
s a
od el
Ġtele f
Ġvol ume
ae il
Ġáĭ¨áĪļ áĪ¸
Ġáĭ¨áĪļáĪ° áĮ¥
ĠD el
ĠB ur
ond s
bay can
ÉĻr baycan
ĠáĬ©áĬª áĭİáī½
ĠáĬł áĮłáĬĵ
ot a
ens ionele
k o
Ġwerk ing
Ð°Ð·Ð° ÒĽ
áĭķ áĬķ
Ġpubl iseer
Ġs ly
ry we
Ġmisl uk
Ġverg if
ĠáĬł áĭ²áĪ±
Ġop ger
Ġbesk adig
ĠáĬ¥áĬķ áĬŃáī¥
Ġp ower
Ġaand uid
Ġheel wat
áĮłáĭ¨ áīģ
Ġus ing
áīĢ áĪ°
áĭ´ áĬ¦
áĬķ áĭ¶
áĪĪ áĭī
Ġw ww
ĠAl ban
h am
Ġ' ''
19 5
ges ig
Ġáĭ¨áĪį áĪĽáīµ
ĠáĪ³ áĪĿáĬķ
ĠáĬ©áī£áĬķáĭ« áĭį
yd enis
ĠIntern ational
ĠáīĥáĪį áĪ²
ĠPost s
Æ° á»
Ġeien aars
ĠK n
ĠDe utsch
áĮ¥ áīłáī¥
¹ģé«Ķ ä¸Ńæĸĩ
Ġaanb id
Ġuit kom
Ġheer likheid
es fin
ĠáĪĪáĪĺ áĮłáīłáīħ
w ige
Ġk us
ĠFr ench
ĠM c
Ġáī°áĪĪáĭĭ áĭĭáĮŃ
âĨĲ â¤ĴðŁĶĹ
ok kies
leg s
Ġver toning
Ġr onde
ĠK inders
ol asie
ĠSp anish
Ġb ogenoemde
áĪĿ áĮįáī£áĪŃ
ĠáĭµáĬķáĮĭ áĮĮ
Ġbr onne
Ġv inger
ĠáĪĪáĪĽ áĪ»áĪ»áĪį
ĠáĬ® áĭµ
Ġvoor waardes
áĪľ áīµ
Ġgely ken
mm m
sp ul
U I
ĠáĮĢ áĪŃáĪĺáĬķ
Ġáīł áĪ¥
áĮĵ áĭĿ
áī£ áĪĪáĬķ
usk ara
áįĪáĮ¸ áĪĻ
áĪį áĭµ
ĠáĮįáĪĪ áĪ°áī¥
Ê »
ĠáĬ¥áĬķáĮį áĪĬáĭĿ
Ġáĭ¨ áĭŃ
ĠS j
E K
O ctober
ĠáĪĪ áĪ«
if ikasie
p ot
Ġáī° áĮłáĪŃ
ĠáĬŃ áĪĿ
ge lyk
Ġwaar nem
Ġme gan
ov ak
dien ste
Ġplas ings
Ġamp telike
ĠM ara
Ġaf wy
ĠáĭĪáĮ» áĬ¢
Ġop ged
Ġhoof stad
Ġges ins
Ġáĭ¨ áĭµáĪ¨
ĠáĬĲ áī½
áĬ¬ áĪ½áĬķ
áī¦ áī³áĭį
Ġáī³ áĪĽ
ĠáĮį áĭ¢
Ġáĭ¨áĪļáĭ« áĪµáī°
Ġáīłáī° áĭ«áĭ«áĭĺ
áī¢ áĪµ
B A
ĠáīłáĪĺáĪĨáĬĳ áĪĿ
ĠáĬ¥ áĪį
Ġob jek
áī¥áĪİ áĪµ
áĮ£ áĭį
ĠE d
áĪ¨ áĭļ
ĠáĪ¥áĪ« áĭİáī½
ĠáĪĺáĭµ áĪĥ
L C
Ġáĭ« áĪĪáĬķ
ĠáĮĭáĭľ áĮł
ĠB iografie
tel oos
tic les
Ġmens dom
ĠáįķáĪ®áĮįáĪ« áĪŀáī½
Ġgem eng
áĬ« áĪĭáīµ
Ġdaar uit
Ġst oot
Ġvl oed
hal ings
Ġtal ent
Ġavont uur
Ġst oom
Ġáĭ³ áĮį
Ġfiets ry
ĠáĪĺáĭĵáĪį áī²
Ġsw aai
ĠáĬłáĭ« áĭ«áĭĿ
áĭķ áĪĪáīµ
ĠW ith
an er
Ġintel lig
ab es
Ġar be
ag o
Ġpoc ket
ĠáĭĿ áĬ¸
Ġgereg tigheid
Ġbak ter
tu in
ehov ah
áĪ« áīµáĬķ
Ġag o
M ar
Ġmaand elik
Ġáĭ¨áĭį áĪµáĮ¥
ĠGel ukkig
Ã ½
Ġy skas
Ġwou ld
Ġger oep
Ġsol iede
Ġop ening
Ġ aart
Ġskad uwee
Ġr ook
Ġred elike
Ġy ster
ĠW est
ĠáĪ² áĪ°
ann ings
app ie
Ġb urger
Ġgeskik te
ver moÃ«
ĠáĬ£ áĭĿ
geleent hede
Ġuit gawes
Ġáī½ áĪİáīµ
M S
áĭķáĪ« áī¥
áĪħ áĬĲáĮį
7 3
ĠáĪļáĬĴáĪµáīµ áĪ©
áĭŃ áĪ¨
ĠáĬ¥áĬķ áĮħ
ĠáĮį áĪŃ
ĠOff ice
u x
áĪ® áĪµ
áĪ° áĪĿ
Ġwil d
ĠáĬłáĭį áĮ¥
Ġáĭ¨áĪĿáĪŃ áĪĿáĪŃ
áįĪ áĬĲáĭĪ
Ġsp e
ersk ool
ĠáĭĲ áī¢áĭŃ
Ġl yne
app els
Ù Ĵ
ĠGe org
áĪ® áĭµáĬ«
Ġoor sig
Ġoor gedra
Febru ary
Ġkn ie
áĪĪ áĬĵáĪį
Ġst ukkies
Ġst ab
uss ing
Ġalge hele
Ġgehe ue
atur bate
áįĪáĪĪ áĮĪ
dr ing
ĠáĪį áĬ¡
d am
áĮĪáĪį áĮ½
ĠáĪļ áĪľ
Ġle m
ĠáĪĺáĪµ áĪĺ
n h
Ġáīł áĭĺáĪŃ
Ġáĭ¨ áĪ»
Ġde b
ĠáĪĪ áĪļáĭ«
áĪĽ áĪĺáĮ¥
Ġbe dr
ĠáīłáĬ¥ áĬķ
Ġáĭ¨ áĪ¥
áĭ« áĭ£
An der
Ġw oestyn
ĠáĬ ²
Ġáĭ¨áī° áīĥ
áīĢ áīµáĬķ
Ġbel oof
Ġf oon
ĠáĬŃáĪŃ áĪµáīµáĬĵ
Ġs Ã³
áĪ°áī¥ áĪ°áī¥
Ġwe eg
este like
os ieer
Ġfil osof
Ġaller hande
A fr
Ġáĭ¨áī° áīĢáĪĺ
į slenska
Ġm er
im in
Ġáĭ¨áĭ© áĬĴáī¨áĪŃáĪ²áī²áĭį
ĠL ED
âĢ¦ âĢĿ
ĠáĮİ áĪ¨
ĠáĬł áĮįáī£áī¥
m usiek
áĪĺ áī»
Ġf und
áĪī áĬ¥
ĠA reg
ett ings
ĠáĪķ áī¡áĪ«áīµ
ĠáĪĺáĬ¨áĪĭ áĬ¨áĪį
p ol
Ġth ese
r os
ĠFacebook Share
m l
áĪĮ áĭ³
ĠW eer
19 80
áįĸáĪĬ áĪµ
Ġm eld
áīĨ áĪµ
O D
Ġáĭ¨áĬł áĮĪáĪįáĮįáĪİáīµ
Ġse in
Ġsk etse
ĠáĪĺ áĪĺáĪŃ
Ġlief des
Ġgeeste lik
Ġs elde
to er
ver tr
tr ol
áĬ© áĪĭ
ge mene
as eerde
ust reer
Ġtip iese
ĠáĬ¥áĬĽ áĬķ
Ġbesonder e
ryw ings
Ġbew onder
Ġident iteit
yd se
ĠáĬ¨áĭļáĪħ áĪĿ
Ġáĭķáĭµ áĮĪáīµ
ĠáĬ¨áī° áĪĪáĭ«áĭ©
ĠáĪĺáī°áĮįáīł áĪªáĭ«
M ore
ĠL iter
Ġre in
ĠáĮĪ áīłáĪ¬
ĠáĭĪáĪ¨áĪŃáĪ½ áĬĿ
es a
ĠáĪµ áĪĻ
Ġre ad
it ion
áĪĮ áĬķ
áĪ° áī¦
ĠK ind
Ġm ill
ĠC re
Ġh uman
Ġáīł áĭĽáĪ¬áĭį
od ox
áĪĺáĪ« áĭį
ĠAr men
áĭĭ áĪĿ
ate ur
ĠáĬ¤ áĪĮáĬŃáīµáĪªáĬŃ
ne y
ĠBul g
ĠáĬłáĪµáī¸ áĮĭáĪª
onte in
áīĥ áĪĪáĪģ
Ġgen re
ĠáĪª áįĮ
ĠP ot
Ġkle ut
ĠAm haric
F r
Ġartic les
ĠC ro
Ġáĭ« áĮĪáĬĺ
Ġle eg
an ers
ap ie
em e
Ġaf hang
ĠJak ob
Ġont sn
Ġoorsk ry
Ġw oede
ĠE erstens
Ġhoog s
ĠáĪ² áĪĨáĬĳ
Ġhonder de
ies elfde
áĪŃ áĪķ
ĠáĭµáĬķ áīħ
áĬª áĭį
R ed
Ġk ere
Ġget oon
ĠáĪªáįĮ áĪ«áĪį
Ġstat us
ĠD on
Ġfir st
áĪŃáĭķ áĪ°
ro id
Ġáīł áĪ°áĪĽ
Ġáī¥áįį áĪĭáĭŃ
ĠB ER
Ã ¹
ĠL ew
ĠáĪĺ áĮįáī£
ĠáĬł áĭ°áĪ¨áĮĥ
Ġye ars
p g
áīł áĭ²áĪĭ
áĮłáĬĵáīĢ áīĢ
Ġpar ag
ien aar
ĠÂ ·
Ġgr oepe
áĭ² áĪģ
Ġh eilig
maat skappy
Ġinter ieurontwerp
Ġdank sy
ot iese
be dek
ĠN ow
Ġverl ief
app ies
skrif te
Ġbre Ã«
rak ing
Ġkomplek s
Ġge antwoord
al og
Ġprof iel
8 3
áĭ® áĪµ
áĪ» áĭį
Ġáī°áĪį áĭķáĬ®
ļ Ð°Ð·Ð°ÒĽ
áĭĪáĪŃ áīħ
ĠáĪħ áī¥áĪ¨áīµ
Ġsj okolade
áĪ¨ áī¡
áĭĪ áĮ£áīµ
Ò ļÐ°Ð·Ð°ÒĽ
Ġáĭ¨ áī¢
áĮ¥áĭ«áīĦ áĭĿáĪŃáĭĿáĪŃ
Ġáĭ¨áĪļ áĭ°áĪ¨áĮį
Ġáĭ¨ áĭĺáĪĺ
T M
áĭµ áĮį
B el
áĮī áīµ
¥ àº²àº
¥àº²àº §
áī¢ áĪ²
ĠáĪļ áĪµáīµ
Ġpat r
re place
f iel
st owwe
áįĭ áįĭáīµ
mp l
ĠB ad
Ð¾Ð² Ð°
Ġdank baar
áĭ² áĪ«
ĠB ut
Ġuitdr ukking
Ġsk op
r oete
Ġte or
ĠáĬ¥áĬķáĭ°áĪļ áĭ«áĪµ
ĠáīłáĬ¥ áĬĽ
áĪª áī±
Ġpr ins
ge meen
tr ip
áĮĪáĪ«áī½áĬķ áĬķ
áĬ« áĪŃ
Pl aas
Ġl ood
áĮĭ áĬķáĭ³
Ġáĭ¨áī°áĪ³ áĪ³áī°
áī½ áĪīáĪĿ
áįĥ áĪļ
Ġáī´ áĬŃ
7 1
Ġáĭ¨ áĮĪáī£
áīĢ áĬĳ
L O
em and
ĠáĪĿáĭĿ áĮĪáī£
ĠáĬłáĪŃ áĪ¶
ĠáĬ¥áĬĽ áĪĿ
ĠáīłáĬłáĬķáĭµ áĬĲáīµ
ĠS tel
áįĪ áĪĭáĮĬ
as ien
et ine
ĠC ancel
Ġáĭ°áĪ¨áĮĥ áĭİáī½
Ġse m
áĬ® áĪĿ
áĬ¨ áīłáĪ©
áī£ áĮŃ
Ġverb lyf
ĠáīłáĬł áĮįáī£áī¡
t aal
akt iese
Ġsentr um
ĠáĪŃáĭķ áĪ°
áĬ®áĬĸáĪļáĭ« áĭĬ
og gend
bet alings
ĠáĬĳ áĪ®
Ġonder hou
Ġbele id
Ġop breng
áī¤ áĪį
eder t
Ġt ent
ĠR esearch
ĠK al
ĠW ol
Ġáĭ¨áĪļ áĪĨáĬĲáĭį
ons ter
áī± áĬĵ
ĠComm ons
áĪ¨áĪĿ áīµ
ĠáĬ¥áĪµáĪ« áĬ¤áĪį
it a
Ġáĭ« áĭ°áĪ¨áĮīáīµ
áĭ¨ áĪħ
ĠáīłáĪĿ áĭµáĪŃ
ĠV ind
Ġl ist
áĮ¥ áīħáĪĿáīµ
ĠC omp
áĭĽ áĪį
Ġoff ice
Ġn aar
áĭİ áī»áī¸áĭį
198 7
ĠáĪĪ áĪ°
Ġpriv ate
Ġáī°áĭ°áĪ« áĪ½
Ġáĭ¨ áĪ¸
ĠáĬ °
ĠáĬ¥áĬĲ áĪĨ
ĠáĭŃ áĪĿáĪ¨áĮ¡
Ġáī° áĬ«áĪĦáĭ°
ĠáĪ°áĬķ áīłáīµ
áī¥áĭĽ áĬĽáĭį
Ġsp re
ĠáĬ¨ áĪĺáĪµ
ĠáĬ£ áĭį
ĠáĬ¨áĬ¥ áĬĲáĭļáĪħ
áĪ¨áĮĭ áĮĭ
ĠáĪĪ áĪ¨áĮħáĪĿ
N C
uk s
enn er
K aap
Ġm oedig
ĠáĬł áĬ³
Ġge gooi
Ġtelef onies
v aardighede
Ġmed is
Ġon th
ĠwÃªreld wyd
Ġdig itale
Ġbet yds
Ġgew enste
áī¥áĪ¨áī° áĪ°áī¡
p assings
Ġáĭ¨ áĪ¥áĬĲ
ĠáĬł áĮŃáĪŃ
st rategie
Ġfl its
Ġeffek tiewe
ou p
áĮĪ áĭĻ
ĠAs s
ĠáĪĺáĪĪ áĬªáĭ«
t ien
ĠáĪĪáĪĺ áĪĪ
áĬŃ áĪ½áĬķ
áĭ¨ áĭļáĪħ
áĭįáĬķ áĭµ
ĠáĬłáĮĭ áĪŃ
áĭŃ áĬĲ
y g
Ġáĭ¨ áĭĲ
áĭĿ áĬĲáĪµ
Ġáĭ¨áī° áĬĲ
ĠáĮį áĮŃ
u ck
ĠáīłáĪĽ áĪħ
ite s
Ġber ge
197 0
Ġrom ans
áĪŃ áĪ¶
it ional
Ġbe werk
Ġde ure
l ende
Ġver he
ĠK ort
k aarte
ĠáĮłáīħ áĪĭáĪĭ
ist rik
Ġbehoor like
Ġvol gorde
Ġwor tels
ĠáĪ° áĪĻ
bestuur der
om as
g ers
l ok
Ġstud ies
ĠáĪµáī¥ áĬ¨áīµ
ĠáĭĪáĮĪ áĬĸ
stil te
ĠáĬ¥áĬķ áĬ¨
G IR
ep er
ĠáĪĽáĪµ áī³áĭĪ
ĠáĪĺ áĭĵ
áĭ° áĪĭ
Ġáī°áīĢ áī¥
Ġáī° áĪĺáĪµ
R adio
áĮł áĭĭáĪį
Ġk alk
ĠáĬł áĪ°áĮ£
áĪĬ áĬķáĮįáī°áĬķ
áĮ¨áĪ¨ áī³
oll abor
Ġby t
th odox
Ġt ale
áĮİ áī½áĬķ
Ġáīł áĪĻ
ĠáĪĪ áĭĺ
Ġkon st
ĠáĪĽáĮ£ áĪªáĭ«
ĠáĬłáī¥áĪ¨ áĭį
p arty
ĠP an
Ġg ode
Ġáīł áĭĽ
ĠáĬ¥áĬķáĭ³ áĪµ
Ġà¤ ¹
ĠNederland se
ĠáĮł áįį
ĠAreg a
Ġd oop
ĠáĪĿáĪŃ áī¶áī½áĬķ
Ġv ryw
Ġterug kom
Ġuite en
handel ing
Ġt and
Ġweerst aan
win tig
Ġáī¥áĪ« áĬķáĭµ
Ġv isie
sal m
ĠáĪĺ áĪŀ
ĠL eg
ĠáĬ«áī¥ áī²
ĠD illa
ĠáĬ£ áĪķ
ra eg
ĠS on
ra ct
áĮĪ áĮ¥
áĪĭ áī¸áĭĭáĪį
Ġáĭ¨áĪļ áĭį
Ġh ow
áįķ áĪ«áĭŃ
ĠáĮ¥áĬķáĬ« áĪ¬
ĠáĮ¥ áįĭáīµ
ĠáĪĪáĬ¥ áĪŃáĪµáĭİ
áĬ¥ áĬĸ
Ġin fek
y er
ĠáĬ¨ áĭ¨áīµ
u ins
kn own
Ġáĭ²áĭĽ áĭŃáĬķ
Ġbe wyse
le ment
áī¶ áī¹áĬķ
Ġeeu e
uba i
Ġep is
n ess
Ġligg ies
Ġon wet
ĠáĮ¥ áĮĪáĬĵ
eld ig
Ġáī¦ áĪŃáĪ³
Ġoor ge
sel leer
Ġmoeilik heid
Ġbuit en
áī¥áĪŃ áĪĥáĬķ
Ġslot te
ĠáĭĿ áĪŃáĭ«
im al
Ġáī°áīĢ áĪĿ
ĠáĬ¨áĪĨáĬĳ áīµ
Ġverspre iding
Ġreg istreer
áĬ³ áĪŃ
ĠDaw id
ĠS ek
áĭ¨áĪ©áĪ³áĪĮ áĪĿ
Ġinform ation
ĠC al
Ġáīłáĭį áĮŃ
ĠR o
áĮł áĪĿ
áĪµáī³ áĬķ
ĠáĬĭ áĪĭ
Ġáĭ¨áĪļ áĬĲ
ir k
áįĪ áĪ»
s ver
áĮįáĭļáĬł áī¥áĪĦáĪŃ
HAN U
ĠBER HANU
ĠT o
GIR MA
áĮĭ áī¢
áĪµ áī¸
ĠáĪĺáĭ° áī£áīµ
ĠáĪĽáĪµáī° áĬ«
w ings
ien is
Ġge ste
ĠáĬ¨ áī¢
áĮłáĬĵ áĬ¨áĪŃ
Ġgesin ne
us h
ym raeg
st oel
Ġun iek
Ġte ater
un ch
ĠáĪ°áĭĵ áī³áīµ
Ġpublik asie
Ġeet le
ĠTwitter Share
Ġsal aris
Ġdom inee
oe Ã«
ĠRuss iese
Ġáĭ¨áĪļáĭ« áĭ°áĪŃáĮį
áī³ áĭįáĬķ
ĠáĭĪ áĭµ
ry sk
ĠÙģ Ø§Ø±Ø³ÛĮ
Ġáĭ³ áĮįáĪĿ
ĠáĭŃ áīłáĪįáĮ¥
ha us
áĭ¨ áĭĪ
te w
áĪģáĪĪ áī±
áĮį áĪ®
Ġdif fer
ĠDirector ate
Ġr ente
ĠáĬ¥áĬķáĭ° áĪĨáĬĳ
mod el
ĠJ ehovah
ed ig
Ġáīĭ áĪļ
áĮĪ áĪĭ
Ġg ord
áīĢ áīħ
ĠáĪĽ áĪ¨áĮĭáĮĪáĮ¥
Ġáī£áĪħ áĪĭáĭĬ
Ġbesprek ing
Ġvere iste
ok kie
Ġonder werpe
áīĨ áīµ
age te
Ġpret tige
Ġgh olf
Ġk aal
áĭ° áĪ©
Ġbev redig
Ġsiel kundige
Ġt ong
áĮ¥ áĪ¨áĭį
iet y
ĠáĬłáĪį áī»
ä ½
áįĬ áī±
ĠáĪĺáĭµáĬĥ áĬĴ
ĠáĮ¸ áĪİ
ĠáĬł áĭĽ
ĠáĭŃáī³ áĭ«áĪį
áĮĨ áī¹
Ġbelof tes
áĮĤ áĬķ
ĠFe der
ĠO os
ĠA ustral
ĠThis Blog
ĠThisBlog This
Ġáī¥áĪİ áĪĿ
Ġglad de
Ġaf wes
Ġkl am
Ġáĭķ áĪŃ
Ġáĭ¨ áĪ©
Ġkort verhaal
wek kende
Ġgoed koper
B este
áīł áĭĽ
ep te
ĠSk ryf
ĠPers oonlike
S oek
Ġw apen
ĠT iáº¿ng
sk ynlik
Ġops omming
Ġáĭ¨áī° áĪŀáĪĭ
Ġbevol king
Ġn ooi
Ġsk aap
pro ke
Ġer ger
Ġen jin
ĠáĪĿ áĬŀ
Ġmob iele
áĪĽ áī½
st ry
ĠAm hara
Ġsu ch
Ġp ass
ĠAd ministr
ĠáĪĺ áĪ¬
Ġáĭ¨áĪĺ áĪ°
áĮĪáĪĪ áĮįáĪį
Ġoff ers
áĪµ áĬ®
ĠA baba
Ġag ent
áĬŃáĪį áīµ
ĠáĪĺáĬķ áĮİ
inked In
ĠáĬ¢ áĪľáĪį
ĠáĪĽáĪ»áĪ» áĭ«
V r
ĠáīłáĪļ áĮĪáī£
ĠáĪĪ áĭĪ
Ġáīłáī° áĮįáī£áĪŃ
Ġáĭ¨ áīħáĪŃáī¥
Ġáĭ¨áī° áĮ£
ĠU k
áĬŃ áįįáĪį
Ġcon s
áĮİ áīł
Ġopstand ing
Ġdoll ar
art ik
Ġkil ometer
Ġwe der
ĠáīłáĪĺ áĬķ
áī» áĪĪáĭį
ĠáĪ³ áĪĪ
M oet
Ġkoer ant
á» Ļ
Ġhandels merk
w oon
ĵ ×Ļ×
Ġon n
Ġreg op
pers oon
uss yn
Ġtegn ieke
Ġsamestel ling
Ġk andid
ĠWord Press
Ġáīł áĪĤ
handel aars
Ġskilder y
ĠJ ac
ĠL ot
áĪį áīµ
Ġpubl ic
áĬ¥ áīµ
Ġpers on
Ġne ge
áĪ¨ áĬĵ
Ġh aas
Ġáĭ¨áī°áĪĺáĪ° áĪ¨áī°
G B
ĠáīłáĬ¥ áĬĲáĭļáĪħ
ĠáĪ½ áĪĽáĮįáĪĮ
ĠáĬ¥áĪŃ áĪ±áĪĿ
Ġáĭ¨áĪļ áīĢ
ĠáīģáĪ³áīģ áĪµ
áī½áĬĭ áĪį
áĪĿáī£ áĪ²
ĠáĬ¢ áīµáĭ®
ĠK ann
i q
ĠáĬ¦áĪ® áĪļáĭ«
Ġgram mat
Ġk it
Ġsn it
Ġáī°áĮłáīĥáĪļ áĭİáī½
ater dag
ĠáĮ¥ áĪįáīħ
Ġáī¥áĭĻ áĭįáĬķ
ĠKon ing
ĠbeÃ« indig
w aardig
Ġop tel
lik asies
ĠL os
it ief
Ġges oek
Ġerg ste
ĠD ankie
S oms
Ġmin uut
Ġpotens iaal
aa ide
Ġagter kom
ĠáĬ¨ áĪģáĪĪáīµ
Ġman like
Ġin sek
om ing
ibliote ek
Ġaantrek lik
qu ir
our g
am en
áĬĲ áĪ«áĪį
ĵ×Ļ× ©
ĠAff airs
ĠáĪµ áĪĭáĪį
áĮ« áĬĳ
ä½ ĵ
ĠáĪĿáĪģ áĪ«áĬķ
ĠáĬłáĭ« áĭį
he im
Ġs ust
áĪĿáĪ¨ áī»
áĮĪáĪŃ áĪĿ
I t
ander ing
L et
ĠáĬłáĪµ áĭ°
ĠNam ib
ĠáĮĪ áĭ°áī¥
b en
ĠI N
ĠáĪĭ áĬķ
plek ke
Ġletter kunde
Ġf ollow
Ġge tref
ef fek
Ġdub bel
Ġbev ry
ĠTwee de
Ġo es
Ġaan raking
Ġwol ke
ĠáĪĽ áĮ¥
Ġo wer
áĬ¤ áįį
ĠáīłáĬł áĬ«áĪį
Ġgewe er
ĠáĬ¥áĬķáĭ° áĪĿáĬķ
Ġnaam woorde
all o
Ġnavors ings
Ġay isyen
áįĪ áĪ¨áĬķ
Ġal re
ĠáĬĲáĭĭ áĪª
áĪĺáĪįáĬ¨ áī»
um in
ĠáīłáĪĺ áĪĭáĭį
áĮ¦ áī³
8 4
ĠáĪ½ áĭ«áĮŃ
Ġmon itor
áĭ³áĬķ áī±
Ġnavig ation
Ġro bot
Ġi P
áĬŃ áī·áĪį
v ant
áī¥ áĭŃ
áīħáĭµ áĪµáīµ
áĪĭ áĭįáĭ«áĬķ
ĠáĪĺ áĪĻáĭ«
Ġst ig
ĠáĪ³ áĪį
Ġáĭ« áĪ°
Ġkl a
ĠÂ °
Ġin gaan
áĪŀ áĬĳáĬķ
mot or
Ġoor kom
Ġsien ing
K ies
ĠHoe wel
Ġle uen
Ġverv olg
N ee
Ġ ess
b ineer
it le
áĭ³ áĪī
sk oon
Ġges el
Ġgekom bineer
Ġooreenste m
Ġadvert ensies
ĠáĬł áĮĪáĪį
ĠS oek
Ġp omp
ĠáĪµ áĬ¬áīµ
ist ieke
áĮīáĭ³ áĭ«áī½áĬķ
Ġge staan
Ġb ande
Ġkom s
reg istr
áĬ¥ áĬĲ
wys ig
à¯ ģ
ĠáĪĪ áī¤áī°
áĮł áįį
j pg
Ġmonth s
urf ace
ode m
ĠPr ess
Ġáī£ áĬķáĭµ
ĠT s
ĠáĪĪáĬ¥ áĮįáĭļáĬłáī¥áĪĶáĪŃ
ĠáīłáĬ¢ áĬķ
or ting
ĠáĬłáĪµáī³áĭį áīĭáĪį
k oers
Õ ¡
áĪĭ áĮŃ
Ġsil wer
ĠáĪĺáĮį áī¢áĭ«
ĠáĪĺ áĪ¨áī¥
ĠáĪħ áĪĺáĪĿ
ĠBybel se
Ñĩ Ð°
ĠáĬ¥áĭ¨ áī³
he bb
Ġland skap
Ġl ening
Ġged uld
Ġm and
áīĥáĭĪ áĪĿ
Ġom ring
Ġaan neem
ke ie
Ġáĭ¨áĬł áĭįáĪ®áįĵ
Ġgeken merk
ĠáĪĭáĪĪ áįīáīµ
s ings
ĠáĪĬ áĪĨáĬĳ
Ġonlang se
Ġbaar moeder
p oort
® Ģ
Ġverk ondig
at iwiteit
Ġin gang
Ġáĭ¨áĪĺ áĪ¬áīµ
ĠCh aturbate
Ġposit ief
®Ģ ä½ĵ
Ê ¹
ĠáĬķ áĬŃ
áĪ¸ áĬĲ
Ö Ģ
Ġk eel
Ġáī¥áī¸ áĬĽ
j or
Ġáī° áĬł
¤ áĪ«
ĠáĪĿáĪµ áĪ«áīħ
áī» áĪĪáĪģ
áĬĲáĮĪ áĪ©
Ġye ar
ĠáĪļ áĬķ
ĠáĬłáĪµáī° áĪĽáĪĽáĬĿ
ĠáĪĪ áĪĮáĪİáī½
áĪĶ áīµ
Ġáī¥áĭĻ áĪĵáīµ
ĠáīłáĪĽ áĪµáī°
ĠáĬłáĪµ áīĢáĪĿ
id es
ul ar
âĺ ħ
ĠáĪ« áĭķ
ak er
ĠB est
áĭ¨áĬ¥ áĬĽ
Ġwil le
Ġtemp l
ot her
áĭµáĪŃ áĪ»
áĮĪ áī¢áĭ«
Ġr aai
gel inge
Ġkwal ifiseer
r uimte
Ġk oers
sk oot
kamer a
Ġverkl aring
Ġto etse
Ġth ose
Ġbed ank
Ġbok s
áĬĵáĪ½ áĬĵáĪį
ou g
Ġg ood
Ġe val
áĬķáĮį áĪĬ
ĠáĪĺáīĢ áĪĺ
Ġh im
ĠV ietnam
Õ¡ Õ
rou gh
ĠáĬł áĭ°áĪ¨
ĠáĭµáĬķ áĮĭáĭŃ
áĮ¥ áī¥
Ġáĭ¨áĮį áī¥áĪŃáĬĵ
ch en
áīĦ áĭ®
Ġand ere
ĠSm art
I I
ĠP DF
ĠáĪĪáĪĺ áĪ¨áĭ³áīµ
Ġv ar
áįĪ áĪ©
Ġjong ste
Ġdaar toe
Ġin kop
áį Ń
rain ing
end ag
Ġoorw eldig
der f
v olgens
ĠH oÃ«
Ġbr iewe
Waar om
st aat
9 4
Ġw aag
ou se
Ġvoor kant
Ġfakt or
ĠáĭĪ áĭ²
Ġblyk baar
Ġswemb ad
Ġtek ste
Õ ¶
áĪµ áĭ«
kop e
Ġáīł áĮ½
ĠáĪĺáĬķáĮįáĪ¥ áī³áīµ
p agina
áĪ³ áī½
Ø¯ ÙĪ
ĠáĪĪ áĬķ
ĠáīµáĬķ áī³áĬĶ
ab as
M att
Ġg ly
áĬ® áĬķáĬķ
áįįáīµ áĭĮáĪŃ
Ġ Ñģ
g ineer
áĮ½áĪĳ áįį
ele gram
Ġb ul
Ġg ol
ĠUn der
ot te
E th
Ġáĭ° áĪŀ
stig hede
ag er
ur al
áīł áĮ£áĪĿ
Ġáĭ¨áī° áĭĺáĮĭáĮĢ
Ġmaandelik se
Ġáĭ¨áī£ áĪħáĪŃ
Ġgest ig
áī³ áĪªáĬŃ
ĠáĬ¥áĪµ áĪŃ
ĠáĪĺáĮĪáĪĪ áĮ«
Ġhulp bronne
Ġplaf on
ĠáĬłáīĢ áĪ«áĪ¨áī¥
Ġver sl
Ġverskil le
Ġfond se
ĠKan ada
ĠáĮĪ áĭ³áĪĿ
ĠA meric
abes ha
áĮĵáĮĵ áĭ£
Ġáĭĺ áĮłáĬĿ
Ġáīłáī° áīĥ
áĮīáĭ³ áĭ©
ep l
ĠáĬ¢ áĪħáĬłáĭ´áĮį
in ne
Ġáĭ¨áĪķ áĬŃáĪĿáĬĵ
Ġáĭ¨áĪµ áĬĲ
ĠáĭµáĬķ áīłáĪŃ
Ġáĭ¨ áĬª
áĪŃ áĬ©
Ġáī¥ áĪµ
Ġáīµ áĬŃáĬŃáĪį
ac c
Ġwet te
ĠáīłáĪĥ áĭŃáĪĽáĬĸáīµ
f oto
use um
t ende
? !
áĪĪ áĭµ
ĠáĬŃ áĪĪ
Ġongemak lik
Ġh uiwer
ĠE TH
Ġmeerder heid
Ġsk ok
áĪĻ áĬĴ
Ġgraf iese
Ġte el
Ġman y
Ġg rys
ĠáĪĵ áĮĪáĭĿ
Ġkunst enaars
Ġou teur
voud ige
Ġse untjie
Ġongew one
ĠRome inse
ĠáĮĵ áĭ°
ÑħÑħÑħÑħÑħÑħÑħÑħÑħÑħÑħÑħÑħÑħÑħÑħ ÑħÑħÑħÑħÑħÑħÑħÑħÑħÑħÑħÑħÑħÑħÑħÑħ
áĬ« áĪļ
ak k
ĠáĪ² áĭ«áĪµ
Ġáĭ¨ áĮ£
ĠáĬ¥áĬķ áīħ
ĠáĪħáĭĿ áī¦áī½
G ee
áĪĭáĪĪ áįī
ĠáĬ£ áĪĿ
Ġpro p
Ġáīģ áĪĽáĪŃ
erba ij
ĠPortugu ese
or ter
Ø§Ø± Ø¯ÙĪ
ip es
Ġáįķ áĪĭ
áī° áĪ«
ĠáīłáĪĨáĬĲ áĭį
ĠI de
OR D
ĠE spaÃ±ol
ĠáĭŃ áĬ¼
Ġáĭ¨áī° áĭĺáĮĭáĮĢáĭį
áī ®
ze ch
Ġhonder d
ĠD eel
h op
yn a
áī½ áĭįáĬķ
ĠáĪĺáĪ£ áĪªáĭ«áĭİáī½
Ġgeske i
j aag
waard ige
Ġskoot rekenaar
we es
H and
n ek
Ġsk ree
ho tel
Ġversier ing
Ġsp iere
T eken
Ġáī° áīĲ
rey ten
ĠÑ ĺ
eu ter
ĠáīłáĬł áĬ«áī£áī¢áĭį
áįķáĪ¬ áĭļ
he m
Ġh ol
áįķáĪİáĪĽ áĪ²
Ġáį Ķ
ab bat
Ġst orm
áį¡áį¡ âĢĿ
áĬ¢ áīµ
áĭ³áĬķ áĬ¤áĪį
ĠOp tion
ĠáĭľáĬĵ áĭİáī½
ĠáĭŃ áĪĿ
Õ¥ ÖĢ
âĢ¦âĢ¦ âĢ¦âĢ¦
P ol
ĠS A
kl ub
g in
Ġt am
Ġaf k
ol a
áįĬ áĬŃ
ĠU N
ĠS ee
ĠáĬłáĪµ áĭ°áĬĵáīĤ
kr ip
ĠK iswahili
Un known
áĮł áĪī
Ġwel kom
áĭŃáĭĺ áīµ
áī£ áī£áĭŃ
geb aseerde
Ġverhuur der
áįĪáĪį áĮįáĪĿ
ord erde
Ġhuis houdelike
Ġvoor malige
Ġse x
®Ģä½ĵ ä¸Ńæĸĩ
ĠEritre an
Ġáīħ áĪį
ĠáĪĨ áĬĳ
áĮ¥áĪ® áĪµ
V ideo
áĬ¥ áĪĿ
ĠáĬ¤ áĪŃáīµáĪ«áĭĬ
Ġáĭ¨ áĪĤ
ĠáĬ¨ áĪģáĪīáĪĿ
aal i
Ġáī° áĭ°
ĠáĪĪáĪĺ áĮĢáĪĺáĪªáĭ«
ĠáĪĺáĬķ áĭ°áĪŃ
ĠáĬĥáĮ¢ áĬłáīµ
áĬŃ áī±
ĠM ass
áīĢáĪŃ áĪĿ
áĭŁ áĪį
ĠáĬŃáĪµáī° áīµ
ĠSl ovak
o j
áī½ áĪĿ
Ġval oda
ĠáīłáĪµ áįĭáīµ
ĠáĬ¥áĬķáĬŃáī¥ áĬ«áī¤
S T
ĠáĭĿ áĭĵ
En ter
ĠáĬłáĭŃáī» áĪįáĪĿ
ction s
áĮł áĮ¥
Ġbeste mming
ĠáĪµáīµáĪ«áī´ áĮĤ
mod ule
ĠáĬ¨ áĭĭ
erk ant
asien ommer
Ġne ut
ĠáĪĺáĭĿ áĮĪáī¥
Ġgener eer
Ġontsn ap
Ġrol prent
áĪ« áĬŃ
er end
ent reer
reek se
Ġáī°áĭĪ áĬ«áĭ®áī½
.âĢĿ +
Ġgesp es
Ġbepl anning
Ġb alk
Ġwaar heen
ĠAnd re
ĠáĪµ áĬķáīµ
ĠáīĢ áĪŃáī¶
Ġstr uik
is i
áĪĺáĪµ áĪ¨áīµ
áĪŃ áĬ¥
ĠS erv
ĠáĪĪ áī¥
Al le
ĠáĪĺáĪł áĪ¨áī³áĭĬ
Ġ >
áĪ³ áĭ°áĪŃ
áīµáĬķ áĬĵ
ĠáīłáĬ¥áĪŃáĮį áĮ¥
ĠáĪĺáĪĭáĬ¥ áĬŃáīµ
Ġáĭ¨áĪĺ áĪį
n ob
pl ified
Õ¡Õ µ
5 000
Ġb uis
ĠáīłáĬł áĬķ
tik a
áī° áĬŀáī½áĬķ
Ġbl ess
nis se
Ġwaarsk yn
Ġin ner
ĠáĬłáĪĪ áī½
Ġkontak vorm
Ġkw as
Ã ¬
Ġh arm
ol oog
u eel
Ġsk aats
Ġuit druk
Ġon beperk
af deling
Ġvas hou
Ġweerst and
R es
Ġb rei
Õ¡Õµ Õ¥ÖĢ
W enk
w aart
Ġverk oper
ele indes
Ġaf delings
Ġáĭĺ áī°áĭĭáĪķáĭ¶
áī· áī¸áĭį
ro w
áĪĥ áĭĬ
Ġáī Ħ
áĮ¤ áīµ
in st
ĠáĮĪáĪįáĮ¸ áĭį
áįĪ áĮ½
áĪ½ áĬķáĮįáī°áĬķ
ĠáĪĿáĭķáĪ« áī¥
áĬķáīĢáĪ³ áīĢáĪµ
ĠS and
ĠS ant
ĠK ate
L og
ĠáīłáĪ° áĪľáĬķ
Ġáī³ áĭŃ
ĠáĪ³ áĬķ
Ġáīł áĭ³
ĠEr ena
Ġe te
ke y
" )
Ġbel oning
ĠáĪŀ áī°
t afel
Ġv aardigheid
ov id
Ġáįĸ áĪĪáī²áĬ¨
n ic
Ġn h
ec k
ot tel
Ġoud ste
ĠáĮł áīģ
Ġtot aal
Ġáĭ« áĭ°áĪ¨
Ġerv are
Ġluuk se
Ġkonsekw ent
Ġvergif nis
V ind
web werf
Ġbed uid
bele id
volg ende
Ġv iew
ug tig
Ġáĭ¨áĮį áĭµ
Ġáĭ¨áī° áĮłáīĢ
ĠSt re
ĠBos n
le c
áĬ¨áĪĽ áī»
áįĭ áĪª
o ke
ĠC ur
ĠáĬłáĭ° áī£áī£áĭŃ
Ġsk ip
áĪ³ áĪ«
Ġin tr
ĠSc ience
ĠáĮİ áĬķáĭ°áĪŃ
áĬĲ áĭįáĬķ
Ġw r
Ġáĭ¨áįĪ áĮłáĪ«
Õ¥ Õ¶
as on
as em
áĮĢ áĪŃáī£
Ġro b
áĭķ áī²
ges ch
I P
Ġáī¥ áīħ
al am
ĠáĪ ¾
Ġwil de
igheid s
Ġaan sluit
inter ieurontwerp
Ġinterieurontwerp projek
ok r
áĪĨ áĬĵ
Ġaf ske
Ġuitvoer ende
d elik
áĪĮ áĪĭáĭį
Ġhoof stuk
ĠáĭŃ áĭĪáĪµ
ĠFr ans
áĮ¾ áĪĿ
Ġkategor ieÃ«
Ġper de
Ġspr ake
áĮ»áĮ¸ áĪĿ
p aar
Ġgewild heid
oeder e
Ġgel uid
Ġin derdaad
ĠáĬłáĪµáįĪ áĮ»áĪļ
Ġáĭ¨áī°áĪ° áĮłáĭį
Ġop in
Ġaanwys er
Ġáī°áī¥ áĪıáĪį
ĠáĮīáĭ³ áĭ©
Ġáĭ¨ áĬĳ
Ġáīł áĮł
ĠáīłáĪĺáĪµ áĪĺáĪŃ
Ġv on
Ġc our
Ġáĭ¨ áĭ«áĭĻ
ou x
C on
ĠáĬ¥áĬķáĭ² áĪĨáĬĳ
ĠáĬŃ áī¥áĪį
Ġáī³ áĮ£
Ġáĭ¨áĭĪ áĪ°
ĠáĬ£áī£ áĪĭáīµ
ĠáĪĺáĪĿ áĪ¨áĮ¥
Ġ id
L at
____ __
Ġoor lede
Ġp od
Ġdeurs nee
Ġprys aanbod
Ġontwerp styl
nob ili
Ġj onk
áĭ¨ áĪ°
Ġáĭ« áĭ°áĪ¨áĮĪáĭį
áĮį áī¢áĭ«
Ġsk uil
Ġáĭ«áĭ°áĪŃ áĮĭ
Ġvl am
Ġdefin isie
Ġkomplek se
h Ãª
k oste
Ġb asies
Ġbet on
spel etjies
Ġbev r
ĠOp in
199 7
ĠáĪħáĭĿáī¥ áĬķ
áĮĪáĪª áī±áĬķ
ĠCr isis
ĠD ay
be en
áĭĵ áĪĪ
ĠÐ ±
Ġgel ief
ĠáĮ¸ áĪĲ
áĬķ áī§
Ġáĭ¨áĪ« áĪ±
ĠF oto
Ġáī£áĪĪáĪµ áĪįáĮ£áĬķ
ie m
áį ®
inn ish
áĪĵ áįį
at a
m elk
áĪ½ áī±
ĠáĪĽ áī¥
39 22
Ġun ders
ĠáĬĲáĮĪ áĪ©áĬķ
Ġd are
af els
======== ========
h oop
áĬĲ áĭĭáĪį
ĠáīĢ áĭįáĪµ
Ù ¾
Ġp reek
B et
Ġsir k
ĠáĭĽ áįį
áį »áį
áīĢ áīµáĬĵ
Ġsk enk
produk te
ĠáĭĵáĪĺ áī°
áĮĪáĭ° áĪī
ĠDaar die
vl oek
Ġdissip line
Ġk ond
Ġáīħ áĬĿ
handel aar
Ġprivaat heid
Ġaanwys ers
Ġte Ã«l
ĠáĭĿ áĬĲ
um n
áīĢáĮ¥ áĪĪáĭį
ĠáīłáīĢ áĭ³áĪļ
Ġal t
ĠTurk ish
áī´ áĬŃ
Ġáĭ¨áĬł áĪį
ĠáĪķáĭĿ áī¡
ĠáĪĢ áĪ³
ĠL ife
ĠáĮīáĭ³ áĭ©áĬķ
re es
ĠáĪ« áĪ³áī¸áĭįáĬķ
ĠáĪĪáĪµ áĪĭáĪ³
áĪī áĪļáĬĴáĭ¨áĪĿ
Ġáī°áĪĽáĪª áĭİáī½áĬķ
áī³ áĪĪáĬķ
Ġáī°áī¥ áĪĪáĭį
Ġáī Ĥ
ĠáĮĪ áĭµ
Web site
em a
ĠS RL
Ġáĭ¨áĪĥ áĭŃáĪĽáĬĸáīµ
áĬ ľ
Ġaf ter
Õ¡ÕµÕ¥ÖĢ Õ¥Õ¶
Ġáīł áĭµáĪĿ
ĠáĪĪáĪĺ áįįáī³áīµ
Sl oven
áĭĮ áĭŃ
ĠáĪĪáĪĺáīĢ áīłáĪį
Ġgetu ienis
Ġwes ens
Ġd in
Ġjou r
ĠC D
Ġpas iÃ«nt
ĠáĪ»áĪĿáįĴ áĭ®áĬĵ
ĠáĬ¦ áī£
áĪµáĪ« áīħ
Ġparty tjie
te g
aa is
Ġl of
sp oor
Ġtro on
Ġse ep
Ġvas gemaak
k amers
Ġont s
Ġmedis yne
Ġkrag tig
ĠáĭŃáĬĸ áĪ«áĪī
Ġáī£áĬķ áĭ²áĪ«
Ġkoer ante
gen ie
K lik
Ġáī°áĭĪ áĭ³áĮħ
Ġbuit enste
ĠRuss ian
ĠE ers
v ian
Ġáī¥ áĭ¨
ĠBl ack
atte us
R O
ĠáĬł áĭ°áĪ«
Ġre geer
ĠáĪĥ áĭ«
Ġáī¥áĭĻ áĪĿ
der e
gineer ing
Ġvan d
ĠáĬł áĪ¨áĮĭ
ĠK at
am s
áīĢ áĭ³
ĠArab ic
Ġáĭ° áĬ«
Ġáĭ¨áĪĪ áīłáīµáĪĿ
ĠTh ai
Ġáīµ áĭį
ĠáĪ² áĬĸ
Ġáĭ¨áĭ° áī¡áī¥
áįĪ áĪ«áĪį
or f
ĠáĪĿáĪįáĬŃ áī¶áī½
ĠáĮĪáī¥ áī¶
Ġáĭ¨ áĪ³
ĠáĭĺáĭŃ áī¤
Ġáĭį áĮĬáĭ«
áĮł áĪ®
ĠáĮį áĪŃáĪĽ
áĪ¨ áīµáĬķ
ĠáĭŃ áĬĵ
u to
Ġáĭ¨ áī¦
ĠáĪħ áĬķáįĥ
ĠáĪĽ áīĨ
sp lan
gel s
p yn
Ġáīł áīĨ
áĮĪáĬĲ áĭĺ
áĮĭ áĬķ
Ġbas ed
ĠAr g
Ġrom antiese
Ġtoe g
Ġhand haaf
Ġáĭ¨áĬ¥ áĪŃ
áĪĺáĪ° áĪ¨áīµ
Ġkor ter
ooreen koms
Ġopge staan
Ġdoel bewus
Ġre use
leis ter
Ð¾Ð¾Ð¾Ð¾ Ð¾Ð¾Ð¾Ð¾
ĠáĪĮ áĭĺáĪŃ
if f
: -
áīłáī° áĪĪáĭŃ
ung arian
Ġ íķľêµŃìĸ´
Ġáĭ« áĮįáĬĻ
Ġba ck
ĠáĪĺáĮ¥ áįİ
Ġ æĹ¥æľ¬èªŀ
ĠáīłáĪĽ áĪ³
áĮª áĭį
áĪģáĪĪ áī°áĬĽ
Ð³ Ð¾Ð»
to es
Ġm em
H E
áĬķáĮį áĭ²áĪħ
áĬ¦ áĬ¤
ik k
s op
ĠáĮ ģ
Ġver die
199 8
áĪĻ áĪĿ
ĠáĬ¨áĪĿ áī²
at us
áīĢáīł áĪī
Ġáĭ¨áĪĺ áĪ¨áĮĥ
Ġm ent
áĪ³ áĭįáĭ«áĬķ
ĠáĪĪ áĪĨáĬĳ
ĠáĪĵ áĭŃáĪĬ
Ġven sters
áĮ ²
ĠáĬłáīµáĪĮ áī¶áī½
registr asienommer
ĠhoÃ«r skool
Ġb oog
áĬŃ áĪ±áĪĿ
Ġuit mekaar
áĭįáĪį áĭµ
entr al
b ox
Ġgl ans
Ġhier heen
ĠáĮ£áī¢áĭ« áĭį
Ġmik ro
Ġver werf
Ġuit st
áĬ½ áī²
hand els
h ulp
Ġont ken
bes kerm
ĠáĪķ áī¥áĪ¨áīµ
Ġverr assing
Ġ erk
áĭ« áĭ³
ul a
!!!! !!!!
ĠáĭĪáĬķ áĭĿ
Sp ort
] .
Ġbedrog spul
áĮ½ áĬĲáīµ
áįĪ áĮłáĪ¨
A F
Ġáīł áĪ²
Ġre view
áĮĥ áī¸áĭį
áĪĺáĮ£ áĮ£áĬĿ
áĬ« áĬĶ
ĠáĭĿáī°áįĪ áĪĭáĪĪ
Ġáīł áĭķ
Ġáĭ« áī°áĬ®
áĪ« áĮŃ
áĬĵáĮĪ áĪ©áīµ
áĬ¨ áĭįáĬķ
Ġsu g
ic r
áĮĪáĬĺ áīµ
il m
Ġg im
Ġwe ef
Pr iv
Ġsla we
áĮĨ áĪ®
v ra
at ori
Ġop bou
ĠáĪĽáĪ½ áĬĸáī½
áĪī áĪ²
ĠC UI
ĠáĪĿáĬķ áĬĲáīµ
150 195
ĠáĭĵáĭŃ áĬĲáī¶áī½
ĠCom stil
ĠNik y
ĠMaatskappy registrasienommer
150195 16
áīµáĬĵ áĬķ
ĠC ont
g ids
áĮį áī¥áĪŃ
Ġse Ã«l
áĪ¶ áĪµáīµ
áĪ¨áĭļ áĭ°áĬķáīµ
Ġde es
bl aas
Ġwet tige
Ġsu ig
Ġinsluit ende
jabl oon
Ġster t
ĠL ater
ĠáĬłáĪ¨ áĪĺáĬĶ
Ġáī¤áī° áĪ°áī¦áī½
ĠáĬłáĪµ áĬªáĭ«
Ġhond jie
Ġbeker ing
ĠR iaan
Ù ĳ
ĠáĪĿ áĬ¥áĬķ
ĠAnd roid
Ð ĳ
Ġáīł áįĵ
Ġf et
ĠáĪµ áĭ«
Ġne der
Ġáĭ¨áĮ¥ áĪ«áīµ
ĠáĭĿáĪĵ áĪĪáįĪ
weg ian
Ġáīł áĪ³
ĠáĪĺáĪŃ áĪĲ
ĠáīłáĪ¨ áĬ¨áīµ
Ġ( âĢľ
ĠC ollege
ĠáĪ ¤áĪ«
ĠáĬł áĪľáĬķ
" :
ĠáĮį áĭĻ
áĪ¨áĭ³ áĭį
ĠáĪĺ áĭĺ
ĠáĪĺáĪĨ áĬĵáī¸áĭį
T ags
ĠáĬ¥áĭ¨ áĮ¨
Ġin v
Ġáĭ¨áĪķ áĭĿ
b ian
Ġáī£ áĪµ
ĠáĬ¥áĪµ áĬŃ
ĠáīĨ áĭ³
Ġáĭ¨áī° áĪĺáĪ¨
Ġáĭ¨áī°áĭĪáĪ° áĬĳ
áĮłáīł áīģ
áĭ³ áĮĬ
áī¸ áīµ
áįĲ áĪŃ
osof t
ĠáĬ¥áĬķáĭ°áĪļ áī½áĪī
áĭŃ áī²
ĠB et
Ġbakter ieÃ«
I F
Ġl ens
Ġáĭ« áĮĪáĪĪáĮį
áº ¡
ĠJap anese
ĠáĬ¥áĬķáĬ¨ áĪİ
Ġáĭ¨áĬ¥áĪŃáĪµ áĭİáĬķ
ĠS aterdag
áĬŃ áĪ¬áĬķ
gew ig
Ġw enk
Ġkan se
ĠáĪĻ áīĢáīµ
Ġkonf lik
ang skik
Ġaan kom
ou er
sie we
ĠT erselfdertyd
as tr
áīħ áĭ«
Ġsp ir
áĬĳ áĪĿ
ĠB reyten
ĠJos ef
t end
Ġáī°áĪ³áī³ áįĬ
áĪ¨ áĬŃ
Ġáī± áī¦
áįĪáĪįáĮĭ áĪī
199 6
áĮ» áįį
ĠHind i
Ð¾Ð½ Ð³Ð¾Ð»
áĪµáī°áĬ« áĬ¨áĪĪ
ĠáĬ¥áĬķáĭ°áĪļ áĮĪáī£
as es
ĠáĬ« áĪĭ
ĠáĪĺ áĪ¨áĭ³áīµ
ĠáĬł áĭİ
ĠI f
ĠáĭĪ áĪĪáĪį
W h
ĠN ot
ĠáįĮ áĭ´
ill er
Ġáīł áĬ¨
áĪĪáĬĿ áĪĿ
ĠáīłáĬ¥áĮħ áĮī
áĪĺáĭĿ áĮĪáī¡
Ġáī¥ áīģ
ĠáĪĽáĪ³ áĭ«
w iel
Ġged urig
197 9
erbaij ani
Ġf ase
Ġverw ar
Ġsk uins
Ġskryf werk
Ġbeg rawe
ĠáĬłáĬķ áĭ°áĬĽáĭį
Ġdees dae
Ġj oernal
Ġáīłáīµ áĪĿáĪħáĪŃáīµ
Ġgesl aan
áĮłáĬĵáīĢ áīħ
Ġkolleg as
b uis
omp el
Ġbel ange
Ġaanv al
ĠáĪĺáĮĭ áī¢áīµ
Ġch ir
Ġáī³ áī½
Ġáīł áĭ²
ĠáīłáĬł áĮŃáĪŃ
id h
Ġáīłáĭ© áĬĴáī¨áĪŃáĪ²áī²áĭį
ic ian
Ġáĭ² áĪŀáĬŃáĪ«áĪ²
Ġáĭ¨áī°áįĪ áĮłáĪ¨
ĠáĬłáĬŃ áĪ±áĪĿ
re ep
áĪ¸ áĮ¥
st u
Ġhe de
c ss
áĪµáī° áĬĵ
icr osoft
ĠM amma
Ġr adio
ĠT em
il ar
at ian
áĭĢ áĬĲ
Ġne ed
Ġsl ang
is a
ĠáĬĲáįį áĪµ
ĠáĬłáĬķ áĪµáī¶
Ġáĭ¨ áīłáĪ¨
Ġp ond
In tern
ĠáĪĺáĮł áīłáīħ
Ġop reg
w issel
Ġwegge steek
Ġuitsonder ing
Ġligg ame
ĠItal iÃ«
Ġh eil
Ġl ippe
ĠáĬ£áĪĪ áĭİ
ĠB a
Ã« tz
eb uer
ĠSp anje
Ã«tz ebuer
Ã«tzebuer gesch
f ig
i ous
ĠáĬłáĪµáī°áĭĭ áĮ½áĬ¦
um m
f or
ad y
Ġde c
Ġe v
ĠT Ã¼rkÃ§e
ĠáĭĿ áįį
Ġáĭ¨ áĭ°áĪĿ
r i
áī¡ áĭµáĬķ
Ġd oes
ĠáĪĽáī¥áĪ« áĪªáĭ«
ĠáįĪ áĪį
áĮĭ áĪĪ
Ġe ven
ĠáĬłáĪĪ áīĥ
ĠáĮĢ áĪļ
ĠH ul
h ol
ĠÎ ķÎ»Î»Î·Î½Î¹ÎºÎ¬
icha el
áĪª áįĸáĪŃ
áĭ° áī±
áĪĭ áīĢáĪį
Ġn ation
ĠáĭĿ áĬĲáīłáĪ©
áįİ áĬķ
áĬĲ áĮ»
ĠáĬ¨ áī¤áī°
Ġpap ers
ge slag
Ġt a
mat ig
ĠJour nal
Ġklim aat
Ġáī¥áĪĶáĪ¨ áĪ°áī¦áī½
Ġgeb id
ĠáĭĪáĪį áĭ°
ĠáĪ° áĪĮáĭ³
Ġont breek
ĠáĬ¥áĭ¨ áĪĺáĮ£
ĠJood se
Ġverk eer
ĠáĬŃáīµ áī£áīµ
Ġtoege wy
ĠáĪĪ áįį
Ġreken inge
Ġo uma
áĪ« áĪĪáĬķ
Ġom h
Ġvr ag
ifiseer de
Ġtr ane
Ġoutom atiese
Ġl ive
pl iseer
Ġkl in
Ġgelde enheid
iv il
Ġáĭ¨áĪļáī³ áĭ¨áĭį
Ġáĭ¨áī°áĪĪáĪĺ áĭ°
áĪĪ áĬĽáĭį
áĭŃáĪħ áĬķáĬķ
Ġd am
ĠáĮįáĭµ áī¥
Ġt ar
Ġáī° áĮįáĭ³
ĠáĬŃ áī¥áĪ¨
Ġáī°áĭĺáĮĭáĮħ áī¶
ł ÑĥÑģÑģÐºÐ¸Ð¹
ĠáĬ¥ áĪ³
id ge
ĠáĬ¨áĪĿ áĭĺáĭŃ
I tal
g om
Ġáīłáĭ¨ áīĢáĬĳ
áĬķáĪµ áīµáĭ®
ÑĢ Ð³
ĠáĪĽáĪµ áĮĪáī£áīµ
ĠáīłáĪĿ áīµ
Ġplane te
36 6
Ġáī° áĪĺáĪŃ
ĠBek ele
id a
ĠM en
um p
ĠáĬłáĪĪ áī¥áĭİáīµ
áĪħ áĪ³áĪµ
ĠáĪĪáĪĺáīĢ áĬĲáĪµ
Ġáĭ¨áĭ°áĪ¨ áĪ°áĭį
ĠáĬ¨ áī¥
áĪĺáĪ°áĮįáĬĵ áĪĪáĬķ
ĠáĬ¨ áįĪáĪĪáĮī
ĠáĬ¢ áĬ®áĬĸáĪļáĭ«áĭĬ
Ġop kom
Ġuitdag ings
Ġb oord
Ġbe derf
ien k
Ġuit werking
ĠMa andag
Ġoor heers
Ġdaar by
Ġinstall asie
Ġrig lyne
wek kend
ge hou
Ġis s
re erde
ĠáĪĪ áĮ¥
Ġverskyn sel
Ġd ivers
an y
áĭĿ áĮĪáī¥
áĬ¨áī³áī° áĪī
Ġth rough
ĠáĪµáĪĪ áĭļ
en berg
ĠáĬ£áĪĪ áĭī
áĬħ áĬķáĬĲáīµ
ial s
ĠSw ahili
Ġacc ount
l s
E O
áĬķáĭµ áĪµáĬĵ
ĠáīĭáĬķáīĭ áĭİáī½
Ġáĭ¨ áī±
ĠáĭŃ áĬķ
ĠáĮĪ áĭ¥
Øª ÙĪ
áĬ¢ áĪľáĪį
ĠáĬ¨áĭį áĮŃ
un j
ĠáĪĺ áĮįáī£áīµ
pro p
Ġáĥ ¥áĥĲáĥłáĥĹáĥ
vr aag
Ġáĭ¨ áĪĨ
eland ic
ith uan
ĠáĬ¨ áĪİ
ĠJ awa
les elf
Ġspr aak
Ġbesk uldig
ĠáĪĺ áĮĪáĬĵáĬĽ
199 9
Ġinner like
áĪ³ áĬº
tern is
Ġlie wer
ĠáĭŃáī³áĭĪ áĪ³áĪį
Ġstap el
gel oop
Ġgemak like
O r
int enis
genie urs
Ġvriend elike
cade m
Ġj aag
Ġtoen em
áīª áĪį
Ġverwyder ing
Ġaanduid ing
ring krag
s et
ĠáĬ£ áĬ¼
áī±áĬķ áĬĵ
áĬł áĭį
em ents
N ederland
áĭĭ áĮħ
ĠSc ott
ĠS urface
áĬķáĮį áĪ¥
áįģ áĭķ
Sim plified
Ġc ommun
un k
app y
ĠáĮ ©
áĪĺáĭĺ áĮĪáīł
u um
Ġw al
Ġc ou
ĠáĭĿáĪŃ áĬ¨áī¥
Ġáĭĵ áĭ²
áĭ³ áĭĬ
Ġst ro
b ol
áī¥ áĪĬáĬŃ
G el
ĠáĬł áĬ¥áĪĿáĪ®
áīĢ áĮ£áĭŃ
Ġl ife
ĠSy stem
x um
Ġáĭ¨áī° áĭĪáĪĪ
Trad itional
Ġin k
Ġ ÑĤ
áĪĿ áĪ¨áĭį
ĠD utch
ĠáĪĪ áĪĢ
66 6
áĬŀ áī»áī½áĬķ
hats app
Ġáĭ¨áĭĪáĬķ áĮĢáĪį
Ġst ation
ĠáīłáĪļ áĮĪáĬĻ
rain ian
ir am
Ġvers oen
kle ur
Ġáī° áĬķáīĢáĪ³
Ġvoor nem
Ġtemp o
ug te
Ġgep aard
Ġverduidelik ings
o ens
Ġo oste
Ġde mon
werk er
ĠáĪĪáīł áĪĪáĮł
áĭĵ áī°
Ġgek on
Ġhandel ing
ĠAf hangende
am m
Ġk undige
Ġsk are
rek ende
ĠáĬł áĪ¨áī¥
ap ens
Ġáįį áĮ¡
Ġstofs uier
Ġop knapp
ed onian
ĠáĬ¥ áĪ´áīµ
ĠáĭŃ áĮį
ĠáĬłáĭ³ áĪ«áĪ½
áīĢ áĭ±
ĠW ag
áĪµ áīłáĭį
áīħáĬĵ áīĦ
ithuan ian
Ú ļ
Ù¾ Úļ
Ù¾Úļ ØªÙĪ
199 0
Ġg ate
áĭµ áĪ¬
pl im
197 5
Ġk aas
áī¸ áĪŃ
áĭ° áĪĪ
9 2
ĠSom ali
ĠS pe
áĪĭáīĢ áĪī
de d
ĠáĪĺáīĢ áīłáĪį
Ġáĭ¨áĪĺáĪ³áĪ° áĪīáīµ
sp es
A K
Ñĭ Ð·
Ġáĭ¨áī° áĪ¸
ĠáĪµáĪĭ áĪĪáĭį
ĠD ubai
ĠIndones ian
Ñĭ ÑĢÐ³
ÑĭÑĢÐ³ ÑĭÐ·
ĠáĬ¨áĬ¥ áĮįáĭļáĬłáī¥áĪĶáĪŃ
Ġpubl ished
Ġd enk
ĠV ideo
Ġblog ger
áĬĵ áĬĽ
ĠáĮ¥áīħ áĪŀáī½
ĠáĪĭáĭŃ áĪĿ
Ġw andel
sk r
ĠáĮ¨ áĪ¨áī³
Ġhoogte punt
Ġsl aaf
ĠItal ian
Ġge open
Ġáī į
ĠI c
Ġmilj oene
áī² áĭ©áī¥
gel Ãª
v aardig
Ġkom ende
ust ige
Ġmoontlik hede
g aam
Ġwerk ers
Ġm Ã´re
ĠWaar om
Ġmidd agete
v aart
Ġbu i
Ġpos isies
kr uip
Ġrug sak
Ġbelegg ers
be weging
áĬ©áī£áĬķáĭ« áĭį
it t
áĬ« áĪªáĭİáī½
áĬ¨ áĪµ
els h
ĠáĪµáĪ« áĭİáī½áĬķ
Ġáĭ¨áĭįáĭµ áĭµáĪŃ
áĭ¨ áĭįáĬķ
áĪª áī³
ĠáĪģ áĪĭáī½áĬķáĪĿ
D illa
áĪ¨ áĭĿ
Ġsh ow
ĠTe chnology
Ġ ang
ĠáīłáĮ¾ áī³
áĪĪ áī³
ĠYou Tube
Ġáĭ¨áĪĺ áīĭáīĭáĪĿ
Ã² l
un is
áĪ» áĪ½
Ġáīł áĭµáĬķ
97 6
ig r
oad s
ĠáĮ£áĪį áīĥ
ver g
Ġr itu
áĪĭáĭŃ áĬķ
ĠáĬ«áĪĿáįĵ áĬĴ
y ke
Ġáĭ¨áĪĺ áĬķáįĪáĪµ
ĠáĬ¥áī£áĬŃ áĭİáĬķ
ĠáĮĪáĪįáįĢ áĭį
áĮĪáĪį áĮĪáĪį
ĠáĬł áĪĿáĬĵ
pos se
Ġor g
Ġáīµ áĮį
eer lik
Ġna week
Ġged wing
Ġste wig
it iese
i om
ero er
kant oor
Ġstre ef
ĠElke en
áĭ¶ áĪµ
Ġáĭĭ áĬĲáĬĽ
Ġinspir asie
Ġdok ters
Ġaf val
ĠáĬķ áĪ±
Ġap arte
Ġadvert ensie
ĠáĬł áĮ£
Ġverl iese
ĠáĪĿáĪħ áĪ¨áīµ
ĠGet achew
áĪ½ áĭ«áĮŃ
ep t
Ġáĭ¨áįĢ áĮ¥áī³
áĪĽ áĪĮ
áĪ³ áī½áĪģ
Ġáīħ áĮ½
Kurman ji
Ġb ol
Ġwel l
ĠáĪį áĬĵ
Ġáīłáĭ¨ áĮĬáĭľáĭį
ĠSh qip
Ġs ap
An n
ĠáĪĺáĪĺ áĪªáĭ«áĭİáī½
áĪ« áĪ¨
ĠD u
ĠáĬĲáĮ» áĬĲáīµ
ge et
Ġkl asse
al f
Ġfe der
tyd se
Ġm oord
áīĥ áīĤ
Ġsust ers
ÙĨ Ú
gew one
Ġverr as
op sie
Ġbo ere
Ġno w
Į ÙĬ
Ġuitbre iding
ÙĨÚ ĮÙĬ
Ġáĭ¨ áĬĶ
Ġsk uldig
ĠS kep
Ġáĭ¨áĪļ áī½
art on
Ġáĭ¨áĪļáĭ« áĭį
áĮĪáĬĿ áĪĿ
ĠáĭĿ áĬĲáīł
Ġáĭ¨áĮįáĬķ áĭĽáī¤
Ġáī¥áĭĻ áĭİáī½
ĠTr ans
ĠG eb
ĠáĪ°áī¥ áĪ³áī¢
ĠB eng
Ġ à¦¬
ĠáĬ« áĪ¬
áīłáī° áĮ¨áĪĽáĪª
ĠáĮĪáī¥áĪŃ áĬ¤áĪį
cau se
Ġáįĵ áĭįáĬķáĭµ
Ġáĭį áĪħ
ĠáĪĺáĬķáĮįáĪµ áī±
ĠáĮİ áĭ³áĬĵ
Ġg ap
) áį¡áį¡
! âĢĻ
ļ ÑĭÑĢÐ³ÑĭÐ·
ļÑĭÑĢÐ³ÑĭÐ· ÑĩÐ°
ĠÐĳ ÐµÐ»Ð°ÑĢÑĥÑģÐºÐ°Ñı
S pr
Ġv ryf
Ġáĭ¨ áįįáīµ
Ġuit sluit
ĠáĬ¥áĬķáĭ²áĭ« áĭįáĪĿ
ĠáĭŃ áĮłáīħ
Ġáīµ áĪµ
opy right
ra ge
hal a
Ġduis ternis
ĠK rey
Ġpr iester
wel kom
Ġfond s
Ġver gesel
Ġgek r
Ġgraf iek
Ġaange kom
ĠáĬłáī¥ áĭ«áī°
Ġuitgebre ide
Ġstokperd jie
ĠáīłáĪļ áĪĪáĭį
Ġduis end
ĠáĬ« áĪľáĪ«
Ġáī´áĭİ áĭµáĪ®áĪµ
ĠáĭŃ áĬĲ
áĭĪáĪ° áĬĳ
am iek
Ġplak papier
ryp to
Ġáĭ¨áĪļáĭ« áĭ°áĪŃ
mp t
áĮŃ áĬķ
Ġste el
Ġsa tell
ĠáĭĺáĭŃáĬ® áĬĲ
Ġáĭ¨áĬ¥áĮįáĭļáĬłáī¥áĪĶáĪŃ áĬķ
ĠáĪķ áĭ³áĪŃ
Ġáī°áĮĪáĪį áĮ¿áĪį
áĬł áĮĪáĪįáĮįáĪİáīµ
Ġáĭ¨áĬł áī£
ĠáĬ¥áĪŃáĮį áĮłáĬĽ
Ġáĭ¨áī° áĬĲáĪ£
ĠáĬłáĪī áĬķ
K os
an mar
áĭĿ áīĥ
ĠáĮīáĭ³ áĭ®áī½áĬķ
b Ã¡
Ġáī± áĪŃáĬŃ
Ã¹ bÃ¡
Ar ticles
ĠM ol
Ġse c
du le
66 2
áĭ³ áĭ²áĪµ
Ġinstr umente
áĮ¨ áĪĿáĪŃ
ĠáĬ¨ áĮł
in ing
áĮĪ áĪī
ĠáĪ° áī£
Ġont w
âĸ ¼
ĠSt ap
Ġsaam gestel
ĠáĮĪ áīł
Ġop gestel
Ġvoorsien ing
Ġverlos sing
w ese
Ġom gewings
ĠIn c
Ġáĭ¨áĬ¥áĬĽ áĬķ
ĠJap an
ĠvermoÃ« ns
Ġg al
aal f
Ġonbeperk te
áĪľ áīµáĪŃ
kom stig
Ġáĭ¨ áĪĻáĭ«
Ġsoek tog
W enke
ie Ã«n
in ue
ari am
Ġgelyken is
arn ing
áĪĪ áĭĪ
ĠáĭĵáĪĺ áī±
Ġsn el
áĭ° áĭĭáĪį
ĠáĭŃ áĬ½áĬ¥áĪį
Ġáĭ¨áĬł áĮĪáĪŃ
Ãł idh
Ãłidh lig
ĠRep ubl
áĭµ áĭĭ
ĠáĬ£ áĭµ
Ġáĭ¨ áī½
áĪµ áĮĭ
áĮĪ áī¢
áĪ³ áī½áĬķáĬķ
ag ing
ud io
ĠIsl am
áĭį áĪŃ
Ġad ministr
b v
Ġbl ind
áĪµáīµ áĪŃ
ĠG ael
ĠáīµáĮįáĪ«áĭŃ áĬķ
ĠB este
Ġáĭ¨áĭ° áĪħáĬķáĬĲáīµ
sk il
áĮ¦ áīµ
bo ard
áĮĪ áĮį
Arch ives
19 60
Ġáĭ«áĪĪ áįĪ
Ġáĭµ áī¥
T hank
ch ool
Ġpr oef
ĠG alego
ĠT im
áĬ® áĪ®áĬĵ
Ġver if
Ġtr onk
voud ig
ĠáĪĺ áĬ®áĬķáĬķ
áĭ¨ áĪŀ
rig ter
ĠáĪĪáĭį áĮ¢
Ġhuur der
ĠáĪĺáĭį áĪ°áĭµ
Ġon sk
Ġáĭ¨áī° áĬ¨áĪ°
Ġoord rag
ĠáīµáĪ« áĬķáĪµ
on y
áĪµáĪį áĪĿáĬĵ
esk iedenis
Ġgel oop
oog de
Ġáĭĺáĭ´ áĭİáī½
Ġdeur sig
Ġfamilie lede
Ġdare m
Ġge ass
Ġaan geneem
Ġoor nag
ĠáĭĪáĪ¨ áīĢ
áĪĺ áĬĳ
Ġverduidelik ing
Ġvee arts
S al
Ġhy s
O L
ĠáĬł áįķ
áĭ° áĭ°
áĮ» áĪľ
ĠáĬ¤ áĭµáĪµ
ĠáĬ¥áĬĵ áĪĺáĪ°áĮįáĬĵáĪĪáĬķ
Ġc re
Ġlet ters
Ġáĭŀ áī£
Ã ¥
áĪŃáĪµáī¶ áĪµáĬķ
ĠáīĢáĭ³ áĪĽáĭŃ
w ood
ĠáĭŃ áī£áĪŃ
ĠáĭĪ áĪ¬
mak lik
Ġr ib
ĠG ord
ĠáĪĺ áīĨáĮ£áĮłáĪŃ
ĠPortugu Ãªs
áĪħ áĭĿáī¥
áĪĺ áĬĽ
ĠáĪĺáĬķáĮįáĪµ áī³áĭĬ
Ġáĭ¨ áĬĽ
ĠáīĨ áĪŃ
Ġabsol ute
ĠCre ole
Ġáĭ«áĪĪ áĪĺ
ĠC ity
ĠáĬ« áĪħáĬĵáīµ
ĠáĬłáĭ° áĮĪáĬĽ
áĬ¬ áĬķáĭ«
Ġáĭ°áĬķ áī¥
ĠáīłáĪĺ áī£áĪį
Ġáĭ°áĮĭ áįĬ
ĠJ aar
ĠáĭĪáĪ¨ áĪ«
ĠáĬ¥áĬķáĭµ áĬĵ
Ġáĭ¨áĬŃ áĪŃáĪµáī¶áĪµ
ĠáīłáĬł áĮĪáĪŃ
áīĢáĪ¨ áīł
ĠáĬ¬ áĬķáĭ«
ĠF ilipino
Ġáĭ² áĪ²
Ġd oek
is tes
ĠáĬłáĭŃ áĪĨáĬķáĪĿ
ath i
Ġvol gelinge
nas ium
Ġr uik
ĠS ulke
Ġáĭ¨ áĪ´
Ġdood maak
kl as
Ġbeskik bare
Ġabs or
Aan gesien
ĠG reek
Ġsaam ge
8 7
al d
Ġchem iese
Ġt wintig
áĬĵ áī±
ĠáĪĭ áĪī
Ġvorm ing
Ġgem oed
Ġdob bel
áĮ½ áĭĭ
áĭŃ áĭĿ
Ġkle m
Ġáĭ¨áī°áĪ° áĮł
Ġraad saam
Ġáĭ¨ áĮĬáĭľ
ourg ish
áĪ¬ áĭĿáĭ³áĬķáīµ
199 5
ĠáĮī áī£áĭĶ
T agged
áĪĺáĬķ áīłáĪŃ
Ġáįĵ áĪŃáĬŃ
Ġáīłáĭĵ áĪĭáīµ
Ġm ann
Ġáīł áĮ¨
Ġdi agn
Ġáī¡áĭµ áĬĳ
ĠS aam
ĠáĪµáĭµ áĪ«
Ê» i
ĠAbr am
ĠáīĢ áĮ£áĭŃ
Ĺ áĢĻ
áĢ ĹáĢĻ
áī¶ áīµ
ĠáĬ® áĬ¨áī¥
s org
áĮħ áĪĿáĪŃ
it ian
ĠáĭŃáĪĨ áĬĵáĪī
ĠáĭĪáĪ¨áĭ³ áĭİáī½
Am haric
ĠPol ish
er ye
ie me
Ġáįį áĪįáĪµ
R eis
u z
ĠáĬłáĮĪáĪįáĮįáĪİ áī¶áī½áĬķ
ĠáīłáīłáĬ© áĪĭáī¸áĭį
áī¶ áī»áī¸áĭį
ĠáīłáĬĲ áįĥ
p en
áĪĿ áĪ«áĪį
áĭ¨ áĪĺáĪµ
ĠChrist ian
Ġoor gang
vl oei
Ġon reg
Ġl yding
jar ati
Ġkeis er
ĠáĭĪáĬķáīł áĪ®áī½
Ġ iet
19 57
ont rak
ĠGew oonlik
Ġop n
sp ireer
Ġmees ter
kop pel
werk ers
áĬ» áĬķ
Ġkult urele
ĠáĬł áįĦ
Ġtr appe
Ġbuite kant
Ġaard se
gr oepe
ĠáĬłáīĢ áĪĽáĪĺáĮ¥
Ġvoor lop
ĠáĬ¥áĬķáĭ° áĬĲáīłáĪ¨
áīĤ áīħ
age ment
in ent
Ġh ak
áĮłáī¥ áīħ
ĠK az
áĮĪáĬĵ áĬĺáīµ
áĪĿ áĪ³
Ġáį ¦
b or
E C
ĠáĬĲ áĭŃ
ĠáĬłáĪµ áĪ¨áĭµ
áĪ° áī¦áī½áĬķ
ĠSwe dish
ĠáĬłáĬ« áĪĦáĭµ
w ay
Ġsen ior
áĮ¨ áĬĲ
ĠáĭŃ áĪ»
ĠáīłáĮĪ áīłáĭ«
onder hede
áĭĪ áīĢ
áĬŃ áĬķ
áįĪ áįĢ
áĮī áĭŀ
Ġinte gr
áĬķ áīĽ
Ġaan ger
R ef
om a
×Ļ ×Ļ×
Ġáī£ áĭķ
ĠS elf
Ġwaar geneem
Ġtro p
il iteit
le idings
ĠS legs
Ġáĭ¨áĪ« áĪµ
áĪĭ áī±
pr oe
Ġverbind ing
Ġengel nommer
v oet
Ġin stellings
Ġou ens
Ġn Ãªrens
Ġont byt
Ġkomm ers
Ġburg ers
ĠáĬĲáĮĪ áĪ¥
Ġprokure ur
w enk
Ġáĭ¨ áĪ®
áĪĿáįĴ áĭį
áĮį áĭµ
Ġkle ef
Ġà® ¤à®®
Ġle u
ĠáĪĪáĪĽáĪ³ áĭ°áĮį
Ġbe cause
ch er
Ð» Ñĸ
Ġáī Ľ
ĠáĮīáĭ³ áĭ«áīµ
ip l
m id
Ġwh y
Ġar t
Ġtrans form
ĠáĬłáĪĿáĪ« áī¾áī½
Ġt as
ĠCh urch
ĠáĬ¥áĬķáĭ°áĪĿ áīµ
Ġáĭ³áĪŃ áī»
Ġáī° áĪĪáĭŃ
ĠáĬ£ áĮĪáĪįáĮįáĪİáīµ
áĮ£ áįį
ĠáĪĺáī¥ áī±
áĭĸ áīµ
Ġáīł áīµáĬķ
Ġáī°áĮĪ áĬĿáĬĲáīµ
ĠáįįáĪĭáĮİ áī¶áī½
áįĭ áĪī
áī£áī¸áĭį áĪĿ
I L
ĠáĮ¨ áĪĪáĪĽ
ĠáĬł áĮĪáĬĺ
ĠáĬĲ áĮłáĪĭ
ĠC zech
Ġáīł áĭ¨áīµ
Ö °
ĠáĪķ áĮĬ
p ons
c ont
Ġdiffer ent
Ġe m
ek ker
el ig
ĠS ny
Ġdroog te
Ġv ou
áĮ¥ áīłáīµ
Ġopvoed ing
Ġval se
áĭ¨ áĭ©
ry ke
ĠáĪ² áīĢ
Ġkn ip
ĠáĬĸ áĪŃ
áĪµáī¸ áĬ³áĭŃ
S uid
Ġtel kens
Ġbelangrik heid
Ġvier kant
Ġ rys
áĬ µ
Ġne iging
Ãªr el
bere iding
ĠáĬ¥ áīĥ
áīµ áĬĲáīµ
Ġáĭ¨ áĭľ
ĠáĮ¥ áįĭ
ĠáĭĿáĪĿ áĪį
áĪ³áĭŃáĬķáĪµ áĬĵ
ch t
áĭĪ áīģ
ĠáīłáĪĺ áĬ«
aj ik
Ġáĭµ áĪħáĪ¨
Ġáīł áĭĲ
in str
ĠáĪĺáĪµ áįįáĬķ
gl as
áĬŃ áĪ©
Ġáĭ¨áĬ¥ áĮįáĪŃ
gy z
ĠáīłáĪµ áĪ«
re em
Ġáĭ¨áī° áĪ¨
áĭĺ áĭĭ
st ip
áĪ® áĭŃáĭµ
áī£ áī½áĪģ
Ġmy l
áīĨ áĪŃ
áĪĪáĪĽ áī½áĬķ
od ay
ĠáĬłáĭŃ áī½áĪīáĪĿ
yr gyz
ĠáĪĽ áĪĺáĬķ
Ġgem erk
Ġáĭ°áĪŃ áĪ¶
ĠáĬ« áĭįáĬķ
Ġuit beeld
ĠGod delike
Ġhul leself
ĠáĪļ áĭĽáĬķ
vlak ke
ĠáĬ² áĬĵáīµ
Ġprojek te
Ġbeste e
Ġspesial is
Ġáīł áĪĨáĬĳ
ĠáīłáĬł áįįáĪªáĬ«
Ġbr oek
ens iÃ«le
ĠBes oek
Ġoorw inning
ĠUr du
Ġbelangrik er
Ġverg ader
p rek
ĠA xum
Ġáĭ¨áĪĺ áĬ¨áĪĭáĬ¨áĭ«
Ġbegeer tes
Ġbor sel
it is
Ġmiddel punt
Ġverwag tinge
Ġmen ings
áī£ áĭįáĭ«áĬķ
Ġop volg
Ġáī½áĮį áĪ©
voer ing
ĠáĪµáĪĪáĭļáĪħ áĪĿ
ĠG aeil
Ġáīħ áĮ£áīµ
w ers
×Ļ×Ļ× ĵ×Ļ×©
ĠáĬ¨ áĭĽ
us ion
ĠáĪĺáĮ½ áĪĶáīµ
ant s
ĠáĮįáĪį áįħ
ĠáĬłáĪµáī° áĭ³áĭ°
Ġáī°áĪµáįĭ áĭ¬
Ġáīłáī° áĪĪáĭ«áĭ¨
O u
Ġáīģ áĪĿ
ĠáīłáĮ¥ áĬķ
Ġrele vant
áį ĳ
Ġáĭ¨ áĪ¨
ys ter
cl u
ĠB ahasa
áĭŃ áĭĻ
Ġáįĵ áīµáĪŃáĭ«
ĠáĭŃ áĭ°
ĠáĬ¥áĬķáĭ³ áĪī
áĪµ áĪįáĬŃ
l elo
Į lelo
ĠHawai Ê»i
ĠáĬ¥áĬķáĭ² áĪ°
ĠáĬ¥áĬĵ áĪµ
ĠM achin
ĠC he
Ñĸ Ð»Ñĸ
ĠáĭįáĮ¤ áī¶áī½
Ġgek ook
ĠInd iÃ«
r ivier
Ġonder neming
Ġáī° áī£áĪĪ
ĠB rei
Ġáĭ¨áĪ° áĪĽ
en hede
im a
ĠáĪĺáĮł áĭ¨áīħ
urm ese
Ġd aad
ak es
Ġdog ters
Ġáĭ¨áĮįáĬķ áī£áī³
ver dig
D ink
s en
B urmese
aars dag
N UM
Ġversk uif
nem ers
Ġkamp eer
áĮĭ áĪ©
Ġverh uis
ole er
ĠáĪĿáĪķ áĪ¨áīµ
estel sel
áī¤ áĪĭ
ĠáĪĺáĬ« áĬ¨áĪĪáĬĽ
unj abi
áĬĻ áĬķ
Ġl aw
Ġpre m
ik i
Ġáĭ¨áĭĪ áĭ«áĬĶ
áīħ áĪ³áīµ
Ġáĭ°áĪħáĬķ áĬĲáī±
iver ing
Ġáīħ áĪ¬
ĠáĪĬ áī³
áī¼ áĬķ
anc y
Ar tik
áĪĺ áĪĭ
and a
Ad dis
áĬł áī¸áĭį
ot os
Ġáĭ¨ áĪĮáĪĭ
ĠáĭŃ áĪŀ
ĠT amil
ĠRoman ian
ĠáĬ¥áĬķáĪµ áĪ³áīµ
Ġáī³áĪª áĬ½
Ġáĭµ áĪ«
áĪħáĭĿ áī¢
ĠDan i
Ġáĭ¨áĪļ áī½áĪĪáĭį
ann ie
Ġ× ¢
ĠF ort
at ic
Ġkle ed
ĠáĬłáĪĪáĪĺ áĪĨáĬĳ
ĠVietnam ese
ind hi
ĠáĪĽ áī³
idd ish
Ġáĭ¨áĪ½ áī¥áĪŃ
ĠáīĽ áĬķáīĽ
ĠP re
Ġer ed
ĠáĪ½ áī¥áĪŃ
ĠáĬ¥ áĭĽ
Ġontwikkel ings
ĠáĬ¥áĬķáĭ² áĭ«áĪµ
pr essie
áĮį áĪŀ
Ġsk ape
aard ing
ĠáīłáĪ° áįĬáĭį
us an
áĬ¨áī³ áī³áĭŃ
Ġinkop ies
Ġd rein
ĠL oopbaan
wy e
Ġlank al
Ġaks ies
l uit
inn ig
Ġro etine
Ġsk er
Ġaf ges
Ġar r
áĪĿáĪŃ áī¶áī½
kle in
ash eer
ĠGael ic
wyd ing
NUM X
Ġkle uter
A tom
Ġ ÑĢ
in ligting
áĮĭ áĮ£áĪļ
val lig
ĠáīłáĪĺ áĬķáĮįáĪµáīµ
ĠáĭŃáīħáĪŃ áī³
Ġáĭ¨áĮ¥ áĪĿ
ĠE conom
áĭ¨áĪĺ áĮ½áĪĲáįį
ĠáīłáĪį áĭ©
Ġáĭ¨áĪ°áī¥ áĭĵáĭĬ
ĠáĪĿáĬķ áĮ®áī½
Ġáī£áĪħáĪªáĭ« áīµ
ĠF innish
ĠO b
ĠáĪħ áĭĪáĪĥáīµ
áīłáĭŃ áī²
ĠE va
Ġbel ie
áĮ® áī½áĬķ
áĬ¡ áĬķ
ĠáĬ£áĬ¼ áī£
áĮ» áĪį
Ġp al
áī³áĭĪ áīµ
N ot
ĠáĭĿ áīĲ
inn er
ĠáĪĽ áįį
áīĥ áĪĪ
áĪ£ áĬ¤
Ġáĭ¨áĪļáĪ° áĮłáĭį
Ġç ¹ģé«Ķä¸Ńæĸĩ
v ak
am ien
ĠB usiness
196 7
áĪĿáĭµ áĬĵ
áĬł áĭİ
ĠáĭŃ áĮł
Ġaan gesig
end ent
ĠáĪģ áĪĮ
Ġáĭ¨áįĮ áĭ°áĪ«áĪį
ĠáĬĥáĪĭáįĬ áĭİáī½
ĠáĭįáĪ½ áĮ¢
ĠáĪĺ áĭĪáĭ³
áĪħ áĮī
ok s
Ġáįį áīĥáĭµ
áĪŃ áĪĬáĬķáĮįáī°áĬķ
Ġuit nodig
ĠHebre w
Ġgele ef
Ġtoe voeg
áīł áĪ»
áĭĪáĪĪ áĭµ
Ġen toes
ĠáĬ¨ áĭ¨
Ġsk aal
Ġir rit
ĠáĬłáĪĿ áĪį
Ġaande te
V andag
Ġis olasie
Ġneg atief
Ġleu ens
O ok
Ġge te
Ġuit erste
u wel
Ġáīł áĮĬáĭľ
Ġver vloek
per ke
ĠSp es
v gl
áĪħ áĭ´
d enskap
ĠáįķáĪ®áįĮ áĪ°áĪŃ
Ġrel ig
Ġáīłáĭ° áĪį
j ack
ĠáĬ¥áĭ« áĪµ
ĠB ro
n l
Ġáĭ¨ áī¡áĬĵ
ĠKore an
ĠáīħáĪŃ áĮ½
Ġp ed
Ġáī° áĭŃ
b os
Ġáĭ¨ áī¥áĭĻ
áĬĲ áī¶áī½áĬķ
áĭįáĪ® áĮ³
ĠáĮ¥áĪ« áĪķ
áĪķ áĬĲáīµ
ĠE ducation
Ġind ustr
ĠáįĬ áĭ°áĪį
Fi led
ĠáĬłáĪµáĭ° áĪ³áī½
ĠáĪ°áĪĻ áĬĵáĭĬ
199 4
ĠFr is
Ġprofess or
áĭķáīµ áĬĲáīµ
35 2
ĠHawai ian
arus ian
M arch
Ġ ya
ĠáĬłáĭŃ áīĢáĪŃáĪĿ
ĠáĭµáĪį áĭµ
op h
Ġna geslag
ĠáĬł áĭ²
ĠáĭĪáĬķ áĭ¶áī½
ĠB ep
Ġass ist
Ġáīł áĮĮ
Ġge g
áį¤ âĢºâĢº
áĪĺ áĪĭáĪĪ
áįĪáĮ¸ áĪĺáĭį
oe tes
áĬ¥ áĭļáĪħ
B ron
t ans
Ġ à·ĥ
Ġterugge keer
rek te
ood skap
Ġdefin ieer
Ġáĭ« áīĢ
Ġgevolg trekking
Ġwins gewend
Ġpersent asie
Ġsp oel
Ġkl er
Ġstaat s
ub bel
Ġáĭ¨áĪµ áįĸáĪŃáīµ
ĠKrey Ã²l
ĠSu omi
Ġmak ing
ĠáĪĺáĬķáĮĪ áĭ²
Ġv e
il a
ĠáĬķ áīħáĬĵáīĦ
str u
ĠMag yar
áĮ ĩ
ĠáĮĢ áĪįáī£
ĠáĭŃ áĪī
ĠT E
ĠT ur
ĠáīĢ áĪª
Ġte mas
Ġà¤ ¨
Ġd ays
ĠáĬłáĬķáĭ± áĬķ
C urrent
Ġáĭ¨áĪħ áĭŃáĭĪáīµ
ĠPol ski
ĠU RL
Ġáī ®
ĠDan ish
ĠL etter
ĠáĭĪ áī°
áĪĺ áĭ°
áĮįáĪ« áī¸áĭį
ĠAn dr
ĠáĪĿáĬ½áĬķáĭ« áīµ
ab eth
g mail
196 5
Ġáī¥ áĭµáĪŃ
ĠW eb
áĪ¨áĮĭ áĮĭáīµ
ĠáĪŀ áĭ´áĪį
en er
w hatsapp
áĪ° áĬŀ
ĠB oek
ĠáĪĽáĬķ áĬĲáī±
10 9
ĠArmen ian
E m
Ġo l
idd eld
Ġkr uip
Ġprakt ies
ĠáĬĲ áĪħ
Ġakade miese
vertr oue
K inders
ĠáĪĺ áĭ°áĪŃ
Ġáĭ¨áĭį áĮª
Ġopmerk ings
Ġgest rem
ĠgeÃ¯n ter
on ings
ĠáĪĪáĬ¥ áĬĽ
Ġalre eds
yd skap
70 3
t ens
Ġsp ier
ĠáĬ£ áī¦
gr onde
Ġkn ik
Ġonbek ende
Ġtend ens
ĠJ im
w as
áĬª áĪĿ
T ot
áį ¯
áĪĵ áĬķ
ut a
áĪĿ áĬŃ
ĠInf os
h u
áĮįáĪĿ áīµ
Ġáīł áĬĲáīłáĪ¨áĭį
ĠáīĢáīł áĪĮ
áĮĪáĪ« áĪī
áĬĴ áĭį
V ol
áĭŃ áīħ
eg n
i ya
Ġt ab
ĠáĪĿ áĪ½áīµ
ĠD ig
áīĥ áĪµ
áĭķ áīĨ
Ġf iel
ĠáĪĺáĮ£ áī½áĪģ
Ġ à²ķà²¨
la e
Ġáĭ¨áĪļáĭ« áĪ³áĭŃ
áĮĭ áĮ¥
ĠF ant
ie ter
ĠáĬ¦áĪ®áĪŀ áĭİáī½
ĠáĮ¤áĬĵ áĪĽ
r uk
ĠáĮĭ áĪ«
Afr ica
áī£ áī¢áĭ«
he em
ĠáĬķ áĮ¥áĪ¨
T wee
Ġpro pos
áĭ®áĬĵ áĭįáĭ«áĬķ
este er
Ġsp ec
Ġbu re
Ġverw arr
Ġsag gies
Ġhoris on
wikkel ing
áĬ½áĬ¥ áĪī
Ġteor etiese
Ġhoe ke
Ġfant astiese
áĪķ áĭŃáĭĪáīµ
Ġbeduid ende
ĠáīłáĪļ áĭ«áĪµ
ĠáĮĬáĭľ áĭį
aw ing
ton ings
Ġges ament
ĠáĭŃ áįĪáĪįáĮĭáĪī
fun ksie
ĠáĬłáĬ³ áĭ«
ĠáīłáĪĺ áĪĨáĬĵáī¸áĭį
oed el
Ġáĭ¨áįĮ áĭ´áĪ«áĪį
Ġm uch
ĠáīłáĪĽ áīħáĪ¨áī¥
Ġ à¨ª
áī° áįį
Ġáĭ İ
Ġáĭ¨áįį áīħáĪŃ
áįİ áĪĿ
áĪĬáĭĿ áĪĿ
ĠáĬ¢áĬķ áī¨áĪµáīµ
h id
ĠáĪĿáĪħ áĪĭ
ne g
ĠAz erbaijani
Ġáī° áīĨáĮ£
ĠáĪĺáĬķáĮĪ áĭ±
ĠáĬŃ áĪĬ
áīĭ áĪļ
Ġ àªĹ
Ġen ter
ĠA C
Ġáĭ¨áī° áĭ°áĪ¨áĮĪáĭį
d ad
áĪļ áĬŃ
Ġh op
ra c
Ġ( "
ĠáĪĺáĬĸ áĪªáĭ«
ĠáĪĽ áĪ°áī¥
ĠáĮ¥áīħ áĪ¶áī½
ĠB urger
ĠáĪµáĭ« áĪľ
áĮĪáĪįáĮį áĪİ
ĠáĬ£áĭĿ áĭ©
ĠBulg arian
áĪĽ áĪĪáĬķ
ĠáĮ¥áĪĿ áīĢáīµ
Ġd ome
Ġáī° áĪ½áĬ¨áĪŃáĬ«áĪª
au t
197 8
bas is
vl ieg
etail s
W et
Ġáĭįáĭµ áī¥
program me
áĮ¥ áīł
áĪĪ áī³áĪį
áĬłáĭ² áĪ²
ĠC ommun
M al
ĠH ungarian
ĠáĭĿ áĪ¨
v ee
Ġw a
Ġson n
Ges ondheid
Ġin gebou
re ik
ar es
Ġbev el
ĠáĪĮ áĪĬáīµ
Ġkr ap
Ġlief hÃª
ge keur
Ġreis e
ĠHoe veel
Ġbreed te
urs usse
oo ide
ĠáĪĺáĪĿ áĮ£áī±
Ġà¤ ®à¤°
Ġleef tyd
ĠW elsh
ĠáīłáĬł áĪĽáĪŃáĬĽ
te k
b all
ĠáĬ¥ áĬ³
ĠS n
áĬł áĭ«
áĪ°áĪĽ áĭį
Ġ à°¤
Ġon line
ĠáĪĵ áĬķáī²
ĠáĬ¥áĬķáī° áĬ¾áĬĲ
áĮłáĪ« áĭį
ĠáīłáĬ¥ áĬĶ
ĠáĮĢ áĪĺáĪŃ
ik et
Ġáīłáī³ áĪªáĬŃ
ĠáĪħáĭĿ áī¡
áĬĿ áĬķ
ĠáĬłáĭŃáĮĪáī£ áĪĿ
Ġin c
ĠáĪĺ áĮĪáĭ°
áĭĪ áĭŃ
áĭ³ áĭĭ
ĠáĮ¸ áĮ¥áī³
ĠáĭĿ áĭĪ
Ġáī°áįĪ áĮ»áĪļ
áĪ¶ áĬķ
he g
áĭį áĭ°
ĠáĪĺáĪĿ áĮ£áīµ
ON D
ĠNor wegian
Ġmis s
ĠEst onian
ĠáĬłáīħáĪ«áī¢ áĭİáī½
ĠD U
Ġkennis gewing
ĠC ebuano
te erde
Ġin kom
ĠáĬł áĮĪáĬĵ
em el
Ġáīħ áĭ³áĪľ
áĮĵ áĭµ
ĠOnder wys
dent ifiseer
er w
Ġwe te
áĮ£ áĮ£
og ing
Ġhand vat
Ġkon ink
Ġspes ies
B ahasa
áĪ³ áĪ³
ins dag
Ġrele van
if t
spel er
Ġaanbevel ings
B C
oe we
ĠáĬłáīħáĪŃ áī¦
Ġpark eer
P ers
áĪ¨ áĬĵáĪį
Ġkomp etisie
Ġgely s
v rae
Ġonafhank lik
áī¥ áĪħ
ĠB ol
ĠChich ewa
k al
Ġw ringkrag
ĠáĬłáīł áĭį
ĠáĬłáĭ« áĪĮ
áĮłáĬķáīĢ áīĤáĭ«
áĪ¨ áĭ°
ĠM ah
ĠSam oan
ĠáĭĪáĪĭ áĮĨáī½
B N
ĠáĭŃ áĮłáīł
one y
Ġáī° áĬ¸
Ġr ub
P a
Ġáī½áĮį áĪ®áī½áĬķ
áĪ½ áī³
ĠáĬ« áĪµ
orm ing
Ð ľ
Ġáīł áĬ¦áĪ®áĪļáĭ«
ĠáĬ£ áī°áĪĵ
áĪĭ áĪĪáĪĿ
ĠáĪĿ áĪĿáĪķ
Ġh ad
ĠáīłáĮ¥ áĪ©
36 0
áĭµ áĪµáīµ
ĠA us
áĭĿ áĭ«
3 000
P lease
Ġáĭ« áĬĶ
G een
Ġmor s
ĠBe halwe
ĠVer duidelik
ikk eld
Ġg ister
ĠáĭĪáĮ¥ áī¶
Ġonder gaan
Ġkrag te
sk aal
Ġbesit tings
Ġsodan ig
Amerik a
ĠVerk oop
d uim
áĮį áĬĲáīµ
Ġwaarsku wing
esa ja
ĠáĮ¥áĬķ áīĥáīĦ
ĠáĪ°áĮ¥ áī·áĪį
Ġekonom ie
ĠKur dish
ĠIr ish
Ġsit kamer
Ġinsk rywing
Ġfund amente
d oel
ĠB enewens
Ġheer lik
ĠItal iaanse
g od
ĠáĬ¥áĭ¨ áĪĨáĬĲ
Ġdek king
Ġelektr isiteit
Ġgeass osieer
Ġger aas
Ġvand aan
ou gh
Ġkrit iek
Y our
ag ent
ĠáĪĺáĪĪ áĭĭáĭĪ
Ġw est
ĠE dit
ĠáĬłáĭį áĭ°
áĭ« áĪĭáĬķ
S it
Ġáī³áĭį áīĭáĪį
cc ess
ĠáĬł áĪ¨áĬķáĮĵáĭ´
ĠáīłáĪĺ áĪĪ
Ġk un
ĠáĬ¨ áĪ°áĭį
Ġin to
Ġáĭĺ áī°
áĪĪáĪĿ áĪ³áĪĮ
atori um
Ġáĭ° áĭį
ĠáĬł áĭİáĬķ
Ġáĭ¨áĪļ áĪĺáĮ£
iss inia
Ġáĭ¨áīłáĪĭáĭŃ áĬĲáīµ
ĠáĬłáĬķ áĭ´
Pr int
ĠPol itic
l is
Ġh orm
ĠáĬ£ áĬĲ
ĠáĬª áĬĲ
ĠPers ian
áīł áĪĮáĪĭ
Ġant i
áĪĽ áī¸áĭįáĬķ
ĠB ab
ĠáīłáĪĺ áĪĺ
áĬŃáĪŃ áĪµáīµ
ĠáĬłáĭµáĪŃ áĮĪáĭĭáĪį
bl are
ĠB ou
k ol
ĠMy anmar
Ġáĭ® áĪ´áįį
áįķáĪĭ áĪµáī²áĬŃ
ĠB ed
ĠCatal an
Ġm iddels
Ġbegin ner
Ġsk ottel
Voor beelde
ĠáĪµáĪĿáĪĿ áĭķ
Ġgek l
Ġhal we
Ġgerief lik
Ġafgele i
add issinia
áĬłáĭ²áĪ² áĬķáĭ«
addissinia hotel
H oof
Ġgev at
áĪµáī° áĭ³áĭ³áĪª
br iewe
Ġaan genaam
Ġweg gooi
Ġáĭ¨áĪĨáĬĳ áīµáĬķ
Ġpak ket
Ġouder d
vere istes
Ġvl oek
weg ings
ert ifik
áįģ áĪĿ
Ġáĭķ áĭ³
Ġgenes ing
Ġreg istr
Ġkr ist
Ġmas ker
áīł áĪ«áī¸áĭį
Ġunders tand
ĠP et
199 1
ĠáĪĿáĭµ áī¥
Ġáĭ¨áĪµ áĪŃ
reg ister
Ġmin i
ĠáĪħáĭĿáī¥ áĬĵ
Ġáĭ¨áī° áī£áĪī
áĪª áĬķáĮį
stu die
áĭĪáĪµ áĭ±
ĠáĪĢáĮĪ áĪ®áī½
ĠDam tew
áĬŃ áįī
áĭĺ áĭĺ
Ġáī° áĪĽ
ĠáĪĿáĬ¥áĬķ áī²
ĠCol umb
ĠD er
ĠáĬ£ áīµ
bl og
ĠáĪĽáĭį áĮ£áīµ
ĠáĪĺáī³ áĪ°áī¢áĭ«
ĠáĪµáĪį áīµ
áī¥ áī¥
196 1
Ġle en
Ġáī¥áĪį áĮ½áĮįáĬĵ
ĠáĪĻáĪµáĪĬ áĪŀáī½
ĠR am
Ġo wn
Ġbykom stighede
áĮ¡ áĬĵ
áĪķ áįį
ĠáĬłáĪµáī³áĭį áīĢáĭĭáĪį
áĪŀ áī±
ĠSj ina
Ġáī° áĪĭ
ĠáĬ¥áĬķáĭ³áĪį áĪĨáĬĲ
oort s
v ou
ro leer
oll o
ĠáĮ´ áĮ¥áĪ®áĪµ
Ġver pak
Ġst owwe
m aar
ite e
ĠB id
ĠL iefde
Ġvier de
Ġgesprek ke
w inkels
Ġuitvoer ing
áĮĪáĪĪáĮ¸ áĭį
uks es
st op
Ġaansien like
Ġgede fin
Ġver welkom
Ġbe oefen
ĠgeÃ¯n spireer
kre diet
i i
ĠbeÃ¯n druk
Ġontle ed
Ġn oorde
Ġwet tig
Ġontle ding
Ġvy ande
ĠáĬłáĭ° áĪ®áī½
Ġbeg raf
h ad
áĪĪ áīĥ
ER S
ĠGeorg ian
en ario
Ġr ing
ĠáĪĺáĭį áĮ£áīµ
áĪĪ áīł
ĠC our
er ke
áĬĲ áīĥ
áī³ áĪĪáī½
ĠáĬ¨ áĭ°
our ce
ard s
ĠG o
ĠØ§ÙĦ Ø¹Ø±Ø¨ÙĬØ©
ĠáīµáĬ¥ áĭĽáĭĿ
sk y
áĪĺáĬķáĮį áĪµáī²
Ġáĭ¨áĮĪ áīłáĭ«
Ġsex y
ĠáĭĿ áīłáĪĪ
Ġc om
str aat
ĠáĬ ĺ
ĠáīłáĬĭáĪĭ áĪĿ
áįİ áĬ«
F ran
Ġáĭķ áĪĪ
ĠBeng ali
ĠE f
ĠD av
Ġáįī áĬŃáĬŃáĪŃ
U TC
ĠáĬĲ áī£áĪŃ
spr ing
ĠáĪĽáĬħ áīłáĪŃ
ĠáĪļáĪį áĭ®áĬķ
af fer
ĠáĬ® áĪĿ
Ġker ke
ĠáĪĵ áĪ³áī¥
ors ing
áī£áĪĪ áįĪáĭį
ĠJ ames
ĠáĪĪáĪĺ áĪĨáĬĳ
Ġáĭ¨ áĪł
áĮ¨ áĪĺáĪŃ
Ġáīł áĪ´áī¶áī½
Ġprofe et
Ġh aak
el ose
Ġt aam
Ġf isies
Ġáīłáī° áĪ»áĪĪ
Om dat
Ġhe id
ĠáīĢ áĭ³áĪļ
By voorbeeld
ĠD alk
web werwe
Ġuit trek
Ġáīłáīģ áĮ¥áĮ¥áĪŃ
Ġáī°áĭ«áĭŃ áĭŀ
ĠCro atian
, .
at roon
Ġaantrek like
áĮĭ áī¥áī»
Ġform ele
wer per
Ġvertr aag
ĠSwe de
ĠáĪĪ áī³
Ġond anks
Ġgelyk tydig
196 8
Ġom st
Ġsterk te
ry n
Ġbed reig
Ġkom plim
ĠáīħáĪŃ áĬķáĮ«
Ġplatform s
ĠIc elandic
Ġ %
ĠS to
ĠáĮĪ áĭ¢
V D
ĠáĪĿáĪµ áĪį
1 10
Ġáī£áĪį áī°
áĭ«áĬķ áĬķ
Ġ à´®à´²à´¯
áĭįáĬĲ áī°áĬĽ
ĠáĬ Ľ
ĠáĪĺ áĪĦáĭµ
ĠáĪĺ áĬĵáĮĪáĪŃ
ĠK ir
ĠáĬŃáĪį áĪĭáĭĬ
ĠáĬł áįĪáĪŃ
áĭ° áĪªáĭ«
áĪ¯ áĭĬ
ĠáīĨ áĬķ
ou der
Ġáĭį áīłáīµ
áĮĪáī£ áī¸áĭį
Ġáĭ« áĪĿ
it ut
ĠáĬ¥áĬķáĭ³ áĪīáīµ
K ontak
Ġáĭ¨ áĪĪáĭįáĮ¥
ĠáĬ£ áī¶
Ġk etting
ĠáĮłáĪĭ áī¶áī½
m ate
áĪĪ áĭ©
Ġf ooi
Ġinfek sie
áīĨ áĭŃ
Ġdek sel
n es
off el
Ġwaarskyn likheid
f a
) ?
G oed
qu al
Ġhoof kar
Ġdekor atiewe
Ġdan ke
áĬ¨áĪĪ áĬĽáĭį
ustr asie
Chr ist
a ander
Ġd ooie
Ġs ilik
ge deel
Ġverseker ing
Ġvan weÃ«
Ġsp ek
Ġske ur
Ġvolmaak te
op pie
Ġvan self
ĠáĪ¨ áĭµ
Ġbetrou baar
ĠGe orge
Ġáī° áī°
ĠáĮŃ áĬķáīħ
h asa
ĠáĬ¨ áįĭ
ĠáĬķ áī£áī¥
Ġáĭ¨áĬ¥áĬķ áĮ¨áīµ
ĠáīĨ áĭŃáī³
erv ed
áĬĸ áī¹
áĮ½ áĬĵ
ĠáĪĺáĮį áĭĽáīµ
áĬķ áĮī
Ġtw o
âĢĿ áį£
áĬĸ áĪªáĭ«
ĠáĪĻ áĭļáīĥ
ĠTel ugu
áĪ¸ áĮĬáĭ«
Ġáī± áĪªáĭĿáĪĿ
áĭ« áĭ«
Ġs int
ĠáīģáĪ³áīģ áĪ¶áī½
Ġáĭ°áĪ¨ áĪ°
w ol
k os
ĠáīłáĮ¥ áīĤáīµ
ĠáĪĵáĭµ áĪ½
ĠUk rainian
áĭ³ áĪµ
Ġdi al
ĠáĪ°áĪĭ áĪĿáĬķ
ĠáĪĺ áĮ¸
ĠS ec
ĠBosn ian
Ġáĭ¨ áĬ¦áĪ®áĪļáĭ«
Ġáīł áĪĨ
ĠOl der
áįĪ áī³áīµ
áīłáī°áĮ¨áĪĽáĪª áĪĿ
áĪĿ áĪ¯áĪį
Ġáī³ áĭ°áĪ°
ĠáĪ°áĪ« áī°áĬĽ
Ġe vol
se e
áĪĭáĪĪ áĪħ
áĬ« áĭį
ĠL ithuanian
áĬŃ áĪ¬
áĮĭ áįĭ
Ġ àº
áĭ« áīµáĬķ
Ñ ı
Ġverk ope
ĠÐ £ÐºÑĢÐ°ÑĹÐ½ÑģÑĮÐºÐ°
áĭĿ áī¡
ĠGe volg
ĠáĪĥ áī¥áīµ
ĠáĭµáĬķ áī½
Ġáī£áĪĪ áįĪ
Ġgedr aai
áĬķ áĭ´
Ġáīł áįĢ
qu es
Ġsu ide
ĠR yk
Ġmis daad
fr onteer
Ġa toom
ĠR ooi
gew ord
akt iewe
Ġklein ste
Ġvertr oud
ĠEngel and
Ġoplos sings
ske iding
Ġg oedere
Ġlied jies
ĠLat vian
ĠSloven ian
Ġvir tuele
Ġsl uk
Ġwaarde volle
Ġkre atiwiteit
u iers
áĭ°áĭį áĪī
ĠOr thodox
Ġáī°áĭ°áĪŃ áĮĵáĪį
áīµ áĪĺáīµ
áĪ¨ áĪ»
ĠáĪĥ áĪĭáįĬ
er ige
Ġma de
ĠNep ali
Jul y
P ort
ĠGu jarati
Ġsub t
áĬ¨áįĭ áįĪáĪį
áīĢ áĭįáĬķ
Ġáī¥ áĭµ
ĠáĭĪáĪŃ áĪĴ
ĠáĪĪáĬ¥ áĭ«áĬķáĭ³áĬķáĭ±
áĭĪáĪ° áĭ±
ĠSer bian
áĪĺ áĬķáĮįáĪ¥áīµ
198 3
Ġáī° áĬ¨áĪĭ
áīĢ áī±
a o
ĠJ ava
áĪĪ áįī
st ud
Ġáī¥ áĪķ
ĠáĪĺáĭĿ áĪĻáĪŃ
ĠáĪĢáĮĪ áĪ«áĭĬ
ĠáĪĺáĭĿ áĬĵáĬĽ
ĠLa o
ĠMar athi
áĪ« áĪĿ
áĬ¥ áĭŃ
áī£ áī£áĪª
ĠáĬ¥áĭ¨áī° áĬ«áĪĦáĭ°
ĠáĪĪ áĬ¢
áĪµáī° áĬķ
áĭĬ áī°áĪŃ
ĠáĪ°áĮ¥ áī¶
le te
ĠS ara
áĬĵáī¸áĭį áĪĿ
ĠJ ulle
Ġmaal tyd
Ġgewoon te
Ã¯ en
Ġgeweld ige
Ġáī°áįĪ áĬĵ
Ġkl iek
ĠáĬł áī¥áĪŃáĪĥ
ĠI emand
Ġharm onie
Ġiet wat
gev oel
merk ing
ĠSw art
sk amer
Ġmag te
Ġbek yk
Ġindivid ue
Pro beer
ĠMac edonian
W erk
£ áĥļáĥĺ
Ġaan leiding
ĠW ay
Ġtyd stip
r aaf
áĭĵ áī±
Ġbl ydskap
Ġkn ieÃ«
Ġáĭ¨ áĭ¶
Ġáĭ¨áĪļ áĬĸáĪŃ
ĠYor uba
O T
ĠáīłáĬł áī¥áĭĽáĬĽáĭį
Ġst amp
O ur
áĭĭ áī³áĭį
Ġáīłáī° áĪĪáĭ¨
ĠáĬ¤ áĪµ
ĠáĪĺáĪµ áĪŃáĪķ
ES S
Ġsupp ort
Ġh am
ĠáĬł áīĨáĮ£áĮłáĪŃ
Ġáĭľ áĪĽ
áĬ¨áĬĵáĭĪ áĬĲ
ĠáīłáĪĿáĪŃ áĪĿáĪŃ
ĠJa vanese
áĪĬ áĪĿáįĴ
D U
Ġfor ces
196 6
ĠKh mer
ash to
áĮİ áĪµ
Ġne ver
oc ument
esta bl
ic tor
ĠHa itian
Ġj al
ĠM ont
áī³ áĪª
st ro
ĠP unjabi
ĠKann ada
ĠáĪĺáī¥ áĪ«áīµ
áĬ¥ áī£áĬŃ
th ers
ĠáīłáĬł áĪį
Ġáĭ¨áī°áī£ áīłáĪ©áīµ
ĠáīĢ áĮłáĪĪ
ĠÐ ¡ÑĢÐ¿ÑģÐºÐ¸
O l
Ġáīµ áī¥áī¥áĪŃ
Ġl Ãł
ĠáĮį áĮ¥
ĠáĪĺ áīĭáīĭáĪĿ
ĠP ack
ĠK yrgyz
ĠáĭĪáī³áĭ° áĪ®áī½
artik el
áī´ áĭİáĪµ
Ġv ore
Ġor dent
rag tige
ĠáĬ¦ áĬĲáĮį
Ġongel owige
Ġjour nal
Ġh ok
Ġb odem
AN D
voed ing
Ġbedien ing
gere ik
ĠáĪ Ķ
Ġoor win
Ġmaklik ste
ĠAfr ican
Ġgroot geword
Ġh oed
Ġáĭ¨áī° áĪĪáĭ«áĭ¨
Ġsak ke
gro en
teken inge
dig te
Ġaddis ionele
Ġged uldig
Ġwas goed
Ġverh oor
Ġontsp anne
Ġw ense
b ers
voer der
ê ¦
Ġc urrent
mak ing
ĠMalay alam
ĠáĪµ áĪŀáī½
ĠáĮĢ áĮįáĬĵ
ĠáĬŃáĪŃáĪµáī²áĭ« áĬĵáīµ
ĠáĬŃáĪŃáĪµáī²áĭ«áĬķ áĬķ
ter dam
ĠáĭŃ áĮİáī¥
ĠáīłáĪĺ áĪŃ
Ġáīµ áĪķáī²
7 00
ĠáĭŃ áĪĺáĮ£áĪį
ĠAlban ian
M EN
ĠT ajik
áī¥ áĭ«
Ġáĭ«áĪ¨áĮĭáĮį áĮ¡
ĠT om
áĬ¥ áĭ¨
áī¿ áĬķ
áĮłáīħ áĪĭáĪĭ
ĠSh ow
ĠáĪĿ áĪ¨áīĥ
áĬ¨ áįĪáĪĪ
áĬĳ áĭŃ
ĠáĮ¥ áĭķáĬĵ
áĭĪ áĪĵ
ĠáĪĵ áĭ°áĮĭ
ĠW eg
Ġ ul
Ġáĭ¨áī°áĮ» áįĪ
áĪµáī° áĭĭáĪį
bes onderhede
Ðµ Ð½
ĠRep orter
ĠN IE
ĠP ashto
ĠW as
áīĨ áĭŃáī³
ĠáĭŃáĪ°áĮ£ áĪī
ĠáĭĿ áĮĪ
áĬķáĭµ áĬķ
f t
ĠáĭĪáĭ° áĪļ
Ġwh ere
Ġáĭ°áĬ« áĪĽ
Ġaan gestel
Voor beeld
Ġl amp
Ġweek likse
L eer
Ġn Ã³
Ġr ande
Ġged ien
Ġsnaak s
Ġvoorbere id
versk affer
oens dag
ĠD ieselfde
Ġsk oen
Ġgev orderde
Ġboon op
iers ware
Ġver tik
áĪ½ áĪĿ
ĠáīłáĪ« áĪ³áī¸áĭį
áĪ¨ áĮł
Ġg reat
ĠGal ician
ĠMongol ian
Ġáĭ¨áĬķ áī£áī¥
ĠBas que
4 50
ĠS indhi
H ero
ĠY iddish
áĪĺ áĪ¨áī¥
ĠCh ange
Ġhum or
ĠScott ish
we en
ĠFris ian
Ġáī° áĪ°áĪĽ
ĠSin hala
áīł áĪĿ
ĠLuxemb ourgish
áĪĥ áĪĪáĪģ
Ġoppervlak te
Ġáī°áĭĪáĪĭ áĮĨáī½
vers org
Ġáĭ¨áĪļáĬ¨áī° áĪīáīµáĬķ
L E
Ġ establ
Ġgese Ã«n
Ġáĭ¨ áĭµáĬķ
áĮ«áĭĪ áī±
c ent
or tel
Ġweer k
à® ¤
Ġáī¥áĪŃáĪĥ áĬĳ
ĠáĬŃáīµ áīµáĪį
Ġde v
p ool
Ġaf slag
et a
ĠáĪĨáī´ áĪİáī½
Ġregver dige
ende el
áĭ® áĬĸáī½
Ġy wer
Ġversk oning
áįĪ áī±
Ġbr aa
Ġingew ikkeld
Amerik aanse
ĠAustral iÃ«
Ġoord ra
gemeen skap
Ġge tal
áĪ¨áĮĥ áĭį
Ġverb intenis
Ġles se
Ġgeme et
Ġáī£áĪĪáĪµ áĪįáĮ£áĬĵáīµ
hoog te
Ġdig ters
ĠGed urende
Ġregst reekse
G enesis
Ġl enings
Ġaf lewer
Ġgef okus
i oene
ĠM icrosoft
ĠMiddele euse
Ann ounc
Ġáĭ« áĪĺáĪĪáĬŃ
áĭİáī½ áĪĿ
ĠáĮĥ áĬŃ
t ies
Ġswaar te
áĬ¨ áįĪáĪį
ĠáĬ£ áĬ«áĪį
ĠáĬłáĮĭ áĪŃáĬĲáīµ
Ġáĭ¨áī° áĪ»
ĠáĪ¦ áĪµáī°áĬĽ
ĠRom Ã¢nÄĥ
áĪĿ áĪĪ
ĠX NUMX
Ġáĭ¨áī° áīĭáīĭ
Ġáįį áĪīáĭŃ
áĪ¸ áĬĵáįĬ
ĠR eis
ĠáĬ¨áĪĺ áĭŃ
ĠáĪĽáĪµáī° áĪĽáĪŃ
An d
áĭ°áĬķ áīł
áĮł áįī
ĠáīĢ áĪį
ĠCol umn
oc al
áĬł áĪĽáĪŃáĬĽ
ĠáĪ°áĪĽ áĭ«áĭĬ
áīł áĮĢáīµ
Ġáĭ«áĮĪáĬĽ áĪī
c i
ĠáĪĺ áĪĻáĪĭáīµ
iv en
ĠáĬ¥áĭ« áĪ³
ĠáĬ¥ áī£
à¸ Ń
ĠáĪĺ áĭ°áĪ¨áĮī
áĭķáĪĪ áī³áīµ
n r
ĠáĭŃ áīĢáĬķ
ĠIn form
Ġáĭ¨ áĬŃáĪįáĪį
ĠOpin ions
Ġáĭ¨ áĪĪáĬķ
ĠáĭŃ áĪį
C opyright
áĬķ áĬ©
áĪĽ áĪĽáīµ
ĠáĬ¨ áĪ«
mper atuur
Ġáĭ« áĪĪáĪĿ
Ġtroetel diere
Ġvolwass ene
Ġv elde
ĠBin ne
Ġtoege ken
áīł áīĢ
Ġhand leiding
Ġarbe id
Ġle wen
ĠáĪįáĭĳ áĪį
Ġáĭ« áĬĲáĮĭ
Ġvas gestel
Ġvergoed ing
r oepe
st asie
Ġáĭ«áĪµ áĬ¨áīµ
áĭ¬ áĪ¶
Ġsok ker
Ġp sig
Ġkan aal
Ġar ound
Ġbestuur ders
Ġbel igting
áīĦ áīµ
kr uid
f iets
ĠáĭľáĬĵ áĭĬ
ĠáĭŃáĬĸ áĪ«áĪį
Ġstruik el
áĮĵ áĪľ
Ġv it
ĠáĪĺ áĪĽáĪŃ
l ug
Ġáīł áĭĿáĪŃáĭĿáĪŃ
Ġst im
ĠáĪĺáĬķáĮįáĪ¥ áī±
ĠáīĨ áĪ»áĪ»
h el
áĪĿáĬķ áī±
ĠáĪī áĪ²
w p
ĠáĪµ áĪĪáĪĿ
áĬŃ áĪĭáĪį
áĮİ áīµ
ĠáĬ¨áĪĿ áĪŃ
Ġáĭ¨ áĭµáĪĿ
áĭįáĬķ áĬĵ
ĠáĬ¢ áĬ»
Ġak w
ĠPa x
Į eÅ¡tina
ne w
ĠáĪ¨ áī¥
áį²áį ±
B ek
áĪ³áĭŃ áĭµ
Ġáī¥ áĭĺ
C o
Ġbel ow
ĠáĪĽ áĮ½
Ġh igh
áĮĪáĪ« áĪļ
áī¡ áī²
os ie
ĠáĪĪáĪļ áĮĪáĬĻ
áī³ áī±
ĠáĪĺáĭµáĬĥ áĬĴáīµ
Comm ent
Ġáĭ¨áīł áĮİ
Ġáīłáĭ° áĪħáĬĵ
áĭķ áĪĿáĪ®
ĠÐľ Ð°ÐºÐµÐ´Ð¾Ð½ÑģÐºÐ¸
l ied
Ġb all
ĠáĭĵáĪĿ áĭ¶áī½
áĪģ áĭ³
Ġáīµáĭķ áĮį
Ġpredik ant
Ġonder teken
áī£ áīłáĪ©áīµ
ĠD ec
ĠáīłáĮ¥ áī¥áīħ
E x
Ġop gev
Ġman us
Ġskoon gemaak
áĪ½ áĬĵáĪį
Ġtw aalf
el ie
Ġver pleeg
Ġred ding
Ġdek ades
ĠGriek eland
ĠáĭŃáĬĵ áĮĪáĪ«áĪī
ĠHom self
se aan
ĠW ys
Ġgek leur
Ġres ensie
Ġverby gaan
Ġgoed gekeur
Ġuit kyk
Ġgehe g
Ġspy skaart
Ġáĭį áĪİáī½
áĪĻ áĬ¤áĪį
Ġsold ate
Ġkr aam
ĠáĪĺáĬĵ áįį
áĪĢ áī¥
A pr
ĠáĪµ áĭ°áīµ
áĪį áĪĿáĬĵ
M od
ĠáĭŃ áīĢáīł
ĠáĪ² áĬķ
ĠáīłáĬ¥ áĪŃáĪ±
ibr et
áĮĪáī¥ áĪ®
ĠáĭĵáĪĪáĪĿ áĬķ
R el
ĠáĪĺáĪįáĬ¥ áĬŃ
Ġh a
Ġáīµ áĭĿ
áĮŃ áīłáĪŃ
áī£ áĪ«áĭĬ
áĪ½ áĬĸáī½
áįĪ áĪŃáīµ
ĠSloven Å¡Äįina
Ġáīłáī¥ áĭĽáīµ
áĬ¤ áĪĭáĭįáĭ«áĬķ
Ġáīł áĪ©
ĠáĪĺáĪµ áĮł
Ġáĭ¨áīħ áĭ±áĪµ
st o
ĠáĪħáĪį áĭįáĬĵ
C R
sp re
Ġáī´áĬŃáĬĸáĪİáĮĤ áĬķ
Ġk ab
ĠáĬłáĪŃ áī£
ĠáĬłáĭŃáĪĺáĪµ áĪĪáĬĿáĪĿ
j ec
ĠáĪ° áĪŀáĬĳáĬķ
Ġtrans aksies
Ġit al
Ġr app
Ġáĭ¨áĭį áīłáīµ
ĠáĮŃ áī¥
Ġk oors
ĠÃ įslenska
Ġáĭ¨áĪķ áĭŃáĭĪáīµ
áĭĺáĪŃ áĪĭáĬķáĭµ
ĠáĪµáĪĪ áĪĽáĭŃ
ĠáĭŃáĭĺ áī±áĬķ
Ġrug by
ĠáĬłáĪµáī°áĭ«áĭ¨ áī¶áī½
h ond
est asies
áĪĺáĪ« áĪŃ
Ġbe kom
Ġbel oon
pl ank
Ġstel ling
ĠáĮ½ áĪģ
áĭĽ áĪª
sie k
Ġgoed keur
Ġáī£áĪķ áĪª
Ġt á»
Ġl er
áīħ áĪį
Ġkw essies
ĠWe et
k ondig
Ġont pl
ĠSp aanse
vers lag
Ġk roon
ĠG em
Ġbeur sie
iram ide
Daar om
ĠáĬłáĮĪ áĪĭáĪĪ
áĬķ áĪ³áĭĬ
Ġáįį áĮ»áĪľ
ĠMer we
ĠBreyten bach
ĠJ oe
ĠBos anski
ĠiP od
Ġáī° áī½
. '
áī° áĭŃ
ĠáĪĭ áĬŃ
áĬ® áīªáĭµ
áįĪ áįĢáĪĿ
ĠáĪĪáĪĺ áīĨáĮ£áĮłáĪŃ
áĪ£ áĪ¥
ĠC ons
Ġáĭ¨áĬ¥ áĬĲáĭļáĪħ
ios ity
áĮĪ áīłáĭį
Ġáĭ¨áĪĺ áĭµ
Ġcomment ing
Ġáĭĺ áĭĪáīµáĪŃ
ĠFr anc
Ġáĭ¨áįĪ áĪ¨áĬķ
ra v
Ġw ond
Ġáī¥ áīĲ
ĠáĭĿ áĪĿáĭµáĬĵ
A P
áįĪ áīĢáĭµ
ĠCors ican
I ON
áĮ ¼
im edia
ĠAz ÉĻrbaycan
d y
Ġ à¸
ĠPro gram
am pe
y ker
ĠáĪĺáĪ° áĪĭáīµ
Ġáĭ«áĪĪ áī½
Ġáĭĵ áĪĪáĪĽ
áĭĵ áĪĺáīµ
ĠáĪį áĭįáĭį
Ġm l
áĭµ áĭµáĪ©
áĮĪ áįĭ
ĠáĪµáĪĽ áĪŃáīµ
Ġd id
Ġáĭ© áĬĵáĭŃáīµáĭµ
ĠáĭĺáĭŃ áī°
R T
áĭ° áĪī
ĠJ ud
áĭĪáĪ° áĭµ
ĠáĬłáĪµáī° áĭ³áĭ³áĪª
ĠO ne
198 4
ĠKaz akh
Ġáī°áĬķáīĢáĪ³ áīĥáĪ½
Ġapp el
ĠáĬłáĪī áī³áĭĬ
r et
ess age
áįĶ áĬķ
ĠE uskara
ĠáĪ°áĭĵ áī¶áī½
Ġáĭ«áĪĪ áī£áī¸áĭį
ver houding
ĠáĪķ áĬķáįĥ
ĠáĪĽáĪµáī° áĭĭ
áĪĽ áĪªáĭ«
áĪĥáĭ° áĪ«áĭĬ
Ġste wige
ĠáīµáĪŃ áįį
Ġkinder jare
W Ãªreld
ï ¸
kom e
lem oen
00 380
Ġken ners
aa stens
Ġáĭ¨ áī»áĭŃáĬĵ
Ġkont ras
n ov
Ġemos ioneel
Ġopwind ende
K l
n uus
ing uis
haus en
Ġs melt
Ġon vol
Ġfiks heid
Ġweer gawes
Ġáī°áĮĪáī¢ áĭįáĬķ
Ġ ÒļÐ°Ð·Ð°ÒĽ
vat ting
ĠáīłáĪķ áĭĿáī¥
áĬ¤ áĪįáĬķ
ĠáĭŃ áī¥áĪį
ba le
Ġd re
áĭ® áī¹
ĠáĬ¥áĬĵ áĭį
196 9
áĭĵ áĪĺáī±
Ġact iv
ĠH ee
f orex
ĠCur iosity
Ġáĭ° áīĢ
Ä ģ
áĮįáĪ« áĬĿ
Ġáĭ¨áĬ¥ áĮħ
ĠOr gan
áĪĥ áĭŃ
j y
Ġl ook
áĮ ķ
pr ene
ĠáĬ¤ áĪĿáī£áĪ²
c m
Ġáī¥ áĬĵáĭŃ
e z
ge es
ĠB ank
ĠáĪĭ áĪį
Ġáīł áĭĿ
ĠD IE
ur y
b i
ĠáĬłáĪĽáĬ« áĭŃáĬĲáīµ
mp el
ĠáĬ¨áĪĽ áĪµ
ĠáĮłáī£ áīĤ
it us
geb oorte
Ġdood gemaak
ĠB yna
ĠáĪĺáĪµ áĪªáĭ«
kl im
Ġbloot stelling
V ra
Ġself vertroue
Ġáĭ©áĬĴáī¨áĪŃáĪ²áī² áĭį
ĠáĬłáĪµáĬªáĭ« áĮħ
ĠáĪ° áĪĭáĪĽ
tyd s
Ġkw art
Ġgest oor
Ġstand punt
Ġeffek te
ĠáĭŃáĮłáīł áīĥáĪį
Ġfr ase
Ġlaas genoemde
t uis
Ġd reig
Ġpr ente
ĠáīłáĪļ áĮĪáĬĺáĭį
Ġbeweg ende
Ġex per
m oord
st ok
Ġbl aaier
Ġlig ter
ĠáĬłáīħáĪŃ áīłáĭĭáĪį
j oernal
Ġber oemde
Ġhoris ont
Ġdw ars
Ġroep ing
ĠáįįáĮ¡ áĪŃ
oug ht
ĠSa int
Ġpro cess
áįĢ áĬķ
áįĪáĪĪ áĮĪáĭį
ĠC ovid
te st
ach ing
U N
ĠáĬ¥áĭ« áĭ°áĪ¨áĮĪ
áĭ« áĭ«áĭĻ
ĠE mail
an al
ĠL ee
12 3
Ġdes ign
ĠSund anese
Ġn ak
ĠáĭĪáĬķ áĮĮ
ĠáĪĬ áĬĸáĪŃ
198 2
ĠáĬłáĪµáī°áĭĭ áįħ
Ġk olle
ar l
ĠáĪĻ áĪµáĬĵ
Ġap pl
ĠáĪµáĬ¬ áī³áĪĽ
le ar
áī¥ áĬĲáīµ
S am
ĠO d
yn s
ĠáĮ© áĬ¸
ĠáĬ« áĪīáīµ
áĮİ áĪĿ
com e
áĭŃ áĬĸáĪĿ
ĠAnt i
Ġg aar
ĠSoc iety
Ġe as
ĠáĪĺ áĮ«áĭĪáīµ
Ġáīł áĬ¨áī°áĪĽ
ï¸ ı
f amilie
áĪĭáĪĪ áįĬáĭ«
áį¤ âĢľ
áĬŃáī° áĪ©
ĠC enter
Ġm uis
3 50
ĠáĬł áĬ¨
ĠáĪĺ áĭĪ
ĠáĭĺáĪĪ áĬĵ
Ġinter esseer
onder dag
Ġopmerk ing
Ġvryw illig
Ġuit gereik
ĠPax ful
e ien
Ġbe mar
ĠVer los
lyn skaats
mat ic
Ġorgan iseer
Ġáĭ¨áĬ¤ áĪŃáīµáĪ«
w ork
en eer
Ġe wer
Ġáī£ áĭ¶
t ussen
er jare
Ġb ier
Ġp ienk
lek tuele
Ġvriend skap
Ġverval datum
I Q
Ġnet jies
K uns
Ġsuur stof
en king
rok ken
Ġmotor huis
Ġbef ore
ĠáĪĽáĭķ áĬ¨áĪĭáĭĬ
áĪ¨ áĮ«
Ġpost s
Ð°Ð°Ð°Ð°Ð°Ð°Ð°Ð°Ð°Ð°Ð°Ð°Ð°Ð°Ð°Ð°Ð°Ð°Ð°Ð°Ð°Ð°Ð°Ð°Ð°Ð°Ð°Ð°Ð°Ð°Ð°Ð°Ð°Ð°Ð°Ð°Ð°Ð°Ð°Ð°Ð°Ð°Ð°Ð°Ð°Ð°Ð°Ð°Ð°Ð°Ð°Ð°Ð°Ð°Ð°Ð°Ð°Ð°Ð°Ð°Ð°Ð°Ð°Ð°Ð°Ð°Ð°Ð°Ð°Ð°Ð°Ð°Ð°Ð°Ð°Ð°Ð°Ð°Ð°Ð°Ð°Ð°Ð°Ð°Ð°Ð°Ð°Ð°Ð°Ð°Ð°Ð°Ð°Ð°Ð°Ð°Ð°Ð°Ð°Ð°Ð°Ð°Ð°Ð°Ð°Ð°Ð°Ð°Ð°Ð°Ð°Ð°Ð°Ð°Ð°Ð°Ð°Ð°Ð°Ð°Ð°Ð°Ð°Ð°Ð°Ð°Ð°Ð°Ð°Ð°Ð°Ð°Ð°Ð°Ð°Ð°Ð°Ð°Ð°Ð°Ð°Ð°Ð°Ð°Ð°Ð°Ð°Ð°Ð°Ð°Ð°Ð°Ð°Ð°Ð°Ð°Ð°Ð°Ð°Ð°Ð°Ð°Ð°Ð°Ð°Ð°Ð°Ð°Ð°Ð°Ð°Ð°Ð°Ð°Ð°Ð°Ð°Ð°Ð°Ð°Ð°Ð°Ð°Ð°Ð°Ð°Ð°Ð°Ð°Ð°Ð°Ð°Ð°Ð°Ð°Ð°Ð°Ð°Ð°Ð°Ð°Ð°Ð°Ð°Ð°Ð°Ð°Ð°Ð°Ð°Ð°Ð°Ð°Ð°Ð°Ð°Ð°Ð°Ð°Ð°Ð°Ð°Ð°Ð°Ð°Ð°Ð°Ð°Ð°Ð°Ð°Ð°Ð°Ð°Ð°Ð°Ð°Ð°Ð°Ð°Ð°Ð°Ð°Ð°Ð°Ð°Ð°Ð°Ð°Ð°Ð°Ð°Ð°Ð°Ð°Ð°Ð°Ð°Ð°Ð°Ð°Ð°Ð°Ð°Ð°Ð°Ð°Ð°Ð°Ð°Ð°Ð°Ð°Ð°Ð°Ð°Ð°Ð°Ð°Ð°Ð°Ð°Ð°Ð°Ð°Ð°Ð°Ð°Ð°Ð°Ð°Ð°Ð°Ð°Ð°Ð°Ð°Ð°Ð°Ð°Ð°Ð°Ð°Ð°Ð°Ð°Ð°Ð°Ð°Ð°Ð°Ð°Ð°Ð°Ð°Ð°Ð°Ð°Ð°Ð°Ð°Ð°Ð°Ð°Ð°Ð°Ð°Ð°Ð°Ð°Ð°Ð°Ð°Ð°Ð°Ð°Ð°Ð°Ð°Ð°Ð°Ð°Ð°Ð°Ð°Ð°Ð°Ð°Ð°Ð°Ð°Ð°Ð°Ð°Ð°Ð°Ð°Ð°Ð°Ð°Ð°Ð°Ð°Ð°Ð°Ð°Ð°Ð°Ð°Ð°Ð°Ð°Ð°Ð°Ð°Ð°Ð°Ð°Ð°Ð°Ð°Ð°Ð°Ð°Ð°Ð°Ð°Ð°Ð°Ð°Ð°Ð°Ð°Ð°Ð°Ð°Ð°Ð°Ð°Ð°Ð°Ð°Ð°Ð°Ð°Ð°Ð°Ð°Ð°Ð°Ð°Ð°Ð°Ð°Ð°Ð°Ð°Ð°Ð°Ð°Ð°Ð°Ð°Ð°Ð°Ð°Ð°Ð°Ð°Ð°Ð°Ð°Ð°Ð°Ð°Ð°Ð°Ð°Ð°Ð°Ð°Ð°Ð°Ð°Ð°Ð°Ð°Ð°Ð°Ð°Ð°Ð°Ð°Ð°Ð°Ð°Ð°Ð°Ð°Ð°Ð°Ð°Ð°Ð°Ð°Ð°Ð°Ð°Ð°Ð°Ð°Ð°Ð°Ð°Ð°Ð°Ð°Ð°Ð°Ð°Ð°Ð°Ð°Ð°Ð°Ð°Ð°Ð°Ð°Ð°Ð°Ð°Ð°Ð°Ð°Ð°Ð°Ð°Ð°Ð°Ð°Ð°Ð°Ð°Ð°Ð°Ð°Ð°Ð°Ð°Ð°Ð° Ð°Ð°Ð°Ð°Ð°Ð°Ð°Ð°Ð°Ð°Ð°Ð°Ð°Ð°Ð°Ð°Ð°Ð°Ð°Ð°Ð°Ð°Ð°Ð°Ð°Ð°Ð°Ð°Ð°Ð°Ð°Ð°Ð°Ð°Ð°Ð°Ð°Ð°Ð°Ð°Ð°Ð°Ð°Ð°Ð°Ð°Ð°Ð°Ð°Ð°Ð°Ð°Ð°Ð°Ð°Ð°Ð°Ð°Ð°Ð°Ð°Ð°Ð°Ð°Ð°Ð°Ð°Ð°Ð°Ð°Ð°Ð°Ð°Ð°Ð°Ð°Ð°Ð°Ð°Ð°Ð°Ð°Ð°Ð°Ð°Ð°Ð°Ð°Ð°Ð°Ð°Ð°Ð°Ð°Ð°Ð°Ð°Ð°Ð°Ð°Ð°Ð°Ð°Ð°Ð°Ð°Ð°Ð°Ð°Ð°Ð°Ð°Ð°Ð°Ð°Ð°Ð°Ð°Ð°Ð°Ð°Ð°Ð°Ð°Ð°Ð°Ð°Ð°Ð°Ð°Ð°Ð°Ð°Ð°Ð°Ð°Ð°Ð°Ð°Ð°Ð°Ð°Ð°Ð°Ð°Ð°Ð°Ð°Ð°Ð°Ð°Ð°Ð°Ð°Ð°Ð°Ð°Ð°Ð°Ð°Ð°Ð°Ð°Ð°Ð°Ð°Ð°Ð°Ð°Ð°Ð°Ð°Ð°Ð°Ð°Ð°Ð°Ð°Ð°Ð°Ð°Ð°Ð°Ð°Ð°Ð°Ð°Ð°Ð°Ð°Ð°Ð°Ð°Ð°Ð°Ð°Ð°Ð°Ð°Ð°Ð°Ð°Ð°Ð°Ð°Ð°Ð°Ð°Ð°Ð°Ð°Ð°Ð°Ð°Ð°Ð°Ð°Ð°Ð°Ð°Ð°Ð°Ð°Ð°Ð°Ð°Ð°Ð°Ð°Ð°Ð°Ð°Ð°Ð°Ð°Ð°Ð°Ð°Ð°Ð°Ð°Ð°Ð°Ð°Ð°Ð°Ð°Ð°Ð°Ð°Ð°Ð°Ð°Ð°Ð°Ð°Ð°Ð°Ð°Ð°Ð°Ð°Ð°Ð°Ð°Ð°Ð°Ð°Ð°Ð°Ð°Ð°Ð°Ð°Ð°Ð°Ð°Ð°Ð°Ð°Ð°Ð°Ð°Ð°Ð°Ð°Ð°Ð°Ð°Ð°Ð°Ð°Ð°Ð°Ð°Ð°Ð°Ð°Ð°Ð°Ð°Ð°Ð°Ð°Ð°Ð°Ð°Ð°Ð°Ð°Ð°Ð°Ð°Ð°Ð°Ð°Ð°Ð°Ð°Ð°Ð°Ð°Ð°Ð°Ð°Ð°Ð°Ð°Ð°Ð°Ð°Ð°Ð°Ð°Ð°Ð°Ð°Ð°Ð°Ð°Ð°Ð°Ð°Ð°Ð°Ð°Ð°Ð°Ð°Ð°Ð°Ð°Ð°Ð°Ð°Ð°Ð°Ð°Ð°Ð°Ð°Ð°Ð°Ð°Ð°Ð°Ð°Ð°Ð°Ð°Ð°Ð°Ð°Ð°Ð°Ð°Ð°Ð°Ð°Ð°Ð°Ð°Ð°Ð°Ð°Ð°Ð°Ð°Ð°Ð°Ð°Ð°Ð°Ð°Ð°Ð°Ð°Ð°Ð°Ð°Ð°Ð°Ð°Ð°Ð°Ð°Ð°Ð°Ð°Ð°Ð°Ð°Ð°Ð°Ð°Ð°Ð°Ð°Ð°Ð°Ð°Ð°Ð°Ð°Ð°Ð°Ð°Ð°Ð°Ð°Ð°Ð°Ð°Ð°Ð°Ð°Ð°Ð°Ð°Ð°Ð°Ð°Ð°Ð°Ð°Ð°Ð°Ð°Ð°Ð°Ð°Ð°Ð°Ð°Ð°Ð°Ð°Ð°Ð°Ð°Ð°Ð°Ð°Ð°Ð°Ð°Ð°Ð°Ð°Ð°Ð°Ð°Ð°Ð°Ð°Ð°Ð°Ð°Ð°Ð°Ð°Ð°Ð°Ð°Ð°Ð°Ð°Ð°Ð°Ð°Ð°Ð°Ð°Ð°Ð°Ð°Ð°Ð°Ð°Ð°Ð°Ð°Ð°Ð°Ð°Ð°Ð°Ð°Ð°Ð°Ð°Ð°
áĪĭáĪį áīħ
Ġáĭ¨áįĢ áĪ¨
ĠáĬķ áĭĵ
áĪĿáĪŃ áĮ«
ĠH istor
áī£áīł áĪªáĭ«
áįĭ áĭĬ
áĪŃ áĮħ
ĠáĬ¨ áĭµ
ĠáĭĿáĪŃáĭĿ áĪ®áī½
Ġáĭ¨áĭµáĪ¨ áĮĪáĮ½
ĠAn ton
áĪĺ áīĢ
áĬŃ áīłáĪŃ
ĠáĪ« áĪµáĬķ
ĠáĪĺáĪĿ áĪªáĭ«
ĠáĬ¥áĬķáĭ° áĪŃ
Ġdan sk
Ġáĭ¨áĪĺáĮ£ áĭį
199 3
áĮ£ áĬĶ
áĮİ áĭ³
ĠáĬłáĪ³ áĪµ
Ġáī°áĬ¨ áĪ³áĪ½
Ġg uns
ar ies
ĠáįĪ áĬķáī³
ĠáīłáĪĤ áĭ°áīµ
anc ies
ĠM ichael
áĬ³ áī¸áĭį
Ġb ond
áĭ³ áĬ¨áĪĺ
ĠáīłáĬ¥ áĭįáĬĲáīµ
áīĭ áĪĻ
ĠáĪļ áĭµáĭ«
Ch at
áĪĬ áĮ¡
ĠáĭĿ áĭįáĭį
Sk ype
ok er
ĠáĬ£ áĮĪáī£
ĠáĮĪáĮ½ áī³
áĬ® áī½áĬķ
sp ort
196 3
ĠáĪ³ áĪħáĬķ
Ġerk enning
Ġáįį áĪĪáĮĭ
Ġd apper
itu te
Ġkon kre
Ġkompon ente
gener eer
Ġn agte
Ġvoor gesk
áĪ¸ áĪŃ
enn ings
ble em
Ġk g
Ġáī° áĮĪáĬķ
Ġverb ied
Ġaf speel
Ġarg umente
Ġvoorstel le
Ġáīłáī° áĪ°
Ġversorg ing
Ġkommers iÃ«le
Ġverl aag
Ġtek stuur
áĮĪáĬĵáĬĽ áĪī
Ġbe oord
ĠáĮ³áĮ³ áĪ³áīµ
Ġregistr asie
Ġber ekening
al isme
Ġverj aard
Ġo ly
Ġst abil
ĠáīĢáĬķ áĭ²
Ġh an
ĠáĮĪ áĭĿ
áĮįáĪ« áįĬ
ĠáĬłáĪĿáĪĭ áĬ½
Ġáĭ¨áĪĢ áĮĪáĪªáī±
ĠáĭŃ áĭĽ
ĠHee ver
ĠáīµáĪµ áĪµáĪŃ
áĬ¢áĬķ áī°áĪŃ
l end
ĠáĬł áī¡
ĠS T
áĭŃ áĮ£áĬķ
Ġáĭ¨áĪļáĮĪáī£ áĭį
áĪ¨ áĬŀáī½
ĠáĭŃ áĭ°áĪŃ
Ġáīł áĪŃáĪµ
Ġáĭ¨áĪ° áĪ«
ĠáĪ³ áīµ
áĪĺáĬķ áįĪáĪµ
áĭķ áĪĿ
ĠGen ocide
ĠáĬ¨ áĪĽáĭŃ
áī¢ áĭİáī½
Ġáī£áĬķ áĬ®áī½
Ġsc enario
Ġáīł áĭµáĪ¨
áĬķ áĭĽ
Ġáīł áĪ¥áĪ«
Ġl ong
ĠáĭŃ áĭ°áĭįáĪī
ĠáĪĽ áī°
ide bar
LO G
áĭĵ áĬķ
Ġáĭ Į
Ġpl a
ĠáĬĥ áĭ«áĪĭáĬķ
Ã Ĺ
off ers
Ġe conom
in et
Ġáĭ¨áĪ« áĪ³áī¸áĭįáĬķ
Ġafwes igheid
Ġso p
]] .
ov oorts
sk op
Ġgewaar sku
Ġonseker heid
gel uk
ĠMar s
Ġdw aas
ĠáĪĵ áĪĭáįį
Ġkr iter
ĠáĮİ áīł
ton iese
Ġj ul
ul dige
Ġgem iddeld
houd ings
Ġge groei
au ty
be ur
Ġbew ussyn
ĠáĬł áĪĺáĮ£
ĠMess ias
Ġle pel
Ġakkur ate
Ġless enaar
Ġpatr one
ĠS edert
Ġop neem
áĪµ áĪĽáĪĽ
ste un
Ġwed denskap
ar el
ĠáīłáĪĺ áĪį
Ġgen ocide
ĠU zbek
Ġh inder
áĪĽ áĪĬ
áĭ¨áĬ¥ áĪŃáĪµáĭİ
ĠáĬłáĪĭ áĪħ
ĠáĪ« áĪ³áī¸áĭį
áĪłáĪ« áĭį
áĬĴ áĬŃáĪµ
ĠáĭĿ áĬ½áĬ¥áĪį
ĠáĬ« áĬĵáĭ³
áĪŃ áĭ±
áĬ« áī½áĬķ
ĠáĬłáī£ áī¶áī½áĬĵ
ĠAr ch
Ġswe et
Ġáĭ¨ áĮ£áī¢áĭ«
ab er
ĠáĪĪ áĪģáĪĪáīµ
ĠBel arusian
ing ton
ac ancies
ĠL ove
umin ium
áī¡ áīķ
Ġag ree
ot or
áĭ³ áĮį
Ġáī¥ áī°
Ġáĭ¨ áįĬáīµ
ĠáĪĮ áĪİáī½áĬķ
áĭ° áī½
áĭķ áĪŃ
ĠáįĪ áĪĪ
ĠáĪ¨ áīĤáīħ
ĠáĮĪ áĪĺáĭµ
ĠáĬłáĭį áĪ«
ĠG R
Ġt u
ĠáĬ¨ áĪĪ
ĠáīµáĪŃ áĮī
th ing
áĬķ áīłáīµ
K on
Ġáĭ¨áĪ°áī¥ áĬłáĭĬ
áīħáĭµ áĪļáĭ«
ĠáĬ¥ áī¥
Ġáįİ áīħ
Ġáĭ«áĬ«áīµ áī³áĪį
Ġc ol
m eel
ĠSpel etjies
Ġgroot tes
g at
ĠáĭŃ áĮĪáĬĵáĬĽáĪī
ĠáĪĺ áīł
st ene
Ġab str
Ġopge wek
Ġverdien ste
ĠáĪĪáĪĺ áī°
ĠáĪĻáĪµáĪĬ áĪĿ
Ġspre ker
ĠáīłáĬł áĭįáĪ®áįĵ
ĠáĪĺ áĪĺáĪĪáĪµ
Ġáī°áīĥ áĪ«áĬĴ
Ġgemeenskap like
áĪĪ áī±
Ġmed ikasie
Ġrespek teer
ess ief
Ġgely ke
Ġtoeg anklik
k oek
Ġso en
Ġuit gevind
Ġáĭ¨áĮī áĭŀ
Ġver werking
tr ise
stel sels
]] ,
Ġmanus krip
Ġak teurs
Ġooreenste mming
Ġde velopment
áīłáĬł áĪµáī°áĭ³áĭ³áĪª
heem se
ĠáĬłáĭµ áĬĵ
ĠáĪ½ áĮįáĮįáĪŃ
áĭ¨ áĮ¸áĪİáīµ
ĠSt and
Ġáĭ¨áĪļ áĪĺáĮ¡
Ġáī£ áĪĭáī¸áĭį
áĬł áĪĽáĪ«
Ġqu ality
ĠáĭŃáĭį áĪĭáĪį
oll er
ĠB re
áĪĺ áĪªáĭ«
v ier
Ġáī° áĪĪ
ĠáĬ¥áĬķáĭ²áĭ« áĭ°áĪŃáĮī
áį °
i que
áĪį áĪħ
áĪĺáĪĪ áĪ°
ĠáĬ¥áĬķáĪµ áĪ³
áĮĪáĬĺ áĭįáĬķ
Ġáĭ¨áĭµáĪŃ áĮħáī±
ĠAr t
ĠáĪ³áĪĿáĬķ áī³áīµ
áĪĬáĪĿáįĴ áĬŃ
ĠM il
ĠáĪħ áī¥áĪ¨áī°áĪ°áī¥
ms terdam
ugu Ãªs
áį ´
Ġb il
áĬŃáĪį áĬĵ
om pe
00 44
Ġáĭ« áĪ¬áĭµ
âĢĻ âĢĻ
Ġáįĭ áĬĵ
Ġáĭ¨áįĭ áĭŃáĬĵáĬķáĪµ
áī³áĭĪ áĪµ
196 4
ar ia
áĪĪ áĪĪ
ĠG udayachn
af stand
ĠáĮĪ áįĭ
Announc ements
Ġgewe te
áĪ¯ áĬķ
Ġbr uid
Ġens ovoorts
áĭ¨ áĪļáĭ«
Ġkonv ensionele
spr ake
F or
Ġver re
Ġvasge vang
ĠáĪ«áĭķ áĭŃ
v ader
Ġsek onde
Ġregter kant
Ġop vall
áĭļ áĪį
ĠáĪĪáĪĽ áĮ¥áįĭáīµ
ter tyd
Ġl oer
ings proses
áĪĺáĬĲ áĪ»
N aam
Ġmy ne
Ġtoe wyding
Ġvl ieÃ«n
Ġstaat maak
ĠáĪ°áī¥ áĭĵáĭĬ
k ategor
Ġhand werk
áī¥áĪ¨ áĭį
re ine
ĠáĪµáĪĪ áĬĲáīłáĪŃ
Ġáī°áīĢ áĪĽáĮŃ
Ġh umb
Ġáī° áĬĲáĪ³
ĠáĭĪáĭ²áĭ« áĭįáĬĳ
f ord
Ġáī ¼
ic i
ĠT ek
ĠC asino
to f
E s
K L
ĠáĬ¥áĬķáĭ°áĪļ áĪĨáĬķ
ĠT a
ĠáĪ³áĭŃ áīĢáĪŃ
Ġáī³áĪµ áī¦
w ays
ĠáĬ¥ áĪ·
Ġp et
áĭĬ áĭį
C P
Ġc ent
ogr aph
Ġáīł áįĭ
ĠáĬł áĪĭáĭį
Ã¼ n
ĠáĬ¥áĬķáĮį áĭ¶áī½
Ġáī° áĮĪáĪĪáįĢ
ĠáĬŃ áĪĪáī¥
Ġele g
ĠI P
ĠÐ ¸
gr im
ĠáĬłáįĪ áĮ»áĮ¸áĪĿ
Ġáīł áĮįáĬķ
áĪĿ áĭ¨áĪŃ
áĬ¨ áī¦áī½
G a
ł à¸²à¸
áī¶áī»áī½áĬķ áĬķ
---- ----
ĠáĪ° áĬŀ
áĪģáĪĪ áī±áĪĿ
ĠáĪļáĪĬ áĭ¨áĬķ
Ġàº ¥àº²àº§
áĮĢ áĪ«
Ġtwe eling
ĠM at
ĠáĬķ áĪĿáĪŃ
ĠáĬłáīł áīł
ĠáĭĺáĪĪ áĭİáĪĿ
áĪį áĭĳ
ĠáĪĺ áĭ«áĭĿ
ĠI C
Ġáĭ¨áįį áĪŃáĭµ
ĠáĬŃ áī¥áĪ¨áīµ
ele br
ĠáĬ¥ áĪ±áĪĿ
áĪ³áĭŃ áĭ«áĪµ
Ġsp ook
áĮĭ áĮł
ĠT ier
áĪ¨ áĮ¡
áįħ áĭĭáīµ
ĠáĬłáĬķ áĭ°
ĠáĪĽáĬħ áīłáĪ¨áĪ°áī¥
Ġ= ========
iv al
d ens
ĠáĭŃ áĪµáĮ¥
ĠáĮĪáĪį áĮ¿áĪį
op los
Ġopgel os
Ġbe meester
Ġgro et
D ec
Ġv ordering
Ġpas gebore
áīª áĪµ
Ġverbind ings
ĠáĭŃáĪĺáĪµ áĪį
Ġáī£áĪķáĪŃ áĭŃ
Ġbemar king
Ġáī¥ áĪĦáĪŃ
Ġhier mee
kl ere
Ġvoer tuie
w enke
ĠáĬ£ áĬķáĮ»
Ġáĭ¨áĭį áĮ¤áīµ
Ġonderske id
Ġáī §
ĠáĪĺ áĮĢáĪĺáĪŃ
Ġinter aksie
m ann
end ings
Ġdial oog
Ġt iere
ann ese
E dit
ĠáĪĺáī¼ áĪĿ
Ġáĭ¨áĪĿ áĬŃáĪŃ
ple te
Ġbegraf nis
ĠáĭŃ áĪįáīģ
Ġcou ld
Ġd ay
ĠáĪĿ áīķ
áĪ¸ áī£áĪª
áī° áĭĽáĪĽáĮħ
ĠáĬ®áĪĮáĮħ áĬĵ
p ond
ĠáĬ¢áĬķáī°áĪŃ áĬĵáĪ½áĬĵáĪį
áįį áĪī
ĠB ot
Ġáīł áĮ¸
ĠáĬ¥áĪµ áĪįáĪĿáĬĵ
Cont inue
ĠI D
Ġáī£áĪĪ áĭµáĪŃáĪ»
ĠáĮįáĭĻ áįį
tel es
ĠáĪĪáĬ¥ áĬĶ
áĪª áĭ«áĬķ
áīĢ áĭŃ
Ġáī° áĭį
ĠáĪĪáĪĺ áĪĦáĭµ
ĠáĬłáī¥áĭĽ áĬĽáĭį
ĠáĬ¨áĬł áĭ²áĪµ
ĠáĪĽ áĬ¨áĪĽáī»
áĭ² áĭ©
Ġáĭ¨ áĪĬ
ĠPubl ic
ĠUS D
ĠáĬ¥áĭļáĭ« áĭį
ĠáĬ¥áĭ¨áĮ¨ áĪĺáĪ¨
ĠáĪĺ áīµ
Ġáī° áĬ£
en gel
Ġáī° áĬŃ
áĮħ áĬķ
áĮĪáĬĵ áĬĺ
ĠáĪĺáĮ¨ áĪĺáĪŃ
cont ent
áĪĭ áīģ
ĠTigray an
ĠÐ ¿
g rade
áī£ áĪīáīµ
Ġáī£ áĪīáīµ
ĠáĪĺáĪĺ áĭĿáĮĪáī¥
Ġv iol
Ġn es
áīĭ áĪŃ
Ġpar am
ĠáĬ¨ áĪĿáĬķ
ĠáīĢ áĬĵ
ĠáĪį áī³
Ġbrand stof
ĠáĬ£ áĮĪáĭ³
ik l
Gew ild
Ġt abel
Ġdeur bring
ĠáĬłáĮł áĮĪáī¥
Ġpot lood
Ġkn oop
Ġmisl ukking
s yd
Ġvan jaar
Ġon voor
Ġvoor del
Ġverse Ã«l
verw ante
Ġuit maak
Ġuit reik
Ġbek w
Ġkomb ers
ĠáĬ¥áĭįáĬĲ áī³
Ġontstel d
Ġfilosof ie
Ġl oj
ĠP ut
Ġgele wer
Ġverb et
ĠIS O
Ġop name
Ġuit steek
ĠPl ay
ed ens
Ġvriend in
ĠáĭŃáĪĭáĬ© áĪįáĬķ
Ġbuiteland se
Ġr ommel
Ġsond aars
Ġkaste el
Ġoorbly f
áĮĭ áĭ®áī½
Ġáī°áĮł áĪª
Ġon kruid
r and
áīĢ áĬĿ
ass er
Ġfig ure
Ġe mp
ĠáĮ¸ áī¥áĮ»
E spaÃ±ol
K r
áĪ« áĪ«
ĠáĪŃáĬ¥ áĪµ
áĪįáĮ£ áĬŀáī½
ĠáĭŃáĪĦ áĬķ
Ġáįĵ áĪŃáĪĭáĪĽ
ĠáĬ¥ áĪĪáīµ
áĪķ áīµ
ĠáĪĪ áī£
ĠáīĢáĮ¥ áī°áĬĽ
ĠáĪ°áĪį áįĬ
and s
Ġf ar
ĠáĪĢ áĭ¬áĪ¶
ĠáįķáĪ®áĮĢáĬŃ áī¶áī½
Ġáīł áįĸáĪĪáī²áĬ«
Ġáīł áĪ¦áĪµáīµ
ĠáĪĺáĪ« áĪķáī²
ĠáĪĪ áĮį
Ġáī£áĪĪ áīłáīµ
Ġáĭĵ áīķ
G er
ĠáĭŃ áĮłáīĢáĪĻ
ĠáĪĭ áĪĪáĭį
Ġáīłáī°áīĥ áĪ«áĬĴ
ir a
ĠDe velopment
oos ter
áĭ¨ áī±
Ġáĭ² áįķáĪİáĪĽáĪ²
ĠM aan
áĬĸáĪŃ áĪĿ
on ge
Ġáĭµ áĪ®
áĮĵ áĭĻ
Ġáī´áĪĮ áīªáĭ¥áĬķ
ĠPro fessor
áĬ¥ áĪĺáĬĵáĬķ
ĠáĪĵ áīĤ
ĠáĬ¢áīµáĭ®áĮµáĭ«áĭĬ áĭ«áĬķ
áĪŁ áĮĪáīµ
eg a
ĠáĪĪ áĪ°áĭį
ĠáĬ¥ áī½áĪĭ
Ġáī£ áī¡áĪŃ
ĠáĬłáĪµáįĪáĪĭáĮĬ áĬĲáīµ
ĠY e
áĪ³ áĪŃ
ĠáĬłáĪĿáĬĵ áĪĪáĪģ
áĬŃ áĪĿ
Ġáĭ¨áĪ° áĮłáĭį
fil m
fr astr
ĠáĬłáĪ°áĮ£ áĮ¥
am as
Ġáī½áĮį áĪ©áĬķ
Ġáĭ³ áĬĽ
áĬ¥áĬķ áī°
Ġew igheid
z en
Ġs venska
áīł áĪļ
Ġonafhank likheid
ĠGevolg lik
ĠáĬ¥áĬķáĭ² áĪ°áĮ¥
Ġweer mag
Ġbekend ste
f an
pre teer
h oroskoop
Ġgebruik e
Ġmid de
K oop
Ġuit gespreek
Ġsp eelding
Ġdus ver
ade x
Ġkrediet kaart
Ġdest yds
p aaie
pr es
Al l
áĬķáīĢ áĮ½
Ġbak lei
genieurs wese
Ġuit ger
ĠáĬĲáīłáĪ¨ áī½
Ġonmiddel like
itu asie
Ġkr oeg
Ġp euter
ab s
Ġhuis werk
Ġre ading
ĠáĪµáĪħ áī°
Ġb oelie
Ġgev erf
Ġkamp eerder
Ġkopie reg
áīĥ áĭŃáīµ
v as
ĠáĭĪ áĪ°áĬķ
Ġáĭ¨áī° áĭĪ
áĮ¥ áĪ«áīµ
ĠO F
Ġáīł áī½
áīĭ áĪĽáī½áĬķ
g on
áĬŃ áĬ¥
áĮ¦áĪŃ áĬĲáī±
ĠC ymraeg
Ġáī¥áĪŃ áī±
ur ity
Ġk ak
ĠáĪµáĪĪ áĪĽ
k ind
ĠTigray ans
Ġs ur
Ġáį Ĩ
áĪĺáĪĪáĬ¨ áī³áī¸áĭį
Ġç ®Ģä½ĵä¸Ńæĸĩ
áĭ¨ áĬĵ
Ð°Ð· Ð¸Ðº
Ġáīł áĬŃáĪįáĪī
Ġbeg an
ĠáĪ² áī³
ĠáĪĺáĮł áĮ¥
áĭĳ áĭ²
Ġáĭĵ áī¥
áĪģáĪī áĬķáĪĿ
ĠáĬ¥ áī°
ĠZ e
eld ers
áĭ¶ áĪĽáĭĬ
áīµ áĪ®
ĠáĪĪáĪĽáĪµ áīĢ
áĪĲ áīµ
ĠáĬ® áĪ®áĬĵ
ĠáīłáĪĺ áĪ°
áĪĺ áī°
Ġáĭ¨áī´ áĬŃáĬĸáĪİáĮĤ
áĭļ áĭ«áĬķ
ĠáĮİ áĮĨ
áĭ²áĭ« áī¥áĪİáĪµ
ĠáĪķ áįĥáĬĵáīµ
ĠS ign
ĠáĪµ áĮ¦áī³
áĪ°áĬķ áĬª
Ġáī°áīĭ áĪĽ
ĠáĬ«áĪ²áĬĸ áĭİáī½
Ġbet alings
áĬ® áī³áĭĬ
áĮį áĪ©áĬķ
áĪĿáĬķ áĮŃ
áĬł áĪľáĪªáĬ«
ĠáĬłáĪĽ áĬ«áĪª
ĠáĮ¥ áīģ
Ġáįĵ áĬĲ
Ġáįį áĮ¥áĪ¨áīµ
áī£ áĪ©
Ġt ut
ĠL ank
Ġduur der
Ġk arton
Ġaan houd
Ġsaam stem
dag te
Ġáĭ©áĬĴáī¨áĪŃáĪ²áī² áĭİáī½
Ġwen tel
bew aring
w anneer
wag ting
Ġtruuk s
ĠWeer eens
Ġáĭ¨áĪļ áĪĺáĪµ
kl op
Sp eel
Ġonn odige
Ġged oop
Ġus es
ĠWÃªreld oorlog
Ġáīł áĬ¦áĪ®áĪĿáĭ«
Ġáĭ¨ áĬ¨áįĭ
ĠáĪĻ áĪ´
Ġm onster
ĠáĬ¤ áĬŃáĪµ
áĮįáĭļ áī¢
ĠN G
ĠS ter
áĬ¨áī£ áĬ¨áī¥
ĠáĬĵ áĮ½áĬĲáīµ
áĭµ áĮĪáīµ
ĠáĬ¥áĭ¨ áĪ°áĪ©
ĠáĪĺáĬķáĬ¥áĪ° áĭ«áīµ
áīł áĪªáĭ«
ĠáĭĺáĪĺ áĬĲ
áĭĪáĪŃ áīĤ
ĠáĭŃáĬĸáĪŃ áīłáī³áĪį
ĠáĪ© áĪ²áĭ«
ad s
ĠáĪĪáĪĺ áĪŃ
áįķáĪ¬ áĭĿáĭ³áĬķáīµ
S cript
ĠáĪĤ áĪ³áī¥
ĠCon spir
ĠáīłáĬ¢ áĬ®áĬĸáĪļ
eno te
Ġn orsk
l ange
ĠáĬł áĪĭáīµ
Ġáīµ áĮ¥áīħ
ĠR el
ĠC entral
ĠáīłáĪģáĪĪ áī±áĪĿ
áīł áīł
ĠáĭŃ áĪģáĬĳ
ĠáĮŃ áĬķ
Ġl ietuviÅ³
Ġm oment
áĭ« áĬĵ
áĪµ áĪİ
ien t
ĠáĪ¥áĪŃáĭĵ áī°
áĪį áīĢáīµ
ĠáĬł áĪ¨áĮĭáĮį
ĠáĬł áįĭ
ĠáĬ¨ áĪ¨
áĭ³ áī½áĬķ
ĠáĪĽáĪµáī³áĭĪ áĪ»
áĪŃáī¶áĭ¶ áĬŃ
wer ing
Ġfran Ã§ais
ĠáĬ¥ áĭĭ
15 00
Ġtoek enning
Ġáĭ°áĬķ áī¦áī½
ist an
Ġb ots
Ġáīłáįį áīħáĪŃ
ĠáĬĴ áĭį
k amp
Ġáĭ¨ áĬ¦áĪ®áĪĿ
Ġarg ument
ĠáĪµ áĪĿáĬķáīµ
Ġre m
Ġáĭ¨ áĪľ
Ġital iano
arm hart
ĠáĪ´ áĪ«
áĪĪáĪĿ áĭ¶
kel jaar
ĠÄ į
ien ing
Ġvol hard
áĮĢ áĪŃ
Ġplas ing
d hede
ĠáĪĪ áĬ«
Ġgem ors
iteind elike
unis ip
Ġver taling
aat jie
yn se
b us
i mbol
Ġge toets
Ġver ligting
Ġver enig
Ġáĭµ áĬ«áĪĿ
Ġáī¶ áĬķ
Ġp reg
Ġper iode
ertifik aat
áĪµáī² áĬŃáĪµ
Ġtam aties
z i
Ġin stelling
Ġoor t
ĠáĪĺáĪŃ áĪĨ
Ġparag raaf
Ġverjaard ag
M ark
ĠO M
ĠáĪµ áĬ¥
ĠáĪ° áĪĻáĬķ
ĠáĪ½ áī¦
áĮĭáĭľ áĮłáĬĽ
reat ive
ĠáĬ¥áī½áĪĭ áĪĪáĪģ
ĠáĭĪáĬª áĪį
H ere
áįĪáĪį áĮĪ
ĠáīłáĪĺáĮ¨áĪ¨áĪ» áĪĿ
ĠáĪĺáīĢáĪĺ áĮ«
ĠáĪł áĪŃ
Ġáĭ¨ áĮĪáī¡
ĠáĬ¢ áĪľáĭŃáĪį
ĠS un
ĠáĪĺáĪ° áĬĵ
áĬ¨ áī¥áĪŃ
T im
n u
ĠáĮĢ áĪŃáī£
áį²áį ª
ĠáĮ¸ áĬĴ
ĠáĭĪ áĭ³áĮħ
áĪ¡ áīµ
áĬķáīĢáĪ³ áīĢáĪ±
áį ±
ĠáĮł áīĢ
ĠK ol
ĠWe igh
Ġpropos als
ĠWe ek
Ġba hasa
ĠáīłáĬ¥ áĪĿáĬĲáīµ
áī¡ áĭķ
ĠáĪĽáĬķ áīłáī¥
du ct
onom ie
ĠG ra
ĠáĪ°áī¥ áĬłáĭĬ
áīĢáĪ³ áīĢáĪµ
áĪ¨ áī°áĭį
Ġver groot
U L
áĪµ áī±áĪĿ
ĠáĪĪáĪĽ áĪµáī°
áĮŃ áĪ©
ill s
av en
áįĪ áīĢáĭ°
áĭĭ áĪħ
ĠáĬ¨ áĪĻ
ĠáĬłáĪµáī° áĪĭáĪį
tog te
áĭĬ áĭ«áĬķ
ĠáĪĪáĪĺ áī³
Ġstad s
Ġáĭ¨áĪĪ áĪ½
áĭİáī¹ áĪĿ
ĠMe x
ĠáĪ°áĪĪ áī£
ĠáĮį áĮ¥áĪĿ
hand ig
Ġge dek
abor atorium
sy ch
our ces
Ġtuis gemaakte
l ief
Ġpl ig
Ġ Ã©n
Ġek sk
Ġhistor y
Ġinde p
Ġgelief des
as iteit
áĭĪ áīĤáĭ«
Ġaf sk
ĠáĬłáĪµ áĪŃ
Ġhe uning
Ġpubl ieke
áī³ áĬĵ
ĠW oensdag
Ġaanv aarding
Ġek sp
Ġpr ot
Ġske dule
rok ies
en lik
sk oene
Ġgroot liks
Ġb oor
ver teer
Ġgeloof s
fin ans
Ġáĭ¨áĪĮ áĪĭáī¸áĭį
Ġopbreng s
Ġteel ep
Ġj og
ĠAn gel
ĠN etwerk
áĪĻ áĪĽáĬķ
Ġuitge wer
áįĥ áĬķ
9 3
ĠáĬł áĭ°áĪ¨áĮī
áĮł áĪ©áīµ
ĠáĬ¤ áĪŃ
ĠáĭŃáĮłáīĢ áĪĽáĪī
Ġáĭį áĬķ
áī³ áĭ°áĪŃ
ĠáĬ¤ áī½
áĭĽ áī¸áĭį
áĭ°áĬķ áīħ
V acancies
Ġáī° áĪĺáĮ£áĮ£áĬĿ
áĪķ áĪį
Ġáī°áĭĪ áĪµ
ĠE y
Ġáĭ«áĪµ áĮĪáī¡
ĠáĮ³áĮ³ áĪµ
ĠáīłáĪĺ áĬķáįĪáĪµ
gr oting
Ġse w
or ted
ĠáĮĬáĭľ áĪĿ
áĮĨ áī»áī½áĬķ
áĬ«áĪĦ áĭ±
Ġáĭĵ áĪŃ
Ġáīł áĪī
áĮ½ áĪŃ
áĭ¨ áĬķáĮįáĭµ
Ġáĭ¨áī£ áĬķáĬŃ
ĠáĪ° áĭįáĬķ
ĠáĬ Ģ
on na
na v
ĠGr and
Ġepis ode
he f
áĭļáĭ« áĪĿ
áīĵ áĪįáĪį
ĠáĬ¥áĬĶ áĬķ
ad ys
Ġna el
197 6
Ġoper ating
ist ers
ult uur
ĠáĬłáĭµ áĪĽ
it asie
Ġáĭ¨áĬł áĪīáĪļáĬĴáĭ¨áĪĿ
áĪĪáĪĺ áĭ°áĭį
ĠáĬłáĭįáĪ® áįķáĪĭáĬķ
Ġd ors
orie Ã«
Ġdrupp el
Ġaan vang
ĠáĪŃáĬ¥ áĪ°
Joh annes
Ġt oed
Ġdeel neem
Ġd ia
et ig
Ġe ise
ĠáīĨáĬķ áĮĨ
D C
M iskien
st reer
ĠáĬłáĬķáĭ³áĬķ áĭ¶áī¹
Ġond ersk
onom iese
**** ****
Ġafk oel
v anklik
Ġk Ãªrel
Ġdeur dat
Ġges proke
abr iek
Ġon te
ĠáĪĿ áĪīáĬ¥
bru in
Ġonder handel
197 4
Ġveiligheid s
áĬ«áī° áī°
Ġbev estiging
ust heid
gang ers
áĬ¨ áĭķáĪĪáī³áīµ
Ġger y
Ġtest ament
áĭŃ áĪĦ
ĠáĪĭáĬķ áīº
Ġin fo
áĪ¥áĪ« áīħ
S te
áĬ« áī¸áĭį
ia c
ĠáīĢ áĮłáĪ®
áĭ«áĪµ áįĸ
áĪħ áī¥áĪ¨áī°áĪ°áī¥
Ġcontin u
áĭĪ áĪ©
ĠáĪĺáīĢ áĭ¨áĪŃ
2 20
áĪ° áĭįáĬķ
Ġáī° áĬĲáĪµ
Ġáįķ áĪ¨áĭļáĭ°áĬķáīµ
ĠáĬ¸ áĬ£
áĪĺ áĮ»
áī¥ áĪĭ
áĭĴ áīµ
Ġáīł áĬĲáīłáĪ¨
view s
ĠA L
áĬ¨ áĪªáĭ«
Ġch a
áĭĿáīĥ áĭĽ
áĭ´ áĬķ
ĠáĪ¨ áĭ¥áĪĿ
ĠáĬ¥áĪŃáĪĿáĮĥ áĭİáī½
ĠB ible
ĠáĬ¥áĬķáĭ² áĬĸáĪŃ
1 19
w h
ĠáĪĽáĪµ áĮ¨áīł
Ġd ict
ĠáĬ¥áĬķáīħáĪµáīĥáĪ´ áĭİáī½
ac ies
ĠáĪĺáĪĺ áĭĺáĬĽ
Ġáĭ¨áĭ«áĭĺ áĭį
oes ter
áĪĮ áī²áĬŃáĪµ
ĠáĬł áĭĪáĭ³
ĠáīłáĪķ áĭŃáĭĪ
Ġáī°áįĪ áĮ¥
ĠáĭĿ áĪµ
ĠRuss ia
ĠáīłáĪĺ áĪĿ
áĪĺ áĭĽ
ĠáĪģáĬĶáī³ áĭİáī½áĬķ
ĠáĪĽáĪķ áīłáĪ«áĭĬ
ĠáĬłáĪŃ áĪĽ
ĠáĪĥáĭŃ áĪİáī½
áĬķ áĭ²
áĭĲ áī°
áĭ«áĭĺ áĭį
Ġáī¶ áĪİ
áĭ²áĪģ áĪĿ
up a
H O
ĠáĬ¨ áĪ©
ht tp
bin ary
ĠáĬ¨áī¢ áĭµ
tre prene
ĠáĬłáĮ¥ áĪĽ
ĠáĬ¥áĭįáĬĲ áī³áĭİáī½
Ġaan stoot
Ġverh eerlik
Ð°Ñ Ĥ
áīħáĭ± áĪ³áĬķ
ĠO om
hal te
áĬķ áĮ¥
ed skap
Ġhand ig
Ġskrik keljaar
Ġwys iging
Ġform ule
waart s
Ġhet sy
ĠáĭŃáĪħáĬķ áĬĳ
mat iese
ĠáĪķáĭĿ áī¡áĬķ
ĠWet enskap
ĠáįķáĪª áĪĿáĭ¨áĪŃ
Ġaange teken
ĠáĮŃ áĬ«áĬĶ
Tyd ens
is asies
Ġuit er
or th
Ġa pos
Ġliggaam s
âĺħ âĺħ
an seer
pr oef
Ġinsk rywings
Ġg asheer
ĠáĬ¨áĪĿ áĪ½áī±
Ġlek k
Ġgeheim s
ĠáĬłáĬķáĭµ áĬķ
Ġverskaf fer
Rel ated
Ġst ik
uit er
leg a
Ġwas bak
Ġáĭ¨áĪħ áĭĪáĪĵáīµ
ape ut
Ġáĭ¨ áĪĭáī¸áĭįáĪĿ
ĠáĬ¨ áĭ°áī¡áī¥
ked in
Ġáĭ«áĪĪ áĪĽ
ĠáĭĵáĪĺ áī³áĭĬ
Ġáĭ¨áĪļáĮĪáī£ áĭįáĬķ
ĠN ov
g al
ĠáĬ¥áĪŃ áĪ»
ĠáĬ£áĪµ áĪĺáĪ«
5 30
áĮĢ áĬŃáīµ
áī¾ áīµ
ĠáĪĪáĪĽáĪ³ áĭ¨áīµ
áĬĿ áĬĵ
est ing
ĠáĮł áīłáīĥ
Ð¾ ÑĢ
Ġáĭ¨áĬł áĪµáī°
áįĪáĪį áĮ¥
ĠáĬĲáĮĪ áĪ©
Ġáĭ¨áĭµáĪŃ áĮħáīµ
ĠáīĨáĭŃ áī·áĪį
im er
Ġáī£ áĪĭ
ĠÄį eÅ¡tina
áĭ± áī£áĭŃ
áĭµ áī¥
ĠáĬĲ áī¥
Ġáĭ¨áī° áĮłáīĥáĪļ
áĪ¨ áĪ³
Ġáĭ«áĪµ áĪ¨áĭ³
ĠáĬłáĪµáĪ¨áĭµ áī°áĭĭáĪį
áĬ©áĪį áĬĲáīµ
10 4
ĠAn th
Ġob s
áīł áīģ
áįĪ áĮ¥áĪŃ
áĭĪ áĭ°áĬķ
ĠáĭĿ áĬ«áĭ¨áĭµ
ĠIs ak
f ontein
Ġáīł áĪĬ
197 1
p ari
áĮĭ áĮĪáĪŃ
Ġáĭ«áī°áĬ® áĪ¨
S w
g uide
lin kedin
p ir
ĠáīħáĪŃ áĪ¶áī½
Ġma jor
Ġdis c
Ġg rawe
ĠS il
ĠáĭŃ áĮłáīłáīħ
Ġáĭ¨áĪļ áĪĺáĪ«
ĠáĪĺáĬķ áĪµ
Ġáī°áĮįáĭ³ áĪ®
ĠáĭŃáĬĸ áĪ«
áĪĪ áīµáĬķ
ĠB asa
áĬ¨áĪ° áī±
Ġsen uwee
ĠáĪħáĮ» áĬĵáīµ
Ġáĭ¨ áĪīáĪĿ
Ġaan moedig
dor p
Ġv in
iÃ« l
Ġster we
Ġb i
Ġjaar likse
Ġvr ies
ĠDr ie
Ġverr assings
ĠáĪĪáīµ áĬŃáĬŃáĪĪáĬĽ
Ġower hede
Ġsilik oon
ĠD onderdag
ĠV ersk
Ġraak sien
Ġwonder werke
Ġslim foon
Ġdub bele
Ġimplem enteer
áī¸ áĭīáĬķ
Ġna deel
pr ente
Ġgedefin ieer
aan bied
Ġgew as
Ġnag aan
Ġver breek
Ġg awe
Ġle gend
Ġbed ryw
Ġnoord elike
ĠáĭŃáĮįáī£ áĬ¥
iolog iese
rokken heid
Ġk abel
Ġáĭ¨ áĭ¨
ĠBr ink
ĠáĮ¥ áī¥áīħ
Ġgesk iet
uff e
he ad
ĠáĭŃáĭ°áĪ¨ áĮĭáĪį
áĪ« áī¢áĭ«
ĠPl us
ĠF ar
Ġhar der
u y
ou l
ĠD C
ass a
ĠD eb
ĠáīłáĪĢ áĮĪáĪªáī±
OO T
áĭ± áĪµáīµ
ĠáĪĬáīĢ áĪĺáĬķáīłáĪŃ
Ġáĭ¨áī´ áĪĮ
ĠáĬ¥áĪŃ áĪ±áĬķ
áĭ¨ áī³
d og
ĠáĪį áī¦áĬĵ
áĮĪ áĪĮ
ĠÐ± ÑĬÐ»Ð³Ð°ÑĢÑģÐºÐ¸
mo der
áĪĭáĪĪ áįĪ
ĠáĬł áĮĪáĪ«áī½áĬķ
ĠA ks
Ġqu ot
Ġáĭµ áĮĭ
ĠáĬł áĬ¨áī£áī¢
áī¡ áĭµ
ĠáĪĺáĭĪáĭ³ áĬ¥áī³
in ig
ĠáĮ¨ áĪŃ
Ġáĭ¨áĮį áĪĭáĭĬáĬĲáīµ
ĠáĪĨ áĬķ
ĠáīłáīĢ áĪµ
ĠTra vel
D us
áĪį áĬĵáĪį
ĠáĬ¢ áĬķáĪµ
Ġáīłáī° áĬ«áĪĦáĭ°áĭį
11 1
Ġáįĭ áĪ²
Ġc ulture
áĬķ áĮİ
Ġregter hand
Ġbedr ieg
ĠD room
áĮ£ áī¢
ĠáĪĽáĪķ áīłáĪŃ
ĠM usiek
Ġerf enis
Ġn asies
Ġoortuig ing
Ġáīł áĮĪáĬķáĭĺáī¥
áĪĬ áīłáĪĭ
ĠáīłáĮįáĪį áįħ
Ġge organ
Ġonver wag
bedek king
ek sie
Ġvr ol
aard ige
ĠáĬłáĪµáįĪ áįĥáĪļ
Ġkonst ante
or iese
Ġuit koms
áĬķáĭµ áĪŃ
Ġmis bruik
Ġverw oes
Ġaanbied ing
Ġoul ike
Ġim pliseer
Ġáī£áĭŃ áī¶
Ġverkies lik
Ġdwel m
ies ters
Ġle Ã«r
Ġmet af
Ġaan wes
Ġáīµ áĪį
Ġqu est
Ġpaar tjie
Ġgebeurtenis se
áĪ¸áĬķ áįį
ĠS S
ĠáĪĺáĮ¥ áī¶
áī² áīŃ
ĠK inder
ĠáĬķ áīģ
m ans
ĠT we
ĠáĬ¥ áĭŀáĪĿ
197 2
Ġin fl
qual ize
Ġáĭ¨áĬł áĮĪáĪªáī±
áĭĺ áĬĵ
Ġkom e
ĠV as
f ot
áĬķáī² áī£
áĪª áĪį
Ġpas ta
198 1
er a
áī¡ áĪµ
ĠáĭµáĪŃáĮħ áī±
áĪĿ áĪĭáĬŃ
ĠC F
Ġpolitic al
ain ment
W ord
Ġáĭ« áĭĪáĮ£
ĠáĬŃáīµ áī£
Ġáī°áī£ áĪĤ
ĠS ow
ĠP al
ĠáĬ¨áĪĿáĭĺ áĪİ
áĬĹ áĬķ
ĠáĪ° áīł
n o
olog ies
áĪĺ áī½
ĠáĪĺ áī»
aa al
ĠáĬ¨áĬł áĪĿáĪµáīµ
ur t
ĠáĮĦ áĬĶ
oor n
Ġgest ap
ifik asies
áĮ¨ áĭį
Ġvari asies
Ġaf rigter
Ġáī¥áĭĿ áī°
ĠáĬłáĪµ áĪ«
uim e
Ġs meer
Ġáĭ³ áĪ°áĪ³
ĠáĬ¥áĬķáĭ²áĭ« áĮĪáĬĻ
Ġkriter ia
ĠáĪĿ áĪĿ
tr ou
ule erde
tel j
Ġpr oe
Ġmag iese
ĠChr is
Ġhoeveel hede
Ġgevaar like
bev ole
Ġingebou de
ĠH or
ĠáĪ° áĪ«áĭĬ
áĬ© áĬª
áĪĪáīµ áĪĿ
Ġeks amen
Ġfundamente le
Ġb eroer
br oek
Ġsp og
Ġsn ags
áįĲ áī¥áĪĬáĬŃ
webwebwebwebwebwebwebwebwebwebwebwebwebwebwebwebwebwebwebwebwebwebwebwebwebwebwebwebwebwebwebwebwebwebwebwebwebwebwebwebwebwebwebwebwebwebwebwebwebwebwebwebwebwebwebwebwebwebwebwebwebwebwebwebwebwebwebwebwebwebwebwebwebwebwebwebwebwebwebwebwebwebwebwebwebwebwebwebwebwebwebwebwebwebwebwebwebwebwebwebwebwebwebwebwebwebwebwebwebwebwebwebwebwebwebwebwebwebwebwebwebwebwebwebwebwebwebweb webwebwebwebwebwebwebwebwebwebwebwebwebwebwebwebwebwebwebwebwebwebwebwebwebwebwebwebwebwebwebwebwebwebwebwebwebwebwebwebwebwebwebwebwebwebwebwebwebwebwebwebwebwebwebwebwebwebwebwebwebwebwebwebwebwebwebwebwebwebwebwebwebwebwebwebwebwebwebwebwebwebwebwebwebwebwebwebwebwebwebwebwebwebwebwebwebwebwebwebwebwebwebwebwebwebwebwebwebwebwebwebwebwebwebwebwebwebwebwebwebwebwebwebwebwebwebweb
áĬ¨áĪ° áĪŀáĬĳ
bed rag
wet enskap
ĠáĬ¥áĬķáĭ°áĪĺ áĪĨáĬĳ
V oeg
áĭ® áĪĲáĬķáĪµ
Ġverplig tinge
ĠáĭŃáĪ¨áĭ³ áĪį
Ġaan gewend
ĠáĬłáĬķáī£áī¢ áĭ«áĬķ
Ġgim nasium
Ġáĭĵ áīłáĭŃáī²
com plete
ĠÐ ²
Be antwoord
áī° áĪ»
ĠT art
ĠáĭįáĪµáĮ¥ áĪĿ
ĠáĪ¶ áįįáīµáĭĮáĪŃ
gel ig
ĠáĮīáĭ³ áī°áĬŀáī½
ĠáĪĺ áįĥ
ĠáĮ¨áĭĭáī³ áĭİáī½áĬķ
áĭĿáī¥ áĪį
ĠáĭŃáįĪ áĮ¥
ĠáĬ¥ áįĪáĪįáĮĭ
ĠáĪĽ áĪĿáĪ¨áī»
ĠáĮ¥ áĮį
Ġáĭ¨áī¤áī° áĪ°áī¥
áĪµáī² áĬķáĮį
ac re
w aal
áĬĵ áīµáĬĵ
ĠA PS
ĠN adex
ĠáĪĽáĪµ áĮłáĬķáīĢáīĤáĭ«
e ot
ĠáįĬáĪį áĪŀáī½
ĠáĪ° áĬłáīµ
ĠK ing
ĠáĬķ áįģ
Ġáĭ«áĬĲ áĪ°
ĠáĪ° áįĭ
ĠáĭµáĪŃ áĭµáĪŃ
ĠJ e
Ġáī° áĬĿ
ĠáĪªáįĸáĪŃ áī°áĪŃ
ĠáĬ¥áĬĵ áī¶áī½
" -
ĠáĪĺáĮ½ áĪĵáįį
ĠáīµáĪĿáĪħáĪŃ áīµáĬķ
ĠáĬł áĪŃáī²
Â ®
Ġáĭ¨áĪ°áĭį áĬĲáīµ
ĠáĪĺáĪŃ áĪħ
ĠáĬ¨ áĪ¥
ĠH all
ĠáįĪ áĮ¥
áĪ« áī¶áī½
rag ing
ch i
Ġáīł áī»áĭŃáĬĵ
Ġáĭ¨áī° áĮĭ
áĬĴ áĬ«áĭĬ
ĠáĪĮáĪĭ áĭįáĬķ
ĠáĪ°áĭŃ áĮ£áĬķ
Ġáĭ¨ áįħ
onk ly
Ġst aff
eth ing
ĠáĪĿ áĮ¥
tr ib
ĠáĬ£ áī¢
Ġman ip
Ġáĭ¨áĬŃ áįįáĭ«
Ġered iens
ĠF il
ĠSo om
ĠáĪĺ áĪĺáĪįáĬ¨áīµ
Ġer a
ten are
ĠáĮīáĪį áīłáīµ
Ġaart appels
ĠH emel
ver vaardig
pro bleme
ĠáįĪáīĥ áĭ°áĬĽ
Ġap art
áĪĸ áĪĿ
Ġlat vieÅ¡u
Ġver ne
ĠRes erved
Ġbl ote
bel asting
Ġonth ul
Ġs aai
Ġoor sake
Ġmaat reÃ«ls
ĠáĪĥáĭŃáĪĽáĬĸ áī³áĭĬ
Ġewer edig
M ense
Ġw aai
Ġjou ne
Ġveg an
×ĳ ×¨
ut te
gel de
ĠáĭŃáīĢáĮ¥ áĪĭáĪį
Ġáĭ«áĪµáĬ¨áīµ áĪĭáĪį
ĠáĪµ áįĭáīµ
Ġáĭį áĭŃáĭŃ
Ġaf spraak
ĠBeeld krediet
stry de
Ġom skakel
bru g
Ġnu uts
Ġmin er
lÃª er
ise ur
ĠÑĢ ÑĥÑģÑģÐºÐ¸Ð¹
L inks
Ġbes sies
ĠáĬķ áĪķáĬĵ
Ġáĭį áĪ»
ic y
ĠW i
E urop
áī¢ áĭĿáĬĲáĪµ
Ġbet ween
áĪº áĪħ
áĪ´ áĪĽ
idd ing
áī° áĪħ
ĠMart in
Ġáĭ¨áĪĤ áĪ³áī¥
O OR
Ġtel ling
Ð· Ð¸Ðº
ĠáĬ¥áĪµ áĪĽ
ĠS ake
áĭ¨ áĪĻ
h uur
Ġk h
In st
ĠáĬłáĮĪáĪįáĮįáĪİ áīµáĬķ
Ġáĭ«áĪī áĬķ
áĭĬ áĬĲáīµ
Ġmin ister
ĠáĬłáĭŃáĭ° áĪį
ĠáĪĺ áĪĵ
ĠBr and
198 9
áĪĪ áĪī
áĭ« áī¸áĭįáĬķ
ĠáĬłáĪĪáĪĺáĪĨáĬĳ áĬķ
ĠáĬĲ áĬŃ
re por
áĭĭ áĪµ
Ġa uthor
A G
Ġáĭ¨áĪļ áī³áĭĪáīħ
ĠáĪ¥ áįįáĪ«
ĠApp le
ĠáĮį áĭĿ
ĠW ik
uil of
ĠAdministr ation
Nederland s
Ġw rit
Ġáĭ¨áĪĺ áĮ½áĪĲáįį
ĠConspir acies
Ġáī° áĪ¾
łà¸²à¸ ©
Ġsk el
ĠáĬłáĬķáĭ³ áī½
ĠáĮ« áįį
kaart jies
ĠáĬĲáĭį áĪŃ
ĠPh otos
áĭŀ áĬķ
Ġáĭ¨áĪŀ áī£áĭŃáĪį
Gl obal
ĠáĭŃ áĬĲáĮį
ĠN iks
áīł áĪª
Ġde bat
ĠáĪ²áĬĸ áĭ¶áĪµ
áĪľ áĪ½áĬķ
ĠáĪĨáĬĲ áĭĭáĪį
ĠáĮ¥áĬĵ áī¶áī½
Ġkr uie
ĠáĬ¢ áĬ®
Ġgod delike
binary option
Ġu i
áĮĥ áįĵáĬķ
H P
Ġge genereer
áĪĪ áĬł
Ġbloot gestel
Ġl ir
Ġverb onde
Ġster r
Ġonge t
Ġtaam lik
áī² áīª
Ġgesk rewe
Ġindep endent
à® Ł
u pl
ok perd
Ġtien ers
B enewens
Ġon ged
Ġu iteindelike
Ġwaar onder
Ġkre atief
Ġakk omm
d ood
ĠH of
ank sy
ĠTer ror
Ġoortre ding
d ings
ĠVer maak
áīķ áĪª
ĠÐ¼ Ð¾Ð²Ð°
mpt rade
Ġrelevan te
Ġske iding
Ġunivers ele
Ġdw aal
ĠD insdag
ĠH ag
Ġsk uim
ĠáĬ¥áĬķáĭ² áīĢ
ĠáīłáĮİ áĬķáĭ°áĪŃ
Ġkap itaal
ĠáīłáĭįáĪµ áĮ¡
D es
p al
Ġd wer
if orex
Ġbet iforex
à® ³
Ġforex binaryoption
Ġoly mptrade
Ġáĭ¨áĪĺ áĬªáĬĵ
Ġáĭ¨áĪļ áĮłáīĢáĪĻ
áĭķ áĪįáĬĵ
Ġp el
ĠA P
Ġáī° áĪĿ
áīĨ áĭ¨áīµ
Sim ilar
Ġáĭķ áĪĭáĪĽ
X hosa
Ġáĭ¨áĬł áĭŃ
S K
Ġf re
Ġth ing
áĮĪáĬĻ áīłáīµ
Ġáĭ° áĬ£
ab et
Ġ eth
Ġas tr
áĪ© áĬĵ
áĬ© áĬĿ
verk l
ĠMa x
áĪĺáĭĿ áĮĪáī¥
V C
ĠáĬ¥ áĮĥ
áĭĻ áĬķ
áĪĭ áī»
ĠáĪ¨ áĪĥáī¥
Ġáĭ¨áĪļáĭ«áĪµ áįĪáĪįáĮī
ĠAlex ander
Ġin ste
ĠáĮ½áĪĳ áįİáī½
T V
áĪ¬ áĪ½áĬĳ
Ġáī ¬
ĠáĬ¬ áĪļ
Ġo thers
ĠáīłáĪķ áĭŃáĭĪáīµ
c el
ĠáĪļáĬĴ áĪµáī°áĪŃ
ĠáĬłáīµ áĪ®áĬķáĪµ
áīł áĪĽ
) ]
ob ile
ĠáĬ¨ áĮĪ
ĠáĪĺáĪĢ áĪĺáĭµ
Ġvit amien
Ġres erv
Ġh awe
ĠChar les
r uim
áĪĿáįĴáĭį áī°áĪŃ
Ġth ree
ĠáĬ© áĪİáĪĿ
Ġproses se
beh eer
ĠáĬłáĭ°áĪ¨áĮĥ áĮĢ
ĠD n
ĠL ang
Ġtyd elik
ĠLuis ter
ĠIndones iÃ«
Ġgev oer
ikkel de
Ġverhoog de
Ġint ussen
re eu
Ġanders ins
Ġsond ige
Ġslag offer
ĠVoor beeld
Ġherinner inge
Ġverj aarsdag
Ġbev eilig
Ġeg skeiding
Ġsond ig
Ġ.... ..
Ġmoed ers
ĠáĬ¥áĬķáĭ³ áīµ
ĠáĭŃ áĭŁáĪį
inn ek
ĠS ug
áĪ³ áĭµ
Ġuit spraak
Ġverskaf fers
en jin
be weeg
ĠáĬ¥áĬķáĭµ áī³
198 8
áŀ Ł
áĪµáīµáĪ« áĪĬáĭ«
áĭķáīĨ áī¥
ĠáĬ¥áĬĵ áīĢáĪŃ
áĪı áīµ
Ġáī° áĮĵ
áĭĺáĮĭ áĮĥ
Ġn ational
Ġf ac
ĠáĪĪ áĭĵáĪĪáĪĿ
áĮ£ áī½áĪģ
ĠáīµáĪŃ áĮĵáĪľ
áī³áīµ áĬĵ
ĠE m
áĭ³ áĬĴ
áĪµáī¥ áĪµáī¥
ĠáĮĪ áĪĪáĪį
Ġáĭ¨ áĬĭáĪĭ
ĠáĭŃ áĮ«áĬĳ
áįķáĪ«áĭŃ áĭĿ
Ġáĭ¨ áī¥áĪį
ĠáĪĺáĬĲáĪ» áī¸áĭį
ĠáĪĿ áįį
Ġáī°áīĵ áĭįáĪŀ
Ġáĭ«áĪµ áī½
ad or
ĠáīłáīĢ áĪį
áĪ¨ áĬĿ
Ġáī¥ áĪī
áĪĺ áĮ½áĪĲ
ĠáĪĺ áīĲ
ĠáĪĽ áīĢáĬĲ
Ġáĭµ áĮį
áĪ° áĭ±
ĠáĪµ áĪªáīµ
Ġple ase
ad u
ĠáĪŀ áī°áĪŃ
ĠáĪĺáĪ¨áĮĥ áĬķ
áĪŀ áĪ«
Ġin ent
Ġáĭ¨ áĮĢáĪĺáĪ¨
ĠáĮ¥ áĪ¬
Ġadv ice
ĠIS BN
áįĪ áĮłáĪ©
Ġáī¥ áĪĪáĪħ
Ð ±
áĮłáĭŃ áīģ
ĠáĭŃ áĪĺáĭĿáĮĪáī¡
ĠáĬķ áĭĺ
áĬłáĬķ áĭ³áĬķ
uc ture
Ġlid maat
ĠáĬĥáĮ¢ áĬł
Ġlink erkant
Ġverk oel
Ġde f
Ġgereg uleer
tegn ologie
Ġabstr akte
Ġbl aai
Ġvers w
hebb ers
Ġdeur ge
St okperd
ĠLond en
Ġperman ente
ir d
ter rein
form aat
Ver wysings
Ġbinn eland
Ġáĭ¨áĪį áĭ©
t ipe
Ġs amel
Ġaf st
Sk ryf
ek tor
ĠáĪĪáĪĺ áĪĿ
Ġgedeelte lik
Ġmet tertyd
Ġlief ge
En ige
Ġáĭ¨áī°áĪĺ áĪłáĪ¨áī°
Ġakw arium
ĠH elp
Ġvol hou
Ġsig self
Ġmas siewe
beskerm ing
ĠJap annese
Ġo lyf
Ġb iblioteek
ĠáĬ¥áĬķ áīģ
ĠáĬķ áĭĳ
oll ige
Ġkuns werk
áĬŃ áī¡áĪŃ
Ġfamil iel
ĠáīłáĮ¥áĬķ áīĥáīĦ
ĠS ag
ĠáĮį áī¥áĪŃáĬĵ
Ġwas masjien
Ġáĭ¨áĪĺáĮ¨áĪ¨áĪ» áĭį
ĠáĬłáī¥áĭĽ áĬŀáī¹
áĭĵ áĪī
ĠáĮĪáĭ° áĪĽ
Ġf ree
Ġáī¤ áī±áĬķ
H R
ĠáĬł áĭĻ
ĠáĬł áĮ¥áĪŃ
ĠSim on
own l
ĠTe xt
Ġáĭ¨áĪŀ áĪ«áĪį
ĠáĬ¥áįĪáĪįáĮĭ áĪĪáĪģ
ĠáīģáĪ³áīģ áĪ¶áī½áĬķ
Artik el
b ul
Ġáįį áĪ«áĬķ
ĠáĪĺáĪįáĭķ áĬŃ
ann a
ĠáĪµáĪĪ áĪĨáĬĳ
áī° áĪ®áī½
ĠáĬŃáįį áī°áīµ
ĠáĪĽáĭķ áĬ¨
ĠáĮ¥ áīł
ver al
Ġr oof
ĠT or
ĠáĭŃáĮłáīĢ áĪĽáĪį
Ġáīł áĮįáī¥
Ġsp ot
ĠáĪĪáĪĺ áĬŃ
Ġdom in
Ġw iel
Ġáī¥áĭ¨ áĭ³
ĠB al
ĠDav id
h or
m edia
Ġáĭ¨áĮĪáĪĪ áĮ¹áīµ
ĠáĭĿ áĭĢáĬĲ
Ġg iet
ĠáĪĽáĬķ áĬĲáīµáĬĵ
il y
ĠáĪĺáĪ¥ áĪªáĭ«
áĬĿ áīµ
ĠM P
ĠáĬłáĪµ áīĢáĭµ
ĠáīłáĬŃ áĪŃáĪµáī¶áĪµ
is ing
ge en
áĪĿ áĪĿ
ĠáĪĺáīĢ áĬĲáĪµ
ĠáĭŃáĮ¨ áĪĿáĪ«áĪį
p ng
áĬĲ áī³
ĠáĭŃ áĮ¥
ĠáĭŃáĪħáĬķ áĬķáĪĿ
áĬ¨áĬĵáĭĪ áĬĳ
Ġáī°áĮ½ áĬ¥áĬĸ
Ġgrammat ika
ĠáĭĿ áĪĥ
áīª áĬ¦áĬ¤
ĠAk ade
ĠáĪĽ áīµ
áĬ¥áĬķ áĭ²áĪħ
Ġáĭ² áĮĤáī³áĪį
d on
áĪĺ áĬĿ
Ġch ron
ĠáĬ¥áĭ¨áī° áĭ³áĬ¨áĪĺ
Ġonget wyf
h awe
áīĨ áĬĵ
mm ings
er al
Ġbeg ryp
Ġeksk lus
yk om
ĠáĪĺáĪµáĪĺ áĪ®áī½
ĠD og
ag asie
Ġons ig
Ġs jabloon
Ġkop ieer
te it
Ġver fr
Ġbeskerm ende
Ġdo eleindes
Ġoor kant
Ġtoe passings
Ġpas iÃ«nte
Ġdr omer
ĠáĪĪáĪĺ áĪĺáĪĪáĪµ
Ġbl its
iÃ« ring
ook ie
p omp
Ġwonder werk
Ġtoen ame
kan aal
ĠáĭŃ áĭŃ
op roep
Ġs ink
Ġsimb ole
c ast
ĠáĪĺáĪµ áīĢ
ĠáĬ¥áĬķáĭ°áĪļ áĮĪáĬĿ
ĠáįĢ áĮĭ
Ġáįİáī¶ áĭİáī½
ĠM ember
ĠáĬ£áĬķáĮ» áĪŃ
N ov
ad v
áĭĪ áĬķáĭµ
f acebook
Ġáī§ áĬķáī§
Ġáĭ¨áī°áĬĲ áĭ°
Ġ !!
áĬķáĭµ áĪ®
Ġáĭ´ áĪŀáĬŃáĪ«áĪ²áĭ«áĭĬ
r in
ĠáĬ£ áĪĪáĭį
áīµáĬķ áĪĿ
Ġbin ary
ĠáĬ¥áĬķáĭ³áĪĪ áī£áī¸áĭį
ĠN oor
Ġáī¥ áĬĵ
ĠáįķáĪ¬ áĭĿ
ĠáĪĪ áĮĬáĭľáĭį
ĠáĪĽ áĭ«
ĠáĪĽ áĬĶ
ĠáĪĢ áĮĪáĪ«áī½áĬķ
ĠáĬ ½
Ġáĭ¨áĪĺ áīĢ
ĠáĮ¸ áĪĵ
Ġhom e
ific ation
op pe
áįĭ áįĭ
ĠáīĢ áĭµ
ĠáĪĺáĪ³áĪªáĭ« áĭİáī½áĬķ
Ġáĭĺ áįį
ĠáĪª áįĪáĪ«áĪį
jec ts
ĠáĬłáī£ áī£áĪį
B oek
Ġman if
ĠáĬ¥áĪ« áĪ±áĬķ
Ġfas ade
ĠáĬ¢áĬķ áĭ±áĪµáīµ
, âĢĻ
áĪĺ áĭ±
ukk ings
łà¸²à¸© à¸²
Ġh aa
áĪ¨ áĬķáĪµ
áĭ²áĪħ áĬ¤
ĠS en
Ġáĭ¨áĪĺ áī°
ĠáĪ© áīħ
AC H
ĠáīłáĮŃ áĪ«áĪ½
áĪ° áĪĪáīµ
Ġvoor reg
und els
áĬĲ áĬ«
ĠáĬłáĮ¥ áī¥
ĠáĮĬáĭľ áĭ«áĭĬ
áĭ« áĪĪáĬķ
ĠáĬŃ áĪŃáĪµáī¶áĪµáĬķ
ĠáĪ¶ áĪµáī°áĬĽ
B asa
m ing
Ġonge hoor
ver l
ĠáĪĺáĪµ áĬ®áī½
ĠáĬ¥ áĮįáĭļáĬłáī¥áĪĦáĪŃ
Ġg in
ĠB LOG
Ġáĭ¨áĪĽ áĭķ
197 3
Ġkn offel
Ġr inge
ĠP ak
is oen
Ġp it
Ġge pro
ĠáĬł áĪ²
ĠW enke
meng sel
L ig
áĭį áĮ£
ĠáĬ¥áĬķ áįĪáĪįáĮĭ
áī¶ áī³áĪį
Ġverm oor
ĠD im
Ġon ger
Ġre aksies
Ġwaar neem
Ġverwag ting
ĠHoÃ« r
Ġalt aar
Ġs ade
ĠN uus
áĬĶ áĪį
Ġkyk ers
ĠAl gemene
Ġtek ort
Ġuitr uil
ĠN ic
Ġek spl
Ġgebruik te
ĠdÃŃ t
Ġáī°áĪ° áĮł
Ġstand aarde
uik er
Ġharde ware
Ġhan tering
te min
geb ly
Ġáĭ¨áĬĳ áĪ®
Ġbe oordeel
ĠIn diese
Ġnag ereg
Ġwins gewende
ĠáĭĵáĭŃ áĬĲáī±
áĪ¨ áĮĪ
Ġveroor deel
Ġáī° áĬ¨áĪ«
áĪµ áĬĲáīµ
Ġval uta
D E
ĠÐ ½
ĠáĬ¨áĬ¥ áĪŃáĪ±
ĠáĪĥ áĮĪáĪ«
áĮ¦ áī½áĬķ
ĠDep artment
is es
ĠáĭĭáĮĭ áĭİáī½
ĠáĬ¨ áįĬ
ĠáĭŃ áĪ°áī¥
áĬĲáīł áĪ«áī¸áĭį
ĠáĪŃ áĭĿ
app el
Ġáĭ´ áĪŀáĬŃáĪ«áĪ²
ĠáĮłáīĢ áĪľ
áĪİ áĬĵ
Ġáī£áĪĪáĪ¥ áĪįáĮ£áĬĵáīµ
Ġáīµ áĮįáĪ¬
ĠáĬłáī£ áī³áī½áĬķ
z er
ĠáĪ¸ áĭĭ
ĠáĭĿáĪĿáĪį áĬ¨áīµ
áĪ« áī½áĬķ
áī¾ áī½áĬķ
ĠáĬłáĪĭ áĪµ
ĠL es
áĭ° áĪĺ
Ġáīģ áĮŃ
áĪĺ áĬĵáĪį
áĬĲ áĪ°
áī½ áĬĵ
Ġáĭ¨áĪļáĭ« áĭ°áĪŃáĮĪáĭį
du ction
ĠáįĪ áĪ³áĪ½
Ġáĭįáĭµ áīħ
ĠáįĢ áĪĲáĭŃ
Ġ Õ
ann er
ĠáīłáĪ° áĮ¡áīµ
Ġáĭ¨ áĮ«
ĠU p
an sl
ĠáĪĺ áĮĢáĪĺáĪŃáĭ«
ĠáĭŃ áĮĪáĬĻ
the me
Ġáĭ¨ áĮĨáĪ®
áīĥ áĪĪáī½
áĭĪáĪµ áĭ°áĭį
Ġáĭ¨áĪļ áĭĺ
uit ing
ĠáĪĪáĪĽáĪµ áĭĪáĮĪáĭµ
Ġw end
áĭ¨ áĬ¦áĪ®áĪĿáĭ«
ĠáĪĽáĪµ áĭĪáĮĪáĭµ
âĿĸâĿĸ âĿĸ
áĪĭ áĮħ
c on
D W
áįĪáĪ« áĭį
se d
ĠáĮĭáĭľáĮł áĬŀáī½
ĠE vangelie
W ant
ĠR et
áĬĹ áĬĹ
ien ces
ind iging
em onie
Ġáĭķ áĭŃáī³
Ġwie le
Ġland bou
áĬ¥áĬķ áĭ²áĪģáĪĿ
sk rag
pl ate
tu Ã¯
Ġgepas te
Ġwerk gewers
Ġáĭ¨áĬ¥ áĪŃáĪµáĭİ
Ġgekon fronteer
j ag
y an
st appe
Ġherinn ering
hard loop
Ġgrond slag
Ġnuuskier ig
Ġtá» «
Ġh amer
Ġgereg tig
ĠAnders ins
w orld
áĮĭ áī¢áīµ
to estel
... ]
enter ing
M a
Ġáī°áĭĪ áĪį
ĠáĬłáĬķ áĭ·
ĠáĪĽáĪħ áīłáĪ¨
Ġáīł áįĬ
áĪ° áī°áĬĽ
c ad
ĠáĬ¨ áĪŀ
ĠáĬĲáīłáĪŃ áĬĵ
ker ing
áŀ Ĺ
áī» áīµ
áĬĵ áī¢áĪµ
ĠM id
áī½ áĪĪáĭįáĬķ
Ã© t
ĠArg ent
Ġáĭ« áĭĪ
áīĢáĪĺ áĮ¡
ĠáĬ¥áĬķáįĪáĪįáĮĭ áĪĪáĬķ
Ġta bl
áĪ½áĬ¨áĪŃ áĬ«áĪªáĭİáī½
ĠáĭŃáĮĢáĪĿ áĪ«áĪį
ĠáĬŃ áīł
n orm
ĠáĪĽ áĪĿáĪ¨áīµ
áĪĭ áĬ¥
áĪ³ áĪĪáĬĿ
ĠR ich
áĮ¸ áĭį
ĠáĮİ áĪ«
S tu
l r
ĠáĬłáī¥áĭĽ áĬĽáĭİáī¹
A g
Ġp oint
K e
ar th
ĠáĪĪ áīħ
Ġáĭ«áĭ°áĪŃáĮĭ áĪī
ĠáĬŃ áĪĭ
St art
áĬ¥ áĬķáĮįáĭ²áĪħ
ĠáįĭáĭŃ áīłáĪŃ
áī¡ áĪį
áĭ« áĪĪ
u u
lem ariam
Ġintern ational
id usan
áĬ¬ áĪļ
Ġáī°áĭĭ áĪħ
b alk
Ġáĭ¨áĬł áĭį
ĠáĪĺáĭµáĪĥ áĬĴáīµ
ĠáĪįáĭįáĭį áĮ¥
ĠMar ket
ĠáįĪáĪ¨áĬķ áĪ³áĭŃ
áĪ«áĬķáĪµ áįĸáĪŃáīµ
ĠáĪ² áĪĺáĮ£
ĠáĪį áĮ¥áįį
Ġáĭ¨áĬł áĪµ
Ġáĭ³ áĬĴ
Ġhor los
ĠáĬ«áįĴ áī³áĪį
áįĪ áĮ£áĬķ
áĮ¢ áĬłáīµ
ĠWil lem
áĭ´ áĪĭ
ĠSt ar
ĠáĭŃáīĢáĬķ áĪ³áĪį
l ot
ĠDie gene
la de
Ġgewoon tes
ĠáĬ¥ áĪ±áĬķ
áĪĺáĪŃ áīģ
skut ter
op slag
Ġbes org
Ġkr isis
Ġáĭ¨áĭĪ áĪ¨
Ġverb orge
ĠGr ond
Ġáīł áĪĪ
ĠáĭĿ áĬ¾áĬĳ
Ġkop pe
Ġverw ant
Ġontvang er
Ġgereg te
áī« áĭŃáĪ¨áĪµ
Ġáįįáīµ áĪħ
d aar
Ġt ax
ĠA msterdam
ĠáĬłáĪµ áĮĪáĪ«áĪļ
ĠáīłáĪĽ áĪ°áī¥
ĠáĪĪáĬł áĬ«áī£áī¢
Ġgedeel tes
ĠDep artement
ar aat
ĠáĭŃ áĬĵáĮĪ
Ġkleur volle
Ġáĭ¨áĮł áīĵáĪįáĪį
ĠRome ine
D oen
str aal
ĠáĪĺ áĪ²
Ġinsek te
ĠáĪ ¼
ĠáīłáĬł áĮĪáĪ«áī½áĬķ
re quired
áĪ´ áĪĿáīłáĪŃ
ĠáĬ¨ áī¥áĭĻ
áĪ°áī£ áĪ°áī¥
n it
áĮĪ áĪ¬
áĬ¦ áĪį
Ġáĭ¨áĬ® áīªáĭµ
ĠáĪ³ áĮ¥áĬķ
ik o
ĠáĬ¢áīµáĭ®áĮµáĭ«áĭįáĭ«áĬķ áĬķ
áĮİáīł áĬĻ
p ark
ĠáĬłáĭį áīĥáĪĪáĪģ
áĮ¥ áīĢáĪµ
ĠáĪĪ áĭĺáĪĺ
Ġáī¥ áĪ®áĭµáĬ«
áĬł áĬķáĭ³áĬķáĭµ
Ġst ill
ĠáĪĨ áĬľ
ĠáĬłáĭ³ áĪĽ
Ġáĭ¨áĭļáĪħ áĬķ
áĪĮáĬŃáīµáĪ® áĬĴáĬŃáĪµ
zbek cha
Ġáī¥ áĪ°áĬķáĬª
ĠJava Script
áĭ² áĬĵ
Ġhumb le
áĪ¨ áĬŃáī¥
Ġáĭ¨áī° áĪ°áĪĽ
áīĨ áĪ®
ĠáĮİáĪ¨ áī¤áīµ
ĠáĬłáĭĿ áĪĽ
ĠáĬ¥áĭ¨áī° áī£áĪĪ
ĠáīłáĪ½ áī³áĭİáī½
Ġm el
Ġáĭ¨ áĮ»
ĠN ational
ĠáĭĪ áĭ´áīµ
of t
Ġk ub
Ġcomm it
ĠáĪĨáĬĲ áĬķ
ĠáĬķáĮī áĪµ
Ġáįį áīħ
de eg
Ġar bit
ĠáĮĪáī¥ áī°áĭį
ĠQu est
áĭŃ áī±
Ġg ive
Ġáī¢ áĪį
Ġáī°áĮ¨ áī£áĮŃ
d us
ĠáĬ¤ áįį
łà¸²à¸©à¸² à¹Ħà¸Ĺà¸¢
Ġsk ets
áĬŃáĬŃ áĪĪáĬĽáĭį
ĠáĬłáī¤áī± áī³
Ġc ategor
Ġspes erye
Ð ¢
Ġáī³áĪĭ áĪĭáīħ
ĠGl o
Ġáī° áĬ«
áĬ«áī° áī±
ke e
Ġpa ge
Ġlaag ste
áĮĪ áĭ±
ĠE intlik
ĠáĪį áĪĤ
ĠáĬłáĬ«áī£áī¢ áĭį
ĠáĬ¥áĬķáī° áĭĺáĭŃ
ĠB esk
V olgende
ĠáĪĪáĪĽ áĪ¸áĬĲáįį
Gew ilde
Ġkonink like
tel sels
Ġklein tjie
Ġwer we
Ġkor por
p reek
áĪį áĮīáĪį
áĪµáī° áĪĿ
k eerde
m anne
Ġp oeier
Ġop dat
ĠV olgende
eu e
Ġverskyn ing
Ġvervaardig ing
ĠM usic
Ġsy fers
Ġgere is
Ġuitge druk
skool se
Ġabsor beer
b ome
Ġd aal
Ġv onk
Ġbe mark
Ġr ustige
Ġak trise
Ġverf yn
Ġhuwelik s
Ġvervaardig ers
Ġverw arm
al ende
Ġvenn ote
Ġhys bak
st oets
cr oss
Ġapp els
Ġh app
áĬª áĬķ
Ġáīł áĭĻ
áĪĺáĬķ áįĪ
. -
áĭĵáĪĺ áī³áīµ
ĠS ir
ĠáĪº áĪķ
âĢĻ :
áīłáĬł áĬķáĭµ
Ġáī°áįħ áĭķáĬĸ
op ied
ĠáīłáĪĺ áĮįáī£áīµ
áīł áĪħ
led ge
Ġáīł áĪ¬
Ġáĭĺ áĭ¨
Ġáĭ¨áĪĺ áĪŃ
ĠáĬ¦áī£ áĪĽ
A z
Ġuse d
Ġte chn
áĪī áīłáīµ
Ġ Ã¡
upl oads
d ok
ĠáĪ³ áĪĻáĬ¤áĪį
ĠColumb us
Ġáīµ áĬ«áĪį
ĠáĬłáĪĺáĪį áĬ«áī½
1 30
? )
áĬĲ áī³áī½áĬķáĬķ
Ġre ce
áĪĲ áĪĿáĪĮ
ĠáĪĻ áĭļ
ĠL am
um i
Ġáįį áĪ°áīµ
[ [
ĠáĬ®áĪļ áĪ½
Ġáĭ¨áĬĲ áĮĪ
ĠáĪµ áĪĭáĪĪ
Ġáĭĵ áī¢
Ġkl ass
ob ot
Ġáĭ«áĬķ áī°
áĬ©áĪĭ áĪĬáīµ
ĠáĪµ áĭĬ
Ġáĭ¨áĮ¸ áĮ¥áī³
ĠáĬł áĪ½
Ġáĭ¨áĪĺáĪ³áĪ° áĪī
B ly
b ane
áĬĲ áĭµ
Ġáī£ áĭ®áī½
H allo
Ġonver m
Ġordent like
t urele
Ġonver geet
ĠáĪĺáī°áĮįáīł áĪªáĭ«áĭİáī½
iel ie
Ġverskrik like
Ġáĭ¨ áĮĭ
Ġon op
ĠM is
Ġklein tjies
M usic
ĠG ust
tel ing
Ġvol kome
ĠáĬ« áĪĭáī¸áĭį
Ġáī¥áī» áĭįáĬķ
Ġdik te
Ġuitge beeld
B B
g enote
k inders
om ie
ĠV rou
uister ing
Ġáī¥ áĭĵ
ĠH ow
Ġvers nel
Ġs anger
Ġte pel
ent heid
00 86
Ġgew ortel
Ġonderske ie
Ġwetenskap likes
Ġraam werk
bestand dele
Ġp eper
Ġpas poort
Ġbinn este
Ġeiend oms
Ġgener asie
Ġáī³áĪĽ áĬĿ
isik a
Ġverantwoordelik hede
ir st
ĠCategor y
Ġfamiliel id
Ġk oep
ĠáĬ¨ áĭĵáĪĪáĪĿ
Ġbe urs
ĠM ult
Ġmag ne
ĠF orm
br a
Ġáĭ¨áīĨ áĭ¨
Ġáĭ« áĭµ
ĠU V
Ġáĭ¨áī° áĪ¨áĮĭáĮĪáĮł
ĠáĭĪáĪį áĭµ
Ġgen ot
I Y
ĠáĬ® áĬĲ
ish ing
l ip
Ġáī°áĮĪáĬĿ áī°áĭį
áī³áĭĪ áīģáīµ
ĠáĪłáĪ« áī°áĬĽ
ĠáĮįáĭµ áĮįáĭ³
Ġn g
ĠáĬ¥áĭ« áĭ¨
Ġmult i
áĭ³ áĭµáĪŃ
ĠT ip
ĠáĭĿ áĪ°
Ġáī¤ áī¶áī½áĬķ
áĪªáįĸáĪŃ áī°áĪŃ
ĠáĮ¥ áĪİ
ĠáĭĿ áĬķáī£
Pro fessor
Ġáīł áĪģ
Ġáīł áī¤áīµ
ĠáĭĿáĮ¸áĬķ áĪĲ
+ +
ĠáĭŃáĬĵáĮĪ áĪ«áĪį
ĠáĪĽáĪµáĮ¨áīł áĮ«
áĬŃ áĪ¨áĭį
ĠáĪĬ áīħ
ĠáīłáĬł áĬķáĭ³áĬķáĭµ
ĠáĮ¥ áīĤ
Ġáĭ¨áĬ¥ áĬĶ
áĭµ áĪ¶
áĬħ áĪ£áĪ¥
ĠBel g
ĠáīģáĮ¥ áĪ®áī½
Ġw este
Ġáī° áĮ»
Ġáĭĵ áĪ¨áī¥
ĠO ber
áĬ¢ áĪľáĭŃáĪį
wit z
Ġf eel
ĠáĬ¦ áįķáĪ¬
ĠáīłáĬ¥ áĭ«áĬķáĭ³áĬķáĭ±
ĠáĪĺ áĪĥáĪį
ĠáĪ² áĭ³áĪĽ
ĠáĬłáĪ¸ áī£áĪª
ĠM E
k us
st ander
Ġáī° áĪ°áī¥
Ġáĭ¨áĪĽ áĭµáĪ¨áĮį
ĠáīłáīĢ áĬķ
ous ule
ĠáĬł áĬĲáĮĭáĮĪáĪŃ
id se
ĠáĪ¶ áĬĳáĭŃ
ĠáĬ¨ áī¤áīµ
ĠáĪµ áĬŃ
Ġro os
D ankie
Ġt one
n ou
Ġeer bied
ĠáīµáĪ« áĪĿáįķ
enb aring
Ġ ðŁĺ
Ġr aais
Ġtreff er
aaal ik
Ġn ommers
ke ure
Ġpl ot
Ġkr ing
lang s
Ġgrond register
Ġgewe ier
Ġvrees lik
Ġhoogte punte
Ġgeste el
Ġstem me
Ġvyf de
ĠServ ice
Ġfonds bewaring
t ye
Ġáĭ¨áĪļ áĮĪáĪį
im eer
Ġáĭ¨áī° áĮĪáĭ°
und igheid
áī½áĪģ áīµ
áįģ áīµ
Ġáĭ«áĬĲ áĪ¡áīµ
Ġn asie
Ġdeel nemers
Ġverskyn sels
ĠOor weeg
ĠáĭŃáĮłáĭŃ áīĥáĪį
Ġmand jie
d ryf
Ġom vat
ond iging
Ġmot ivering
áĪģáĪĪ áī°áĬĽáĭį
ï »
Ġkle i
Ġnot as
Ġhandels platform
Ġrestaur ante
Ġ ðŁ
Ġáĭ¨ áĪģáĪīáĪĿ
Ġc ivil
Ġeil ande
N uus
Ġker amiek
ĠáĬŃ áīķ
Ġchil dren
R ate
Ġen a
ĠáĬ¨ áĭĺ
ĠRob ot
ĠáĬ¤ áĬķ
áīłáĬł áĭ²áĪµ
ir l
Ġc asino
áĪķ áī°
áĬ© áĪ¨áīµ
Ġáĭ¨áĬ¦áĪ®áĪĿ áĭ«áĬķ
ĠáĪĺáīħ áĭ°áĪµ
c ting
áĬ¥áĬķ áĬ³áĬķ
Ġáī°áĬ¨áī³ áĭ®áī½
ĠáĮį áī¡
áĭį áīħ
Ġk its
Ġáī¥ áįģáĭķ
is on
ĠB ern
áĭĸ áĪĿ
B er
Ġs end
A AR
Ġáī°áĪ° áĪĿ
ĠáĪĽáĪµáī°áĬ« áĬ¨áĭ«
f ort
Ġáī° áĮ£
ĠáĪĽáĪķ áīłáĪ¨áĪ°áī¥
Ġwe du
Ġwol k
ĠáĪĪáĪĽ áĪĿáĮ£áīµ
ĠáĪĻ áĭ«áĭĬ
aa iers
ĠáĮ ¢
áĬ© áīłáīµ
ĠáĮįáī¥ áĭĵ
ĠáĪĬáīĥ áĭįáĬķáīµ
er ie
Ġáī¦áī³ áĬķ
Ġáĭ¨áĪį áĮħáĬĲáīµ
ĠáĬ¥áĬĵáīĢáĪŃ áī£áĪĪáĬķ
ĠF re
ĠáīħáĬķ áĭĲáī°
Ġáĭ¨áī° áĭĺ
bl ind
ist ry
áįķáĪ¬ áĭĿ
Ġd im
ĠáĬ¥ áīħ
Ġáĭ¨ áĪŃ
Ġcon c
ĠáĬłáĪŃ áĪ´áĪĽ
áįĪáĪį áĮĪáĭįáĬķ
áĮłáīĢáĪĿ áīłáīµ
M E
ver ge
ĠáĪĽáĭ³ áĪĺ
áĪ² áĬķ
Ġáĭ° áĪ³áĪĪáĬĿ
áĭįáĪį áīµ
ĠáĬĥáĭŃáĪį áĬķ
ĠáĭŃáĬĸ áĪ¨áĭĭáĪį
Ġáĭ¨áĪĽ áĭ«áĭį
G et
or te
áĪĭ áĬķáīµ
Ġáīł áī¡áĬĵ
ĠáĪĺ áīħáĪ¨
Ġu ie
Ġhuis houding
ĠáĭĻ áĪŃáĭ«
Ġpr estasies
Ġsom ething
ĠBel angrik
uide gom
Ġprofe te
be wys
Ġmor ele
Ġuitge st
Ġeien skap
bek end
Ġs aal
Ġseker heid
Ġmaat s
ĠáįĢ áĮīáĪŃ
Ġp iek
ĠM esfin
Ġregul asies
Ġgesament like
Ġuit betaling
Ġpl aat
Ġeetle pels
ĠáĭĿ áĬĵ
Ġopknapp ing
Ġoort ollige
Ġwerk er
Ġswe is
ĠáĭŃ áĪĪáĭ«
Ġth ings
ĠáĬŃáįį áĪĬ
Ġkoe Ã«l
ĠáĪµ áĪĪáĪĿáĬķ
Ġáĭ¨áĪļ áĮłáīłáīħ
áĮ£ áĮł
áĪŀ áī¹
ĠáĬĵ áĪĻáĬĵ
ĠáĬķáĮį áĪ¥áīµ
áĬĲáīł áī¡
áĬĸ áĪ©áīµ
ĠSud anese
uid en
ĠáĪ¥áĪ« áĭįáĬķ
ĠáīĢáĪĪ áĪŀáī½
ĠáĬ¥áĭ¨áī° áĭ°áĪ¨áĮĪ
ĠáĪ¥ áĮĭáīµ
Ġen erg
EB S
Ġáī°áĬĵáĮį áĪ¯áĪį
ĠáĬ¥áĬĲ áĪ±áĬķ
ĠHol ly
Ġáĭį áĪµáī¥áĪµáī¥
r ies
Ġ Ø§Ø±Ø¯ÙĪ
ĠáĬłáĬ« áĪĦáĭ°
áī°áĭĪ áĪ³áĬº
áĭ°áĪ¨ áĪ±
ĠáĮĥ áĭĭáĪŃ
ĠáĬłáĪĭáĭį áīħáĪĿ
ĠáĪĽ áĪĿ
Ġdict ators
áĬª áĬķáĮį
Ġáī° áĮĪáĪĪáĮ¸
ĠáĪĿáĬŃ áĬŃáĪŃ
Ġà¸ łà¸²à¸©à¸²à¹Ħà¸Ĺà¸¢
ĠáĮĭ áĪĭ
áĭ°áĪŃáĮī áīµ
ĠáĪĪáĪĽáĪ³ áĬ«áīµ
198 6
áĪĪ áĬ«
Ġáĭ¨áĪļáĪ° áĪ©
áĭ« áĬĲ
Ġáĭ¨áĪĻ áĬ¨áĪ«
áĭĪ áĭĿ
ĠJ ane
Ġáĭĵ áĭŃáĬķ
Ġm ust
ĠáĮĪáĪį áĮ¦
Ġna els
áĭ°áĬķ áīłáĬŀáī½
ĠáĪµáĭ° áī°áĬŀáī½
áĬķáĭ¶ áĭįáĪµ
ĠáĬłáĪįáī» áĪĪáĪĿ
ĠáīłáĪĿ áĮįáī¥
?? ??
Ġáĭ¨áĪļ áī³áĭŃ
áĬ¨áī£ áĭµ
Comm ents
Ġst ry
Ġáīłáĭ° áĪµáī³
ĠáĬ¨ áĪŃ
áĬ¨áī° áĪī
v and
Ġáĭ¨áī° áĮĢáĪĺáĪ¨áĭį
app a
atur al
Ġl ieg
ĠáĬ¥áĬķáĭ³ áĪĭáī¸áĭį
áĮİáī¥ áĬĺáīµ
áĪĺáĮ£ áĮłáĬĲ
ĠáĪĽáĬŃ áĪ°áĬŀ
oll etjies
Ġnam ens
Ġges igte
ĠOr om
Ġvloei bare
es ie
Ġaan koms
ĠN Ã¡
vang er
Ĺ ı
ĠAfrik aner
Ġoog opslag
Ġtoen eem
ver lies
ĠVerlos ser
in iÃ«
Ġonder he
áī¥áĪĶ áĪ¨
G udayachn
l ess
Ġin gevoer
Ġr asse
ver toning
aff ers
Ġlat ere
d igheid
ĠD VD
Ġuit gaan
Ġsp ore
Ġpl igte
Ġne ers
mm ende
Lees wenk
ĠN eder
Ġgeh ard
Ġdra er
Ġkal meer
Ġbeperk ings
Ġbr ug
Hoe veel
Ġaange haal
Ġvoorlop ige
Ġver ower
Ġonder grond
Ġdro Ã«r
vriend elik
Ġs ames
Ġb aadjie
áī¢ áĬĶ
à® ª
Ġerf gename
h l
áī° áĪį
Ġáĭ¨áĪļ áĪĺáĪµáĪį
áįĪ áĪĭáĪĪ
áĮ£ áįĭ
ĠáĬ¢áĬķ áī½
ĠáĭĿáĬķáī£ áĪĮ
ak en
Ġr oo
ĠáĬ¥áĬķáĭ² áī³
ĠáĬłáĪ³ áĪ³áī¢
áĭĬ áĪķ
ĠáĭĿáī° áī£áĪħ
ag on
em ar
Ġáīłáī° áįĪáĮ¥áĪ®
ĠáĮĢ áĪĺáĪ©
ĠPack aging
c am
ĠáĮİ áĪ³
ĠM od
ĠáĭµáĪŃ áī¥
áĪµ áī³áĭĬ
198 5
ĠáĬ£áĮĪáī£ áī¥
g ate
Ġn l
Ġáĭ¨áĬ¢ áīµáĭ®
ic ense
ĠáĬ¥áĬķáĭ° áĮĪáĪĪ
Ġst rik
atal Ãł
ĠáĬ¥áĬķáĭ°áĪļ áĬ¨áī°áĪĪáĭį
Ġáīłáĭ¨áĬł áĪĺáī±
ĠáīłáĪĺáĪµ áĪ«áīµ
ĠÐľ Ð¾Ð½Ð³Ð¾Ð»
Ġáī° áĬ®áĪŃ
áį¡áį¡ âĢºâĢº
Ġáĭ¨áĬ« áĪŃ
ĠáĭµáĪ« áĪĽ
ĠáĬłáī¥áĭĽ áĬĽáĭįáĬķ
Ġáĭ¨áī° áĭ°áĪ¨áĮī
áĮį áĮ¥
Ġr at
ov a
il ity
esc rip
áĮłáīĢ áĪ±áīµ
áĬłáīµ áĪ®áĬķáĪµ
ĠáĬķ áĮ½
De ar
c asting
Ġáīģ áĪµ
V l
Ġáīħ áĪŃáĪµ
Ġbro ad
ĠáĪ¥áĪįáĮ£ áĬĶ
Ġinte g
B S
áĪµ áī±áĬķ
áĪ°áīł áĪ°áī¡
ĠáĪĿáĪħ áĬķáĭµáĪµáĬĵ
Ġáĭ¨áĪļáĪĨáĬĳ áīµ
Ġstr ande
dr aad
Ġwag woord
ĠáĬłáĭµáĪŃ áĮĪ
áĮĦ áĪªáĭ«
ĠáĬŃáĪĪ áī¦áī½
an ter
áĪ°áĪŃ áĪķ
Ġhulp middel
áĪĭ áīĤ
Ġmiss ion
áĪĻ áīłáīµ
áĭľ áĮĭ
Ġáī°áĪį áĬ¥
Co ET
ĠV AN
ĠáĪ°áĬķ áĭ°áīħ
Ġagter uit
ĠPolitic s
a deel
Ġon waar
Ġsk atte
Ġben adeel
Ġsterrek unde
ĠL anguage
Ġskad u
Ġmot iewe
ged rag
Ġontvang s
le wing
ĠáĪĪáĪĽ áĭįáĮ£áīµ
Ġverr ass
bep l
uff rou
Ġstab iel
telj ee
Ġs abbat
áī¶ áī»áī¸áĭįáĬķ
ĠáĬ¥áĬĵ áĭ°áĪŃáĮĭ
os eer
Ġweg gaan
ht ml
Sk oon
K ommentaar
bl ou
Ġwis kunde
ĠáĬŃ áĬĲ
Ġreken aars
strategie Ã«
b alle
áįĪ áĮ¥
isie te
áī£áĪĪ áįīáīµ
Ġin teken
o z
áĪĺ áī¤áī³áī½áĬķ
áĭ³ áĪª
dat ums
Ġáī¦áī³ áĭİáī½áĬķ
Ġoorblyf sels
ul ation
Intern et
áĮ¹ áĬķ
áĭ¨ áĪ°áĭį
Ġáī°áĮ«áĭĭ áī½
áĬŃ áī°áĭĭáĪį
Ġáĭ¨áįĵ áĪŃáī²
ĠáĪµáĪĪáĪĺ áĪĨáĬĳ
v ce
áĮĮ áī³áī¸áĭį
ĠáĬ¨ áī³áī½
áĬĴ áī±
áĬŃáįĪ áī»
G R
Ġáĭ¨áī£ áĪħáĪį
ĠáĪĵáī¢ áĪ©
áĪ« áĬķáĬķ
ĠáĬł áĪĺáĪ°áĮįáĬĵ
ĠáĭŃ áĮħáĪĿáĪŃ
áīħ áĪ®
Ġáī£áĪĪ áī¤
áĮĪ áįħ
Ġreal ly
ĠáĪĭ áĭķáĪĪ
Ġáī£ áĪŃ
ĠáĮį áĪĽáĪ½
Ġáĭ¨áī°áĪ° áĬĺ
ĠáĪĿáĬŀ áīµ
ĠáĬ¥áĬķ áĮłáīĢ
ell er
Ġp ion
Ġáī¥ áĮģ
ĠáĪĺáĪĪ áĭĪáĮ¥
áĬĵ áįį
escrip tion
G ed
áī° áĪª
un ning
ĠáĬłáĪĿáī£ áĪ³áĭ°áĪŃ
V ideos
Ġáī°áĪµáĪĽ áĪĿ
áĭķ áĭŀ
áĮ½ áįį
áĬĲáĪ± áīµ
k la
ĠáĬ£ áĬķáĪµáīµáĭ®
Ġáĭ¨áĬł áĪģáĬĳ
cadem ic
uid el
ĠáĮł áĭ¨
ĠáĪ¬ áĭ²áĭ®
ĠáĭŃáĪ°áĪĽ áĪį
Ġáĭ¨áĪĺ áĪĪ
áī¢ áĭ©
ĠáīµáĬķ áĪ£áĬ¤
ĠáĬĥáĭŃ áĪī
ĠáĪ¬ áĭµáĭ®
Ġ áŀģ
ĠáĬ«áĪį áĬ£áĭŃ
Ġth ought
Ġk ag
ĠáĬ¨ áĪ°áĪĽ
cl am
ĠáĪĽ áĪĺáĪįáĬ¨áī»
Priv acy
ĠThe y
Ġáī£ áĭ®
Ġfil ter
Ġth en
ĠáĪĽ áĪ»áĪ»áĪį
ĠV olg
ĠáĭĪáĮĪ áĬĵáīµ
ĠáĪ² áĭĪ
ĠáĪĺáĪ° áĪ¨áī°
ĠáĪĺáĪĨáĬĳ áĬķáĪĿ
oun dat
áĭĭáĪŃáĭ« áīµ
áĭ¨ áĪĿáĬķ
ĠáĪĪ áĪĥ
P M
n oot
áĭĪáĪ° áĭ°
Fran Ã§ais
Ġáīħáĭ±áĪµ áĬķ
ĠLu c
ĠáĭŃáĪ° áĪ«áĪį
ĠáĬ¥áĪµ áĬ«áĪį
ur gie
ĠáĬ¨ áĮ¨
áī¸ áĪį
Ġber ig
Ġheel tyd
Ġseis oene
Twe ets
Ġskottel goed
Ġkonkre te
il and
ord ing
stand aard
Ġáĭ¨áī°áĬĵáĮĪ áĪ¨áĭį
Ġbeh aag
Ġargitek toniese
Ġw aak
Ġáįį áĪ«
Ġindruk wekkende
Ġhoofkar akter
Ġaan meld
Ġáĭ¨áĪĽ áĮ£
Ġstruk ture
Ġuitste kend
Ġkit aar
Ġb iografie
Ġáĭ¨áĬ¥ áĪĿáĬĲáīµ
áĮłáīĢ áĪ°áĭį
Ġreis igers
Ġbe es
sk l
áĮ£ áĪªáĭİáī½
Ġvert olk
J ulle
Ã¯ s
Ġkomm od
Ġ ion
Ġd igte
it Ãªre
áī½ áīµ
ĠáįĪ áī°
ĠVer wyder
Ġbesig hede
ĠáĪĺáįį áī³áīµ
Ġstadig er
v uur
Ġkr aak
ĠAks um
D ag
ĠáĮ¨ áĪŃáīħ
ĠáĬ¨áĬķ áī±
Ġafgel aai
Ð¿ Ð¿
ĠModer ator
Log ged
ĠáĭŃáĬĸáĪ« áī¸áĭĭáĪį
Ġáīłáįį áĪŃáĭµ
ĠTh at
ĠáĭľáĮĭ áī³áīµ
Ġáī° áĭ°áĮĭáĮĭáĪļ
ĠE s
áīĨ áĭ©
v eil
ĠR h
áī´ áĪĮ
ĠáĬ¨ áĪĢ
ĠáĪĪ áĭŃ
Ġmar ked
áĭµ áĪİ
áĬ¨áįĭ áįĪ
Ġ Ù¾ÚļØªÙĪ
Ġl iving
áĮłáīĢ áĪµ
áĪįáĬĵ áĮĪáĪŃ
áĮ» áĬĵáīµ
áī¥ áĪ«áīµ
86 9
Ġáĭ¨áī° áīĨ
ĠáĪĺáĪįáĬ¥ áĬ½áī²
itut ional
ĠáĭĿáī°áįĪáĪĭáĪĪ áĭ©
OR E
áĬķáįĪ áĪ³áĭĬ
ĠáĭŃáĮĢáĪĿ áĪ«áĪī
á» ¥
ĠáĬłáĪ³áĪį áįİ
ĠáĪ² áĭ°áĪŃáĪ±
Ġimp ort
en ous
áįĸáĪĬ áĪ²
Ref er
áĬ¬ áī¶áī½
Ġáīłáīħ áĭ±áĪµ
Ãª n
ĠáĪ¨ áĭ³áīµ
ĠUS B
áĪ³ áĪ¾áī½
ĠáīłáĪĺ áįįáĮłáĪŃ
az er
ĠáĪĺáĪµ áĪ«
ĠÐ¢ Ð¾
áĬĲ áī·
ĠáĪ°áĬĲ áĭ¶áī½
Ġn as
áĭį áĪī
Ġl ove
Ġáĭ¨áĪĺ áĬĲ
ĠáĮįáī¥ áĭŃáīµ
Ġg u
der m
áĬ£ áĬķ
Ġáĭ¨áĪŀ áīµ
Ġáĭ¨áĪĽ áĪ³
Ġáĭ¨áĭį áĪ»
Ġm unt
mak ers
ĠM as
áī° áĭī
ĠáĭĿ áĭ«áĭ³
Ġáĭ¨áĬł áĬ«áī£áī¢áĭį
ĠáīĨ áĮ£áī¢
n ik
Ġd ames
ĠáĬ¥ áĬ©
Ġáīłáĭ¨ áĭĵáĪĺáī±
Ġkleut erskool
w il
ĠáĪĺ áĪĥ
áĭĪáĮį áĭ±
or p
Ġáĭ¨áĪļáĭ« áĪ°
ap ter
Ġelektr on
ĠáĬ¥áī£áĬŃ áĭİ
Ġ elders
áįĪ áįį
geb or
Ġraad pleeg
Ġk aj
ĠáĬ¥áĬķáĮłáīĢ áĪĽáĪĪáĬķ
Ġáīł áĪª
ersk appy
Ġgeb ak
Ġverdedig ing
ĠáĪĺáĭĽ áĮįáī¥
Ġverif ieer
by voorbeeld
Ġaanv ul
Ġbinn ens
ĠWol lega
ĠáīµáĬ© áĪµ
Ġdogter tjie
Ġg ips
ol i
Ġsame werking
Ġfet us
w agte
Ġp leister
Ġom trek
Ġc ome
Ġst ryk
199 2
ĠNamib iÃ«
ĠOp sie
raam werk
Ġf iksie
áĭİ áī³áĪĪáĬķ
ĠM atteus
Ġbet rokkenheid
áĬ¥ áĭĿ
end heid
Ġkandid aat
áĬĳ áĬ¤áĪį
Ġonder laag
ĠáĪ½ áĪįáĪĽ
ĠáĬłáĬķáĭ³áĬķ áĭ´
ĠáįĵáīµáĪŃáĭ« áĪŃáĬŃ
ĠáīłáĪĺ áĬĲ
áīł áīĤáĭ«
ĠS ing
Ġáĭ¨áĬ¥ áĪ³áīµ
ĠPro f
Ġ( âĢĺ
Ġáī° áĭ°áĪ¨áĮĪ
áĭĿ áĮĪáī£
Ġáĭ¨ áĭµáĬķáī½
áĭĭ áĪĭ
ĠáĪ² áī³áĭŃ
b ooks
ĠáĪĪ áįĬáīµ
Ġ áĢĹáĢĻ
Ġmin imal
T een
Ġáī¥áĪ®áĭµáĬ« áĪµáī²áĬķáĮį
áĬłáĭŃ áīª
ĠáĭŃ áĭ°áĮį
áī² áĬķáĮį
ĠáĪĥ áĪĭáįĬáĬĲáīµ
ĠáĬ¥áĬķáĭ°áĪļ áĪ°áĪ«
ĠáĪĪáĪĺáĮį áĭĽáīµ
3 43
ĠP aris
ĠáĬ«áī¥ áĭļ
Ġtemper ature
ed ers
Ġáĭ¨áī° áĭ«áĭ«áĭĺ
ĠáĬ¥áĭ¨ áīĢáĪ¨
áĭ¬ áĭį
ĠáĪ© áĮ«
R ad
ĠáĬ£ áĭ²áĪµ
ĠáĬłáĭį áĮª
Ġáĭ¨áīĢáĪ¨ áīłáĭį
ĠáĬłáī¥áĪ¨ áĬķ
ĠáĭŃ áĬ¨áįĪ
ĠáĪµáĪĪ áĪĮ
Ġáī°áī½ áĪıáĪį
Ġv es
áĬĴ áĬ¬áĪ½áĬķ
Ġáĭ¨ áĮĪáĬĵ
ĠáĪª áĪį
Ġ Ø§
ĠD i
áĮİ áĭ±
ĠM or
Sp anish
d ak
Ġáĭ¨áī³ áī°áĪĺ
áįį áĪ¨áĪµ
ĠL LC
ĠáĮ¥ áĪĿáĪŃ
Ġáĭ¨áĪļ áĮĪáĪŃ
áĬ¹ áĪī
áĪĭáĬķ áī°áĬĵ
áĭĽ áĬĿ
Ġcont act
ĠáĪĺ áī³áĭĪáīĤáĭ«
ĠH rvatski
Ġvlug te
u un
ĠáĮ» áĭµáīħ
od iac
pl ay
dig enous
v et
áĬŃ áĪī
áĪĢ áįį
ĠáīłáĪĺ áĬķáĮįáĪ¥áīµ
ĠáīłáĪĺ áĭ°áīłáĬĽ
ĠP eter
Ġhalf uur
Ġor anje
Ġáī½áĮį áĬĿ
Ġdiagn ose
Ġver slaan
ch witz
Daar benewens
ĠAus chwitz
Ġbes met
onie m
ĠNo ag
Ġdrupp els
st ure
mal l
ĠWaar heid
Ġspy t
ĠKar oo
v ed
Ġbl aar
Ġáĭ¨áĪĿ áĪĪáĭį
Ġm unisip
áĪ° áĪĺ
Ġuit gang
Ġgew ag
Ġher laai
T at
v uldig
ĠM eng
Ġvoor lÃª
ug tige
ĠáĮ¥áīħ áĪį
vriend elike
Ġby woon
Ġmoeilik ste
Ġbak kie
Ġsleutel s
s ny
Ġaf ger
Ġdr aag
pl ak
Ġwel stand
áĭ³ áĬ¥
sk oste
Ġver ke
Ġáĭ°áīĤ áīĥáĭİáī½
ĠSam uel
áĪĽáĬķ áīłáī¥
Ġr is
35 5
ĠPut in
G oogle
ĠR AM
áĪ»áĬķ áĮīáĪį
Ġáĭ¨áĪķáĭĿ áī¡áĬķ
pl ante
it i
ĠG TA
áīĭ áĪĿ
áĬł áĭ³áĭ²áĪµ
Ġáĭ¨áĪļ áĭ²áĭ«
ĠáĭĪáĭ° áī¥
áīłáĪĺ áĮ¨áĪ¨áĪ»
ĠáĭĪ áīµ
M an
ĠáĬłáĪĿáĪį áĬ®
Ġs elle
áĪĭáĭŃ áīµ
ĠNe ge
ĠáĬłáī£ áī¶áī»áī½áĬķ
áĬ» áĭ¨áĭ°
Ġáĭ¨áĪļáĮĪáĬĻ áīµ
áĬ¢ áĭ¨áĪ±áĪµ
áĭ°áĪ« áĮĢ
ĠáĭĪáĪ² áī¥
áĮĪ áĪĺáīµ
Ġáĭ¨áĪļ áīĢáĪŃ
ĠáīµáĪ«áĬķáĪµ áįĸáĪŃáīµ
R esearch
áĪĺ áĮįáī¢áĭ«
W ater
Ġáĭ« áĪĺ
lek s
áĮł áī¢áĭ«
ĠH D
áĭ¨ áĪ¨
Ġáī° áĪ»
ĠL inkedIn
ĠáĪµáĪ« áī¸áĭįáĬķ
ĠáĪ½ áĭĪáĭ°áĬķ
b ye
áĮĥ áĬķ
k ou
is ma
áĪŀáĬŃ áĪ«áĪµ
OO K
áī¥ áĪ®
ĠSt ra
ĠáĮİ áī¥
m aan
od ka
ef s
ĠáĬł áĭĪáĮ£
Ġáĭ¨áįĢ áĪĲáĭŃ
ĠV o
ma in
ĠEr n
áĮł áĬĳ
ĠáīłáĬł áĪµ
ĠáĭŃ áĪĺáĪ¨
ib ere
ĠáĬłáĪ¸ áĬķ
ĠáĬłáĪĿáī£ áĮĪáĬĲ
ĠSu b
áĮīáĭ³ áĭŃ
Ġbro w
sp unte
Ġáīłáī´ áĬŃáĬĸáĪİáĮĤ
j ou
Ġáīłáī° áĬ¨áī³áī³áĭŃ
ill ige
ĠáĬ¥áĪµ áī´áīµ
Ġdictators hip
ĠFl or
Ġh oes
ur ie
Ġc ollabor
áĪĨáĬĲ áĪĿ
an j
áĪª áĬĵ
Ġáĭ¨ áĬ¨áįĪ
G u
ĠáĪĪ áĪķáĭĿáī¥
ĠH eel
Ġaf f
ĠáĮĪ áĪĿ
Ġáĭķ áĮ£
Ġkrit iese
ĠVer ander
ĠáĪĺáī³ áĭ¨áīµ
áĭ° áĮī
áīł áĮ¥
se un
ĠK os
Ġke ur
Ġ Ãªrens
áĪĿ áĬĲáĭį
ĠáĬ¥ áĪ¨áĬĽ
áº ¥
áĪŀáĬŃ áĪ«
Ġon be
ĠáĮĢ áĮį
Aan bevole
ien sw
Ġtuis te
Ġgekleur de
Ġwaar dering
Ġreg hoek
tr ak
Ġweb blad
ĠgeÃ¯n teg
Ġliefge had
Ġkr ip
Ġet iket
Ġindividu eel
onders oek
Ġopger ig
Ġall ergie
Ġbev ordering
Ġgewaar borg
Ġafsonder like
amp oen
Ã¨ l
Ġinsp ireer
áĪħ áĪī
ĠP C
aaf de
Ġtoes pr
ĠTart uffe
ĠáĬ¥áĬĵáĭ°áĪŃáĮĭ áĪĪáĬķ
Ġpar all
Ġperman ent
áīĥ áī¥áĪŃ
áĮĪáĪ« áī¸áĭįáĬķ
áĮį áīµ
áĪŀáĬŃ áĪ©
Ġáĭ¨áī£ áī¡áĪŃ
Ġáĭ« áĪ¨
Ġáĭ¨áĪ° áĮł
Ġv alle
ĠM us
ĠáĬ¢ áĪ³áĭŃáĭ«áĪµ
amil y
. ).
áĪŃ áĬ®áī½
áĭ° áī°áĬŀáī½
ĠáįķáĪ®áįĮ áĪ½áĬĵáĪį
ĠM ary
ĠáĭĿ áĪķ
áĪĺ áĭµáĬķ
D etails
áĪĺ áĮ£áĪĿ
ĠB on
Ġl ik
ĠáįįáĪį áĪ°
ĠáĪĢáĮĪ áĪ¨
Ġáĭ¨áī° áĭ°
áĪĪ áĭļáĪħ
Ġáĭ¨áī° áĭ«áĭ«áĭĻ
ĠáĪ°áĪĽ áĭķ
ĠáĬ¥áĬķ áī£
Ġba b
áī°áĪŃ áĬĶáīµ
ĠáĬłáĭµ áĪĽáĪµ
ĠáĪķ áĪĽáĪĿ
ĠBl ue
áĭį áĬĲáī±
ous se
am in
ĠáĮīáĭµ áĮĵáĭµ
ĠSu per
ĠáĪĪáĪĽ áĪŁáĪĭáīµ
ĠáįįáĪįáĪµ áįįáĬĵ
Ġm useum
Ġtal ente
Ġáĭ¨áĪĽ áĪµáī°
ĠáĬłáĪµáī° áī£áī£áĪª
áĭ¨áĬł áĪĽáĪ«
P et
Ġk ate
áĪ³ áĬĲ
h eer
Ġb is
ĠáĪĪ áĪĮáĪĭ
ĠáĪĺáīĥ áī¥áĪŃ
ĠáīłáĪĺ áī³
ĠáīłáĬł áĭ°áī£áī£áĭŃ
ĠáīłáĬ¥ áĪ³áīµ
f eld
ob ia
ĠáĬħ áī¥áĪ¨áīµ
t itle
g le
áĬ« áĪĭáĭĬ
áĪ° áĪ±
ĠáĪĺáĭ³ áĪ¨áĪ»
Ġsy stem
ĠRef u
ood s
Ġ ;
Ġáī³áĮ£ áīĤáĭİáī½
Ġproble m
ĠEritre ans
áĭ ł
áī° áĪŁáĮĪáīµ
14 1
versek erings
tel y
are d
Ġkor r
ĠAndr Ã©
Ġsw aard
ro os
ann el
Ġonverm yd
v aal
Ġges ind
du ik
Ġáĭ¨ áĪ±
se g
ia te
Ġfantasie Ã«
d oeke
w ar
uk kel
ĠAs iÃ«
Ġkaart jies
Ġvan aand
ĠE esti
ĠL ukas
Ġper ke
reis igers
E erstens
Ġáĭ¨ áĮłáīłáīĢ
Ġin tuÃ¯
Ġáĭĺ áĪį
Ġveel syd
Ġhulp middels
ge halte
el ektr
Ġontmoet ing
Ġkons entr
Ġversoek ing
ĠgeÃ¯ s
iensw aardighede
ie erde
ĠáĬĲ áĮį
Ġvl ag
atuur like
Ġkos bare
uwe es
Ġtrad isies
Ġkol on
Ġrot se
Ġbuur man
Ġomh els
Ġáĭ¨áī° áĮĪáĬĻ
ĠáĪ² áĬĲ
if isering
áĬ¸ áĭį
bes oek
Ġáĭ¨áĮ¥ áįĭáīµ
erst and
Ġverlang de
Ġgesel skap
ĠáĬłáĬķ áīłáĪ³
ĠáĪĺáĬķ áīłáĪŃ
del inge
Ġs estig
Ġbalk on
ĠáĬł áīĥ
sk ontrak
Ġst oof
ĠSloven Äįina
ĠáĬ¥ áĪĭáĪĪáĪģ
áĪħ áĭĪáĪĵáīµ
áīłáĬł áĪģáĬĳ
Ġbestel lings
c ing
w is
ĠáĪĽáĬħ áīłáĪ«áĭĬ
áīĢ áĭĺ
ĠáĬķáĮī áĪ¡
ĠáĬłáĪµáĬ¨ áįĬ
ĠáĬ¨áĪĿáĭĿ áī°
ĠáĪĲ áĪ³
Ġáīłáĭļáĭ« áĭį
ĠáĬ¤ áĮįáĭļáī¢
Ġst ar
ĠL Ã«tzebuergesch
Ġáīµáī½ áĪĭáĪĪáĪħ
Ġcon trol
ĠáįĢ áĪĲ
áī« áĪį
ĠáĪĪ áĪĻáĪī
ĠF rysk
ĠCatal Ãł
áįį áī¶
ĠáĪŃ áĬŃáī¥
ĠáĮ ķ
ĠáĬłáĮįáĬĿ áī·áĪį
ĠP os
ĠáĬķ áĪĺ
Ġáī°áĪĺáĪį áĪ¶
ĠáĮį áĪ©áĪĿ
ĠáĮ½ áĮĮ
áĪįáĮ£ áĬĿ
ĠáĬĲáĮĭáĭ´ áĭİáī½
itt le
ĠáįįáĪŃ áĭ²
Ġáī³ áĮį
Ġáĭ¨áī°áī£áĪĪ áĭįáĬķ
h on
Ġáī°áĬĵ áĮĭáĪª
ĠáĪ° áĬĵáĭŃ
ĠáĪĪáĪĺ áĭ°áĮĪáįį
Ġáĭ¨áĭĭ áīĦáĭ®
Ġáĭ«áĪĺáĪĪáĬŃ áī³áĪį
ĠáĭĿáĮį áĮħ
** *
áĬĲ áĬĿ
ĠáĪĽ áĪŀ
ĠáĭĺáĭŃ áĪĿ
ĠK el
ĠáĪĿáĪĿáĪķ áĭ³áĪŃ
Ġ aas
ĠEurop e
ĠáįķáĪ¬áĭļ áĭ°áĬķáīµ
Ġ ×Ļ×Ļ×ĵ×Ļ×©
ĠSt il
ĠáĭŃáĬ¸ áĭį
áĪĭ áĭįáĬķ
Ġáĭ«áĬ«áīµ áī³áĪī
ĠB at
áĬĴ áĬ«áĪį
áĮĢáĪĺáĪªáĭ« áĭį
âľŀâľŀ âľŀ
Ġt ry
ĠMidd le
ĠáĮ½ áĭ®áĬĵáĭįáĭ«áĬķ
ĠR and
C O
ĠM S
Ġl ar
b ind
áĭ¨ áįį
áįĪáĪįáĮĭ áī¸áĭį
âĢ¢ âĢ¢
or iale
ĠáĭŃáĪįáīģ áĬķáĪĿ
áĬł áīĢáįį
ĠáĬª áĪ³áĪ«
áįİáĪŃ áĪľáĪ½áĬķ
ar gie
Ġon st
ĠáĮĪ áĬĲáīµ
ĠáĪļ áĪµáĮ¥
ĠKar el
Ġuitnodig ing
9 11
Ġáĭįáĭµ áīĢáīµ
ĠáįķáĪ®áĮįáĪ« áĪŀáī½áĬķ
ĠáĬłáĭ«áĭį áīħáĪĿ
Ġp il
áĭ¨ áī£
ĠP oste
eh abesha
c ategor
áĮĪ áī°áĬĽ
iste em
ĠC ap
en na
áĪļ áĬ«áĬ¤áĪį
Ġvol ks
Ġdra de
Ġgr aan
Ġle wendig
Ġgr oeiende
Ġb alle
áĭ¨ áĮ£áī¢áĭ«
áīķ áĬķ
Ġleef styl
beh oef
Ġg ade
Ġáįį áīĥ
j ins
Ġn al
Ġver stel
Ġmater iÃ«le
ĠáĮ¸ áĪ¨
maat skappye
skap like
Ġstil stand
maat s
Ġoptim ale
ĠáĮįáĭĽ áī¶áī½
ik asies
om gewing
Ġmus ik
as il
áĬĴ áĬķ
Ġtyd jie
Ġbr il
Ġfinans ies
Ġgesl ote
Ġgelde enhede
abas is
s hare
Ġaan halings
ĠáĬłáĭµáĪŃ áĮĭ
ou ing
Ġle gende
Ġtyd perke
iom edia
Ġp yp
ok sie
Ġáĭ¨áī° áīĢáīł
ĠáĭŃáī£áĪŃ áĬŃ
Ġv ent
Ġt ante
amp te
ĠG P
áī» áī½áĪģ
ĠYor Ã¹bÃ¡
ĠáĪ² áĮĪáī£
ĠáĬĲáĮĪ áĪ«áīµ
ĠáĬ¥áĭµ áĮĪ
áĬ¨ áĪĪáĭį
t ail
grad u
ĠÐ ļÑĭÑĢÐ³ÑĭÐ·ÑĩÐ°
ĠáĬłáĭµáĪŃ áĮĪáĬķ
ĠÅ Įlelo
Ġáĭ« áĬĲáĪ³
ĠG aming
ĠáĬ£áĪĪ áĬĵ
ĠáĬŃáĪŃáĪµáīµ áĭ«áĬķ
ĠáĭŃ áĬ¨
ĠL as
[...]
