{"[UNK]":0,"!":1,"\"":2,"#":3,"$":4,"%":5,"&":6,"'":7,"(":8,")":9,"*":10,"+":11,",":12,"-":13,".":14,"/":15,"0":16,"1":17,"2":18,"3":19,"4":20,"5":21,"6":22,"7":23,"8":24,"9":25,":":26,";":27,"<":28,"=":29,">":30,"?":31,"@":32,"A":33,"B":34,"C":35,"D":36,"E":37,"F":38,"G":39,"H":40,"I":41,"J":42,"K":43,"L":44,"M":45,"N":46,"O":47,"P":48,"Q":49,"R":50,"S":51,"T":52,"U":53,"V":54,"W":55,"X":56,"Y":57,"Z":58,"[":59,"\\":60,"]":61,"^":62,"_":63,"`":64,"a":65,"b":66,"c":67,"d":68,"e":69,"f":70,"g":71,"h":72,"i":73,"j":74,"k":75,"l":76,"m":77,"n":78,"o":79,"p":80,"q":81,"r":82,"s":83,"t":84,"u":85,"v":86,"w":87,"x":88,"y":89,"z":90,"{":91,"|":92,"}":93,"~":94,"¡":95,"¢":96,"£":97,"¤":98,"¥":99,"¦":100,"§":101,"¨":102,"©":103,"ª":104,"«":105,"¬":106,"®":107,"¯":108,"°":109,"±":110,"²":111,"³":112,"´":113,"µ":114,"¶":115,"·":116,"¸":117,"¹":118,"º":119,"»":120,"¼":121,"½":122,"¾":123,"¿":124,"Â":125,"Ã":126,"Ä":127,"Å":128,"Æ":129,"Ç":130,"È":131,"É":132,"Ê":133,"Ë":134,"Ì":135,"Í":136,"Î":137,"Ï":138,"Ð":139,"Ñ":140,"Ò":141,"Ó":142,"Ô":143,"Õ":144,"Ö":145,"×":146,"Ø":147,"Ù":148,"Ú":149,"Û":150,"Ü":151,"Þ":152,"ß":153,"à":154,"á":155,"â":156,"ã":157,"ä":158,"å":159,"æ":160,"ç":161,"è":162,"é":163,"ê":164,"ë":165,"ì":166,"í":167,"î":168,"ï":169,"ð":170,"ô":171,"ĉ":172,"Ċ":173,"Ġ":174,"Ģ":175,"ģ":176,"Ĥ":177,"ĥ":178,"Ħ":179,"ħ":180,"Ĩ":181,"ĩ":182,"Ī":183,"ī":184,"Ĭ":185,"ĭ":186,"Į":187,"į":188,"İ":189,"ı":190,"Ĳ":191,"ĳ":192,"Ĵ":193,"ĵ":194,"Ķ":195,"ķ":196,"ĸ":197,"Ĺ":198,"ĺ":199,"Ļ":200,"ļ":201,"Ľ":202,"ľ":203,"Ŀ":204,"ŀ":205,"Ł":206,"ł":207,"Ń":208,"ÙĪ":209,"ÙĪÙĪ":210,"ÙĪÙĪÙĪÙĪ":211,"ÙĪÙĪÙĪÙĪÙĪÙĪÙĪÙĪ":212,"Ø±":213,"Ø±Ø±":214,"áĪ":215,"ÙĪÙĪÙĪÙĪÙĪÙĪÙĪÙĪÙĪÙĪÙĪÙĪÙĪÙĪÙĪÙĪ":216,"áĬ":217,"áī":218,"áĭ":219,"Ø±Ø±Ø±Ø±":220,"ie":221,"ÙĪÙĪÙĪÙĪÙĪÙĪÙĪÙĪÙĪÙĪÙĪÙĪÙĪÙĪÙĪÙĪÙĪÙĪÙĪÙĪÙĪÙĪÙĪÙĪÙĪÙĪÙĪÙĪÙĪÙĪÙĪÙĪ":222,"Ġd":223,"Ø±Ø±Ø±Ø±Ø±Ø±Ø±Ø±":224,"er":225,"áĮ":226,"an":227,"ĠáĬ":228,"en":229,"Ġáĭ":230,"ĠáĪ":231,"áĬķ":232,"in":233,"Ġv":234,"áį":235,"Ġs":236,"Ġo":237,"te":238,"Ġdie":239,"Ġáī":240,"Ø§":241,"ÙĪÙĪÙĪÙĪÙĪÙĪÙĪÙĪÙĪÙĪÙĪÙĪÙĪÙĪÙĪÙĪÙĪÙĪÙĪÙĪÙĪÙĪÙĪÙĪÙĪÙĪÙĪÙĪÙĪÙĪÙĪÙĪÙĪÙĪÙĪÙĪÙĪÙĪÙĪÙĪÙĪÙĪÙĪÙĪÙĪÙĪÙĪÙĪ":242,"or":243,"Ø±Ø±Ø±Ø±Ø±Ø±Ø±Ø±Ø±Ø±Ø±Ø±Ø±Ø±Ø±Ø±":244,"Ġw":245,"áīµ":246,"ĠÙĪÙĪÙĪÙĪÙĪÙĪÙĪÙĪÙĪÙĪÙĪÙĪÙĪÙĪÙĪÙĪÙĪÙĪÙĪÙĪÙĪÙĪÙĪÙĪÙĪÙĪÙĪÙĪÙĪÙĪÙĪÙĪÙĪÙĪÙĪÙĪÙĪÙĪÙĪÙĪÙĪÙĪÙĪÙĪÙĪÙĪÙĪÙĪ":247,"ĠÙĪÙĪÙĪÙĪÙĪÙĪÙĪÙĪÙĪÙĪÙĪÙĪÙĪÙĪÙĪÙĪÙĪÙĪÙĪÙĪÙĪÙĪÙĪÙĪÙĪÙĪÙĪÙĪÙĪÙĪÙĪÙĪÙĪÙĪÙĪÙĪÙĪÙĪÙĪÙĪÙĪÙĪÙĪÙĪÙĪÙĪÙĪÙĪÙĪÙĪ":248,"Ġm":249,"Ġh":250,"ge":251,"Ø§Ø§":252,"aa":253,"Ġb":254,"is":255,"el":256,"et":257,"Ùĩ":258,"Ġa":259,"Ġn":260,"áĪŃ":261,"ÙĩÙĩ":262,"Ġáĭ¨":263,"áĭį":264,"at":265,"áĪį":266,"áĪĿ":267,"it":268,"es":269,"Ġen":270,"Ġk":271,"on":272,"áĪµ":273,"Ġp":274,"Ġge":275,"le":276,"re":277,"ÙĬ":278,"Ġ'":279,"Ġáīł":280,"Ġt":281,"áĪĪ":282,"Ġin":283,"ĠáĬ¥":284,"Ġis":285,"aar":286,"ĠáĬł":287,"de":288,"Ġj":289,"áĬĵ":290,"ik":291,"Ø§Ø§Ø§Ø§":292,"Ġvan":293,"áī½":294,"ou":295,"áĭŃ":296,"Ġte":297,"áī°":298,"ÙĬÙĬ":299,"áĭ«":300,"áĪĺ":301,"ĠáĮ":302,"om":303,"ing":304,"âĢ":305,"oe":306,"ar":307,"al":308,"os":309,"áī¥":310,"ÙĩÙĩÙĩÙĩ":311,"as":312,"Ø±Ø±Ø±Ø±Ø±Ø±Ø±Ø±Ø±Ø±Ø±Ø±Ø±Ø±Ø±Ø±Ø±Ø±Ø±Ø±Ø±Ø±Ø±Ø±Ø±Ø±Ø±Ø±Ø±Ø±Ø±Ø±":313,"Ð°":314,"Ġver":315,"Ġnie":316,"áĪ¨":317,"ig":318,"ĠáĪĺ":319,"Ð°Ð°":320,"and":321,"áĬĲ":322,"áĪ«":323,"áĭ°":324,"áĮĪ":325,"áīł":326,"áĮį":327,"Ġom":328,"áį¡":329,"áĭµ":330,"Ġg":331,"ch":332,"áĪĭ":333,"ĠD":334,"Ġe":335,"Ġl":336,"áĪĽ":337,"Ġwat":338,"Ġhet":339,"ul":340,"áī³":341,"ur":342,"ĠS":343,"Ġon":344,"ir":345,"we":346,"Ġjy":347,"ers":348,"il":349,"oor":350,"ad":351,"oo":352,"Ġ(":353,"id":354,"ÙĦ":355,"áī£":356,"Ø§Ø§Ø§Ø§Ø§Ø§Ø§Ø§":357,"Ġop":358,"áĪļ":359,"se":360,"áį¢":361,"ĠâĢ":362,"áĪħ":363,"ĠáĬ¨":364,"ĠØ±Ø±Ø±Ø±Ø±Ø±Ø±Ø±Ø±Ø±Ø±Ø±Ø±Ø±Ø±Ø±Ø±Ø±Ø±Ø±Ø±Ø±Ø±Ø±Ø±Ø±Ø±Ø±Ø±Ø±Ø±Ø±":365,"áĪ°":366,"Ġbe":367,"Ġvir":368,"áĬŃ":369,"ol":370,"eer":371,"Ġc":372,"br":373,"ÙĬÙĬÙĬÙĬ":374,"ĠA":375,"20":376,"us":377,"lik":378,"áįį":379,"Ġdit":380,"ĠáĬĲ":381,"ier":382,"ĠáĬ¥áĬķ":383,"áĬł":384,"ag":385,"áīĢ":386,"he":387,"Ġu":388,"ord":389,"..":390,"áĮ¥":391,"Ùħ":392,"Ùĥ":393,"ĠáĭŃ":394,"ak":395,"ot":396,"ÙĩÙĩÙĩÙĩÙĩÙĩÙĩÙĩ":397,"ÙĪÙĪÙĪ":398,"ÙĪÙĪÙĪÙĪÙĪÙĪÙĪÙĪÙĪÙĪÙĪÙĪ":399,"Ġkan":400,"áĭ¨":401,"Ġáī°":402,"áį£":403,"Ġmet":404,"Ġaan":405,"Ġf":406,"ĠáĪĪ":407,"ien":408,"áĭ³":409,"Ð°Ð°Ð°Ð°":410,"der":411,"Ġof":412,"áĮł":413,"ter":414,"Ġse":415,"Ġde":416,"Ġas":417,"áĭİ":418,"áĪī":419,"Ġjou":420,"áĬ¨":421,"ÙħØ":422,"sk":423,"ĠH":424,"áĪª":425,"Ġword":426,"áĪ³":427,"ĠM":428,"aan":429,"áīħ":430,"áįĪ":431,"un":432,"ĠN":433,"ro":434,"am":435,"Ġal":436,"ÙĪÙĪÙĪÙĪÙĪÙĪÙĪÙĪÙĪÙĪÙĪÙĪÙĪÙĪÙĪ":437,"Ø±Ø±Ø±Ø±Ø±Ø±Ø±Ø±Ø±Ø±Ø±Ø±Ø±Ø±Ø±Ø±Ø±Ø±":438,"ĠØ±Ø±Ø±Ø±Ø±Ø±Ø±Ø±Ø±Ø±Ø±Ø±Ø±Ø±Ø±Ø±Ø±Ø±Ø±Ø±Ø±Ø±Ø±Ø±Ø±Ø±Ø±Ø±Ø±Ø±Ø±Ø±Ø±Ø±Ø±Ø±Ø±Ø±Ø±Ø±Ø±Ø±Ø±Ø±Ø±Ø±Ø±Ø±Ø±Ø±":439,"áĬ«":440,"ent":441,"áĭĪ":442,"ĠáĭĪ":443,"áī¸":444,"ies":445,"ĠI":446,"Ġwe":447,"áį¡áį¡":448,"ry":449,"ĠC":450,"Ġmo":451,"ke":452,"Ġdat":453,"ya":454,"st":455,"Ġáĭ«":456,"ĠáĪµ":457,"mb":458,"Ġhul":459,"ĠáĪĽ":460,"áĮĭ":461,"ĠE":462,"Ġst":463,"áĭĭ":464,"ĠáĪĿ":465,"áī¸áĭį":466,"aak":467,"áī¶":468,"die":469,"ĠB":470,"ens":471,"Ġso":472,"áĬ¥":473,"Ġáĭ¨áĪļ":474,"Ġáī¥":475,"ok":476,"Ãª":477,"áĭ²":478,"Ġre":479,"áĭİáī½":480,"áĬĽ":481,"áĮ£":482,"oon":483,"ĠáĬ¥áĬĵ":484,"áĪĨ":485,"Ġcon":486,"ang":487,"erk":488,"Ġr":489,"ĠJ":490,"áĪ®":491,"op":492,"Ġsy":493,"Ġsk":494,"ap":495,"Ġons":496,"ĠØ":497,"ek":498,"Ġbes":499,"ige":500,"ĠG":501,"´Ùĥ":502,"Ø§Ø§Ø§Ø§Ø§Ø§Ø§Ø§Ø§Ø§Ø§Ø§Ø§Ø§Ø§Ø§":503,"ÙħØ´Ùĥ":504,"ÙħØ´ÙĥÙĪÙĪÙĪÙĪÙĪÙĪÙĪÙĪÙĪÙĪÙĪÙĪÙĪÙĪÙĪÙĪÙĪÙĪÙĪÙĪÙĪÙĪÙĪÙĪÙĪÙĪÙĪÙĪÙĪÙĪÙĪÙĪ":505,"ĠDie":506,"ĠO":507,"tel":508,"Ġvoor":509,"áĭĿ":510,"Ã«":511,"ĠT":512,"im":513,"áī±":514,"áĪİ":515,"Ġoor":516,"áĭĬ":517,"Ġhier":518,"áī²":519,"áĭļ":520,"ĠáĬĲáĭį":521,"áĬĲáīµ":522,"Ġch":523,"ore":524,"ĠL":525,"aat":526,"sl":527,"od":528,"Ġsal":529,"ĠâĢĻ":530,"ind":531,"201":532,"Ġhulle":533,"ende":534,"web":535,"Ġuit":536,"Ġ|":537,"Ġle":538,"ada":539,"Ġdaar":540,"ra":541,"ÃŃ":542,"uen":543,"Ø§ÙĦ":544,"eel":545,"ic":546,"webweb":547,"ed":548,"Ġ-":549,"ÙĬÙĬÙĬÙĬÙĬÙĬÙĬÙĬ":550,"ÙħØ´ÙĥÙĪÙĪÙĪÙĪÙĪÙĪÙĪÙĪÙĪÙĪÙĪÙĪÙĪÙĪÙĪÙĪÙĪÙĪÙĪÙĪÙĪÙĪÙĪÙĪÙĪÙĪÙĪÙĪÙĪÙĪÙĪÙĪÙĪÙĪÙĪÙĪÙĪÙĪÙĪÙĪÙĪÙĪÙĪÙĪÙĪÙĪÙĪ":551,"ĠÙĪÙĪÙĪÙĪÙĪÙĪÙĪÙĪÙĪÙĪÙĪÙĪÙĪÙĪÙĪÙĪ":552,"Ø±Ø±Ø±Ø±Ø±Ø±":553,"Ø±Ø±Ø±Ø±Ø±Ø±Ø±Ø±Ø±Ø±Ø±Ø±Ø±Ø±":554,"Ø±Ø±Ø±Ø±Ø±Ø±Ø±Ø±Ø±Ø±Ø±Ø±Ø±Ø±Ø±Ø±Ø±Ø±Ø±Ø±Ø±Ø±Ø±Ø±Ø±Ø±Ø±Ø±Ø±Ø±":555,"est":556,"ĠáĪ°":557,"áĪ©":558,"áĪģ":559,"áĭ®":560,"Ġand":561,"bru":562,"Ġna":563,"ĠáĬŃ":564,"to":565,"Ð°Ð°Ð°Ð°Ð°Ð°Ð°Ð°":566,"ep":567,"omm":568,"ĠP":569,"Ġmoet":570,"áīĥ":571,"ia":572,"yd":573,"ĠK":574,"qu":575,"Ġáĭį":576,"...":577,"Ġáĭ¨áī°":578,"Ġtot":579,"Ġby":580,"ĠáĮį":581,"áĭĺ":582,"heid":583,"Ġook":584,"ĠáĪĭ":585,"Ġek":586,"Ã¡":587,"ĠáĬ£":588,"og":589,"Ġpu":590,"19":591,"Ġba":592,"Ã³":593,"Ġhierdie":594,"ly":595,"Ġwaar":596,"Ġy":597,"Ġsu":598,"Ġ=":599,"Ġpor":600,"áī½áĬķ":601,"ele":602,"th":603,"Ġsp":604,"uit":605,"bruik":606,"ĠW":607,"ĠV":608,"áĬĳ":609,"Ġgr":610,"ĠNor":611,"chin":612,"Ø©":613,"Ġdeur":614,"áĬĸ":615,"ÙĪÙĪÙĪÙĪÙĪÙĪÙĪÙĪÙĪÙĪÙĪÙĪÙĪÙĪÙĪÙĪÙĪÙĪÙĪÙĪÙĪÙĪÙĪÙĪÙĪÙĪÙĪÙĪÙĪÙĪÙĪÙĪÙĪÙĪÙĪÙĪÙĪÙĪÙĪÙĪÙĪÙĪÙĪÙĪÙĪÙĪÙĪÙĪÙĪÙĪÙĪÙĪÙĪÙĪÙĪÙĪÙĪÙĪÙĪÙĪÙĪÙĪÙĪÙĪ":616,"ÙĩÙĩÙĩÙĩÙĩÙĩÙĩÙĩÙĩÙĩÙĩÙĩÙĩÙĩÙĩÙĩ":617,"ÙĪÙĪÙĪÙĪØ±Ø±Ø±Ø±Ø±Ø±Ø±Ø±Ø±Ø±Ø±Ø±Ø±Ø±Ø±Ø±Ø±Ø±Ø±Ø±Ø±Ø±Ø±Ø±Ø±Ø±Ø±Ø±Ø±Ø±":618,"ĠÙĪÙĪÙĪÙĪÙĪÙĪÙĪÙĪÙĪÙĪÙĪÙĪÙĪÙĪÙĪÙĪÙĪÙĪÙĪÙĪØ±Ø±Ø±Ø±Ø±Ø±Ø±Ø±Ø±Ø±Ø±Ø±Ø±Ø±Ø±Ø±Ø±Ø±Ø±Ø±Ø±Ø±Ø±Ø±Ø±Ø±Ø±Ø±Ø±Ø±":619,"uis":620,"Ġáį":621,"els":622,"em":623,"ĠDit":624,"elf":625,"oen":626,"ĠáĪĭáĭŃ":627,"Ġáīµ":628,"Ġpr":629,"Ġgebruik":630,"Ġwas":631,"aal":632,"uk":633,"ings":634,"Ġwil":635,"ĠáĬ¥áĬķáĭ°":636,"ite":637,"oek":638,"ste":639,"âĢĿ":640,"áĪŀ":641,"aam":642,"áĭįáĬķ":643,"uur":644,"ant":645,"ip":646,"Ġbaie":647,"io":648,"áĪ½":649,"Ġhy":650,"ere":651,"ĠáĭĿ":652,"áī¢":653,"Ġmaar":654,"like":655,"Ġáĭ°":656,"Ġáĭĺ":657,"áĭ©":658,"ion":659,"áĭķ":660,"Ġáī£":661,"Ġmy":662,"Ġwees":663,"ug":664,"ken":665,"áĪķ":666,"Ġpl":667,"ĠáĮ¥":668,"oed":669,"ero":670,"00":671,"Ġqu":672,"Die":673,"Ġges":674,"ĠSu":675,"Ġáĭĵ":676,"ÙĨ":677,"wer":678,"Ġaf":679,"ĠIsl":680,"ĠØ§ÙĦ":681,"áĬķáĭµ":682,"áī»":683,"áī¡":684,"Ã³n":685,"yo":686,"Ġnom":687,"ØŃ":688,"Ġque":689,"ond":690,"ÃŃa":691,"Øµ":692,"mbre":693,"ĠNorte":694,"ueng":695,"oreya":696,"Ġáĭµ":697,"áĬĿ":698,"oot":699,"ĠR":700,"áĪĬ":701,"ate":702,"ĠâĢľ":703,"ĠáĪ²":704,"áįĭ":705,"áĪ±":706,"ann":707,"wy":708,"Ġgev":709,"áĮ½":710,"áĮħ":711,"áĪ¬":712,"ĠáĬ¢":713,"áĪĪáĭį":714,"Ġ\"":715,"oord":716,"áĭ±":717,"iese":718,"Ġwerk":719,"áīłáīµ":720,"áĭĽ":721,"ba":722,"áĭĵ":723,"Ġpro":724,"Ġmeer":725,"áį¤":726,"ĠF":727,"ide":728,"bre":729,"art":730,"Ġeen":731,"ĠáīłáĪĺ":732,"25":733,"áĪµáī°":734,"ĠáĮĪ":735,"ĠáīĢ":736,"oop":737,"Ġander":738,"áĪĮ":739,"ges":740,"áĪĻ":741,"ker":742,"Ġto":743,"rik":744,"áĬĴ":745,"ĠáĬķ":746,"Ġmaak":747,"me":748,"ĠáĪį":749,"Ġvol":750,"iet":751,"ov":752,"áĭľ":753,"áī¶áī½":754,"ĠAs":755,"áĭļáĪħ":756,"áĪ²":757,"áĬ¢":758,"áĮĪáĪŃ":759,"elik":760,"áīµáĭ®":761,"ĠáĪģ":762,"bl":763,"Ġfe":764,"webwebwebweb":765,"Ġthe":766,"Ġnet":767,"ĠáĬ«":768,"Ġhoe":769,"dat":770,"Ġont":771,"Ġtoe":772,"Ġgaan":773,"áīłáĪŃ":774,"sp":775,"um":776,"áĬĶ":777,"202":778,"ac":779,"áĪ»":780,"ief":781,"Ġsoos":782,"áĮĢ":783,"Ġgew":784,"Ġmar":785,"Ġtyd":786,"áĭ«áĬķ":787,"ĠáĬ¥áĬķáĭ²":788,"áĮµ":789,"ode":790,"ink":791,"áīµáĬķ":792,"ĠIn":793,"ont":794,"áĬķáĮį":795,"áīµáĭ®áĮµ":796,"áĮī":797,"au":798,"end":799,"sie":800,"áĪĥ":801,"mber":802,"Ġbeg":803,"áĪµáīµ":804,"áĪµáĮ¥":805,"ne":806,"Ð°Ð°Ð°Ð°Ð°Ð°Ð°Ð°Ð°Ð°Ð°Ð°Ð°Ð°Ð°Ð°":807,"Ġson":808,"Ġvr":809,"Ġáĭ¨áĪĺ":810,"az":811,"Ġreg":812,"áĬ©":813,"be":814,"Ġbel":815,"orm":816,"áįĬ":817,"ĠáĬĵ":818,"eld":819,"rag":820,"if":821,"Ġkom":822,"ense":823,"âĢĻ":824,"áīµáĭ®áĮµáĭ«":825,"ater":826,"áĪĪáĪĿ":827,"cha":828,"áĪªáĭ«":829,"ĠáĭįáĪµáĮ¥":830,"rey":831,"ver":832,"áīģ":833,"Ġdr":834,"ab":835,"Ġman":836,"yn":837,"Ġter":838,"Ø³":839,"áĭĭáĪį":840,"ora":841,"rek":842,"wee":843,"Ġáĭ¨áĬł":844,"Ġpers":845,"Ø¯":846,"Ø¹":847,"Ùģ":848,"achin":849,"Ġag":850,"áĪĨáĬķ":851,"aas":852,"Ġged":853,"Ġall":854,"ĠHy":855,"Ġ_":856,"ank":857,"áĬ®":858,"{{":859,"Ġonder":860,"ĠSud":861,"ĠáĮĭ":862,"ĠáĪĪáĪĺ":863,"Ġversk":864,"áĮĥ":865,"áĪŃáīµ":866,"áī¦":867,"yk":868,"ÙĤ":869,"ĠÙĪ":870,"...'":871,"Ã¡s":872,"oel":873,"iÃ³n":874,"ÙĦØ":875,"ĠIsla":876,"ĠØŃ":877,"Ġbegin":878,"imien":879,"Ġchun":880,"estos":881,"ĠmÃ¡s":882,"Ġnombre":883,"Ġ'{{":884,"Ġfebr":885,"achina":886,"iembre":887,"ĠØŃÙĦ":888,"Ġcrey":889,"Pachina":890,"ÙĪÙĪÙĪÙĪÙĪÙĪÙĪÙĪÙĪÙĪÙĪÙĪÙĪÙĪÙĪÙĪÙĪÙĪÙĪÙĪÙĪÙĪÙĪÙĪÙĪÙĪÙĪÙĪÙĪÙĪÙĪÙĪÙĪÙĪÙĪÙĪÙĪÙĪÙĪÙĪÙĪÙĪÙĪÙĪÙĪÙĪÙĪÙĪÙĪÙĪÙĪÙĪÙĪÙĪÙĪÙĪÙĪÙĪÙĪÙĪ":891,"ÙĪÙĪÙĪÙĪÙĪÙĪÙĪÙĪÙĪÙĪÙĪÙĪÙĪÙĪÙĪÙĪÙĪÙĪÙĪÙĪÙĪÙĪÙĪÙĪÙĪÙĪÙĪÙĪÙĪÙĪÙĪÙĪÙĪÙĪÙĪÙĪÙĪÙĪÙĪÙĪÙĪÙĪÙĪÙĪÙĪÙĪÙĪÙĪÙĪÙĪÙĪÙĪÙĪÙĪÙĪÙĪÙĪÙĪÙĪÙĪÙĪÙĪÙĪ":892,"Ġlueng":893,"ĠCoreya":894,"Ø§Ø§Ø§Ø§Ø§Ø§Ø§Ø§Ø§Ø§Ø§Ø§Ø§Ø§Ø§Ø§Ø§Ø§Ø§Ø§Ø§Ø§Ø§Ø§Ø§Ø§Ø§Ø§Ø§Ø§Ø§Ø§":895,"ÙĬÙĬÙĬÙĬÙĬÙĬÙĬÙĬÙĬÙĬÙĬÙĬÙĬÙĬÙĬÙĬ":896,"Ġpuestos":897,"Ġsuya":898,"Ġfebrero":899,"Ġcreyada":900,"ĠGod":901,"áīĨ":902,"Ġgen":903,"ĠáīłáĬł":904,"ander":905,"asie":906,"ist":907,"áĮ«":908,"Ġáī¤":909,"Ġkind":910,"Ġdoen":911,"áĪľ":912,"akel":913,"áĮİ":914,"Ġáīłáī°":915,"iv":916,"kom":917,"ut":918,"Ġhaar":919,"ĠáĭĪáĭ°":920,"Ġgroot":921,"alle":922,"Ġgel":923,"are":924,"ĠáĪĪáĪĽ":925,"ĠáĪħ":926,"áĮ¨":927,"áĪĪáīµ":928,"ĠáĬłáĭŃ":929,"oud":930,"mp":931,"áĮŃ":932,"anneer":933,"áĬ¤":934,"Ġáīħ":935,"Ġhand":936,"gel":937,"áĪŃáĪµ":938,"ĠáĪĬ":939,"áī¤":940,"áĭ¶":941,"ĠáĮī":942,"jie":943,"Ġme":944,"Ã©":945,"Ĭáĭľ":946,"Ġkl":947,"Ġhom":948,"mer":949,"Ġbl":950,"áīĭ":951,"oeg":952,"ĠEk":953,"Ġself":954,"na":955,"Ġáį£":956,"ĠEn":957,"Ġmense":958,"Ġne":959,"maak":960,"ĠáĪķ":961,"ay":962,"áĪĨáĬĲ":963,"ande":964,"áĪĨáĬĳ":965,"ied":966,"ĠáĮįáĬķ":967,"Ġáī³":968,"skap":969,"ns":970,"áĪ¥":971,"49":972,"Ġbo":973,"ĠáĬłáĬķ":974,"Ġtele":975,"af":976,"woord":977,"ommer":978,"Ġland":979,"áĭ°áĪŃ":980,"ting":981,"áīĤ":982,"ĠáĪµáĪĪ":983,"áĭĻ":984,"Ġpersoon":985,"Ġ[":986,"áī³áīµ":987,"áĮ¡":988,"ember":989,"ĠSep":990,"aag":991,"ĠáĬ£áī¥":992,"ood":993,"áĪ¨áīµ":994,"ryf":995,"ĠáĭŃáĪħ":996,"Ġkle":997,"Ġáįį":998,"áī°áĬĽ":999,"Rep":1000,"áīłáĪ¨":1001,"Ġel":1002,"foon":1003,"áĭ°áĪ¨":1004,"áĪ«áīµ":1005,"sel":1006,"ĠáĪ³":1007,"mo":1008,"áĭ´":1009,"und":1010,"iek":1011,"Ġbet":1012,"ĠáĮĭáĪŃ":1013,"ĠáĪĨ":1014,"Ġdan":1015,"teken":1016,"la":1017,"inge":1018,"pr":1019,"áĬķáĪĿ":1020,"áī¹":1021,"ĠáĭĪáĭŃ":1022,"of":1023,"Ġtelefoon":1024,"áĪ¸":1025,"ĠáĮĬáĭľ":1026,"oc":1027,"self":1028,"10":1029,"Ġma":1030,"ons":1031,"rad":1032,"gor":1033,"Ġkode":1034,"ale":1035,"Ġou":1036,"áī¸áĭįáĬķ":1037,"Ġber":1038,"2022":1039,"tr":1040,"Ġun":1041,"Ġhou":1042,"ĠU":1043,"odig":1044,"áĮ¸":1045,"erste":1046,"âĸ":1047,"lek":1048,"itu":1049,"ĠáĬłáĪµ":1050,"pe":1051,"Ġbr":1052,"pl":1053,"ĠâĢĺ":1054,"ĠáĬ¥áĭ¨":1055,"Ġsl":1056,"iz":1057,"frik":1058,"onder":1059,"ess":1060,"ary":1061,"ĠáīłáĪĽ":1062,"áĬ£":1063,"áĪĭáĪį":1064,"Ġáĭ¨áĪĽ":1065,"tig":1066,"ari":1067,"Ġare":1068,"ys":1069,"Ġno":1070,"Ġsien":1071,"Ġpres":1072,"Ġáĭ¨áĪļáĭ«":1073,"oer":1074,"Ġskakel":1075,"Ġlewe":1076,"áĪĭáĭŃ":1077,"Ġkon":1078,"ĠáĮł":1079,"Ãªr":1080,"âĸº":1081,"ort":1082,"ulle":1083,"Ġnu":1084,"áī´":1085,"Ġgeb":1086,"áĪĶ":1087,"áĮ»":1088,"Ġ/":1089,"áĪĿáĬķ":1090,"gr":1091,"Ġbeh":1092,"ef":1093,"ĠsÃª":1094,"Ġmater":1095,"Ġgeh":1096,"Ġwanneer":1097,"Ġmin":1098,"áĪĲ":1099,"ian":1100,"ks":1101,"eeld":1102,"ategor":1103,"áĭµáĪŃ":1104,"ene":1105,"werk":1106,"ĠáĪĥ":1107,"ber":1108,"ĠáĪĺáĬķ":1109,"ente":1110,"Ġkry":1111,"__":1112,"ĠáĪļ":1113,"ara":1114,"ĠáĪ¥":1115,"ĠáĬłáĪĪ":1116,"iÃ«":1117,"197":1118,"Ġpa":1119,"ĠáįĪ":1120,").":1121,"van":1122,"Ġnog":1123,"Ġth":1124,"Ġtwee":1125,"áĪ¨áĮĥ":1126,"tyd":1127,"áĪĦ":1128,"webwebwebwebwebwebwebweb":1129,"stel":1130,"Ġgele":1131,"ec":1132,"Ġjaar":1133,"áĪ´":1134,"Ġgesk":1135,"Ġpart":1136,"áĪĵ":1137,"ĠJy":1138,"Ġverk":1139,"Ġáī¢":1140,"áĮĤ":1141,"Ġverh":1142,"oog":1143,"Ġbin":1144,"áĬ¦":1145,"del":1146,"ĠDaar":1147,"lig":1148,"áĪ«áĭĬ":1149,"eg":1150,"ĠCh":1151,"áĪİáī½":1152,"Ġlaat":1153,"Ġ[[":1154,"Ġsent":1155,"Ġbev":1156,"Ġsi":1157,"Ġtelefoonn":1158,"Ġbid":1159,"aai":1160,"áĪ¶":1161,"Ġbelang":1162,"ĠáĬ¨áī°":1163,"oof":1164,"Ġprob":1165,"ans":1166,"Ġgee":1167,"ĠâĢĵ":1168,"Ġweet":1169,"Ġ+":1170,"ua":1171,"Ġsie":1172,"áĭµáĪ¨":1173,"Ġlig":1174,"Ġverb":1175,"Ġeg":1176,"ori":1177,"arr":1178,"not":1179,"áĮĪáĪį":1180,"Ġplaas":1181,"ox":1182,"áįī":1183,"áĬ¢áīµáĭ®áĮµáĭ«":1184,"ibl":1185,"osa":1186,"Ãªreld":1187,"Ġhel":1188,"tin":1189,"Ġweer":1190,"Ġáĭķ":1191,"Ġnou":1192,"ĠáĬ¤":1193,"Ġgoed":1194,"Ġye":1195,"ooi":1196,"Ġbesk":1197,"Ġalle":1198,"áĪĪáĬķ":1199,"Ġvl":1200,"Ġtro":1201,"Ġáĭĭ":1202,"áĬª":1203,"ese":1204,"este":1205,"11":1206,"aard":1207,"mbol":1208,"Ð°Ð°Ð°Ð°Ð°Ð°Ð°Ð°Ð°Ð°Ð°Ð°Ð°Ð°Ð°Ð°Ð°Ð°Ð°Ð°Ð°Ð°Ð°Ð°Ð°Ð°Ð°Ð°Ð°Ð°Ð°Ð°":1209,"Ġelke":1210,"uid":1211,"tu":1212,"Ġvolg":1213,"esus":1214,"áĪ°áī¥":1215,"Ġar":1216,"itic":1217,"áĬŀ":1218,"iol":1219,"Ġhuis":1220,"ill":1221,"Ġav":1222,"áĮĪáī£":1223,"fens":1224,"wys":1225,"áĪ®áī½":1226,"ĠSou":1227,"ĠáĭĪáĭŃáĪĿ":1228,"per":1229,"ius":1230,"12":1231,"ĠOm":1232,"ca":1233,"ĠáĪģáĪī":1234,"ow":1235,"áĬķáĭ«":1236,"Ġmor":1237,"Ġpaar":1238,"cat":1239,"Ø§Ø±":1240,"ĠáĬ®":1241,"angua":1242,"dien":1243,"Ñħ":1244,"ĠhÃª":1245,"mal":1246,"Ø¨":1247,"Ã«l":1248,"ĠáĪĺáĪµ":1249,"ĠáĬ¥áĪµ":1250,"ĠáĬłáĪį":1251,"Reply":1252,"Ġsaam":1253,"ook":1254,"Ġteen":1255,"ĠáīłáĪļ":1256,"Fi":1257,"com":1258,"valle":1259,"iets":1260,"Ġes":1261,"ĠHier":1262,"oeie":1263,"ĠáĪĵ":1264,"ĠSouth":1265,"Ãº":1266,"lv":1267,"250":1268,"Ġdos":1269,"ĠáĮīáĭ³":1270,"esc":1271,"áĭ²áĪµ":1272,"Ġinte":1273,"ĠáĬĲáīłáĪŃ":1274,"iote":1275,"ideos":1276,"tes":1277,"uss":1278,"Ġmob":1279,"ibliote":1280,"Comm":1281,"Øª":1282,"eno":1283,"Ġste":1284,"ust":1285,"dr":1286,"Ã©n":1287,"}}":1288,"esti":1289,"ĠJesus":1290,"Ġchil":1291,"ĠÙģ":1292,"Ãªre":1293,"áī¥áĪŃ":1294,"Ġegter":1295,"Ġpoc":1296,"meric":1297,"ĠKore":1298,"Ġáĭ¨áĪĿ":1299,"ÑħÑħ":1300,"Ġset":1301,"ura":1302,"áĬĵáĪį":1303,"áĬĺ":1304,"Ã¡n":1305,"Ġcal":1306,"Ġcontin":1307,"ĠCategor":1308,"áī±áĬķ":1309,"Ġvers":1310,"áĭİáī½áĬķ":1311,"cau":1312,"áĪĭáīµ":1313,"ĠNorth":1314,"ĠLuis":1315,"zia":1316,"1977":1317,"Bos":1318,"ĠMaar":1319,"ĠdÃŃ":1320,"ĠØ³":1321,"ĠIsland":1322,"anguages":1323,"ubr":1324,"zo":1325,"ĠáĪĢ":1326,"áįĸ":1327,"apa":1328,"Ġmak":1329,"áĮĬ":1330,"Ġos":1331,"áĮįáī£":1332,"Ġabr":1333,"Ġweg":1334,"Ġnov":1335,"px":1336,"ÙĪØ±":1337,"Ġ~":1338,"adis":1339,"iu":1340,"Ġpresent":1341,"ĠBibliote":1342,"ĠØ¨":1343,"tos":1344,"1949":1345,"sec":1346,"Ġáī£áĪĪ":1347,"Ġpul":1348,"Ġenc":1349,"eda":1350,"áĪł":1351,"baar":1352,"Ø§Ø":1353,"amos":1354,"ÃŃs":1355,"Ø£":1356,"ĠÙĬ":1357,"áĪĿáĪħ":1358,"Situ":1359,"ĠáĬĲáĮĪáĪŃ":1360,"ÙĬÙĨ":1361,"ĠØ§ÙĦÙĦ":1362,"ĠØ±":1363,"ĠÙĥ":1364,"chul":1365,"ĠKorea":1366,"chit":1367,"azar":1368,"voor":1369,"osto":1370,"ĠØ§ÙĦÙĦÙĩ":1371,"atuur":1372,"aciÃ³n":1373,"ÙĦØº":1374,"Ø§Ø¯":1375,"ĠØµ":1376,"Languages":1377,"quia":1378,"Ø§Ø¡":1379,"Ø«":1380,"ĠáĬ¥áĬķáĭ³":1381,"ÙĨÙĬ":1382,"undo":1383,"ĠÙĨ":1384,"entura":1385,"ÙĬØ±":1386,"Ġasc":1387,"Ġesti":1388,"ĠÙģÙĬ":1389,"Arag":1390,"mpre":1391,"uena":1392,"ĠØ§ÙĦÙħØ":1393,"ÙĬØ¯":1394,"radig":1395,"arrada":1396,"Ġfora":1397,"ĠØ§ÙĦØ£":1398,"Ø¨Ø§Ø±":1399,"uitar":1400,"Ø³ÙĦ":1401,"Ġberas":1402,"200":1403,"Ġconsec":1404,"ulio":1405,"Ġbander":1406,"ÙĥÙħ":1407,"Commons":1408,"Ø§ÙĤ":1409,"iento":1410,"ĠØ²":1411,"imientos":1412,"Ġameric":1413,"ÙĦØ©":1414,"imiento":1415,"Ġmayo":1416,"izip":1417,"ØªØµ":1418,"ÙħØ¯":1419,"ÙĩÙĪ":1420,"Ø¹ÙĬ":1421,"´ÙĬ":1422,"cada":1423,"Ġbandera":1424,"Ġbels":1425,"Ø§ÙĦØµ":1426,"Ġchileno":1427,"ÙħØŃ":1428,"Ø§ÙĦÙĤ":1429,"ÙĬØ¯Ø©":1430,"ØŃØ³":1431,"Ø¹Ùĩ":1432,"ĠdÃŃa":1433,"ĠØµØŃ":1434,"Ġmundo":1435,"ØŃÙĦ":1436,"¹Ø§Ø¯":1437,"ĠDende":1438,"Ġsiempre":1439,"escubr":1440,"Ø±ÙĬÙĨ":1441,"Ġbuena":1442,"ĠpaÃŃs":1443,"ÙħØŃÙħØ¯":1444,"ĠBiblioteca":1445,"ÙĨÙĬÙģ":1446,"ĠÙģÙĬÙĥÙħ":1447,"Ġisla":1448,"Ġnomadis":1449,"Ġagosto":1450,"ĠÙĪØ§ÙĤ":1451,"Ġmaterna":1452,"fensa":1453,"Ġpoco":1454,"ĠÙĥØ«":1455,"Ø§ÙĦÙĤØµ":1456,"escubrir":1457,"Coreya":1458,"Ovalle":1459,"ĠÙĪÙĪÙĪÙĪÙĪÙĪÙĪÙĪÙĪÙĪÙĪÙĪÙĪÙĪÙĪÙĪÙĪÙĪÙĪÙĪÙĪÙĪÙĪÙĪÙĪÙĪÙĪÙĪÙĪÙĪÙĪÙĪ":1460,"ÙĪÙĪØ±":1461,"ÙĪÙĪÙĪÙĪÙĪÙĪÙĪÙĪÙĪÙĪÙĪÙĪÙĪÙĪÙĪÙĪÙĪÙĪÙĪÙĪÙĪÙĪÙĪÙĪÙĪÙĪÙĪÙĪÙĪÙĪÙĪÙĪÙĪÙĪÙĪÙĪÙĪÙĪÙĪÙĪÙĪÙĪÙĪÙĪÙĪÙĪÙĪÙĪÙĪÙĪÙĪÙĪÙĪÙĪÙĪÙĪÙĪÙĪÙĪÙĪÙĪÙĪÙĪÙĪÙĪÙĪÙĪÙĪÙĪÙĪÙĪÙĪÙĪÙĪÙĪÙĪÙĪÙĪÙĪÙĪ":1462,"ÙĪÙĪÙĪÙĪÙĪÙĪÙĪÙĪÙĪÙĪÙĪÙĪÙĪÙĪÙĪÙĪÙĪÙĪÙĪÙĪÙĪÙĪÙĪÙĪÙĪÙĪÙĪÙĪÙĪÙĪÙĪÙĪÙĪÙĪØ±":1463,"Ø§ÙĪÙĪÙĪÙĪÙĪÙĪÙĪÙĪÙĪÙĪÙĪÙĪÙĪÙĪÙĪ":1464,"Ġmapa":1465,"Ġbideos":1466,"Ġencha":1467,"Ġenradig":1468,"Ġinnot":1469,"Ġgari":1470,"Ġembre":1471,"idÃ¡":1472,"Ø§Ø§Ø§Ø§Ø§Ø§Ø§Ø§Ø§ÙĪÙĪÙĪÙĪÙĪÙĪÙĪÙĪÙĪÙĪÙĪÙĪÙĪÙĪÙĪ":1473,"ÙĥÙĦØ":1474,"ÙĩÙĩÙĩÙĩÙĩÙĩÙĩÙĩÙĩÙĩÙĩÙĩ":1475,"ÙĪÙĪÙĪØ©":1476,"ÙĪÙĪÙĪØ§Ø§Ø§Ø§Ø§Ø§Ø§Ø§Ø§Ø§Ø§Ø§Ø§Ø§Ø§Ø§Ø§Ø§Ø§Ø§Ø§Ø§Ø§Ø§Ø§Ø§Ø§Ø§Ø§Ø§Ø§Ø§":1477,"Ġconox":1478,"Ø§Ø§Ø§Ø§Ø§Ø§Ø§Ø§Ø§Ø§Ø§Ø§Ø§Ø§Ø§Ø§Ø§Ø§Ø§Ø§Ø§Ø§Ø§Ø§Ø§ÙĪÙĪÙĪÙĪÙĪÙĪÙĪÙĪÙĪÙĪÙĪÙĪÙĪÙĪÙĪ":1479,"ÙħØ´ÙĥÙĪÙĪÙĪÙĪÙĪÙĪÙĪÙĪÙĪÙĪÙĪÙĪÙĪÙĪÙĪÙĪÙĪÙĪÙĪÙĪÙĪÙĪÙĪÙĪÙĪÙĪÙĪÙĪÙĪÙĪÙĪÙĪÙĪÙĪÙĪÙĪÙĪÙĪÙĪÙĪÙĪÙĪÙĪÙĪÙĪÙĪÙĪÙĪÙĪÙĪÙĪÙĪÙĪÙĪÙĪÙĪÙĪÙĪÙĪÙĪÙĪÙĪÙĪÙĪÙĪÙĪÙĪÙĪÙĪÙĪÙĪÙĪÙĪÙĪÙĪÙĪÙĪÙĪÙĪÙĪÙĪÙĪÙĪÙĪÙĪÙĪÙĪÙĪÙĪÙĪÙĪÙĪ":1480,"Ġcharrada":1481,"Ġchulio":1482,"ĠLueng":1483,"uenzia":1484,"Ġ-...'":1485,"ÙĬÙĬÙĬÙĬÙĬÙĬÙĬÙĬÙĬØ±":1486,"ĠÙĪÙĪÙĪÙĪÙĪÙĪÙĪÙĪÙĪÙĪÙĪÙĪÙĪÙĪÙĪÙĪÙĪÙĪÙĪØ§Ø§Ø§Ø§Ø§Ø§Ø§Ø§Ø§Ø§Ø§Ø§Ø§Ø§Ø§Ø§Ø§Ø§Ø§Ø§Ø§Ø§Ø§Ø§Ø§Ø§Ø§Ø§Ø§Ø§Ø§Ø§":1487,"Ġpuet":1488,"Ġpuya":1489,"Ġsuyo":1490,"chinal":1491,"chinero":1492,"ÙĪÙĪÙĪÙĪÙĪÙĪÙĪÙĪÙĪÙĪÙĪÙĪÙĪÙĪÙĪÙĪÙĪÙĪÙĪÙĪÙĪÙĪÙĪÙĪÙĪÙĪÙĪÙĪÙĪÙĪÙĪÙĪÙĪÙĪÙĪÙĪÙĪÙĪÙĪÙĪÙĪÙĪÙĪÙĪÙĪÙĪÙĪÙĪÙĪÙĪÙĪÙĪÙĪÙĪÙĪÙĪÙĪÙĪÙĪÙĪÙĪÙĪÙĪÙĪÙĪÙĪÙĪÙĪÙĪÙĪÙĪÙĪÙĪÙĪÙĪÙĪÙĪÙĪÙĪÙĪÙĪÙĪÙĪÙĪÙĪÙĪÙĪÙĪÙĪÙĪÙĪÙĪÙĪÙĪÙĪÙĪÙĪÙĪÙĪÙĪÙĪÙĪÙĪÙĪÙĪÙĪÙĪÙĪÙĪÙĪÙĪÙĪÙĪÙĪÙĪÙĪÙĪÙĪÙĪÙĪÙĪÙĪÙĪÙĪÙĪÙĪÙĪ":1493,"ÙĪÙĪÙĪÙĪÙĪÙĪÙĪÙĪÙĪÙĪÙĪÙĪÙĪÙĪÙĪÙĪÙĪÙĪÙĪÙĪÙĪÙĪÙĪÙĪÙĪÙĪÙĪÙĪÙĪÙĪÙĪÙĪÙĪÙĪÙĪÙĪÙĪÙĪÙĪÙĪÙĪÙĪÙĪÙĪÙĪÙĪÙĪÙĪÙĪÙĪÙĪÙĪÙĪÙĪÙĪÙĪÙĪÙĪÙĪÙĪÙĪÙĪÙĪÙĪÙĪÙĪÙĪÙĪÙĪÙĪÙĪÙĪÙĪÙĪÙĪÙĪÙĪÙĪÙĪÙĪÙĪÙĪÙĪÙĪÙĪÙĪÙĪÙĪÙĪÙĪÙĪÙĪÙĪÙĪÙĪÙĪÙĪÙĪØ±":1494,"ÙĪÙĪÙĪÙĪÙĪÙĪÙĪÙĪÙĪÙĪÙĪÙĪÙĪÙĪÙĪÙĪÙĪÙĪÙĪÙĪÙĪÙĪÙĪÙĪÙĪÙĪÙĪÙĪÙĪÙĪÙĪÙĪÙĪÙĪÙĪÙĪÙĪÙĪÙĪÙĪÙĪÙĪÙĪÙĪÙĪÙĪÙĪÙĪÙĪÙĪÙĪÙĪÙĪÙĪÙĪÙĪÙĪÙĪÙĪÙĪÙĪÙĪÙĪÙĪÙĪÙĪÙĪØ©":1495,"ÙĩÙĩÙĩÙĩÙĩÙĩÙĩÙĩÙĩÙĩÙĩÙĩÙĩÙĩÙĩÙĩÙĩÙĩÙĩÙĩÙĩÙĩÙĩÙĩÙĩÙĩÙĩÙĩÙĩÙĩÙĩÙĩ":1496,"Ġmarzo":1497,"Ġmarcada":1498,"Ġsoniu":1499,"aziÃ³n":1500,"abentura":1501,"Ġallora":1502,"ĠÙĪØ¨Ø§Ø±":1503,"Ġchunio":1504,"Ġchunyo":1505,"ĠØŃÙĦÙĪÙĪÙĪÙĪÙĪÙĪÙĪÙĪÙĪÙĪÙĪÙĪÙĪÙĪÙĪÙĪÙĪÙĪÙĪÙĪÙĪÙĪÙĪÙĪÙĪÙĪÙĪÙĪÙĪÙĪÙĪÙĪÙĪÙĪÙĪÙĪÙĪÙĪÙĪÙĪÙĪÙĪÙĪÙĪÙĪÙĪÙĪÙĪÙĪÙĪÙĪÙĪÙĪÙĪÙĪÙĪÙĪÙĪÙĪÙĪ":1506,"ĠØŃÙĦÙĪÙĪÙĪÙĪÙĪÙĪÙĪÙĪÙĪÙĪÙĪÙĪÙĪÙĪÙĪÙĪÙĪÙĪÙĪÙĪÙĪÙĪÙĪÙĪÙĪÙĪÙĪÙĪÙĪÙĪÙĪÙĪÙĪÙĪÙĪÙĪÙĪÙĪÙĪÙĪÙĪÙĪÙĪÙĪÙĪÙĪÙĪÙĪÙĪÙĪÙĪÙĪÙĪÙĪÙĪÙĪÙĪÙĪÙĪÙĪÙĪÙĪÙĪÙĪÙĪÙĪÙĪØ©":1507,"Ġluenga":1508,"Ġluengas":1509,"ÙĬÙĬÙĬÙĬÙĬÙĬÙĬÙĬÙĬÙĬÙĬÙĬÙĬÙĬÙĬÙĬÙĬÙĬÙĬÙĬÙĬÙĬÙĬÙĬÙĬØ±":1510,"Ġboz":1511,"ĠSepÃº":1512,"Ġpartizip":1513,"Ġsentimiento":1514,"Ġbida":1515,"orichinal":1516,"Ġtroba":1517,"mbolÃŃa":1518,"iticos":1519,"Ġaviento":1520,"Ficha":1521,"Ġesfensa":1522,"lveda":1523,"Ġmobimientos":1524,"Ġsetiembre":1525,"ĠcalidÃ¡":1526,"ĠcontinÃ©n":1527,"ĠCategorÃŃa":1528,"ĠdÃŃya":1529,"Ġabril":1530,"Ġnoviembre":1531,"Ġpresentamos":1532,"Ġpuliticos":1533,"Ġencara":1534,"ĠÙĬØ³ÙĦ":1535,"SituaciÃ³n":1536,"ĠØ±ÙĪÙĪÙĪÙĪÙĪÙĪÙĪÙĪÙĪÙĪÙĪÙĪÙĪÙĪÙĪÙĪÙĪÙĪÙĪÙĪÙĪÙĪÙĪÙĪÙĪÙĪÙĪÙĪÙĪÙĪÙĪÙĪÙĪÙĪÙĪÙĪÙĪÙĪÙĪÙĪÙĪÙĪÙĪÙĪÙĪÙĪÙĪÙĪÙĪÙĪÙĪÙĪÙĪÙĪÙĪÙĪÙĪÙĪÙĪÙĪÙĪÙĪÙĪÙĪÙĪÙĪÙĪÙĪÙĪÙĪÙĪÙĪÙĪÙĪÙĪÙĪÙĪÙĪÙĪÙĪÙĪÙĪÙĪÙĪÙĪÙĪÙĪÙĪÙĪÙĪÙĪÙĪÙĪÙĪÙĪÙĪÙĪÙĪÙĪÙĪÙĪÙĪÙĪÙĪÙĪÙĪÙĪÙĪÙĪÙĪÙĪÙĪÙĪÙĪÙĪÙĪÙĪÙĪÙĪÙĪÙĪÙĪÙĪÙĪÙĪÙĪÙĪ":1537,"chuliol":1538,"chitada":1539,"azarosa":1540,"ĠÙĨÙĪÙĪÙĪÙĪÙĪÙĪÙĪÙĪÙĪÙĪÙĪÙĪÙĪÙĪÙĪÙĪÙĪÙĪÙĪÙĪÙĪÙĪÙĪÙĪÙĪÙĪÙĪÙĪÙĪÙĪÙĪÙĪÙĪÙĪÙĪÙĪÙĪÙĪÙĪÙĪÙĪÙĪÙĪÙĪÙĪÙĪÙĪÙĪÙĪÙĪÙĪÙĪÙĪÙĪÙĪÙĪÙĪÙĪÙĪÙĪÙĪÙĪÙĪÙĪÙĪÙĪÙĪÙĪÙĪÙĪÙĪÙĪÙĪÙĪÙĪÙĪÙĪÙĪÙĪÙĪÙĪÙĪÙĪÙĪÙĪÙĪÙĪÙĪÙĪÙĪÙĪÙĪÙĪÙĪÙĪÙĪÙĪÙĪØ±":1541,"Ġascuitar":1542,"ĠestiÃ³":1543,"AragÃ³n":1544,"ĠØ§ÙĦÙħØ¹Ø§Ø¯":1545,"Ġforachitada":1546,"ĠØ§ÙĦØ£ØŃØ³":1547,"Ġconsecuenzia":1548,"Commonscat":1549,"ĠØ²ÙĪÙĪÙĪÙĪÙĪÙĪÙĪÙĪÙĪÙĪÙĪÙĪÙĪÙĪÙĪÙĪÙĪÙĪÙĪÙĪÙĪÙĪÙĪÙĪÙĪÙĪÙĪÙĪÙĪÙĪÙĪÙĪÙĪÙĪÙĪÙĪÙĪÙĪÙĪÙĪÙĪÙĪÙĪÙĪÙĪÙĪÙĪÙĪÙĪÙĪÙĪÙĪÙĪÙĪÙĪÙĪÙĪÙĪÙĪÙĪÙĪÙĪÙĪ":1550,"ĠamericÃ¡n":1551,"ØªØµÙĨÙĬÙģ":1552,"Ø§ÙĦØµÙĪØ±":1553,"ĠØµØŃØ©":1554,"Ġnomadismo":1555,"ĠÙĪØ§ÙĤØ¹ÙĬ":1556,"ĠÙĥØ«ÙĬÙĬÙĬÙĬÙĬÙĬÙĬÙĬÙĬÙĬÙĬÙĬÙĬÙĬÙĬÙĬÙĬÙĬÙĬÙĬÙĬÙĬÙĬÙĬÙĬØ±":1557,"Ø§ÙĦÙĤØµÙĬØ¯Ø©":1558,"ĠÙĪÙĪÙĪÙĪÙĪÙĪÙĪÙĪÙĪÙĪÙĪÙĪÙĪÙĪÙĪÙĪÙĪÙĪÙĪÙĪÙĪÙĪÙĪÙĪÙĪÙĪÙĪÙĪÙĪÙĪÙĪÙĪØ±ÙĬÙĨ":1559,"ÙĪÙĪÙĪÙĪÙĪÙĪÙĪÙĪÙĪÙĪÙĪÙĪÙĪÙĪÙĪÙĪÙĪÙĪÙĪÙĪÙĪÙĪÙĪÙĪÙĪÙĪÙĪÙĪÙĪÙĪÙĪÙĪÙĪÙĪÙĪÙĪÙĪÙĪÙĪÙĪÙĪÙĪÙĪÙĪÙĪÙĪÙĪÙĪÙĪÙĪÙĪÙĪÙĪÙĪÙĪÙĪÙĪÙĪÙĪÙĪÙĪÙĪÙĪÙĪÙĪÙĪÙĪÙĪÙĪÙĪÙĪÙĪÙĪÙĪÙĪÙĪÙĪÙĪÙĪÙĪÙĪÙĪÙĪÙĪÙĪÙĪÙĪÙĪ":1560,"Ġenchaquia":1561,"Ġenradigau":1562,"Ġinnotos":1563,"ĠgarimbolÃŃa":1564,"Ġembrecau":1565,"ÙĥÙĦØ´ÙĬ":1566,"Ġconoxius":1567,"ÙħØ´ÙĥÙĪÙĪÙĪÙĪÙĪÙĪÙĪÙĪÙĪÙĪÙĪÙĪÙĪÙĪÙĪÙĪÙĪÙĪÙĪÙĪÙĪÙĪÙĪÙĪÙĪÙĪÙĪÙĪÙĪÙĪÙĪÙĪÙĪÙĪÙĪÙĪÙĪÙĪÙĪÙĪÙĪÙĪÙĪÙĪÙĪÙĪÙĪÙĪÙĪÙĪÙĪÙĪÙĪÙĪÙĪÙĪÙĪÙĪÙĪÙĪÙĪÙĪÙĪÙĪÙĪÙĪÙĪÙĪÙĪÙĪÙĪÙĪÙĪÙĪÙĪÙĪÙĪÙĪÙĪÙĪÙĪÙĪÙĪÙĪÙĪÙĪÙĪÙĪÙĪÙĪÙĪÙĪØ±Ø±Ø±Ø±Ø±Ø±Ø±Ø±Ø±Ø±Ø±Ø±Ø±Ø±Ø±Ø±Ø±Ø±Ø±Ø±Ø±Ø±Ø±Ø±Ø±Ø±Ø±Ø±Ø±Ø±":1568,"ĠLuengas":1569,"ĠÙĪÙĪÙĪÙĪÙĪÙĪÙĪÙĪÙĪÙĪÙĪÙĪÙĪÙĪÙĪÙĪÙĪÙĪÙĪØ§Ø§Ø§Ø§Ø§Ø§Ø§Ø§Ø§Ø§Ø§Ø§Ø§Ø§Ø§Ø§Ø§Ø§Ø§Ø§Ø§Ø§Ø§Ø§Ø§Ø§Ø§Ø§Ø§Ø§Ø§Ø§Ø§Ø§Ø§Ø§Ø§Ø§Ø§Ø§Ø§Ø§Ø§Ø§Ø§Ø§Ø§Ø§Ø§Ø§Ø§Ø§Ø§Ø§Ø§Ø§Ø§ÙĪÙĪÙĪÙĪÙĪÙĪÙĪÙĪÙĪÙĪÙĪÙĪÙĪÙĪÙĪ":1570,"ÙĩÙĩÙĩÙĩÙĩÙĩÙĩÙĩÙĩÙĩÙĩÙĩÙĩÙĩÙĩÙĩÙĩÙĩÙĩÙĩÙĩÙĩÙĩÙĩÙĩÙĩÙĩÙĩÙĩÙĩÙĩÙĩÙĩÙĩÙĩÙĩÙĩÙĩÙĩÙĩÙĩÙĩÙĩÙĩ":1571,"ĠÙĪØ¨Ø§Ø±Ùĥ":1572,"ĠØŃÙĦÙĪÙĪÙĪÙĪÙĪÙĪÙĪÙĪÙĪÙĪÙĪÙĪÙĪÙĪÙĪÙĪÙĪÙĪÙĪÙĪÙĪÙĪÙĪÙĪÙĪÙĪÙĪÙĪÙĪÙĪÙĪÙĪÙĪÙĪÙĪÙĪÙĪÙĪÙĪÙĪÙĪÙĪÙĪÙĪÙĪÙĪÙĪÙĪÙĪÙĪÙĪÙĪÙĪÙĪÙĪÙĪÙĪÙĪÙĪÙĪÙĪ":1573,"ĠSepÃºlveda":1574,"ĠpartizipaziÃ³n":1575,"ĠÙĬØ³ÙĦÙĪÙĪÙĪÙĪÙĪÙĪÙĪÙĪÙĪÙĪÙĪÙĪÙĪÙĪÙĪÙĪÙĪÙĪÙĪÙĪÙĪÙĪÙĪÙĪÙĪÙĪÙĪÙĪÙĪÙĪÙĪÙĪÙĪÙĪÙĪÙĪÙĪÙĪÙĪÙĪÙĪÙĪÙĪÙĪÙĪÙĪÙĪÙĪÙĪÙĪÙĪÙĪÙĪÙĪÙĪÙĪÙĪÙĪÙĪÙĪÙĪÙĪÙĪÙĪÙĪÙĪÙĪÙĪÙĪÙĪÙĪÙĪÙĪÙĪÙĪÙĪÙĪÙĪÙĪÙĪÙĪÙĪÙĪÙĪÙĪÙĪÙĪÙĪ":1576,"ĠØ±ÙĪÙĪÙĪÙĪÙĪÙĪÙĪÙĪÙĪÙĪÙĪÙĪÙĪÙĪÙĪÙĪÙĪÙĪÙĪÙĪÙĪÙĪÙĪÙĪÙĪÙĪÙĪÙĪÙĪÙĪÙĪÙĪÙĪÙĪÙĪÙĪÙĪÙĪÙĪÙĪÙĪÙĪÙĪÙĪÙĪÙĪÙĪÙĪÙĪÙĪÙĪÙĪÙĪÙĪÙĪÙĪÙĪÙĪÙĪÙĪÙĪÙĪÙĪÙĪÙĪÙĪÙĪÙĪÙĪÙĪÙĪÙĪÙĪÙĪÙĪÙĪÙĪÙĪÙĪÙĪÙĪÙĪÙĪÙĪÙĪÙĪÙĪÙĪÙĪÙĪÙĪÙĪÙĪÙĪÙĪÙĪÙĪÙĪÙĪÙĪÙĪÙĪÙĪÙĪÙĪÙĪÙĪÙĪÙĪÙĪÙĪÙĪÙĪÙĪÙĪÙĪÙĪÙĪÙĪÙĪÙĪÙĪÙĪÙĪÙĪÙĪÙĪØ¹Ùĩ":1577,"ĠØ§ÙĦÙħØ¹Ø§Ø¯ÙĦØ©":1578,"ĠØ§ÙĦØ£ØŃØ³Ø§Ø¡":1579,"Ġverl":1580,"aad":1581,"Ġer":1582,"hede":1583,"áĪĺáĬķ":1584,"In":1585,"ation":1586,"vl":1587,"áĪªáĬ«":1588,"15":1589,"áĬĻ":1590,"Ġarea":1591,"Afrik":1592,"Ġáĭ¨áĬ¥":1593,"áĮįáĪ«":1594,"áĭ³áĬķ":1595,"Ġeerste":1596,"iteit":1597,"ĠáĬ¢áīµáĭ®áĮµáĭ«":1598,"Ġkinders":1599,"gew":1600,"áĪĢ":1601,"áī³áĪį":1602,"Ġáīģ":1603,"áĪģáĬķ":1604,"sies":1605,"ĠáĬłáĬķáĭµ":1606,"vang":1607,"Ġat":1608,"áįķ":1609,"jies":1610,"Ġnaam":1611,"Ġklein":1612,"Ġgoeie":1613,"Ġbu":1614,"ĠwÃªreld":1615,"inn":1616,"ĠáĭĵáĪĺ":1617,"Ġnuwe":1618,"leg":1619,"Ġhandel":1620,"Ġtr":1621,"As":1622,"olg":1623,"ĠáĪĺáĪį":1624,"one":1625,"Ġáĭ«áĪĪ":1626,"ĠáĬ¨áĪĿ":1627,"ĠSy":1628,"ĠOns":1629,"Ġáį¡áį¡":1630,"ĠSuid":1631,"iewe":1632,"dag":1633,"Ġbelangrik":1634,"Ġgl":1635,"ĠáĪĺáĬķáĮį":1636,"ae":1637,"ĠáĬ¥áĬķáĭ°áĪļ":1638,"Ġger":1639,"áīµáĬĵ":1640,"áĭī":1641,"áĪĺáĪŃ":1642,"Ġmens":1643,"wel":1644,"Ġgek":1645,"ĠáĪĿáĬŃ":1646,"áĭĿáī¥":1647,"ass":1648,"ool":1649,"ees":1650,"ĠMar":1651,"beeld":1652,"áī¥áĪĶ":1653,"ĠáĬłáĬ«":1654,"ĠáĪĮ":1655,"andel":1656,"áī¨":1657,"Ġtelefoonnommer":1658,"áįĥ":1659,"áįĪáĪį":1660,"eu":1661,"áįħ":1662,"Ġhelp":1663,"ĠáĬłáĪµáī°":1664,"áĬ¨áĪį":1665,"âĢ¦":1666,"áĮįáĭļ":1667,"Ġster":1668,"sluit":1669,"áĬķáĪµ":1670,"áįİ":1671,"áĪĺáĪĪ":1672,"igheid":1673,"ĠáīłáĬ¥":1674,"Ġnodig":1675,"reek":1676,"tern":1677,"Ġneem":1678,"eds":1679,"áĪĽáĪª":1680,"Ġgewoon":1681,"Ġáĭ³":1682,"ĠáĪĿáĪŃ":1683,"Ġsw":1684,"ong":1685,"aars":1686,"Ġsou":1687,"áĬĽáĭį":1688,"áĬ½":1689,"áī³áĭĬ":1690,"werp":1691,"Ġáįķ":1692,"ors":1693,"ante":1694,"Ġáī¦":1695,"Ġkyk":1696,"Ġbeste":1697,"wyl":1698,"âĢº":1699,"ma":1700,"),":1701,"org":1702,"Ġvind":1703,"ĠAl":1704,"áĬĵáīµ":1705,"ure":1706,"Ġdeel":1707,"ame":1708,"Ġenige":1709,"áī£áīµ":1710,"ard":1711,"ĠáĬŃáįį":1712,"ĠáĪ°áĭį":1713,"áĪĭáī¸áĭį":1714,"Ġterug":1715,"Ġstel":1716,"Ġdag":1717,"áĬķáĬķ":1718,"amer":1719,"kel":1720,"ader":1721,"Ġiets":1722,"ling":1723,"Ġbest":1724,"Ġbed":1725,"áī¥áĪĶáĪŃ":1726,"Ġvrou":1727,"Ġplek":1728,"áĮĪáĭµ":1729,"áīħáĪŃ":1730,"Ġeie":1731,"Ġkr":1732,"18":1733,"áĮĨ":1734,"Hoe":1735,"staan":1736,"áĪİáīµ":1737,"ĠáĪĿáĬķ":1738,"áĪŃáĪµáī²":1739,"Ġspes":1740,"ĠáĬĵáĭŃ":1741,"ĠáĪĻ":1742,"iseer":1743,"áīĦ":1744,"mand":1745,"Ġkont":1746,"áī¥áĪ¨":1747,"Ġdi":1748,"ĠáĬ¥áĭ«":1749,"ew":1750,"14":1751,"gev":1752,"Afrika":1753,"isie":1754,"ĠáĪ³áĭŃ":1755,"oem":1756,"áĬĭ":1757,"Ġáĭ©":1758,"áĬ³":1759,"ĠáĭŃáī½":1760,"Ġper":1761,"âĢľ":1762,"ĠOp":1763,"ovember":1764,"deel":1765,"ĠáĬĥ":1766,"Ġalles":1767,"Ġselfs":1768,"Ġbly":1769,"áĭ¨áīµ":1770,"30":1771,"Ġmoe":1772,"áī¢áĭ«":1773,"Ġalge":1774,"Ġgeval":1775,"Ġáī¥áĭĻ":1776,"áĮįáĭļáĬł":1777,"Ġgeen":1778,"ussen":1779,"Ġres":1780,"Ġáī½":1781,"ĠVer":1782,"Ġáī¥áī»":1783,"oort":1784,"Ġvra":1785,"Ġdink":1786,"áĬĴáī¨":1787,"Ġske":1788,"Ġáī¤áīµ":1789,"Ġwant":1790,"áĪĪáĭ«":1791,"stand":1792,"áĭįáĭ«áĬķ":1793,"Ġaltyd":1794,"áĪĿáĪŃ":1795,"==":1796,"alk":1797,"ost":1798,"Ġlang":1799,"Ġken":1800,"Ġlief":1801,"Ġomdat":1802,"ĠáĬĵáī¸áĭį":1803,"str":1804,"Ġbesl":1805,"Ġak":1806,"meen":1807,"áįĢ":1808,"áī½áĪģ":1809,"áī·":1810,"áĪŃáĪ²":1811,"Ġwaarsk":1812,"áĪļáĭ«":1813,"ff":1814,"ĠáĬ¨áįį":1815,"áĭĵáīµ":1816,"eb":1817,"Ġmanier":1818,"ecember":1819,"Ġsodat":1820,"Ġben":1821,"áĪīáīµ":1822,"ish":1823,"Ġgeld":1824,"Ġverander":1825,"Ġmaklik":1826,"áį¥":1827,"16":1828,"Ġlande":1829,"oep":1830,"oÃ«":1831,"gaan":1832,"áĮįáĭļáĬłáī¥áĪĶáĪŃ":1833,"veel":1834,"ĠHierdie":1835,"oos":1836,"ĠáĮ½":1837,"áĪĪáĪģ":1838,"Ġdinge":1839,"áĮįáĪŃ":1840,"áī³áĭĪ":1841,"áĮĪáĪįáĮį":1842,"iop":1843,"ukk":1844,"ĠHulle":1845,"ĠáīĢáĬķ":1846,"Ġáĭ°áĮį":1847,"tige":1848,"Ġgewoonlik":1849,"ye":1850,"ine":1851,"Ġfor":1852,"oms":1853,"Ġleer":1854,"Ġbeteken":1855,"áĪĺáĪį":1856,"Ġáĭ¨áĬĲ":1857,"ome":1858,"des":1859,"Ġond":1860,"13":1861,"áĮłáīĢ":1862,"Ġ.":1863,"áĮĢáĪĺ":1864,"áĪŃáĪ²áī²":1865,"Ġáī¤áī°":1866,"áī°áĪŃ":1867,"áĪĺáĪµ":1868,"eng":1869,"Ġtussen":1870,"áĪ«áĪį":1871,"áĬĴáī¨áĪŃáĪ²áī²":1872,"Dit":1873,"áĭŃáĪį":1874,"int":1875,"Ġáĭ¨áĪ°":1876,"áĬŃáīµ":1877,"ub":1878,"tober":1879,"âĢĭ":1880,"ĠáĮĢ":1881,"áĪĿáĬĵ":1882,"Ġmoont":1883,"Ġkeer":1884,"Ġmag":1885,"Ġpas":1886,"ieke":1887,"Ġor":1888,"áī°áĭį":1889,"áĭµáĬķ":1890,"eil":1891,"iddel":1892,"ĠáĪĿáĪµ":1893,"Ġsit":1894,"ĠáĬ¦":1895,"17":1896,"Ġvas":1897,"áī£áī¢":1898,"ud":1899,"áĬŀáī½":1900,"uidelik":1901,"Ġsonder":1902,"2021":1903,"Ġdaarvan":1904,"ĠáĬ¥áĬĲ":1905,"áĪĺáĪ«":1906,"ous":1907,"tember":1908,"ĠáĭµáĪŃ":1909,"áĬĭáĪĭ":1910,"Ġbuite":1911,"ĠDecember":1912,"Ġsleg":1913,"Ġkop":1914,"Ġwater":1915,"voeg":1916,"Ġáĭ°áĮįáĪŀ":1917,"Ek":1918,"22":1919,"áĪ¨áĭį":1920,"ugust":1921,"ĠáĮ¨":1922,"av":1923,"Ġseker":1924,"ĠáĬ¨áĪĺ":1925,"áĮĵ":1926,"ĠNovember":1927,"Ġterwyl":1928,"Ġstr":1929,"aanse":1930,"áĪįáĮ£":1931,"áĭŀ":1932,"áīłáĪ©":1933,"áĬĲáĭį":1934,"Ġyou":1935,"ĠgesÃª":1936,"24":1937,"áĭŃáĭĪ":1938,"ĠáĪµáĪĿ":1939,"áĮ£áĪĿ":1940,"hou":1941,"ĠAn":1942,"vol":1943,"ĠâĢĭ":1944,"Ġáĭ«áĪĪáĭį":1945,"2020":1946,"ĠFe":1947,"ĠâĢĭâĢĭ":1948,"áįĵ":1949,"anu":1950,"ĠChr":1951,"oorde":1952,"raf":1953,"áĮłáĬĵ":1954,"Ġaange":1955,"áĮ¦":1956,"ĠJul":1957,"ĠáĬłáī£":1958,"áī¦áī½":1959,"ĠJun":1960,"2013":1961,"Ġdik":1962,"áĭµáĪ¨áĮį":1963,"'s":1964,"ĠáĬłáī¥":1965,"áĪĽáīµ":1966,"áĮ¤":1967,"ĠáĬłáĪĿ":1968,"ĠáĪĺáĪ°":1969,"wels":1970,"aap":1971,"áĬĶáī³":1972,"ĠSt":1973,"Ġplus":1974,"áįĬáīµ":1975,"Ġprobeer":1976,"áĪŃáĭµ":1977,"unt":1978,"bel":1979,"Ġáĭľ":1980,"iemand":1981,"Ã¯":1982,"ĠSeptember":1983,"ins":1984,"Ġweb":1985,"Ġkos":1986,"ĠHere":1987,"Ġdus":1988,"Ġagter":1989,"king":1990,"Ġwys":1991,"áĪ½áĬķ":1992,"akt":1993,"áĪĽáĪŃ":1994,"antwoord":1995,"Ġgebe":1996,"trek":1997,"áĮ¥áĪŃ":1998,"2014":1999,"ct":2000,"webwebwebwebwebwebwebwebwebwebwebwebwebwebwebweb":2001,"thiop":2002,"pril":2003,"bare":2004,"Ġáīĥ":2005,"áĬ¨áī°":2006,"Ġher":2007,"áįĴ":2008,"ĠáĬ¨áĬł":2009,"aw":2010,"ce":2011,"áĪªáĬŃ":2012,"Ġvorm":2013,"Ġgemaak":2014,"áī³áī¸áĭį":2015,"Ġspel":2016,"ĠAugust":2017,"ĠáīłáĬĭáĪĭ":2018,"ering":2019,"áĪĭáĪī":2020,"áī£áī¸áĭį":2021,"ctober":2022,"houd":2023,"áīĢáĪŃ":2024,"áīħáĪĿ":2025,"Ġligg":2026,"Ġdaardie":2027,"ĠáĮİ":2028,"Ġáįĸ":2029,"áĮĪáĬĵ":2030,"ligting":2031,"Ġáĭ²":2032,"à¤":2033,"Ġvoel":2034,"een":2035,"ietjie":2036,"ĠáĪĺáĪĨáĬĳ":2037,"ĠáĬ©":2038,"man":2039,"áĪ¨áĪµ":2040,"áĮĮ":2041,"áĪ¨áĮĭ":2042,"Ġbep":2043,"ui":2044,"ĠáīłáĭļáĪħ":2045,"pos":2046,"ommige":2047,"2019":2048,"áĪĿáĪħáĪŃáīµ":2049,"Ġplusteken":2050,"ĠáĪģáĬĶáī³":2051,"ĠBy":2052,"2018":2053,"Ġmoontlik":2054,"all":2055,"Ġgehad":2056,"gen":2057,"____":2058,"ment":2059,"ĠÂ":2060,"Ðº":2061,"Ġbietjie":2062,"áĪ³áĭŃ":2063,"room":2064,"Ġ&":2065,"Ġskryf":2066,"Ġgem":2067,"ĠáĪ½":2068,"ĠáĪŀ":2069,"Ġáĭ¶":2070,"áĮłáīĥ":2071,"áĬ¨áīµ":2072,"iend":2073,"ĠáĬ¥áĪŃ":2074,"Ġáĭ«áĪµ":2075,"lies":2076,".âĢĿ":2077,"ĠOctober":2078,"ĠáĪµáĪŃ":2079,"voud":2080,"ĠáĪĽáĪµ":2081,"eks":2082,"rys":2083,"tik":2084,"Ġáĭ©áĬĴáī¨áĪŃáĪ²áī²":2085,"ht":2086,"agte":2087,"ĠáĪ°áĭİáī½":2088,"à®":2089,"ĠáĪĿáĬŃáĬķáĭ«":2090,"ĠáĬ¥áĭ¨áī°":2091,"Ġaand":2092,"weeg":2093,"áīĢáīµ":2094,"oei":2095,"ity":2096,"Ġbek":2097,"Ġáĭ¨áĭĪ":2098,"ade":2099,"áĭ±áĪµ":2100,"ĠáĪĺáĮł":2101,"áįĮ":2102,"áĪįáĬķ":2103,"!!":2104,"Ġhele":2105,"áĪĽáĪ«":2106,"áĪĿáĪ®":2107,"ĠFebru":2108,"ult":2109,"ĠJanu":2110,"Ġmis":2111,"áĬ¸":2112,"Ġnatuur":2113,"áįįáīµ":2114,"saak":2115,"áĮĪáĪĪ":2116,"Ġalmal":2117,"ark":2118,"ĠApril":2119,"Ġproble":2120,"omment":2121,"ĠJune":2122,"onde":2123,"Ġheel":2124,"ets":2125,"ĠMay":2126,"Ġáī¦áī³":2127,"An":2128,"tal":2129,"áĭ«áīĦ":2130,"áĭ¬":2131,"Ġpos":2132,"illende":2133,"Ġgere":2134,"tre":2135,"ĠáĬłáĭį":2136,"ger":2137,"áĪ³áīµ":2138,"pp":2139,"ĠáĬ«áī¥":2140,"Ġkontak":2141,"ĠáīłáĮ£áĪĿ":2142,"by":2143,"selfde":2144,"wens":2145,"Ġdieselfde":2146,"áĮĪáĪ«":2147,"ĠáĬłáĮĪáĪįáĮį":2148,"ĠMarch":2149,"asies":2150,"Ġvertel":2151,"à¸":2152,"ĠChrist":2153,"ĠáĪĽáĪĪáīµ":2154,"áĬĸáī½":2155,"ryk":2156,"áĪ°áĪ«":2157,"nis":2158,"áīķ":2159,"ob":2160,"ĠáĬ¥áĭ©":2161,"ĠáĬŃáĪŃáĪµáī²":2162,"ĠáĪŃ":2163,"iale":2164,"áĪŃáīµáĪ«":2165,"uim":2166,"Ð°Ð°Ð°Ð°Ð°Ð°Ð°Ð°Ð°Ð°Ð°Ð°Ð°Ð°Ð°Ð°Ð°Ð°Ð°Ð°Ð°Ð°Ð°Ð°Ð°Ð°Ð°Ð°Ð°Ð°Ð°Ð°Ð°Ð°Ð°Ð°Ð°Ð°Ð°Ð°Ð°Ð°Ð°Ð°Ð°Ð°Ð°Ð°Ð°Ð°Ð°Ð°Ð°Ð°Ð°Ð°Ð°Ð°Ð°Ð°Ð°Ð°Ð°Ð°":2167,"Ġlees":2168,"ĠáĬŃáĪį":2169,"ilik":2170,"áĮĪáĬķ":2171,"ĠTe":2172,"ĠJuly":2173,"2015":2174,"yf":2175,"erde":2176,"gee":2177,"ĠáĮ¸":2178,"ĠáĪµáĪ«":2179,"ĠáīłáĪĭáĭŃ":2180,"ĠáĬ¨áįįáī°áĬĽ":2181,"áī£áĪį":2182,"Ġáĭ¨áīµ":2183,"ĠáīłáīĢ":2184,"ryw":2185,"áĭ«áĪµ":2186,"Ġlyk":2187,"áĮłáĪŃ":2188,"áī³áī½áĬķ":2189,"rit":2190,"Ġáĭ°áĪ¨áĮĥ":2191,"Ġdis":2192,"23":2193,"ee":2194,"iding":2195,"Ġáĭ¨áĭį":2196,"Ġad":2197,"ĠáĬłáīł":2198,"Ġverskillende":2199,"áĭĺáĮĭ":2200,"Ġverv":2201,"Ġbenodig":2202,"ĠÐ":2203,"ersk":2204,"Ġáĭ¨áĮį":2205,"ast":2206,"oto":2207,"Ġvre":2208,"Ġvinn":2209,"Ġinsluit":2210,"ĠáĪĺáĪ¨áĮĥ":2211,"Ġide":2212,"Ġverw":2213,"áĬŃáĪį":2214,"Ġalgemeen":2215,"aart":2216,"Ġverske":2217,"Ġáįĵ":2218,"áī²áĬ«":2219,"elete":2220,"Ġwit":2221,"Ġdalk":2222,"Ġspeel":2223,"Ġáĭ¨áĪĨáĬĲ":2224,"Ġkw":2225,"Ġhoof":2226,"Ġstaan":2227,"Ġbeter":2228,"ĠáĪ²áĪĨáĬķ":2229,"Delete":2230,"Ġiemand":2231,"ign":2232,"pro":2233,"Replies":2234,"ĠEthiop":2235,"Ġinligting":2236,"dig":2237,"voorbeeld":2238,"Ġstad":2239,"áĬ¤áĪį":2240,"Ġdikwels":2241,"áĭŃáīµ":2242,"ah":2243,"oue":2244,"áī³áĭį":2245,"áĬ¡":2246,"ĠbinÃªre":2247,"ĠY":2248,"áĪŃáĭ«":2249,"Ġopsies":2250,"iel":2251,"ĠáĭĽ":2252,"ĠáĪĽáĬķ":2253,"áī¤áīµ":2254,"ĠáĬ¥áĪµáĬ¨":2255,"Ġpraat":2256,"áĭļáĭ«":2257,"Ġgebeur":2258,"ÑħÑħÑħÑħ":2259,"áī¶áī½áĬķ":2260,"áĪ³áī¥":2261,"Ġraak":2262,"ĠáĮīáĭ³áĭŃ":2263,"elike":2264,"duk":2265,"ĠWat":2266,"Ġdood":2267,"Ġkies":2268,"Ġjulle":2269,"áĭ°áĬķ":2270,"amp":2271,"ĠáĪ«":2272,"Ġsoek":2273,"ĠáĬłáĭŃáĭ°":2274,"gesien":2275,"Ġbied":2276,"áīª":2277,"ikkel":2278,"Ġan":2279,"Ġverd":2280,"enis":2281,"áĪ¨áĭ³":2282,"Ġbere":2283,"ĠhoÃ«":2284,"áĪħáĬķ":2285,"Ġmeeste":2286,"min":2287,"ĠJanuary":2288,"arm":2289,"ĠáĬ¨áī°áĪĽ":2290,"Ġsek":2291,"oekom":2292,"áĪ°áĭį":2293,"olog":2294,"2011":2295,"áĭ°áĪ¨áĮĪ":2296,"Ġpad":2297,"áĭ®áĬķ":2298,"áĬĵáĬķ":2299,"wit":2300,"2017":2301,"aarde":2302,"áĪĭáĪĽ":2303,"Ġáī¥áĪŃ":2304,"atief":2305,"ĠáĬłáĭ²áĪµ":2306,"kend":2307,"áĪįáīħ":2308,"ĠHom":2309,"oh":2310,"áĪħáĪį":2311,"Ġeenvoud":2312,"ĠáĪĪáĬł":2313,"áĬ¬":2314,"Ġvolgende":2315,"Ġanders":2316,"ĠáĭĵáĪĺáīµ":2317,"áĭİáī¹":2318,"Ð¾":2319,"ĠáĪĺáī¥":2320,"likheid":2321,"ĠáīĨ":2322,"ĠáĬĲáĮĪ":2323,"áĪĭáĪĪ":2324,"ekaar":2325,"áī½áĪį":2326,"áĮįáĪ«áĭŃ":2327,"ĠGr":2328,"áĬĸáĪŃ":2329,"áĪĪáĭ«áĭ©":2330,"áĬŃáĪµ":2331,"Ġmoeilik":2332,"Ġverge":2333,"áĮĪáĬĺ":2334,"ooit":2335,"out":2336,"Ġaanv":2337,"Ġgedoen":2338,"ib":2339,"áĮĪáĬĻ":2340,"ĠThe":2341,"gie":2342,"ReplyDelete":2343,"Ġgevolg":2344,"ĠFebruary":2345,"Ġoop":2346,"ĠOn":2347,"Ġskoon":2348,"áĪĪáī²áĬ«":2349,"ĠáĪĺáĬ«":2350,"áĪĺáĮ£":2351,"Ġinter":2352,"ĠáĭĪáĬķ":2353,"weg":2354,"Ġwie":2355,"urop":2356,"áī°áĬķ":2357,"Ñģ":2358,"enk":2359,"iks":2360,"Ġwoord":2361,"ĠMet":2362,"Ġform":2363,"Ġáī¡":2364,"Ġbaba":2365,"Ġreeks":2366,"áĬĥ":2367,"áĪ£":2368,"áĭ²áĪĭ":2369,"2016":2370,"ĠáĪ¥áĪ«":2371,"áĪ¨áī¥":2372,"spr":2373,"Ġnooit":2374,"ĠlÃª":2375,"áĬħ":2376,"ake":2377,"Ġáĭ¨áĪµ":2378,"Ġkoop":2379,"reg":2380,"Ġeers":2381,"Ġáĭ«áĪį":2382,"000":2383,"Ġdrie":2384,"áĬŃáĪŃ":2385,"app":2386,"ĠáįķáĪ®":2387,"Ġmaat":2388,"Ġsn":2389,"ĠAfrik":2390,"Ġkant":2391,"ili":2392,"Ġáĭ¨áīł":2393,"land":2394,"gestel":2395,"âĢ¹":2396,"21":2397,"Ġval":2398,"ĠáĭĿáī°":2399,"iste":2400,"Ġbesluit":2401,"ĠáĮ£":2402,"áĭĪáĪ°":2403,"áĮ¨áĪĽáĪª":2404,"áĪĺáĭµ":2405,"áĮįáī¥":2406,"dek":2407,"ĠáĪĺáĬķáĮĪáĭµ":2408,"ĠáĮ¥áĭ«áīĦ":2409,"ĠáĬ¥áĬķáĭ²áĪģ":2410,"lyn":2411,"ĠáĪ¨":2412,"Ġgenoeg":2413,"Ġthis":2414,"Ġwh":2415,"ym":2416,"amil":2417,"Ġverstaan":2418,"50":2419,"Ð¸":2420,"wikkel":2421,"áĭİáĬķ":2422,"werf":2423,"iaal":2424,"ĠáĬłáĭµáĪŃ":2425,"ĠSo":2426,"áĮ¹":2427,"ĠEurop":2428,"Ġget":2429,"áĬ¥áĬķ":2430,"Ġvry":2431,"Ġmot":2432,"ĠSp":2433,"Ġhart":2434,"Ġregte":2435,"ĠáĬ¤áĪŃáīµáĪ«":2436,"ĠáĪįáĭ©":2437,"áĮ£áīµ":2438,"Ġmaan":2439,"áĭ²áĭ«":2440,"áĮĢáĪĺáĪªáĭ«":2441,"Ġáī¥áĪİ":2442,"Ġlank":2443,"áīłáĪį":2444,"ivers":2445,"Ġsin":2446,"los":2447,"Ġfr":2448,"Ġuitge":2449,"Wat":2450,"áĭĺáī¥":2451,"áĭ¶áī½":2452,"Ġbinne":2453,"28":2454,"Ġstap":2455,"Ġdae":2456,"uns":2457,"Ġáī´":2458,"áĮ¢":2459,"form":2460,"ice":2461,"ĠDuit":2462,"Ġvinnig":2463,"oeke":2464,"ted":2465,"Ã«ls":2466,"27":2467,"oses":2468,"Ġeer":2469,"ionele":2470,"ĠáĭŃáī½áĪĭáĪį":2471,"áĭ°áīµ":2472,"Ġdoel":2473,"Ġáīħáĭ±áĪµ":2474,"Ġerv":2475,"Ġnaamwoord":2476,"áĭ´áīµ":2477,"inde":2478,"ĠDan":2479,"áĬĲáī±":2480,"26":2481,"lyk":2482,"aring":2483,"áī£áĪĪ":2484,"ĠIs":2485,"Ġwonder":2486,"eter":2487,"Ġreis":2488,"Ġkrag":2489,"áĪĭáĪĿ":2490,"rif":2491,"les":2492,"ĠáĪĺáĪĨáĬĳáĬķ":2493,"ĠáĪĺáĪŃ":2494,"Ġkn":2495,"Ġsoort":2496,"ĠáĭĵáĪĪáĪĿ":2497,"Ġskep":2498,"Ġloop":2499,"gelaat":2500,"Ġbestaan":2501,"igte":2502,"2012":2503,"áĬ»":2504,"áĪīáĪĿ":2505,"ĠáĬłáĪģáĬķ":2506,"ial":2507,"áĮłáīł":2508,"Ġ,":2509,"Ġveral":2510,"áĪĭáĭį":2511,"oll":2512,"oef":2513,"áĪĳ":2514,"omp":2515,"gl":2516,"áĪľáĪªáĬ«":2517,"vlak":2518,"ged":2519,"áĮįáĪĪ":2520,"2010":2521,"Ġkort":2522,"ĠáĪĨáĬĲ":2523,"eis":2524,"Hier":2525,"áĪĪáĭŃ":2526,"áī·áĪį":2527,"áĪ°áĪĽ":2528,"ĠáĮŃ":2529,"ms":2530,"Ġáī°áĮįáī£":2531,"Ġ...":2532,"jek":2533,"áĭ¨áĬł":2534,"gram":2535,"ĠáĪĲ":2536,"Ġáĭ¨áĬ¢áīµáĭ®áĮµáĭ«":2537,"Ġgrond":2538,"Ġáĭ¨áīĢ":2539,"sy":2540,"Ġbeveel":2541,"vers":2542,"ium":2543,"pas":2544,"ĠgeleÃ«":2545,"Ġáī°áĭĪ":2546,"ĠHoe":2547,"gene":2548,"Ġáĭ«áĪī":2549,"Om":2550,"onk":2551,"áĪ¥áīµ":2552,"Ġhoog":2553,"Ġwer":2554,"ĠáĬłáīĢ":2555,"Ġbas":2556,"Ons":2557,"áĮłáĭį":2558,"Ġontwikkel":2559,"ĠáīłáįĬáīµ":2560,"áĮĨáī½":2561,"mm":2562,"ĠáīµáĪĿáĪħáĪŃáīµ":2563,"Ġro":2564,"áĬĿáĬĲáīµ":2565,"áĭŃáĬĲáīµ":2566,"Ġslegs":2567,"Ġten":2568,"áĬ¨áĪŃ":2569,"Ġred":2570,"áī»áī½áĬķ":2571,"hare":2572,"Ġglo":2573,"áĭ¨áĪŃ":2574,"áĬ¨áĪĭ":2575,"Ġvervang":2576,"sien":2577,"áĭŃáĭĪáīµ":2578,"ynlik":2579,"Ġáĭ¨áĬ¢":2580,"Ġartik":2581,"omb":2582,"Ġim":2583,"áĪ©áĬķ":2584,"áįĭáīµ":2585,"ĠáĭĭáĬĵ":2586,"Ġliggaam":2587,"áĭ°áĭį":2588,"fer":2589,"ĠâĢ¹":2590,"áĪŁ":2591,"áĥ":2592,"áĪŃáī²":2593,"geb":2594,"áĭ®áī½":2595,"ĠáĭĽáĪ¬":2596,"Ġopsie":2597,"ĠdiÃ©":2598,"Ġinsluitend":2599,"::":2600,"aardig":2601,"ina":2602,"idd":2603,"á»":2604,"ĠáĬłáĭŃáĭ°áĪĪáĪĿ":2605,"ĠVir":2606,"Ġboek":2607,"our":2608,"skapp":2609,"oet":2610,"Ġbekend":2611,"ĠáĬª":2612,"ðŁ":2613,"ĠáĬ¨áĬ¥":2614,"Jy":2615,"orie":2616,"En":2617,"áĬ©áĪį":2618,"ER":2619,"áĪŀáī½":2620,"áĭĵáĪĪáĪĿ":2621,"áĮįáĪį":2622,"áĪĺáĪ°":2623,"ĠáĪĿáĬŃáĬķáĭ«áīµ":2624,"ĠPr":2625,"áĮ½áĪĲ":2626,"áī±áĪĿ":2627,"Ġtip":2628,"Ġsteeds":2629,"thou":2630,"ĠáĬłáīłáī£":2631,"Ġreeds":2632,"Ġwaarde":2633,"ĠáĬ¥áĮįáĭļáĬłáī¥áĪĶáĪŃ":2634,"Ġreken":2635,"ĠáĬ¥áĬķáĭ²áĪģáĪĿ":2636,"áĪı":2637,"Ġit":2638,"áĬ¾":2639,"fr":2640,"Ġwoorde":2641,"Ġvoordat":2642,"Ġregtig":2643,"Ġdra":2644,"áīĤáĭ«":2645,"Ġaltern":2646,"ĠAr":2647,"36":2648,"Ġgesien":2649,"ÑĢ":2650,"Ġnommer":2651,"Ġwet":2652,"uil":2653,"áĪ±áĬķ":2654,"ĠTh":2655,"ĠáĬ¥áĭį":2656,"du":2657,"áĪĤ":2658,".\"":2659,"rig":2660,"áĮģ":2661,"eem":2662,"Ġáīħáĭµ":2663,"ĠáĪĺáĬ«áĬ¨áĪį":2664,"Ġbesp":2665,"ute":2666,"merk":2667,"ĠFr":2668,"100":2669,"Ġwaarsku":2670,"29":2671,"ĠáĪĨáĬĸ":2672,"ĠáīłáĪµ":2673,"iter":2674,"Ġouers":2675,"Ġáĭ¨áĪĽáĭŃ":2676,"sland":2677,"ĠZ":2678,"tuig":2679,"Ġontvang":2680,"Ġáĭ¨áĪħ":2681,"Ġliefde":2682,"ĠáĬ¥áĬķáĭ´áīµ":2683,"ĠáĬŃáĪŃáĪµáī²áĭ«áĬķ":2684,"Ġdien":2685,"áĪ¨áĬķ":2686,"ĠáĪ´":2687,"ĠáīĥáĪį":2688,"ĠáĬ¥áĬķáĮĤ":2689,"áĮª":2690,"Ġwel":2691,"ĠáĭĪáīħ":2692,"Ġproduk":2693,"Ġlek":2694,"kl":2695,"Ġrol":2696,"Ġduidelik":2697,"ĠáįĬ":2698,"áĭŃáĪĽ":2699,"Ġvier":2700,"enn":2701,"áĭ°áĪĿ":2702,"age":2703,"Ġáįĭ":2704,"Ġsommige":2705,"ich":2706,"urs":2707,"Ġkamer":2708,"Ġvoort":2709,"ĠPro":2710,"St":2711,"oun":2712,"adat":2713,"ars":2714,"log":2715,"Ġtydens":2716,"Ġáĭ¨áī³":2717,"ern":2718,"ĠMy":2719,"áĮ¨áĪ¨":2720,"ĠáīłáĪŃ":2721,"áī¶áĪĿ":2722,"áĭŃáĬķ":2723,"áĮĪáĬĽ":2724,"Ġverkoop":2725,"Ġjouself":2726,"ĠGe":2727,"áĭĪáīħ":2728,"áĪĿáĬĲáīµ":2729,"teer":2730,"ening":2731,"Ġminder":2732,"ĠáĭŃáĪħáĬķ":2733,"ĠáĬ¢áĬķ":2734,"áĪĪáī½":2735,"áĭĪáĮ£":2736,"áĪ¯":2737,"ave":2738,"Daar":2739,"Ġab":2740,"áīĢáĭį":2741,"Ġvoorkom":2742,"áĭŃáĪĽáĬĸ":2743,"iere":2744,"Ġskool":2745,"ĠDuitsland":2746,"áĪŃáĬĲáīµ":2747,"Ġniks":2748,"¾áī½":2749,"etjies":2750,"wyder":2751,"Ġonders":2752,"Ġgest":2753,"ĠáĪ¶":2754,"áĪªáĭİáī½":2755,"slag":2756,"ĠáĬłáĪī":2757,"áĪĺáīµ":2758,"pel":2759,"nem":2760,"Ġveel":2761,"onym":2762,"iers":2763,"ps":2764,"ĠáĭľáĬĵ":2765,"Ġverskeie":2766,"Ġkar":2767,"atiewe":2768,"ĠáĬ«áĪį":2769,"áĬ¨áĪ«":2770,"áĬĲáīłáĪ¨":2771,"áĪĺáĭį":2772,"áĪµáĬķ":2773,"mail":2774,"ive":2775,"ĠUn":2776,"ĠáĪµáĪį":2777,"onymous":2778,"ike":2779,"rou":2780,"gn":2781,"áĭ°áĮĭ":2782,"áĮĪáĬĿ":2783,"gang":2784,"iende":2785,"ĠáĬ¥áĬķáĬ³":2786,"Ġenig":2787,"áĪĺáĪ¨":2788,"oorte":2789,"áĪ©áīµ":2790,"ĠáĭĺáĭŃ":2791,"tion":2792,"áī¥áĪį":2793,"koop":2794,"áĪµáī²":2795,"ĠEuropese":2796,"Ġrig":2797,"35":2798,"Anonymous":2799,"yl":2800,"edia":2801,"ĠáĭµáĪŃáĮħ":2802,"Ġprof":2803,"áĪĪáĮł":2804,"áĪĪáĬĽ":2805,"Ġaangesien":2806,"Ġprys":2807,"kant":2808,"ĠáĬ¥áĬķáĭ²áĭ«":2809,"ase":2810,"ĠáĬ¨áĪļ":2811,"etwerk":2812,"ĠEthiopia":2813,"gg":2814,"Ġbepaal":2815,"áĭ³áĭ°áĪŃ":2816,"áĪįáĮ£áĬķ":2817,"enke":2818,"ĠPM":2819,"ck":2820,"áĭ¥":2821,"''":2822,"áĭįáĪį":2823,"áī¥áĪ¨áīµ":2824,"Ġáĭ¨áĬĲáīłáĪ¨":2825,"Ġverse":2826,"Ġhe":2827,"ĠáĭŃáī½áĪĭáĪī":2828,"Ġáī°áīĭ":2829,"Ġbew":2830,"ĠáīłáĪ°":2831,"ĠVan":2832,"áĭĿáĪŃ":2833,"ĠáĬ¥áī²":2834,"Ġwaarskynlik":2835,"Ġwaarin":2836,"bied":2837,"bes":2838,"ĠáĪħáĭĿ":2839,"ĠSk":2840,"áī³áĭŃ":2841,"ĠáĬłáĮĪáĪįáĮįáĪİáīµ":2842,"agtige":2843,"áĮ¥áī³":2844,"ters":2845,"Ġbou":2846,"voer":2847,"gemaak":2848,"Ġmiddel":2849,"aaste":2850,"áĪĭáįĬ":2851,"loop":2852,"ree":2853,"áĬ¦áĪ®":2854,"ane":2855,"Ã¯n":2856,"aie":2857,"Ġrond":2858,"Ġnood":2859,"áĭĺáĪŃ":2860,"ĠáĭµáĪ¨áĪµ":2861,"Ġwebwerf":2862,"ĠáĪĮáĪİáī½":2863,"Ġtrek":2864,"red":2865,"Ġbyvoorbeeld":2866,"ĠáĭĺáĪĺáĬķ":2867,"Ġslaap":2868,"Ġeinde":2869,"kamer":2870,"ĠToe":2871,"áĪĪáĭĭáĪį":2872,"Ġvolgens":2873,"Ġaarde":2874,"Ġalternatief":2875,"Ġáīłáīµ":2876,"Ġfin":2877,"ule":2878,"Ġpol":2879,"ĠáĬ¥áĬķáĭ°áĪĨáĬĲ":2880,"ĠáĬ¥áĬĽ":2881,"Ġbring":2882,"====":2883,"ĠáĬ¨áĭļáĪħ":2884,"ebook":2885,"áĬĺáīµ":2886,"iÃ«le":2887,"Ġopge":2888,"Ġáī°áĪµ":2889,"Ġwatter":2890,"ĠDe":2891,"ĠáĬłáĬķáĭ±":2892,"iÃ«n":2893,"Ġáĭ¨áĪļáĭ«áĪµ":2894,"TU":2895,"Ġontwerp":2896,"iw":2897,"ĠáĪľ":2898,"acebook":2899,"Ġáī°áīĢ":2900,"ĠáĮĪáĬķ":2901,"áī¤áī°":2902,"Ġwoon":2903,"Ġdruk":2904,"Ġformaat":2905,"80":2906,"áįĪáĭį":2907,"Ġáĭ¨áĪķ":2908,"ise":2909,"ĠLe":2910,"âĢºâĢº":2911,"bo":2912,"....":2913,"ĠáĪļáĬĴ":2914,"Ġstaat":2915,"ose":2916,"Ġsuks":2917,"Ġhoeveel":2918,"Ġgekom":2919,"áĪĭáĭĬ":2920,"Ġgetalle":2921,"Ġbeskik":2922,"áĪĽáĬķ":2923,"ĠáĪª":2924,"Ġsterk":2925,"ld":2926,"Ġsukses":2927,"Ġwou":2928,"áĬ«áĪį":2929,"wing":2930,"Ġgesp":2931,"Ġvandag":2932,"Ġverder":2933,"erm":2934,"plek":2935,"Ġding":2936,"Ġfamil":2937,"kode":2938,"ĠáĬŃáĪįáĪį":2939,"//":2940,"áĬķáīĭ":2941,"Ġspesif":2942,"áįĪáĪŃ":2943,"áįĪáĪĪ":2944,"ĠoÃ«":2945,"ĠáĪĽáĭķ":2946,"erv":2947,"Ġlater":2948,"Ġgenoem":2949,"áĮłáĪ«":2950,"áĭŃáĬĵ":2951,"ĠáĪ°áī¥":2952,"intlik":2953,"ole":2954,"tjie":2955,"Ġsluit":2956,"áĭįáĪĿ":2957,"Ġthat":2958,"Ġáĭ¨áĪļáĪ°":2959,"ail":2960,"Ġáĭįáĭµ":2961,"Ġverskyn":2962,"temal":2963,"ders":2964,"ĠáĬ¥áĬĶ":2965,"ĠáĪĤ":2966,"estel":2967,"euse":2968,"ĠáĭĵáĪĺáī³áīµ":2969,"ĠáĬłáĪŃ":2970,"Ġgeword":2971,"ĠáĭĪáĪŃ":2972,"áī¼":2973,"Ġeet":2974,"ĠáĪĿáĬķáĪĿ":2975,"iteind":2976,"ĠáĬłáĬ«áī£áī¢":2977,"Ġdok":2978,"áīłáī¥":2979,"ĠáįĢ":2980,"áĬ«áĪĦ":2981,"Ġvolle":2982,"ĠáĬłáĮĪ":2983,"ĠáĭįáĮ¤":2984,"enheid":2985,"ĠChristus":2986,"ĠáīłáĮ¥":2987,"áĬĲáĪ³":2988,"Ġbeweeg":2989,"43":2990,"On":2991,"Ġmark":2992,"aans":2993,"Ġry":2994,"Ġmekaar":2995,"Ġáīĭ":2996,"ukkig":2997,"ĠáĪĪáĬ¥":2998,"rak":2999,"Ġheeltemal":3000,"áĪīáĬķ":3001,"struk":3002,"áīħáĭµ":3003,"Ġeien":3004,"ĠáīłáĪĿ":3005,"Ġnul":3006,"áīłáĭį":3007,"Ġhem":3008,"ĠáĪł":3009,"Ġlewens":3010,"design":3011,"áĬ¨áįį":3012,"60":3013,"áĪŃáĪµáī¶":3014,"Ġnot":3015,"áĮłáīĢáĪĿ":3016,"Ġbereik":3017,"fek":3018,"ĠáĪĪáī°":3019,"Ġverwyder":3020,"ĠáĪ¥áĪŃ":3021,"Ġjare":3022,"iew":3023,"Ġjong":3024,"Ġlekker":3025,"dom":3026,"ĠáĬĵáī¥":3027,"áĬĵáĭĬ":3028,"ident":3029,"áī¥áĪİ":3030,"Ġvis":3031,"ensie":3032,"--":3033,"ubl":3034,"ĠáĮĮ":3035,"199":3036,"Pr":3037,"áĭ«áīµ":3038,"voegsel":3039,"oenie":3040,"Ġverwys":3041,"Ġmoes":3042,"ĠEl":3043,"áĬĲáīµáĬķ":3044,"Ġvooraan":3045,"kerm":3046,"Ġverm":3047,"áĪİáĮĤ":3048,"inder":3049,"Share":3050,"áĬ¨áī³":3051,"wat":3052,"Ġgrot":3053,"ĠáĬŃáįįáĪį":3054,"druk":3055,"hoe":3056,"ĠáĬłáīµ":3057,"Ġgehe":3058,"ĠáĪĺáĭ°":3059,"Ġveil":3060,"ĠáĬłáĪµáįĪ":3061,"webwebwebwebwebwebwebwebwebwebwebwebwebwebwebwebwebwebwebwebwebwebwebwebwebwebwebwebwebwebwebweb":3062,"ĠáĮ¦":3063,"rywer":3064,"awe":3065,"gan":3066,"Ġmees":3067,"Ġfil":3068,"40":3069,"áĪŀáĬŃ":3070,"ĠáĬ¥áĬĲáĭļáĪħ":3071,"Ġbetaal":3072,"áĭĭáĬķ":3073,"Ġvoorvoegsel":3074,"Ġgegee":3075,"pie":3076,"Ġmaande":3077,"Ġbele":3078,"áĪ«áĬķ":3079,"Ġhard":3080,"áĮĪáĪ«áī½áĬķ":3081,"ĠITU":3082,"ĠMaak":3083,"Ġlandkode":3084,"Ġtelefoonnetwerk":3085,"Ġlei":3086,"stige":3087,"skappe":3088,"ĠWanneer":3089,"ieg":3090,"áĭ°áĪ¨áĮī":3091,"áĪ°áĪŃ":3092,"áĪįáĪĿ":3093,"rok":3094,"Ġwith":3095,"Ġvoorb":3096,"ĠáĪĽáĪħ":3097,"Ġáį¢":3098,"Ġáī°áĬĵ":3099,"ton":3100,"ĠáĬłáī¶":3101,"ĠáĪ³áĭŃáĪĨáĬķ":3102,"Ġgewone":3103,"spel":3104,"áĭĭáī³":3105,"áī¸áĭĭáĪį":3106,"áĪ¬áīµ":3107,"Ġbyvoeg":3108,"Ã«n":3109,"mper":3110,"Ġbesoek":3111,"ue":3112,"Ġáī³áĪªáĬŃ":3113,"Ġweggelaat":3114,"ĠáĭĻ":3115,"áĮĪáĭį":3116,"Ġverhoud":3117,"urg":3118,"áĪµáī³":3119,"áĬŃáĪĿáĬĵ":3120,"Ġáīłáĭ¨":3121,"ring":3122,"áĭĽáīµ":3123,"áįĸáĪŃáīµ":3124,"áĭµáĪį":3125,"lede":3126,"val":3127,"inter":3128,"mee":3129,"ĠáĮĪáĪį":3130,"áĮĭáįį":3131,"ĠáĬ¥áĮħ":3132,"ĠáĪĺáĬķáĮįáĪµáīµ":3133,"Ġkomb":3134,"ideo":3135,"pek":3136,"áīĲ":3137,"Ġmakel":3138,"Ġeintlik":3139,"áĭ°áĪ«":3140,"áīĥáīµ":3141,"Ġdroom":3142,"iteindelik":3143,"ww":3144,"Ġsitu":3145,"áĪłáĪ«":3146,"áįįáĪªáĬ«":3147,"Ġáī£áĪħ":3148,"uister":3149,"Ġbeskou":3150,"ĠáĭµáĪĽ":3151,"Ġgewe":3152,"áĪĭáĮĬ":3153,"ach":3154,"Ġgehoor":3155,"áĮ½áĪĲáįį":3156,"ĠáĪ²áĭ«":3157,"ĠBybel":3158,"ĠáĬłáĪ³":3159,"ild":3160,"Ġverloor":3161,"rate":3162,"áĮĪáī¡":3163,"://":3164,"áĮĪáī¥":3165,"Ġkor":3166,"Hierdie":3167,"ĠáĪĺáīĢ":3168,"hang":3169,"skappy":3170,"áĪ¨áĮĭáĮĪ":3171,"Ã«r":3172,"seer":3173,"ĠáĪĺáĪ³":3174,"Ġlug":3175,"sels":3176,"áĮłáīµ":3177,"Ġmotor":3178,"áĪĽáĭŃ":3179,"ĠáĬłáĭ«":3180,"lem":3181,"Ġkerk":3182,"áĭ¨áĪĿ":3183,"ĠáĪĮáĪĭ":3184,"áīĨáĮ£":3185,"Ġvriend":3186,"áĪ±áĪµ":3187,"ĠáĬłáĭµ":3188,"Ġsiek":3189,"orex":3190,"Ġles":3191,"áī£áĪŃ":3192,"ĠáĮįáĪĿ":3193,"áĭ¨áĭį":3194,"Ġnag":3195,"omblik":3196,"áĪĻáĭ«":3197,"áī°áĭĭáĪį":3198,"ĠRe":3199,"cr":3200,"Ġgevoel":3201,"áī³áī¸áĭįáĬķ":3202,"Ġhoor":3203,"ĠáĬķáĮį":3204,"uin":3205,"Ġáī°áįĪ":3206,"Ġáī¥áĪĶ":3207,"Ġkal":3208,"Ġonderste":3209,"iging":3210,"áĭŃáĪħ":3211,"áį¡-":3212,"áĪįáĬĵ":3213,"áĮº":3214,"vloed":3215,"Ġhulp":3216,"Ġeeu":3217,"ĠáĪĺáĪĪ":3218,"áĪĻáĪī":3219,"áĭ³áĪŃ":3220,"Ġind":3221,"saam":3222,"Al":3223,"handel":3224,"ĠáĪĺáĬķáįĪ":3225,"áĮ¨áĪ¨áĪ»":3226,"Ġnob":3227,"hal":3228,"sig":3229,"ĠáĪģáĪĪáīµ":3230,"áīłáĬł":3231,"Ġwag":3232,"Ġveroor":3233,"ĠáĭĺáĬķáĭµ":3234,"Ġwarm":3235,"Ġfun":3236,"ĠJoh":3237,"eerde":3238,"Ġ*":3239,"ĠáĪķáĭĿáī¥":3240,"ĠáĪħáĭĿáī¥":3241,"mat":3242,"Ġnav":3243,"ĠáĭµáĬķ":3244,"áĬ¹":3245,"áīħáĪµ":3246,"Ġstud":3247,"ĠáĭĺáĪĺ":3248,"haal":3249,"Ġnobili":3250,"áĪŃáĪµáī¶áĪµ":3251,"Ġsekere":3252,"Ġáī°áĪĺ":3253,"met":3254,"ĠNew":3255,"Ġakt":3256,"unte":3257,"kop":3258,"Ġprobleem":3259,"ĠáĪĻáĪī":3260,"Ġmooi":3261,"Ġonge":3262,"ime":3263,"ĠáĪģáĪĪ":3264,"Ġoomblik":3265,"ĠáĭĪáīħáīµ":3266,"áī¥áĬķ":3267,"Ġvertr":3268,"Ġongel":3269,"áīµáĪŃ":3270,"ĠDis":3271,"áĪ³áĪĮ":3272,"áī°áĬŀáī½":3273,"Ġverskil":3274,"áĬĽáĭįáĪĿ":3275,"oete":3276,"Ġsak":3277,"áĪ¨áĪĿ":3278,"huis":3279,"Ġaantal":3280,"áĬķáīµ":3281,"eelde":3282,"Ġgereed":3283,"ĠáĪĬáĭ«":3284,"etter":3285,"geveer":3286,"ĠAd":3287,"ĠáĬ¥áĬķáĬ³áĬķ":3288,"Ġgeleent":3289,"reer":3290,"áī¥áĭĻ":3291,"rein":3292,"2009":3293,"ĠáĪĽáĭµáĪ¨áĮį":3294,"Ðµ":3295,"ĠáĪįáĮħ":3296,"áĬķáīĢ":3297,"Ġkennis":3298,"kr":3299,"áĮįáĬĵ":3300,"witter":3301,"Ġhandels":3302,"Ġverwag":3303,"Ġsoms":3304,"áīĥáĪį":3305,"Â»":3306,"ĠáĭĿáĪŃ":3307,"44":3308,"Ġgroter":3309,"punt":3310,"Ġáīłáĭĵ":3311,"Ġartikel":3312,"áĪ»áĪ»":3313,"áĬ¨áī¥":3314,"ĠáĪĪáĪļ":3315,"Ġvor":3316,"Ġfeit":3317,"Ġdraai":3318,"Ġhoef":3319,"Ġseun":3320,"eder":3321,"mos":3322,"Ġlaaste":3323,"áĪįáĬŃ":3324,"Ġhemel":3325,"Ġtweede":3326,"áĭĽáĪ¬":3327,"ĠáĬ£áĭŃ":3328,"Ġhande":3329,"ÑģÐº":3330,"rade":3331,"Ġeenvoudig":3332,"Ġcomment":3333,"ĠáĪµáĪŃáĭĵáīµ":3334,"ĠáįĸáĪĬ":3335,"Ġfoto":3336,"anne":3337,"Ġgro":3338,"gewing":3339,"áī°áīµ":3340,"aliteit":3341,"ĠáīłáĬ¢áīµáĭ®áĮµáĭ«":3342,"Ġantwoord":3343,"áĬŃáĬĸ":3344,"ĠáĭĺáĪŃ":3345,"ĠáĭĺáĪİ":3346,"vind":3347,"áĮĭáĪį":3348,"aaf":3349,"Ġfamilie":3350,"áĪĭáĬŃ":3351,"áĪ¨áĭĭáĪį":3352,"70":3353,"ange":3354,"Ġinge":3355,"res":3356,"undige":3357,"áĭĳ":3358,"Ġspesiale":3359,"áĪĪáĪĽ":3360,"iss":3361,"áĮįáĬĺáīµ":3362,"Ġdon":3363,"Ver":3364,"áĪŃáī¶":3365,"2023":3366,"ĠáīģáĮ¥áĪŃ":3367,"áīĢáĪį":3368,"áįĪáĮ¸":3369,"Ġbeeld":3370,"merik":3371,"áĪµáĬĵ":3372,"her":3373,"ote":3374,"asion":3375,"áīłáīµáĬķ":3376,"ĠáĬłáĭ³":3377,"ĠáīµáĬķ":3378,"áĭ¨áĪ±áĪµ":3379,"ĠáĪĪáĭį":3380,"Ġblad":3381,"bring":3382,"Ġáī°áĮł":3383,"Ġnatuurlik":3384,"Ġbak":3385,"kien":3386,"ĠáĬłáīħ":3387,"áĬĵáĮĪ":3388,"isik":3389,"Ġyour":3390,"áī£áĬķáĭ«":3391,"Ġáī½áĮįáĪŃ":3392,"ĠBr":3393,"Ġáī°áĪ°":3394,"apier":3395,"áĮĬáĭľ":3396,"Ġminute":3397,"Ġweek":3398,"áĮ®":3399,"Ġbesonder":3400,"ĠáĭµáĪĿ":3401,"gele":3402,"áįĸáĪĪáī²áĬ«":3403,"Ġveroorsaak":3404,"Ġáīłáī³":3405,"ĠáĭĭáĮĭ":3406,"Ġverg":3407,"áĪİáĪĿ":3408,"áĪµáĪĪ":3409,"ĠáĬłáĮĭ":3410,"The":3411,"ument":3412,"Ð°Ð°Ð°Ð°Ð°Ð°Ð°Ð°Ð°Ð°Ð°Ð°Ð°Ð°Ð°Ð°Ð°Ð°Ð°Ð°Ð°Ð°Ð°Ð°Ð°Ð°Ð°Ð°Ð°Ð°Ð°Ð°Ð°Ð°Ð°Ð°Ð°Ð°Ð°Ð°Ð°Ð°Ð°Ð°Ð°Ð°Ð°Ð°Ð°Ð°Ð°Ð°Ð°Ð°Ð°Ð°Ð°Ð°Ð°Ð°Ð°Ð°Ð°Ð°Ð°Ð°Ð°Ð°Ð°Ð°Ð°Ð°Ð°Ð°Ð°Ð°Ð°Ð°Ð°Ð°Ð°Ð°Ð°Ð°Ð°Ð°Ð°Ð°Ð°Ð°Ð°Ð°Ð°Ð°Ð°Ð°Ð°Ð°Ð°Ð°Ð°Ð°Ð°Ð°Ð°Ð°Ð°Ð°Ð°Ð°Ð°Ð°Ð°Ð°Ð°Ð°Ð°Ð°Ð°Ð°Ð°Ð°Ð°Ð°Ð°Ð°Ð°Ð°":3413,"ĠSh":3414,"áĭŃáĪĽáĬĸáīµ":3415,"áī£áĭŃ":3416,"Ġvoer":3417,"áĬķáĭ³":3418,"elde":3419,"ĠAan":3420,"erstel":3421,"áĭ«áĭĬ":3422,"áĪĬáĭ®áĬķ":3423,"Ġlos":3424,"hoewel":3425,"Ġkleur":3426,"09":3427,"uw":3428,"Ġáīłáī°áĪĪáĭŃ":3429,"Ġfl":3430,"Re":3431,"à´":3432,"ĠáĬ¨áĪĨáĬĲ":3433,"ĠáīĭáĬķáīĭ":3434,"ĠáĭµáĮĭáįį":3435,"Ġdirek":3436,"Ġoorspr":3437,"Ġáī¢áĪĨáĬķ":3438,"ĠBe":3439,"Ġáī¥áĪĪáĭį":3440,"39":3441,"Ġsonde":3442,"áĪĵáīµ":3443,"Ġverseker":3444,"Ġrede":3445,"Ġgesond":3446,"ĠáĪµáī¥":3447,"ĠáĪµáĪĪáĭļáĪħ":3448,"Ġeff":3449,"ĠáĪĺáĮłáĬķ":3450,"ĠáĬłáĪĽáĪ«":3451,"Ġliter":3452,"ĠáĭŃáĪĨ":3453,"ĠáĮ¥áīħáĪĿ":3454,"ĠáĮįáī¥":3455,"ĠáīµáĮįáĪ«áĭŃ":3456,"Ġleef":3457,"Ġbeskerm":3458,"Ġáĭ¨áī°áĪĪáĭ«áĭ©":3459,"Ġbestuur":3460,"Ġtoek":3461,"Ġáĭ¨áĮ¥":3462,"volle":3463,"Ġproses":3464,"à¦":3465,"ĠáĪĺáĮįáĪĪ":3466,"Ġam":3467,"ĠáĬłáĪĪáĭį":3468,"olle":3469,"áĬŃáĬĸáĪİáĮĤ":3470,"dele":3471,"Ġbeskikbaar":3472,"Ġaanvaar":3473,"áī£áĭĬ":3474,"ell":3475,"ĠáĪĺáĪł":3476,"ĠX":3477,"áĬķáĬŃ":3478,"áīµáĭ®áĮµáĭ«áĬķ":3479,"Ġverhandel":3480,"Ġeerder":3481,"Ġsaak":3482,"áĬĵáī¸áĭį":3483,"áĪ³áĬĶ":3484,"Ġaanlyn":3485,"ĠPl":3486,"áīłáīĥ":3487,"áĬĹ":3488,"Ð»":3489,"Ġvrug":3490,"Ġgeniet":3491,"ack":3492,"Ġgod":3493,"Ġbelangrike":3494,"ding":3495,"Ġhar":3496,"Ġoog":3497,"áĪ°áĮ£":3498,"áĪĪáĪĺ":3499,"ĠSoos":3500,"ĠâĢ¦":3501,"Ġdek":3502,"ĠáĪĢáĮĪáĪŃ":3503,"Ġi":3504,"Ġpunt":3505,"áĪ«áī¸áĭį":3506,"okus":3507,"áĪ³áĭĬ":3508,"atis":3509,"Ġongeveer":3510,"ÑħÑħÑħÑħÑħÑħÑħÑħ":3511,"skrif":3512,"áĬĳáĬķ":3513,"Ġkeuse":3514,"uimte":3515,"ĠáĬŃáīµ":3516,"Ð½":3517,"ĠáĬłáĮĪáĪŃ":3518,"Ġgep":3519,"Ġtegn":3520,"Ġdaarop":3521,"Ġverduidelik":3522,"uwe":3523,"ĠAM":3524,"196":3525,"ĠáĮ¥áĪ©":3526,"mene":3527,"Ġprobleme":3528,"middel":3529,"stelling":3530,"off":3531,"ĠáĬ¥áĬķáī°":3532,"ĠáĪģáĪīáĪĿ":3533,"pervlak":3534,"ĠáĪĺáĪĺ":3535,"à¥":3536,"Ġhere":3537,"Ġvriende":3538,"Ġbeskryf":3539,"áĮĪáĭ°":3540,"Ġwor":3541,"Ġáĭ¨áĪļáĪį":3542,"Ġbyvoeglike":3543,"áĪŃáĪ±":3544,"áº":3545,"Ġbesigheid":3546,"Ġvereis":3547,"its":3548,"Ġáī½áĮį":3549,"Ġgesig":3550,"Ġuur":3551,"Ġgeskryf":3552,"Ġvraag":3553,"Ġidee":3554,"ĠáĬ¥áĭļ":3555,"ĠáīłáĬ©áĪį":3556,"31":3557,"ĠáĪ±":3558,"usiek":3559,"ĠOf":3560,"ulke":3561,"áĪº":3562,"ster":3563,"iedenis":3564,"Ġvroe":3565,"bet":3566,"Ġpot":3567,"ĠáĪ¸":3568,"ĠáĬĥáĭŃáĪį":3569,"áĬĲáĭļáĪħ":3570,"áĭķáĪ«":3571,"áĪĮáĪİáī½":3572,"ĠáĭĵáĭŃáĬĲáīµ":3573,"áīĭáīĭ":3574,"Ġstil":3575,"arch":3576,"Ġbevat":3577,"áĪ·":3578,"áĪ¥áĪ«":3579,"ai":3580,"Ġáī°áĪĽáĪª":3581,"amel":3582,"ĠâĢ¹âĢ¹":3583,"Ġonthou":3584,"áĭ¨áī°":3585,"?âĢĿ":3586,"ett":3587,"Ġvlak":3588,"sing":3589,"Ġgesin":3590,"áĬķáĬĵ":3591,"Ġstorie":3592,"ĠáĭĺáĪĪ":3593,"Ġmore":3594,"áĪªáĭ«áĭİáī½":3595,"ĠáĪĥáĮĪ":3596,"Ġmateriaal":3597,"erst":3598,"vel":3599,"up":3600,"ĠáĭĲ":3601,"ĠáĬ¥áĬķáĭ²áĪħ":3602,"ĠáīłáĬ¢":3603,"co":3604,"Ġtaal":3605,"Ġteken":3606,"Ġgeloof":3607,"ĠáīµáĪŃ":3608,"ĠDaarom":3609,"áī¡áī¥":3610,"Ġfrom":3611,"áĪįáįį":3612,"Ġdui":3613,"áĪĭáĮİ":3614,"ĠáĬłáĪĽ":3615,"uele":3616,"Ġhond":3617,"ĠáīłáĬłáĬķáĭµ":3618,"áĪ¹":3619,"Ġnuus":3620,"ĠáĬ¨áĪĽ":3621,"ain":3622,"ng":3623,"________":3624,"Ġbal":3625,"áĬ«áī³":3626,"198":3627,"áĭŃáī³":3628,"ny":3629,"áĮĪáīµ":3630,"Ġgeneem":3631,"Ġswang":3632,"áīĵ":3633,"asse":3634,"ĠáĮĪáĬķáĭĺáī¥":3635,"ektr":3636,"itel":3637,"ĠUnivers":3638,"áĪ°áī¡":3639,"áĮĪáĪĽ":3640,"Ġáīłáĭ°":3641,"34":3642,"Ġnaby":3643,"Ġbinn":3644,"áĮĬáĭ«":3645,"áĬĲáĮį":3646,"ĠáĭĪáĪ¨":3647,"Ġáĭ«áĪħáĪį":3648,"Ġnadat":3649,"áĮ¥áĪ®":3650,"onom":3651,"áīłáĪ¨áĪ°áī¥":3652,"ĠáĮĢáĪĿáĪ®":3653,"ĠáĮłáīħ":3654,"áĭĲ":3655,"Ġbloed":3656,"Ġskrywer":3657,"áĭ³áĬķáīµ":3658,"estig":3659,"vorm":3660,"Ġ`":3661,"ĠáĭŃáĪħáĬķáĬķ":3662,"Ġintern":3663,"plan":3664,"ifiseer":3665,"ick":3666,"stig":3667,"Ġstem":3668,"Ã¼":3669,"ĠáĬłáĬķáĭ³":3670,"áĪµáĪ«":3671,"ivid":3672,"isme":3673,"áĬĲáĮĪ":3674,"ĠáĪĪáĪĿ":3675,"ĠEen":3676,"ĠáĮ¨áĭĭáī³":3677,"Ġbesig":3678,"ĠáĪĺáĬķáĮįáĪ¥áīµ":3679,"áī½áĬķáĬķ":3680,"aste":3681,"Ġout":3682,"áĪıáĪį":3683,"ĠáĭŃáĭĺ":3684,"perk":3685,"Ġvak":3686,"áŀ":3687,"áĪ¶áī½":3688,"ĠáĪĿáĪŃáĮ«":3689,"ĠáĪĪáĪĽáĪµ":3690,"Ġweke":3691,"Ġvroue":3692,"Ġáĭ¨áī°áĪ°":3693,"ograf":3694,"áĬ«áĪĿ":3695,"ĠáĮ£áī¢áĭ«":3696,"áĪŃáĬŃ":3697,"AN":3698,"Ġverskaf":3699,"Ġplat":3700,"Ġgroei":3701,"áīĢáĮ¥":3702,"ĠHe":3703,"Ġduur":3704,"áĪ³áī¸áĭį":3705,"]]":3706,"áīłáĭ«":3707,"05":3708,"Ġgebou":3709,"leiding":3710,"ĠáĭĿáĮį":3711,"áĭĺáĮĭáĮĢ":3712,"Ġáĭ°áĬķ":3713,"Ġstand":3714,"Ġuiteindelik":3715,"ray":3716,"ĠáĮ¤":3717,"Ġsorg":3718,"Ġáĭ¨áĪĿáĬķ":3719,"áī¥áĪ«":3720,"áĪĭáĬķ":3721,"uik":3722,"ĠáĪĺáĪª":3723,"aksie":3724,"áįīáīµ":3725,"Ġvyf":3726,"Ġgedeel":3727,"teen":3728,"Ġvrae":3729,"Ġondersteun":3730,"tps":3731,"áĭĪáĭ°":3732,"moet":3733,"neem":3734,"áĭ«áĭĺ":3735,"ĠáįķáĪ¬":3736,"ĠMal":3737,"enskap":3738,"ĠáĪĺáĪ°áĪ¨áīµ":3739,"Ġverhouding":3740,"Ġpragtige":3741,"Ġspesifieke":3742,"ĠAm":3743,"ĠÂ«":3744,"Ġgrootste":3745,"áĪ³áī°":3746,"ieÃ«":3747,"ĠáĬķáĪĿ":3748,"Ġverdien":3749,"Ġkre":3750,"Ġstuur":3751,"áĬķáĬ«":3752,"áĪ°áī£":3753,"Ġáīłáĭį":3754,"áĬ¨áĪĪ":3755,"áīĢáĪĺ":3756,"37":3757,"ĠáĬłáĪµáįĪáĪĭáĮĬ":3758,"ĠáĬłáĪµáī°áĭ³áĭ°áĪŃ":3759,"ĠáĬłáĬ«áĪį":3760,"áī§":3761,"teur":3762,"áĮ£áĬķ":3763,"breek":3764,"eken":3765,"Ġáĭ¨áĪ«":3766,"keur":3767,"áĭ«áĭ¨áīµ":3768,"Op":3769,"áī»áī¸áĭį":3770,"Ġáī¥áĪĿ":3771,"ĠTer":3772,"ĠBl":3773,"Ġele":3774,"\".":3775,"áĪľáĬķ":3776,"âĨ":3777,"ĠáĭŃáĪĨáĬĵáĪį":3778,"âĢĵ":3779,"áĮłáīĥáĪĭáĭŃ":3780,"ĠEngel":3781,"dige":3782,"áĭĪáĬķ":3783,"Ġhoekom":3784,"Ġhout":3785,"Ġáĭ®":3786,"áĪ°áĬķ":3787,"Ġlangs":3788,"leu":3789,"Ġbad":3790,"Ġgevind":3791,"isies":3792,"Ġsituasie":3793,"ĠáĬ¥áĬķáĭ°áī°":3794,"áīłáĪ«áĭĬ":3795,"ament":3796,"mak":3797,"à¯":3798,"Ġgeeste":3799,"ĠáĭįáĪ³áĬĶ":3800,"Ġáī°áĪµáįĭ":3801,"áĮłáĪ¨":3802,"Ġindien":3803,"soek":3804,"áĮįáĬķ":3805,"áĪĮáĪĭ":3806,"áĪ«áĪ²":3807,"ĠáįįáĪĭáĮİ":3808,"Ġbeweg":3809,"Ġbelangrikste":3810,"Wanneer":3811,"ĠáĬłáĪħ":3812,"Ġlys":3813,"áĬ£áī¥":3814,"ĠáĬ¥áĬķáĭ³áĭŃ":3815,"Ġmil":3816,"áĪĭáī½áĪģ":3817,"áĭĮ":3818,"áī£áī¥":3819,"0049":3820,"wend":3821,"Ġoud":3822,"áī¹áĬķ":3823,"Ġant":3824,"Ġus":3825,"Ġtotdat":3826,"Ġsoveel":3827,"Ġsol":3828,"ĠáĪĺáĭµáĪ¨":3829,"stuk":3830,"ĠBin":3831,"ĠáĬĲáįĥ":3832,"hand":3833,"ĠáĭŃáĮĪáī£":3834,"Ġdiep":3835,"áĬ¨áĪ°":3836,"Ġáĭ¨áĪĪáĪĿ":3837,"áĭĪáĪµ":3838,".)":3839,"áĬĵáĭį":3840,"ĠBaie":3841,"Ġaandag":3842,"áīłáĬĽ":3843,"ha":3844,"áĮĭáīµ":3845,"Ġverf":3846,"kie":3847,"Ġdank":3848,"koms":3849,"erskap":3850,"ĠáĬĥáĭŃ":3851,"Ġterm":3852,"je":3853,"ĠVader":3854,"Ġrisik":3855,"áĪģáĪīáĪĿ":3856,"Ġverband":3857,"ots":3858,"maat":3859,"Ġmon":3860,"Ġprojek":3861,"46":3862,"áĮ¡áīµ":3863,"Ġáī°áĮĪ":3864,"ommun":3865,"Ġtrad":3866,"áīĢáĪ¨":3867,"ile":3868,"áĮłáĭŃ":3869,"Ġáī¥áĪĪáĭĭáĪį":3870,"tjies":3871,"Ġáĭ¨áĬ«":3872,"ĠAb":3873,"gawe":3874,"áĪĪáĭįáĬķ":3875,"Ġwaarop":3876,"Ġpar":3877,"ight":3878,"standige":3879,"ĠáīłáĪĻáĪī":3880,"Ġblog":3881,"fin":3882,"ologie":3883,"leis":3884,"áĪµáī°áĬĽ":3885,"hank":3886,"Ġáī°áĬĵáĮį":3887,"áĪ³áĬķ":3888,"Ġtoege":3889,"áĪĴ":3890,"afel":3891,"ÑģÐºÐ¸":3892,"Ġrug":3893,"áĭ¨áĪĺ":3894,"Ġbeheer":3895,"áĮłáĪ©":3896,"ĠáīµáĪįáīħ":3897,"Ġdor":3898,"reken":3899,"eth":3900,"ĠSl":3901,"estand":3902,"ĠJou":3903,"Ġoorspronk":3904,"Ġáĭ¨áĪį":3905,"ĠGees":3906,"áĭ£":3907,"ĠáįĸáĪĪáī²áĬ«":3908,"oes":3909,"áīħáĪµáīĥ":3910,"áĬŃáĬŃ":3911,"enig":3912,"ĠáĪĺáĮ½áĪĲáįį":3913,"ope":3914,"Ġáĭ¨áĪĨáĬĳ":3915,"ĠMe":3916,"asionale":3917,"Ġopen":3918,"baan":3919,"dis":3920,"àª":3921,"Ġhandelaars":3922,"áĬĲáĮĭ":3923,"áĢ":3924,"ĠSe":3925,"essie":3926,"Ġbehandel":3927,"ĠáĬłáīĢáįį":3928,"Ġrom":3929,"áī¥áīµ":3930,"Ġbro":3931,"Ġgratis":3932,"Ġeffek":3933,"ĠPost":3934,"Ġindivid":3935,"ĠáĪįáĮĨáī½":3936,"Ġkook":3937,"ĠáĪĽáĪµáī°":3938,"ĠáĮįáĪĿáĮĪáĪĽ":3939,"Ġáĭŀ":3940,"áĪ®áī½áĬķ":3941,"ĠkliÃ«n":3942,"áĬŃáī°áĪŃ":3943,"ĠMoenie":3944,"Ġdig":3945,"Ġáĭ«áĪĪáĭįáĬķ":3946,"onne":3947,"ĠáĬłáĪĺáĪ«":3948,"52":3949,"Wys":3950,"ĠáĪįáī¥":3951,"áĭµáĪĿ":3952,"áĪµáīµáĪª":3953,"ĠáīłáĪ«":3954,"enste":3955,"Ġtoekoms":3956,"ĠMa":3957,"áĬŃáĪŃáĪµáī²":3958,"Ġpresies":3959,"Ġmaatskappy":3960,"áĮĪáĪª":3961,"odra":3962,"Ġprogram":3963,"áĬĸáĪ©":3964,"Ġvia":3965,"Ġalleen":3966,"vat":3967,"ĠKon":3968,"áīħáĪµáīĥáĪ´":3969,"ĠáīłáĪļáĪį":3970,"ĠáĬ¥áĬķáĮį":3971,"Ġvoeg":3972,"ĠAmerik":3973,"Ġouer":3974,"Ġboom":3975,"Ġfinans":3976,"áī½áĭį":3977,"áĬ®áĬĸ":3978,"Ġtipe":3979,"ĠáĪº":3980,"áĮĢáĪį":3981,"Ġtien":3982,"Ġvo":3983,"Ġáĭ¨áĪĺáĮĢáĪĺáĪªáĭ«":3984,"ĠáĪ°áĭĵáīµ":3985,"áĮįáĪĿ":3986,"Ġvanaf":3987,"Ġáī°áĮįáī£áĪŃ":3988,"Ġsulke":3989,"Ġhang":3990,"ten":3991,"Ġáĭ¨áī£":3992,"áĮłáīħ":3993,"Ġhuur":3994,"ĠáĬ¥áĬķáĭµ":3995,"keer":3996,"áĪģáĪĪ":3997,"áĬĲáĪµ":3998,"blad":3999,"Ġáĭ«áĬķ":4000,"Ġgereg":4001,"áĪ¨áĮ¥":4002,"Pos":4003,"ĠáĭĻáĪªáĭ«":4004,"áįĪáīµ":4005,"ĠDr":4006,"Ġprofess":4007,"oad":4008,"uif":4009,"ert":4010,"áĪµáīµáĬĵ":4011,"ansie":4012,"Ġsagte":4013,"ĠáīłáĪĽáĪĪáīµ":4014,"ĠáĪµáīµ":4015,"ĠáįĵáĪŃáī²":4016,"akter":4017,"Ġbeslis":4018,"rei":4019,"Ġeenvoudige":4020,"áī¡áĬķ":4021,"Ġáī¡áĭµáĬķ":4022,"Ġalgemene":4023,"Ġaard":4024,"ĠhoÃ«r":4025,"Ġdiens":4026,"ĠáīłáĪķ":4027,"Ġklas":4028,"Ġbeide":4029,"cc":4030,"ĠáīłáĪĺáĪĨáĬĳ":4031,"anc":4032,"ĠTr":4033,"áĪ±áĪĿ":4034,"arie":4035,"áĭµáĪŀ":4036,"anning":4037,"Ġouder":4038,"ĠÅ":4039,"ĠáĪµáĬķ":4040,"ergie":4041,"do":4042,"geneem":4043,"ĠPa":4044,".,":4045,"áįİáī½":4046,"ĠáĬŃáĬķ":4047,"áĪ³áĪį":4048,"Ġontmoet":4049,"ĠáīħáĪŃ":4050,"ĠáĮĪáĮ½":4051,"áĪµáī¥":4052,"Ġstuk":4053,"áįģ":4054,"áīħáĬĵ":4055,"áĭ°áĮį":4056,"Ġew":4057,"Ġonderwerp":4058,"rr":4059,"Ġpersoonlike":4060,"ash":4061,"Ġ$":4062,"plaas":4063,"Ġrus":4064,"pak":4065,"48":4066,"kundige":4067,"moÃ«":4068,"Ġáī°áĭĭ":4069,"ĠáĭŃáĪħáĪĿ":4070,"Ġpubl":4071,"ĠáįķáĪ®áĮįáĪ«":4072,"áĪĿáĪħáĪŃ":4073,"Ġgeleentheid":4074,"wende":4075,"ket":4076,"Ġvert":4077,"Ġbesef":4078,"lings":4079,"Ġvoorbeeld":4080,"33":4081,"ĠáĮįáĬķáĬĻ":4082,"ĠáĮ«":4083,"áĭ«áĭĿ":4084,"áĮłáī¥":4085,"Ġáī»":4086,"áĪĥáĬķ":4087,"ĠáĬłáĪĭ":4088,"ĠáĮĭáĭľ":4089,"woorde":4090,"áĭ²áĪħ":4091,"Ġkat":4092,"ĠáĬłáĪĺ":4093,"Lees":4094,"ĠáĪĺáī¥áīµ":4095,"Ġgeskik":4096,"Ġselfstandige":4097,"ware":4098,"ĠáĬłáĪĪáĪĺ":4099,"Ġelektr":4100,"bek":4101,"Ġgraag":4102,"Ġáĭ¨áĪĿáīµ":4103,"06":4104,"Ġbrand":4105,"ĠáīłáĬĲ":4106,"Ġbespreek":4107,"ĠQ":4108,"ĠáĬĲáĮ¥":4109,"áĪĦáĭµ":4110,"ith":4111,"Maar":4112,"Ġafge":4113,"**":4114,"Ġgereeld":4115,"ĠáĬ©áī£áĬķáĭ«":4116,"áĭ²áĭ®":4117,"Ġplan":4118,"Ġbeperk":4119,"Ġmaniere":4120,"itte":4121,"ĠáĬ¥áĭµ":4122,"ĠáĬ¥áĮħáĮį":4123,"áĪ«áĭŃ":4124,"kende":4125,"áĮĭáĪ«":4126,"Ġenigste":4127,"Ġtoon":4128,"Ġglad":4129,"sip":4130,"inkel":4131,"áĭİáīµ":4132,"Ġnoem":4133,"cl":4134,"áī½áĪī":4135,"Ġperfek":4136,"ĠInd":4137,"IE":4138,"Ch":4139,"Ġasof":4140,"enewens":4141,"45":4142,"Email":4143,"áĪµáĪĿ":4144,"ĠáĬ®áĪļ":4145,"elk":4146,"tuur":4147,"ĠáĪĺáĮ¥":4148,"Ġrisiko":4149,"oene":4150,"ĠNa":4151,"áĮħáĪĿ":4152,"ĠáĪĥáĮĪáĪŃ":4153,"Vir":4154,"Ġhoop":4155,"grond":4156,"Ġdog":4157,"ĠáĪĪáĪĽáĭµáĪ¨áĮį":4158,"Ġáĭ«áĪįáī°":4159,"eilige":4160,"ĠáĪĺáĪĨáĬķ":4161,"Ġspeletjies":4162,"ĠáīłáĪħ":4163,"steek":4164,"áĭ®áĪĿ":4165,"minder":4166,"áī»áĪį":4167,"38":4168,"ensies":4169,"Ġáĭ¨áĭ²áĪĭ":4170,"istr":4171,"Ġversp":4172,"Ġtuis":4173,"imp":4174,"áĮ¾":4175,"Ġgemeen":4176,"áĭĺáĪĺ":4177,"ĠáĬłáĮĪáĪįáĮįáĪİ":4178,"tic":4179,"áį²":4180,"Ġáĭ«áĪīáīµ":4181,"adering":4182,"iteite":4183,"Ġruimte":4184,"áĭ«áĭį":4185,"Ġvoed":4186,"áĬķáĮįáĪµáīµ":4187,"inkryk":4188,"áīłáī°":4189,"Ġbedoel":4190,"ĠáĮ¤áĬĵ":4191,"Ġoplos":4192,"ĠáĭŃáĮĪáĬĽ":4193,"08":4194,"Ġnut":4195,"ĠOr":4196,"ĠáĬ¦áĪ®":4197,"unde":4198,"Wysig":4199,"áĭĪáĪŃ":4200,"Ġware":4201,"Ġoef":4202,"Ġtoer":4203,"Ġervaring":4204,"Ġáī°áīĥ":4205,"rokke":4206,"áĮĪáĬĲ":4207,"etail":4208,"ender":4209,"áĪŃáĪµáĭİ":4210,"ĠáĬ¥áĬķáīħáĪµáīĥáĪ´":4211,"Ġáīłáįį":4212,"ace":4213,"ĠTig":4214,"ĠáĬłáĭŃáĬĲáīµ":4215,"Ġseks":4216,"goed":4217,"Ġoppervlak":4218,"ĠáĬ¥áĭļáĪħ":4219,"Ġgemak":4220,"Ġverhoog":4221,"áĪĬáĭĿ":4222,"áĪĽáĪŃáĬĽ":4223,"Ġdonker":4224,"By":4225,"áĪ³áĪ³áĭŃ":4226,"Ġhave":4227,"Posted":4228,"ĠáĪ²áĪį":4229,"Ġwen":4230,"ĠáĬĥáĪĭáįĬ":4231,"áĮĪáĬĺáĭį":4232,"áī³áĭĪáīĤáĭ«":4233,"áĪĿáĭµ":4234,"Ġmoeite":4235,"ts":4236,"Ġáĭ¨áĪĢ":4237,"Ġern":4238,"Ġondersoek":4239,"Ġáĭķáĭµ":4240,"Ġhomself":4241,"Ġnew":4242,"Ġbegr":4243,"áĪģáĪĪáīµ":4244,"Ġdissip":4245,"ĠáĪļáĬĴáĪµáīµ":4246,"heen":4247,"uwelik":4248,"áĬłáīµ":4249,"ĠáĪĺáĭµ":4250,"ĠáĬłáįĪ":4251,"Ġrigting":4252,"Ġinst":4253,"áī«":4254,"áĮłáīĥáĪļ":4255,"ĠáĪĺáĭĿ":4256,"geer":4257,"ĠáĭµáĪŃáĮħáīµ":4258,"Ġáĭ¨áĭ°":4259,"áĭ«áĬķáĭ³áĬķ":4260,"ryd":4261,"Ġgevalle":4262,"ĠáĪĽáĪ³":4263,"áĬĵáĭŃ":4264,"Ġbehoort":4265,"Ge":4266,"ĠáĪĺáĪĿ":4267,"ĠWoord":4268,"áĪĮáĬŃáīµ":4269,"rategie":4270,"Ġex":4271,"áĭķáĪĪ":4272,"urende":4273,"Ġ#":4274,"Ġteenoor":4275,"¦áĪµáīµ":4276,"voed":4277,"áĬ¾áĬĲ":4278,"adelik":4279,"66":4280,"Ġtog":4281,"Ġdaarom":4282,"×Ļ":4283,"Ġbot":4284,"Ġsond":4285,"áĬķáĮįáĭµ":4286,"Ġkuns":4287,"Ġbehoef":4288,"Ġvoorbere":4289,"ĠáīłáĪĺáĪµ":4290,"ĠáĮīáĭ³áĭ®áī½":4291,"lag":4292,"ĠWe":4293,"ays":4294,"Ġsom":4295,"ĠreÃ«l":4296,"áĭĬáīµ":4297,"olgens":4298,"Ġvideo":4299,"Ġtek":4300,"áĪģáĬĳ":4301,"Ġbood":4302,"áĭ°áĪŃáĮī":4303,"Ġáĭ¨áįĪ":4304,"Ġonderwys":4305,"áī°áĬĵ":4306,"ĠAfrikaanse":4307,"kn":4308,"Ġmakliker":4309,"áī°áĬĽáĭį":4310,"áīº":4311,"stad":4312,"Ġáī´áĬŃáĬĸáĪİáĮĤ":4313,"áĪ¾":4314,"ĠáĬłáĮ¥":4315,"Ġstof":4316,"Ġgrootte":4317,"eerd":4318,"áĭĺáĬķ":4319,"Ġáĭ¨áĪĮ":4320,"agtes":4321,"Ġvuur":4322,"Ġbeskryw":4323,"Ġgeboorte":4324,"Ġáįİ":4325,"ĠáĬłáĬķáĭ³áĬķáĭµ":4326,"ĠáīłáĮį":4327,"áĭ¨áĬ¥":4328,"áįįáĬķ":4329,"Ġswaar":4330,"Ġáĭ¨áĪĪ":4331,"issel":4332,"Ġsowel":4333,"berg":4334,"áĮİáī½":4335,"ĠáĪĽáĪ½áĬķ":4336,"ĠáīµáĬ©":4337,"ower":4338,"áĪĻáĬķ":4339,"Sp":4340,"Ġverby":4341,"Ãł":4342,"Ġverantwoord":4343,"Ar":4344,"áĭ°áĪį":4345,"Ġgevra":4346,"áĭĪáĭ³":4347,"Ġmuur":4348,"áīĢáĪĿ":4349,"Ġvlieg":4350,"net":4351,"woordig":4352,"áĬ«áī£áī¢":4353,"Ġposisie":4354,"áĭ¨áĬķ":4355,"ĠáĪ»":4356,"áī¾áī½":4357,"ction":4358,"áĭµáĪ®":4359,"deling":4360,"ĠáĬ¥áĪĿ":4361,"Ġstelsel":4362,"áĪĿáįĴ":4363,"Ġmed":4364,"ederland":4365,"likse":4366,"ire":4367,"Ġinteress":4368,"Ġkoste":4369,"Ġwaarom":4370,"tree":4371,"Ġbok":4372,"Ùİ":4373,"Ġtoets":4374,"ĠáĬ¨áĭļáĭ«":4375,"saaklik":4376,"stra":4377,"ĠáĮįáĭµ":4378,"Ġsny":4379,"ĠNou":4380,"áĪ°áĮ¥":4381,"ĠÂ»":4382,"áįĪáĪ«":4383,"áĮįáī£áĪŃ":4384,"ĠáĪĪáĪĿáĬķ":4385,"idenheid":4386,"bed":4387,"áĪĥáĪį":4388,"assing":4389,"ĠáĬ¥áĬķáĭ³áĪĪ":4390,"ĠáįĪáīĥ":4391,"Ġverbind":4392,"Ġáĭ«áĪ³":4393,"erken":4394,"elfs":4395,"leutel":4396,"yne":4397,"ĠáĭĪáĮĪ":4398,"ĠáĬłáĪĪáīłáīµ":4399,"Ġposit":4400,"áį¦":4401,"ĠáĪħáĮį":4402,"Ġtel":4403,"boek":4404,"Ġswart":4405,"uut":4406,"à²":4407,"Ġvel":4408,"Ġorgan":4409,"Ġfokus":4410,"vr":4411,"áĭ°áĪ¨áĮį":4412,"Ġaanbe":4413,"Ġluister":4414,"ĠÅī":4415,"ineer":4416,"ĠáĪĺáī°":4417,"Ġmetode":4418,"tief":4419,"ids":4420,"ĠáĮ¦áĪŃáĬĲáīµ":4421,"\",":4422,"Ġpyn":4423,"áīĢáīł":4424,"áĮĭáĭĬ":4425,"áĭ³áīµ":4426,"Ġgun":4427,"ĠáĪļáĪĬáĭ®áĬķ":4428,"lang":4429,"Ġvergeet":4430,"Ġour":4431,"skakel":4432,"ĠNie":4433,"ĠáĬŃáĪŃáĪµáī¶áĪµ":4434,"glish":4435,"47":4436,"àº":4437,"Like":4438,"ĠáĬłáĬŃ":4439,"55":4440,"áĭįáĪ®":4441,"áĭ°áĬĽ":4442,"Ġke":4443,"Ġhal":4444,"Ġwonderlike":4445,"áĬ«áīµ":4446,"Ġtoel":4447,"áįįáĪ«":4448,"!âĢĿ":4449,"Ġáĭ¨áĪ°áĭį":4450,"ĠáĭŃáĪĺáĪµ":4451,"áĭ«áĪį":4452,"ĠSommige":4453,"ryp":4454,"ino":4455,"áĪĽáĪį":4456,"à¨":4457,"Ġspan":4458,"mekaar":4459,"áĬŃáī¶":4460,"ĠáĪĺáĮįáĪĪáĮ«":4461,"Is":4462,"igtig":4463,"Ġeind":4464,"Ġminste":4465,"Ġaansoek":4466,"use":4467,"Ġverhaal":4468,"áĬ«áĭŃ":4469,"áīĤáīµ":4470,"Ġwins":4471,"Read":4472,"Ġmusiek":4473,"EN":4474,"áĬķáįĪ":4475,"Ġgeme":4476,"Ġvolk":4477,"ĠáĪĿáĪį":4478,"ĠNet":4479,"Ġmodel":4480,"enie":4481,"áĬ¨áī±":4482,"áĬŃáĬŃáĪĪáĬĽ":4483,"Ġplekke":4484,"oit":4485,"áĪ°áī¦áī½":4486,"ĠáĬŃáĪŃ":4487,"Ġomgewing":4488,"ica":4489,"Ġverskeidenheid":4490,"ĠáīłáĪ½":4491,"ij":4492,"akker":4493,"kaart":4494,"ĠáĬĲáī²":4495,"Ġoorweeg":4496,"Ġemos":4497,"ĠáĪĢáĮĪ":4498,"áī¥áĪ¨áī°":4499,"Ġkans":4500,"ĠáĪķáĭĿ":4501,"ĠáĪĺáĬĲ":4502,"ĠáĪĺáĬķáĮĪ":4503,"Ġgroep":4504,"esk":4505,"ĠáĬŃáĪŃáĪµáī²áĭ«":4506,"ĠáĪµáĪįáĮłáĬĵ":4507,"Ġla":4508,"etr":4509,"07":4510,"Ġgelyk":4511,"Ġvolw":4512,"Foto":4513,"áī£áĬ¤":4514,"ĠHou":4515,"áĬ¨áįįáī°áĬĽ":4516,"áĪµáĪŃ":4517,"blief":4518,"Sk":4519,"Ġeiend":4520,"Ġgekry":4521,"Ġstu":4522,"áįĪáĪįáĮī":4523,"ena":4524,"ĠáĪĪáĭļáĪħ":4525,"ĠbeÃ¯n":4526,"áĪĿáĬķáīµ":4527,"Ġswe":4528,"Ġens":4529,"áĬłáĬķ":4530,"Ġdadelik":4531,"Ġwy":4532,"Ġdiegene":4533,"02":4534,"uro":4535,"deur":4536,"ette":4537,"2008":4538,"áĪŃáĮį":4539,"Ġáī°áī¥áĪİ":4540,"Ġáĭ¨áĬŃ":4541,"Ġslegte":4542,"Ġáĭ¨áīłáĪĪáĮł":4543,"03":4544,"Ġáĭ¨áįĸáĪĪáī²áĬ«":4545,"Ġbasiese":4546,"etjie":4547,"Ġáĭ³áĭŃ":4548,"áĮĦ":4549,"áī³áĬķ":4550,"Ġáīłáī°áĮ¨áĪĽáĪª":4551,"ID":4552,"Ġnorm":4553,"áĬ¨áĭ«":4554,"Ġenk":4555,"áĪ¨áī°":4556,"ĠáĪĺáĪłáĪ¨áīµ":4557,"ĠáīłáĪĢ":4558,"ĠEthiopian":4559,"áĭįáĬĵ":4560,"Ġwerklik":4561,"Ġvloer":4562,"áĬ®áī½":4563,"Ġpret":4564,"ations":4565,"Ġgeskiedenis":4566,"aling":4567,"áĭ°áĪŃáĮį":4568,"áĭ±áĪµáīµáĪª":4569,"áīħáĪ¨áī¥":4570,"ĠáĬłáĭ°":4571,"áī¦áīµ":4572,"âĢĺ":4573,"enaar":4574,"Ġsos":4575,"ner":4576,"áĪµáįĴ":4577,"ĠáĬ¥áĭįáĬķ":4578,"ĠáīłáĪŃáĬ«áī³":4579,"áĮĢáīµ":4580,"Ġinhoud":4581,"seblief":4582,"Met":4583,"Ġbetrokke":4584,"Ġvul":4585,"Ġverlede":4586,"áī¥áĬĿ":4587,"ister":4588,"áį²áį":4589,"ĠáĪħáĭĿáī¢":4590,"ator":4591,"ĠáĬ¢áīµáĭ®áĮµáĭ«áĬķ":4592,"Ġtop":4593,"view":4594,"ĠáĪµáĪĪáĪĨáĬĲ":4595,"áĮĪáĭĽ":4596,"annes":4597,"aking":4598,"áĪĭáĪ½":4599,"ĠáĭĵáĪĭáĪĽ":4600,"ES":4601,"istor":4602,"ĠáīłáĪĨáĬĲ":4603,"áī¡áĪŃ":4604,"áĮĭáĪļ":4605,"ĠáĬĸ":4606,"ĠáĭįáĮ¤áīµ":4607,"áĬ½áĬ¥":4608,"áĪ«áĭĬáīµ":4609,"Ġrekening":4610,"Ġsee":4611,"áĪĭáīħ":4612,"andeer":4613,"Ġvern":4614,"ĠKan":4615,"Ġkol":4616,"áī£áĪĪáĭį":4617,"ĠáĬ¢áīµáĭ®áĮµáĭ«áĭĬ":4618,"Ġgeleer":4619,"ĠáĬ¢áīµáĭ®áĮµáĭ«áĭįáĭ«áĬķ":4620,"ski":4621,"Ġnavors":4622,"Ġáī°áĬ¨":4623,"Ġhuwelik":4624,"Ġtuin":4625,"Ġáī¤áī¶áī½":4626,"Ġverminder":4627,"áįĬáĭ«":4628,"Ñĥ":4629,"ĠComment":4630,"ĠáĬĲáĮĪáĪ®áī½":4631,"áĪķáĭ¶":4632,"ref":4633,"ĠáĬ«áĪŃ":4634,"Ġdaarin":4635,"Ġfunks":4636,"ones":4637,"Ġprakt":4638,"burg":4639,"áīŃ":4640,"ieer":4641,"ĠáĪĦ":4642,"Ġhas":4643,"áĬķáĮ«":4644,"istiese":4645,"áĪĪáĪį":4646,"Ġmoder":4647,"Ġáĭ¨áĬĲáīłáĪ©":4648,"áĮłáĪį":4649,"áĪ¨áĭµ":4650,"86":4651,"ames":4652,"Ġáīª":4653,"Ġáī£áĪĪáĪĻáĭ«":4654,"áĮ«áĭĪ":4655,"áī£áĪī":4656,"Ġáĭ«áĪĭáī¸áĭį":4657,"??":4658,"ats":4659,"ve":4660,"áĪĿáĮĥ":4661,"Ġbekommer":4662,"ĠOor":4663,"iwiteit":4664,"Ġáī£áĭŃ":4665,"04":4666,"Ġdaag":4667,"Ġlaag":4668,"Ġbetekenis":4669,"ĠáĪ©":4670,"Ġgewild":4671,"áĭĥ":4672,"ĠáĬ¥áĪĿáĬĲáīµ":4673,"áĭ°áĪ¨áĮĪáĭį":4674,"ĠáĪİ":4675,"ĠáįįáĪŃáĭµ":4676,"Ġprodukte":4677,"oste":4678,"Ġgedagtes":4679,"ĠWaar":4680,"ĠáĭįáĮŃ":4681,"Ġmaand":4682,"Ġdroog":4683,"áĮłáĬķ":4684,"Ġasseblief":4685,"Ġáĭ¨áĪŀ":4686,"ĠáĪ°áĪ«":4687,"aardighede":4688,"ĠáĪĺáįįáīµ":4689,"Ġgebore":4690,"áĭĸ":4691,"ĠáĪ°áĪĭáĪĿ":4692,"áĬ¨áĬĵ":4693,"att":4694,"Ġáĭ¨áī°áįĪ":4695,"heids":4696,"ukkie":4697,"ĠáĮįáĬķáĬĻáĬĲáīµ":4698,"Ã¶":4699,"ĠáĪĵáĭ°":4700,"ho":4701,"áīµáĪĿ":4702,"Ġáī±":4703,"bei":4704,"áĮłáīłáīħ":4705,"ulp":4706,"OR":4707,"Ġresult":4708,"lan":4709,"Ġgedeelte":4710,"aaie":4711,"jar":4712,"Ġbre":4713,"áĪ®áĪĿ":4714,"áĬ®áĬĸáĪļ":4715,"Ġvreem":4716,"áĮĢáĪĺáĪŃ":4717,"Ġkarakter":4718,"reis":4719,"99":4720,"raad":4721,"sdien":4722,"IN":4723,"Ġmoenie":4724,"áĪħáĬĵ":4725,"Ġvrugte":4726,"pers":4727,"beer":4728,"áĪĭáī¸áĭįáĬķ":4729,"Ġint":4730,"Ġvolt":4731,"ografie":4732,"bod":4733,"Ġsub":4734,"bas":4735,"áī³áĪĽ":4736,"ĠáĪĽáĪ¸":4737,"ĠáĪķáĭŃáĭĪáīµ":4738,"ĠáīµáĭįáĪį":4739,"Ġarg":4740,"ĠáĪĪáĪĺáĪµ":4741,"áĮ£áĪª":4742,"fl":4743,"ĠáĪĿáĬŃáĪŃ":4744,"uld":4745,"dit":4746,"ĠáĪĺáĮ£":4747,"Ġswangerskap":4748,"Ġletter":4749,"stof":4750,"Ġbeen":4751,"áĭ«áĬķáĭ³áĬķáĭ±":4752,"Ġveilig":4753,"Å¡":4754,"áĮħáīµ":4755,"áĬĲáĪ±":4756,"áĬĲáīł":4757,"Ġvoorsien":4758,"Ġversigtig":4759,"SA":4760,"mming":4761,"ĠáĬłáĪ¸":4762,"Ġoorspronklike":4763,"oneel":4764,"ĠáĮįáĪ«":4765,"ture":4766,"waard":4767,"Ġáī°áĬĵáĮįáĪ¨áĭĭáĪį":4768,"Ġpapier":4769,"Ð°Ñ":4770,"Ġdo":4771,"ĠáĪĺáĬķáĮįáĪµ":4772,"Facebook":4773,"ĠFacebook":4774,"Ġvrees":4775,"ĠGre":4776,"Ġlae":4777,"Ġpe":4778,"áĮĪáĬķáĭĺáī¥":4779,"Ġmeter":4780,"Ġverantwoordelik":4781,"Ġdiere":4782,"Ġgehou":4783,"áĪģáĬķáĪĿ":4784,"Ġneg":4785,"ĠElke":4786,"als":4787,"Ġgemeenskap":4788,"Ġrooi":4789,"Ġáĭ«áĭ°áĪŃ":4790,"áĪŀáĬŃáĪ«áĪ²":4791,"ĠáĬłáĭĭ":4792,"ĠáĬłáĪħáĪĺáĭµ":4793,"Ġklaar":4794,"sonder":4795,"Ġgooi":4796,"ĠáīłáĪ¨":4797,"uidige":4798,"Ġkinder":4799,"Ġht":4800,"Ġáīłáīł":4801,"áĮŃáīµ":4802,"Ġáī£áĪį":4803,"bou":4804,"áĭĺáĭŃ":4805,"ama":4806,"oom":4807,"ĠáĮ½áĪĳ":4808,"áĭĽáĭĿ":4809,"ĠáĮĨ":4810,"ĠgeÃ¯n":4811,"hed":4812,"Ġáĭ¨áĪļáĪĪáĭį":4813,"áĪ°áīł":4814,"atur":4815,"Ġveld":4816,"áĭĪáĪĵáīµ":4817,"Ġspy":4818,"chn":4819,"Ġmans":4820,"wet":4821,"Ġverpl":4822,"entr":4823,"Ġervaar":4824,"Ġverbeter":4825,"ĠáĪĺáĭį":4826,"Ġbloot":4827,"Ġhoogte":4828,"mas":4829,"Ġáī°áĪĽáĪªáĭİáī½":4830,"áĭŃáĭŃáīµ":4831,"Ġverlaat":4832,"Ġáĭ¨áĭĭ":4833,"ĠáĬķáĮī":4834,"Ġwill":4835,"ĠáĭŃáĪĦ":4836,"Ġboeke":4837,"mel":4838,"Ġversamel":4839,"ali":4840,"ĠáĬŃáī¥":4841,"ĠGroot":4842,"ĠáīłáĪį":4843,"ĠfinansiÃ«le":4844,"anteer":4845,"Ġáĭ¨áĬ¤":4846,"Ġabs":4847,"Ġgedagte":4848,"Ġbladsy":4849,"ĠáĮįáĭľ":4850,"ĠáĮįáĪį":4851,"ĠáīħáĭµáĪļáĭ«":4852,"Ġryk":4853,"Ġbang":4854,"erings":4855,"32":4856,"áĬĲáī±áĬķ":4857,"Ġpak":4858,"ĠáīģáĮ¥":4859,"áĮłáĬĽ":4860,"ĠAfrikaans":4861,"áĪ°áīµ":4862,"ĠáĪįáĪĽáīµ":4863,"Ġooit":4864,"Ġgegaan":4865,"Ġbreek":4866,"doen":4867,"Ġwaarvan":4868,"Ġrondom":4869,"kies":4870,"tiewe":4871,"áĮīáĪĿ":4872,"Ġtydperk":4873,"Ġherstel":4874,"áĮ¤áĬĵ":4875,"ath":4876,"ĠáĭĪáĬķáĭµ":4877,"áĪĪáĪħ":4878,"áĪİáī½áĬķ":4879,"oedig":4880,"Ġwed":4881,"Ġwenke":4882,"umente":4883,"mente":4884,"Ġverkies":4885,"Ġpriv":4886,"Ġáī°áĮ¨áĪĽáĪª":4887,"ories":4888,"Ġáī°áĪ«":4889,"Ġone":4890,"Ð·":4891,"erse":4892,"áĮ¥áĬķ":4893,"áĮ³":4894,"Ġgeskep":4895,"ikasie":4896,"áĪŃáĭ«áĪĿ":4897,"ĠAf":4898,"ĠáĪĺáī³":4899,"ĠáīłáĭĪ":4900,"ĠáĪĺáĪįáĪµ":4901,"Ġbesonderhede":4902,"áīĭáīĭáĪĿ":4903,"Ġkombuis":4904,"áĪĺáĭĺ":4905,"asa":4906,"Ġtoestel":4907,"Ġouderdom":4908,"Sub":4909,"áĭĴ":4910,"Ġonver":4911,"Ġáĭ¨áĪĺáĪµ":4912,"Ġáĭ¨áĪļáĪ°áĮ¡":4913,"53":4914,"omme":4915,"Ġáī£áĪķ":4916,"enigde":4917,"Ġelk":4918,"Ġenergie":4919,"Ġmakelaar":4920,"Ġsig":4921,"Ġrel":4922,"enes":4923,"Ġwerd":4924,"Th":4925,"Ġdaarna":4926,"Ġkruis":4927,"ĠáĬłáī£áĪĭáīµ":4928,"ĠáĬłáĭµáĪŃáĮİ":4929,"ĠáĮįáĪĿáĮĪáĪĽáĭİáī½":4930,"Ġslag":4931,"áĪĽáĪĽ":4932,"Ġsh":4933,"Ġaanbied":4934,"Ġniemand":4935,"Ġsterf":4936,"ĠáĪĤáĭ°áīµ":4937,"ĠPol":4938,"áĮĪáĪªáī±":4939,"97":4940,"Ġredelik":4941,"Ġverr":4942,"Ġbeplan":4943,"âĢĶ":4944,"Ġáī¥áĪĶáĪ«áĭĬ":4945,"Ġáĭ¨áĮİ":4946,"ĠáĬ£áĪĪ":4947,"Ġhanteer":4948,"ĠKom":4949,"ĠáīłáĭŃ":4950,"lop":4951,"Ġlanger":4952,"Ġmakelaars":4953,"Ġmeng":4954,"Ġáĭ¨áĬĲáīłáĪ¨áĭį":4955,"Ġsoortge":4956,"Ġhuidige":4957,"old":4958,"Ġmat":4959,"perman":4960,"owige":4961,"áĭ³áĪļ":4962,"Ġgedrag":4963,"ĠáīłáĪĽáĭµáĪ¨áĮį":4964,"Ġklere":4965,"ON":4966,"telling":4967,"Ð³":4968,"Ġtrans":4969,"áĪ»áĪĪ":4970,"Ġgevaar":4971,"Ġwaarheid":4972,"ĠKers":4973,"áĭ«áĬĶ":4974,"áĭĺáĮĭáĮħ":4975,"Ġáĭ¨áĬ®":4976,"Twitter":4977,"ighede":4978,"Ġnatuurlike":4979,"áĪ¯áĪį":4980,"ĠáĮ¨áĪĿáĪ®":4981,"odes":4982,"ĠáĮ¥áĪ«áīµ":4983,"Ġmond":4984,"uldig":4985,"ĠáĬłáĬķáīĢ":4986,"Ġáĭ¨áĭĺ":4987,"Ġhoeveelheid":4988,"Ġeuro":4989,"ĠáĭŃáĪģáĬķ":4990,"ET":4991,"áĬĲáīµáĬĵ":4992,"Ġbewys":4993,"Ġvervaardig":4994,"Ġhoek":4995,"áĭ³áĭ³":4996,"vert":4997,"akke":4998,"ĠPers":4999,"Ġgedink":5000,"Pro":5001,"áĬĲáīłáĪŃ":5002,"ĠáĪĿáĬķáĭµ":5003,"Ġbors":5004,"ĠSch":5005,"ĠáĬĲáīłáĪ¨":5006,"Aan":5007,"Ġdokter":5008,"Ġgedr":5009,"áĭŃáĬĳ":5010,"Ġrep":5011,"ĠNederland":5012,"ĠáĭĪáĮ£":5013,"áīĢáĪµ":5014,"Ġenkele":5015,"Ġvermy":5016,"áĬªáĭ«":5017,"Ġrekenaar":5018,"Ġbelegg":5019,"áĬłáĭŃ":5020,"áĮ©":5021,"Ġraad":5022,"Ġpat":5023,"Ġbesit":5024,"ĠáĪĿáĭķáĪ«":5025,"ph":5026,"Ġamper":5027,"ĠáĪĺáĬķáįĪáĪµ":5028,"webwebwebwebwebwebwebwebwebwebwebwebwebwebwebwebwebwebwebwebwebwebwebwebwebwebwebwebwebwebwebwebwebwebwebwebwebwebwebwebwebwebwebwebwebwebwebwebwebwebwebwebwebwebwebwebwebwebwebwebwebwebwebweb":5029,"ĠáĪįáĬŃ":5030,"Ġdata":5031,"Ġskil":5032,"áī£áī³":5033,"Ġlewer":5034,"áīłáī³áĪį":5035,"Ġontdek":5036,"Ġgraf":5037,"áĬ¦áĪ®áĪŀ":5038,"Ġekstra":5039,"Ġmas":5040,"ðŁĳ":5041,"Ġvoet":5042,"áī²áĬŃ":5043,"Ġklip":5044,"ces":5045,"ĠáĪĺáĪĨ":5046,"wyn":5047,"áĬŃáĪŃáĪµáī²áĭ«áĬķ":5048,"Ġelkeen":5049,"iaanse":5050,"Ġvorige":5051,"áĭ³áĮħ":5052,"Ġvoorkoms":5053,"áĪ¨áĮĭáĮį":5054,"áĬłáĭ´":5055,"à¥Ģ":5056,"Ġáĭ¨áī¥":5057,"olf":5058,"agtig":5059,"Ġgesl":5060,"Ġforex":5061,"Ġ)":5062,"Ġgees":5063,"Hy":5064,"ĠBel":5065,"Ð¾Ð¾":5066,"áĮ¥áĬĲáīµ":5067,"ĠáĪĽáĬħ":5068,"Ġident":5069,",âĢĿ":5070,"uier":5071,"Ġbinnek":5072,"ĠnÃ¡":5073,"ĠáĬŃáĪħ":5074,"lie":5075,"ĠáĬłáĪĿáĪĭáĬŃ":5076,"Ġverkeerd":5077,"ja":5078,"Ġáĭ¨áīĨ":5079,"Ġdele":5080,"ĠáĬ¨áĪĿáĭĿ":5081,"Ġsiel":5082,"bly":5083,"Ġáī¥áĭĿ":5084,"áĪ³áĪ°":5085,"lei":5086,"ĠvroeÃ«":5087,"Ġwerklikheid":5088,"áĭ³áĪį":5089,"ĠáĪµáĪľ":5090,"Ġtemp":5091,"ĠSodra":5092,"Ġprent":5093,"áĪĺáĪĪáĪµ":5094,"áĬķáī°":5095,"Ġgeplaas":5096,"áĬķáīħ":5097,"Ġáĭ³áĭŃáĪ¬":5098,"áĪĭáīĢ":5099,"ĠáĬłáĪ°":5100,"59":5101,"ĠáĮĵ":5102,"Ġáĭ¨áĪĻ":5103,"Ġpre":5104,"ĠvermoÃ«":5105,"ĠáĬłáĪµáī°áĭ«áĭ¨áīµ":5106,"Ġdeeg":5107,"Ġdogter":5108,"ĠáĬłáīħáĪŃ":5109,"sem":5110,"ĠáĪ°áī£áīµ":5111,"áįķáĪ®":5112,"áĪĺáĪĪáĬ¨áī°":5113,"ĠVerenigde":5114,"diese":5115,"AR":5116,"áĬĲáįį":5117,"áĬ«áĪª":5118,"mark":5119,"áĮ£áĭŃ":5120,"iefde":5121,"áĭļáĪģ":5122,"gevoer":5123,"Ġspandeer":5124,"Ġdaaroor":5125,"genaam":5126,"nal":5127,"Ġdaaraan":5128,"áĮ«áĭĭ":5129,"Ġáĭ¨áĪĥ":5130,"Ġbasis":5131,"weer":5132,"Ġapp":5133,"ĠáĬłáĪľáĪªáĬ«":5134,"oven":5135,"Ġbeweging":5136,"áĪ´áī¶áī½":5137,"67":5138,"ĠáĬłáĬ«áĪĭáīµ":5139,"áī¶áī¹":5140,"Ġtoelaat":5141,"Ġáĭ¨áįį":5142,"áĮ£áĪį":5143,"ĠáĪµáĪĪáĪļ":5144,"imum":5145,"ĠMin":5146,"áĪ¨áī³áĭĬ":5147,"áĮłáįĭ":5148,"ustr":5149,"ĠáĪĨáĪµáįĴ":5150,"01":5151,"Ġgelukkig":5152,"áĪĭáĪŃ":5153,"rael":5154,"ĠTigray":5155,"ilde":5156,"ple":5157,"ĠáĮ¥áīħ":5158,"Ġteks":5159,"ĠáĬ£áĪİ":5160,"Ġkaart":5161,"ĠbeÃ¯nvloed":5162,"rywers":5163,"ille":5164,"Ġáį¤":5165,"Ġsam":5166,"áīĥáĭİáī½":5167,"Ġgene":5168,"áĭ«áĪĿ":5169,"Ġsleutel":5170,"roon":5171,"ksie":5172,"ĠáĪĿáĪŃáīµ":5173,"wyf":5174,"Ġgebied":5175,"ĠáĭŃáĮĪáī£áĪį":5176,"áĪŃáĬķ":5177,"Ġgemeente":5178,"Ġplaaslike":5179,"ĠáĪĺáĮį":5180,"xt":5181,"Ġstudente":5182,"Ġvooraf":5183,"Ġeiendom":5184,"áĪµáī´":5185,"ĠVoor":5186,"58":5187,"wek":5188,"Ġsteek":5189,"ron":5190,"krag":5191,"áįĸáĪŃ":5192,"áīĭáĪį":5193,"ĠNews":5194,"Ġgewig":5195,"Ġoortuig":5196,"Ġáīłáī°áĪĪáĭ«áĭ©":5197,"ions":5198,"áĬĲáĬķ":5199,"Ġhelder":5200,"ational":5201,"Ġeienskappe":5202,"unst":5203,"áī£áīłáĪŃ":5204,"So":5205,"wes":5206,"atuurlik":5207,"ĠáĪĺáĬ¨áĪĭ":5208,"áĭĺáī°":5209,"Ġáĭ¨áĮĪ":5210,"Ã§":5211,"ĠáĪ°áĬķ":5212,"ĠLaat":5213,"Ġswak":5214,"Ġáĭ°áīĤ":5215,"ĠáīĢáĬĵáīµ":5216,"ĠáįįáĪĭáĮİáīµ":5217,"áĪĽáĪµ":5218,"ĠáĭµáĪį":5219,"áĪĽáĭĬ":5220,"áĪĪáĭ¨":5221,"ler":5222,"Ġvoltooi":5223,"ĠáĪµáĪħ":5224,"Ġblyk":5225,"uman":5226,"aats":5227,"ĠAmerikaanse":5228,"42":5229,"ĠáĬ¨áī£":5230,"========":5231,"stem":5232,"áĬ©áĪĿ":5233,"oute":5234,"Ġstruk":5235,"ibe":5236,"anse":5237,"ĠáĪ¥áĪŃáĭĵáīµ":5238,"Ġmilj":5239,"Ġheer":5240,"ĠáĪ®":5241,"ĠáĬłáĪģáĬķáĪĿ":5242,"Stap":5243,"ĠáĭĿáĪĿ":5244,"áĮĪáĪįáĮįáĪİáīµ":5245,"áī½áĪĭ":5246,"áīłáĪ¬":5247,");":5248,"ĠáĬ¨áĬ£":5249,"ished":5250,"ĠáĮĪáĬĵ":5251,"elle":5252,"volg":5253,"Ġresep":5254,"scr":5255,"tor":5256,"à¯į":5257,"Ġkoning":5258,"ram":5259,"ven":5260,"áĬĽáĪį":5261,"ical":5262,"ĠáĬłáĭ°áĮĭ":5263,"áĮłáĭ¨":5264,"Ġáī«":5265,"Ġtoegang":5266,"line":5267,"ĠáĪĿáĪŃáĮ¥":5268,"áī³áīµáĬķ":5269,"ĠáĪķáĮį":5270,"áī³áĭ°":5271,"ĠáĪĺáĮ»":5272,"áĬ¦áĪĿ":5273,"Ġtye":5274,"Ġaangebied":5275,"90":5276,"Ġ:":5277,"fees":5278,"áĪŃáī£":5279,"jaar":5280,"ĠáīłáĪĽáĪµ":5281,"áĬ¨áįĭ":5282,"own":5283,"ĠáĪĿáĪŃáī¶áī½":5284,"ĠáīĢáĪĭáĪį":5285,"teenwoordig":5286,"atiese":5287,"ĠáĪĺáįį":5288,"Ġbron":5289,"ĠáīĢáĮ¥":5290,"ance":5291,"Ġja":5292,"ĠáĮ³":5293,"Ġsa":5294,"áĬ©áīµ":5295,"gesk":5296,"áįĪáĪįáĮĭ":5297,"ĠDeur":5298,"áīĨáĪĿ":5299,"Le":5300,"Ġvat":5301,"ĠAbr":5302,"ĠáĪµáĪĭ":5303,"dra":5304,"áĮįáīł":5305,"ĠáĬłáįįáĪªáĬ«":5306,"áī£áĪª":5307,"iede":5308,"Ġáī¢áĪĨáĬķáĪĿ":5309,"deer":5310,"áī³áĭİáī½":5311,"ĠEr":5312,"ics":5313,"Ġdrink":5314,"Ġáīłáīħ":5315,"ĠáĪļáĭ²áĭ«":5316,"Ġgetr":5317,"vi":5318,"Ġgesprek":5319,"ĠáĪī":5320,"áĭĭáĬĵ":5321,"kunde":5322,"ĠIndien":5323,"Ġwerklike":5324,"57":5325,"AT":5326,"Ġmiskien":5327,"Ġgeweet":5328,"ĠáĪĺáĪĭ":5329,"Ġbyna":5330,"Ġgunstel":5331,"oemde":5332,"ĠSc":5333,"54":5334,"Ġgou":5335,"ĠáĪĽáĭķáĬ¨áĪį":5336,"ĠkliÃ«nte":5337,"ount":5338,"ther":5339,"ĠáīłáĭĵáĪį":5340,"lus":5341,"ugu":5342,"ĠáīĢáĭ°áĪĿ":5343,"Waar":5344,"Ġops":5345,"áĭĪáĪĥ":5346,"Ġonderske":5347,"ĠáĪŃáĭķ":5348,"áĪĭáĬķáĭµ":5349,"Ġáĭ¨áī¤áī°":5350,"áīłáĪĺ":5351,"Ġeens":5352,"áīµáĪį":5353,"ĠáĪ°áĬĲ":5354,"áĭ°áĮĪ":5355,"ĠáĮĪáī¥":5356,"Ġgodsdien":5357,"ism":5358,"ĠáīłáĮİ":5359,"ĠreÃ«ls":5360,"ĠáĪĺáĭĭ":5361,"uts":5362,"ĠáĮīáī£áĬ¤":5363,"Ġalbei":5364,"Ġáĭ°áĪħáĬķ":5365,"ĠWant":5366,"Ġáĭ¨áĪĿáĪŃ":5367,"Ġbegeer":5368,"andag":5369,"tog":5370,"skool":5371,"Ġnader":5372,"Ġbedien":5373,"Ġbewus":5374,"komste":5375,"Ġgeskenk":5376,"Ġsty":5377,"hoek":5378,"Ġsterre":5379,"November":5380,"âĢ¢":5381,"ĠáĮ¥áĬķ":5382,"ĠáĪ°áĪŃ":5383,"Ġliteratuur":5384,"anje":5385,"áįĶ":5386,"uan":5387,"áĮ®áī½":5388,"ĠáĪĨáĬĲáĭį":5389,"engte":5390,"Ġboodskap":5391,"agged":5392,"ĠUniversity":5393,"bew":5394,"ĠSelfs":5395,"ĠáĪĺáĪįáĬ©":5396,"Ġvertrou":5397,"ĠáĪĬáĪĨáĬķ":5398,"Ġáĭ¨áīĢáĪ¨":5399,"styl":5400,"ents":5401,"áĭ¢":5402,"Ġáī¥áĪį":5403,"Ġklim":5404,"Ġlied":5405,"ked":5406,"áĪĺáĬĵ":5407,"Ġwaarmee":5408,"stelsel":5409,"ih":5410,"ĠáĭĪáĮ¥":5411,"werpe":5412,"Ġverkry":5413,"×Ļ×":5414,"ĠáĭŃáĮĪáĬĽáĪį":5415,"Ġáįħ":5416,"áĭİáĪĿ":5417,"ities":5418,"áĭĭáīµ":5419,"Ġáīħáĭ±":5420,"ĠIsrael":5421,"ĠRep":5422,"Ġder":5423,"leer":5424,"ĠáīµáĬŃáĬŃáĪĪáĬĽ":5425,"ĠKaap":5426,"áĪ³áĪµ":5427,"Ġartikels":5428,"áīĢáĬķ":5429,"ritre":5430,"ĠáĮĥ":5431,"Ġfilm":5432,"à·":5433,"Ġkleure":5434,"Ġpersent":5435,"ĠáĪĺáĬķáĮįáĪ¥":5436,"best":5437,"Ġáĭ¨áĬ¥áĮįáĭļáĬłáī¥áĪĶáĪŃ":5438,"áĪ«áĪī":5439,"ĠKyk":5440,"Ġsosiale":5441,"roep":5442,"ĠáĪĽáĪŃáĭ«áĪĿ":5443,"Ġáĭ´":5444,"Ġberg":5445,"ðŁĳī":5446,"Ġap":5447,"Maak":5448,"Ġmede":5449,"âĿ":5450,"Ġsag":5451,"adio":5452,"ĠáĬ¥áĭįáĬĲ":5453,"Ġbedek":5454,"atan":5455,"span":5456,"áĭĿáĭ³áĬķáīµ":5457,"ople":5458,"EL":5459,"Ġáī°áīĭáĪĽáīµ":5460,"áĮłáĬĵáīĢ":5461,"bak":5462,"áĭķáĪĬ":5463,"áĭĭáī¸áĭįáĬķ":5464,"Ġkorrek":5465,"ĠáĪ°áĪĽ":5466,"áĬŀáī½áĬķ":5467,"à°":5468,"áĭľáĬĵ":5469,"áĭ°áĪ¨áĪ°":5470,"Ġbank":5471,"IS":5472,"Ġinternet":5473,"har":5474,"Ġkamp":5475,"ners":5476,"Ġversier":5477,"Ġredes":5478,"Ġhaal":5479,"áī¦áī½áĬķ":5480,"uleer":5481,"Ġstop":5482,"oepe":5483,"ĠáīłáĮįáĪį":5484,"Ġite":5485,"rae":5486,"Ġsiekte":5487,"urk":5488,"ĠáĬ¢áĭ¨áĪ±áĪµ":5489,"áĭĪáĮ¥":5490,"à±":5491,"Ġspaar":5492,"ĠáĬłáĪįáĮĭ":5493,"ape":5494,"ĠLu":5495,"ĠCr":5496,"Ġsmaak":5497,"áĪĺáĭĿ":5498,"áĪĪáĭįáĪĿ":5499,"iele":5500,"ĠJa":5501,"áĬķáĬ«áĪ«":5502,"aris":5503,"wag":5504,"Ġáĭ¨áĭ©":5505,"Ġlyn":5506,"orn":5507,"ated":5508,"waar":5509,"Ġáĭ¨áī°áĭĪáĪ°":5510,"merke":5511,"ĠáĬ¥áĬķáĭ°áĪļáĭ«":5512,"Ġkonse":5513,"ĠáĪĿáĭĥ":5514,"ĠáĪ²áĪī":5515,"ĠáĪļáĬĴáĪµáīµáĪŃ":5516,"áĪ°áĪ©":5517,"áīģáīµ":5518,"áīĢáĭĿ":5519,"Ġkontrak":5520,"Voor":5521,"áĮłáīłáīĢ":5522,"Ġáīłáī¥":5523,"tiese":5524,"ĠáĬĲáĮ»":5525,"Ġgedurende":5526,"áĬĴáĭ«":5527,"www":5528,"áĭ°áĪŃáĪµ":5529,"Ġboon":5530,"áĪŃáī¶áĭ¶":5531,"Ġbekende":5532,"áĬ¥áĬķáĭ°":5533,"ĠáĬłáĪįáī°":5534,"Ad":5535,"ior":5536,"ĠáĬ¬":5537,"iddels":5538,"ĠáĬ¥áĪŃáĪĿáĮĥ":5539,"Ġuitste":5540,"Ġbykom":5541,"Ġgeestelike":5542,"ĠáĮįáĪĪ":5543,"ÑĤ":5544,"áīĨáĮ£áĮłáĪŃ":5545,"Ġgestel":5546,"ĠTerwyl":5547,"Ġfout":5548,"áĬ¬áīµ":5549,"áĪĪáĭĭ":5550,"áī½áĪįáĪĿ":5551,"Ġkalender":5552,"ĠáĪºáĪħ":5553,"Ġneer":5554,"Ġafstand":5555,"áįķáĪ¬":5556,"áĪĪáįį":5557,"áĭ«áĭĻ":5558,"Ġontwikkeling":5559,"werwe":5560,"áĬķáĮįáĪ¥áīµ":5561,"ĠAlhoewel":5562,"iskien":5563,"Ġaksie":5564,"Ġáī°áĪĺáĪį":5565,"áī¡áĬĲ":5566,"meer":5567,"Baie":5568,"áĭįáĪµ":5569,"áī¥áĭĽ":5570,"owe":5571,"ĠGen":5572,"Ph":5573,"Ġmoderne":5574,"ĠÄ":5575,"ĠáīµáĬ©áĪ¨áīµ":5576,"áīłáĪĭ":5577,"ommentaar":5578,"Ġvoordeel":5579,"áīłáĪĪ":5580,"Ġadv":5581,"áĪµáī°áĬ«":5582,"Ġkomp":5583,"asting":5584,"Ġasem":5585,"ĠáĪµáĭ°":5586,"kle":5587,"Ġerf":5588,"ĠHa":5589,"áĬķáīĢáĪ³":5590,"ĠáĪĪáĭįáĮ¥":5591,"Ġharde":5592,"áĭĪáĪĪ":5593,"áĬķáī²":5594,"ĠJohannes":5595,"ED":5596,"Ġasook":5597,"ĠáĬłáĭ³áĭ²áĪµ":5598,"ĠáįĮ":5599,"Ġskoonmaak":5600,"praat":5601,"áĭ°áī¥":5602,"Ġoff":5603,"áĪĿáĪ¨":5604,"Ġprofessionele":5605,"áĬłáĬķáĭµ":5606,"ĠPaul":5607,"Ġáī£áĪĪáĭį":5608,"áĪ¨áĮĭáĮĪáĮ¥":5609,"Ġgunsteling":5610,"Ġderde":5611,"benewens":5612,"jien":5613,"Ġáī¡áĭµ":5614,"à¹":5615,"Ġstrategie":5616,"áīģáĪŃ":5617,"áĪĲáĬķáĪµ":5618,"Ġvoete":5619,"Ã¨":5620,"ontwerp":5621,"áĪĮáīµ":5622,"ĠáĭĪáĪ¨áĭ³":5623,"ika":5624,"mod":5625,"mar":5626,"Ġhor":5627,"áĭ·":5628,"ating":5629,"ĠáĬ¨áĬĲ":5630,"áĪĭáī½áĬķ":5631,"ĠOpperman":5632,"Ġvakansie":5633,"ĠáĭŃáī»":5634,"ĠáĬĲáīłáĪ©":5635,"ester":5636,"ĠáīĢáĪŃ":5637,"ĠáĭĪáĬķáĮĢáĪį":5638,"Ġses":5639,"ĠáĪĥáĮĪáĪ«áīµ":5640,"ĠáĪĺáĪįáĬŃ":5641,"Ġkap":5642,"ĠHet":5643,"ional":5644,"ĠáĭŃáĪįáīħ":5645,"áĪ³áĪ½":5646,"Be":5647,"Ġáį¡":5648,"Ġligte":5649,"illa":5650,"Ġspr":5651,"Ġhare":5652,"sper":5653,"ĠSte":5654,"áīħáĪŃáī¥":5655,"ollege":5656,"Ġname":5657,"Ġáĭ¨áĪļáĪ°áĮ¡áĭĭáī¸áĭįáĬķ":5658,"Ġuitvoer":5659,"Ġgebed":5660,"ĠAnd":5661,"Ġáĭ¨áĭĵáĪĪáĪĿ":5662,"akters":5663,"ĠáĪĺáĪįáĬ«áĪĿ":5664,"ĠáĪµáĪįáĮ£áĬķ":5665,"ĠáīłáĬŃ":5666,"ĠáįįáīħáĪŃ":5667,"ĠáĬ«áĪĪ":5668,"laai":5669,".+":5670,"Ð°Ð°Ð°Ð°Ð°Ð°Ð°Ð°Ð°Ð°Ð°Ð°Ð°Ð°Ð°Ð°Ð°Ð°Ð°Ð°Ð°Ð°Ð°Ð°Ð°Ð°Ð°Ð°Ð°Ð°Ð°Ð°Ð°Ð°Ð°Ð°Ð°Ð°Ð°Ð°Ð°Ð°Ð°Ð°Ð°Ð°Ð°Ð°Ð°Ð°Ð°Ð°Ð°Ð°Ð°Ð°Ð°Ð°Ð°Ð°Ð°Ð°Ð°Ð°Ð°Ð°Ð°Ð°Ð°Ð°Ð°Ð°Ð°Ð°Ð°Ð°Ð°Ð°Ð°Ð°Ð°Ð°Ð°Ð°Ð°Ð°Ð°Ð°Ð°Ð°Ð°Ð°Ð°Ð°Ð°Ð°Ð°Ð°Ð°Ð°Ð°Ð°Ð°Ð°Ð°Ð°Ð°Ð°Ð°Ð°Ð°Ð°Ð°Ð°Ð°Ð°Ð°Ð°Ð°Ð°Ð°Ð°Ð°Ð°Ð°Ð°Ð°Ð°Ð°Ð°Ð°Ð°Ð°Ð°Ð°Ð°Ð°Ð°Ð°Ð°Ð°Ð°Ð°Ð°Ð°Ð°Ð°Ð°Ð°Ð°Ð°Ð°Ð°Ð°Ð°Ð°Ð°Ð°Ð°Ð°Ð°Ð°Ð°Ð°Ð°Ð°Ð°Ð°Ð°Ð°Ð°Ð°Ð°Ð°Ð°Ð°Ð°Ð°Ð°Ð°Ð°Ð°Ð°Ð°Ð°Ð°Ð°Ð°Ð°Ð°Ð°Ð°Ð°Ð°Ð°Ð°Ð°Ð°Ð°Ð°Ð°Ð°Ð°Ð°Ð°Ð°Ð°Ð°Ð°Ð°Ð°Ð°Ð°Ð°Ð°Ð°Ð°Ð°Ð°Ð°Ð°Ð°Ð°Ð°Ð°Ð°Ð°Ð°Ð°Ð°Ð°Ð°Ð°Ð°Ð°Ð°Ð°Ð°Ð°Ð°Ð°Ð°Ð°Ð°Ð°Ð°Ð°Ð°Ð°Ð°Ð°Ð°Ð°Ð°Ð°Ð°":5671,"https":5672,"Ġstadig":5673,"diet":5674,"De":5675,"Ġtheir":5676,"inks":5677,"Ġoplossing":5678,"lin":5679,"500":5680,"med":5681,"Ġmen":5682,"Ġonderhoud":5683,"Ġkoek":5684,"ĠáĪĿáĮįáī¥":5685,"áĮłáīĢáĪĻ":5686,"Ġpunte":5687,"liks":5688,"ĠáĬ®áĪĮ":5689,"rede":5690,"Ġoord":5691,"Ġskou":5692,"ĠáįķáĪ®áĮĢ":5693,"ĠáĪĿáĭµ":5694,"Post":5695,"scribe":5696,"âĿĸ":5697,"áĭĭáīĤ":5698,"áī¢áīµ":5699,"aties":5700,"werking":5701,"ĠáĮĪáĪįáĮ¸":5702,"ĠáĬ¦áĪ®áĪŀ":5703,"áĬ¨áįĪ":5704,"ĠáīłáĪĺáī¶":5705,"gooi":5706,"Ġgeneig":5707,"erende":5708,"ĠáĮĬ":5709,"Ġverkl":5710,"ĠByvoorbeeld":5711,"ĠáĭĿáĪŃáĭĿáĪŃ":5712,"ble":5713,"ĠáĪĨáĭŃ":5714,"alings":5715,"enster":5716,"áĭĿáĪĿ":5717,"ĠáĪĿáĪħ":5718,"alte":5719,"inese":5720,"áĭīáĬķ":5721,"Ġáĭ¨áįĢ":5722,"Ġstre":5723,"iy":5724,"bep":5725,"Ġáĭ¨áĪĨáĬĲáĭį":5726,"áĪĽáī¸áĭį":5727,"Ġafgel":5728,"áĪµáī±":5729,"áĬĲáī¶áī½":5730,"áĪĭáĪĽáĭĬ":5731,"ĠáīµáĭįáĪįáĭµ":5732,"adig":5733,"Ġvoordele":5734,"Ġanal":5735,"ĠWord":5736,"Ġdissipels":5737,"ĠEritre":5738,"ĠáĭĪáĭĺáī°":5739,"ĠáĬĲáĬĿ":5740,"ĠáĬĵáīµ":5741,"inders":5742,"áĮ¸áĪİáīµ":5743,"Ġwyse":5744,"2007":5745,"ĠáĪĺáĬķáĮįáĪµáī²":5746,"gesp":5747,"Ġgestuur":5748,"erp":5749,"Ġvlug":5750,"ĠáĬ¥áĪ«":5751,"Ġáįįáīµ":5752,"áĪķáĪª":5753,"ĠDes":5754,"Ġherinn":5755,"tings":5756,"Ġkons":5757,"Ġáĭ¨áĪļáĮĪáĬĻ":5758,"Ġontstaan":5759,"ery":5760,"áĬĵáĮĪáĪŃ":5761,"ĠáĪĽáĬ¥":5762,"ĠPh":5763,"ĠáĭįáĪĥ":5764,"ĠAfr":5765,"Ġverteenwoordig":5766,"Ġtoestand":5767,"ĠáĭŃáī»áĪĭáĪį":5768,"aarte":5769,"Se":5770,"brand":5771,"ĠRom":5772,"ums":5773,"Ġvroeg":5774,"ĠáĭĭáĬķáĮ«":5775,"hangende":5776,"Ġáĭ¨áī°áīĢ":5777,"áĮ¦áĪŃ":5778,"Ġpost":5779,"gemaakte":5780,"eling":5781,"led":5782,"ĠPort":5783,"Ġhistor":5784,"ĠáīłáĪĥ":5785,"Ġwissel":5786,"baarheid":5787,"áĬŃáī¥":5788,"áĮīáĭ³":5789,"Ġgemaklik":5790,"rale":5791,"Ġkult":5792,"oordat":5793,"SS":5794,"dert":5795,"áĮ¥áĪ¨áīµ":5796,"ĠáĬŃáįįáĪİáī½":5797,"áĬłáĪģáĬķ":5798,"Ġmeisie":5799,"oers":5800,"orld":5801,"Van":5802,"Ġinsp":5803,"áĪµáĪį":5804,"áĭĪáĮ¡":5805,"ĠItal":5806,"ĠBes":5807,"áĮ¥áĪĿ":5808,"ka":5809,"Ġplant":5810,"ĠáĪĽáĮįáĬĺáīµ":5811,"âĺ":5812,"ĠáĮĤ":5813,"oss":5814,"Ġligging":5815,"water":5816,"Ġaantrek":5817,"áįĪáĪįáĮĭáĪį":5818,"ĠáĪĨáĪµáįĴáī³áĪį":5819,"Ġwerke":5820,"Ġparty":5821,"igh":5822,"Ġáīłáĭµ":5823,"áĬ¨áī³áī°":5824,"ĠáĭĪáĮĪáĬķ":5825,"Ġáĭ¨áīµáĪĿáĪħáĪŃáīµ":5826,"Ġgely":5827,"Ġáĭ¨áĭįáĮŃ":5828,"tell":5829,"ĠáĭŃáĪ°áĮ£":5830,"Ġarm":5831,"Ġduis":5832,"ona":5833,"ĠEg":5834,"Ġbywoord":5835,"Ġwakker":5836,"ĠáĪĺáĪįáĬ¥":5837,"ĠáĪĿáĪĭáĪ½":5838,"ĠáĬłáĭµáĪ«":5839,"ĠLat":5840,"usting":5841,"ĠNuwe":5842,"Ġwetenskap":5843,"arn":5844,"áĬªáĬĵ":5845,"ĠáĮĪáĪĪ":5846,"Ġwerkwoord":5847,"áĮĪáĪĿ":5848,"Ġoper":5849,"Ġáĭ¨áĭµáĪŃ":5850,"reeks":5851,"punte":5852,"Prent":5853,"Ġgelede":5854,"áĪ³áī¸áĭįáĬķ":5855,"áĪĭáĪĭ":5856,"Ġsport":5857,"áĭ¨áĭ²áĪĭ":5858,"por":5859,"Ġversoek":5860,"arty":5861,"Ġhandelaar":5862,"Ġunivers":5863,"ĠáĪģáĪīáĬķáĪĿ":5864,"Ġbrief":5865,"ĠáĪĨáī´":5866,"lÃª":5867,"gende":5868,"ology":5869,"Ð²":5870,"ĠáĪĪáĪĽáĮįáĬĺáīµ":5871,"Ġáī¤áī±":5872,"Ġáĭ¨áĪļáĮĪáī£":5873,"Ġvergelyk":5874,"Ġáīµáĭķ":5875,"ork":5876,"het":5877,"Ġáī°áĮłáīĥáĪļ":5878,"áĪŀáīµ":5879,"áī²áīµ":5880,"áĬŃáĪ®":5881,"ĠáĬłáĮį":5882,"ĠGebruik":5883,"Ġthey":5884,"áĪĻáīµ":5885,"ĠáĭķáĪĪáīµ":5886,"áĪ«áĪ½":5887,"áįįáĪª":5888,"Ġlet":5889,"áĬ¨áĪ¨áĪĿ":5890,"brek":5891,"struksie":5892,"ggend":5893,"Ġhitte":5894,"áĭ³áĪĿ":5895,"Ġpositiewe":5896,"Ġáĭ¨áĬķáĮįáĭµ":5897,"ĠáĭŀáĬķ":5898,"ĠáĪĪáĪĽáĪ³":5899,"Ġáĭ¨áīħ":5900,"Ġáī£áĬķáĬŃ":5901,"áĬŀáī¹":5902,"áĭĿáĬĵ":5903,"150":5904,"Ġgebring":5905,"Ġkommun":5906,"Ġdaarvoor":5907,"doende":5908,"proses":5909,"ĠáįĢáĪ¨":5910,"áĭĵáĪį":5911,"Ġáī°áĮ«áĭĭ":5912,"Ġvleis":5913,"ĠáĪľáīµáĪŃ":5914,"Ġregter":5915,"Ġfakt":5916,"ske":5917,"ageer":5918,"ĠáĬĲáĬķ":5919,"Ġáī¢áĪ®":5920,"Ġtafel":5921,"ĠáĪ¦áĪµáīµ":5922,"Ġaanbeveel":5923,"áī¶áī»áī½áĬķ":5924,"Ġcan":5925,"ĠáĬŃáįįáĪĪ":5926,"ĠáĮ¥áīłáīĥ":5927,"ĠáĬ¨áĪ°":5928,"áĭķáī£":5929,"ĠáĭĵáĭŃ":5930,"PL":5931,"ĠáĭŃáĬĸ":5932,"Ġuitdag":5933,"áĬķáĭ°áĪŃ":5934,"ĠHeilige":5935,"ĠáĪĺáĪ³áĪªáĭ«":5936,"passing":5937,"Ġáĭ¶áĪĭáĪŃ":5938,"rab":5939,"Ġmedia":5940,"site":5941,"ĠáĭŃáĭŀ":5942,"ĠáįĪáīĥáĭµ":5943,"Ġáĭ³áĪŃ":5944,"ĠáĬłáĭ¨áĪŃ":5945,"rog":5946,"Ġfiets":5947,"sw":5948,"ĠáĬłáĪĺáīµ":5949,"Ġmerk":5950,"áī£áĬŃ":5951,"áĪĮáĬŃáīµáĪªáĬŃ":5952,"ĠIndones":5953,"ĠáĪĽáĪħáīłáĪ¨áĪ°áī¥":5954,"ĠáīłáĬłáĭ²áĪµ":5955,"Ġáĭ°áī¥":5956,"Ġáīłáī°áĪĪáĭŃáĪĿ":5957,"áĪ³áīģ":5958,"ereg":5959,"âľ":5960,"ĠáĪĽáĪķ":5961,"ĠáĪĺáĮ½":5962,"ĠáįĸáĪĬáĪ²":5963,"kont":5964,"oetel":5965,"uite":5966,"Ġseer":5967,"áĮįáĪŃáĬĽ":5968,"Ġáīłáī£":5969,"áĪĪáĬĿ":5970,"notice":5971,"Ġkategor":5972,"aseer":5973,"Ġbehoor":5974,"name":5975,"ĠáĪŃáĬ¥":5976,"ivier":5977,"áĪįáĪµ":5978,"áį³":5979,"áī°áĭĭ":5980,"ull":5981,"Ġáĭ¨áĪļáīĨ":5982,"aff":5983,"ĠáįķáĪ®áĮįáĪ«áĪĿ":5984,"ĠáĬłáĭ¨":5985,"áī¥áĪ¨áī°áĪ°áī¥":5986,"áĪįáīģ":5987,"!!!":5988,"áĬ¨áī°áĪĽ":5989,"Ġplatform":5990,"áĪŃáĪ»":5991,"Ġáī³áĪª":5992,"Ġgroen":5993,"ĠOu":5994,"áĪĦáĪŃ":5995,"ĠáĭŃáī³":5996,"áīĢáĭµ":5997,"ĠáĪĺáĪ¥":5998,"áĭ¨áĬ¢áīµáĭ®áĮµáĭ«":5999,"áĮ¨áīµ":6000,"ĠSw":6001,"Ġskie":6002,"âĢ¦âĢ¦":6003,"ĠáĪµáĪħáī°áīµ":6004,"ĠReg":6005,"oeder":6006,"áĬĹáĪį":6007,"ĠáĮ¥áĭ«áīĦáĭİáī½":6008,"áī¥áĪŃáĬĵ":6009,"itaal":6010,"Ġreal":6011,"afhank":6012,"Ġáĭ¨áĮįáĪį":6013,"Ġet":6014,"áĪĭáĪ´":6015,"Ð°ÑĢ":6016,"áĪªáīµ":6017,"Ġidees":6018,"áĭ°áįį":6019,"act":6020,"terf":6021,"áĭ±áĬķ":6022,"pad":6023,"interest":6024,"Ġáĭ°áĪŃ":6025,"Ġmenslike":6026,"Ġtemper":6027,"áĬĵáī¸áĭįáĬķ":6028,"ĠáĭĵáĪĿ":6029,"ĠáĪ°áĮ¥":6030,"ĠáĮīáĭŀ":6031,"Ġgesels":6032,"Ġgeluk":6033,"ĠáĭĪáĪį":6034,"Ġáĭ¨áĬ¦":6035,"áĭĽáī¤":6036,"elp":6037,"Ġvars":6038,"ĠáĪ³áĭŃáĬķáĪµ":6039,"tenis":6040,"ĠáĭįáĭŃáĭŃáīµ":6041,"win":6042,"ĠáĬ³":6043,"áĮīáĪį":6044,"Ġáī¶":6045,"wa":6046,"ĠáĬĲáįį":6047,"Ġáī°áĮĭ":6048,"ĠáĪ°áįĬ":6049,"áĭ²áīµ":6050,"ubliseer":6051,"bot":6052,"áĪĬáīµ":6053,"arte":6054,"Ġabout":6055,"esta":6056,"áĮĭáĭŃ":6057,"ĠáĬłáĪ¨":6058,"Ġversorg":6059,"áī¤áī±":6060,"áĬĽáĭįáĬķ":6061,"áĪĺáĮ¥":6062,"áĭįáĪŀ":6063,"Ġáĭ°áĪĿ":6064,"ĠUit":6065,"erg":6066,"áĬ¨áĪ¨":6067,"Ġbrood":6068,"ĠGregor":6069,"esearch":6070,"Ġgener":6071,"Ġfeite":6072,"Ġvoorspel":6073,"áĮ¥áĪ¨":6074,"áĮ§":6075,"56":6076,"ĠáĭĿáĪĵ":6077,"Ġvader":6078,"lose":6079,"áĮĪáĬĵáĬĽ":6080,"ĠáĪµáĭµ":6081,"ĠáĭŃáĪĭáĪį":6082,"Ġà¤":6083,"amers":6084,"ty":6085,"tigheid":6086,"ence":6087,"wyfel":6088,"ĠáĬķáī¥áĪ¨áīµ":6089,"ĠáĪĺáī¶":6090,"áĪ¨áĭ³áīµ":6091,"Ġonmiddel":6092,"Ġoggend":6093,"ĠáįķáĪ¬áĭļ":6094,"Ġáĭĺáĭ´":6095,"ĠáĭµáĪ¨":6096,"usse":6097,"option":6098,"Ġdro":6099,"inger":6100,"Ġfond":6101,"áĪĺáĮ¡":6102,"Ġinstr":6103,"Ġbelangstel":6104,"Ġuse":6105,"Ġslim":6106,"Ġáī°áĭ°áĪŃ":6107,"áī¾":6108,"Ġslaan":6109,"Ġgebruikers":6110,"áĪģáįį":6111,"áĭįáĪ®áįĵ":6112,"gestelde":6113,"Ġáī°áĪĺáĪ³áĪ³áĭŃ":6114,"Ġáĭ¨áĪļáįĪ":6115,"itco":6116,"áĮ£áĪļ":6117,"áįĪáĬķ":6118,"áĬ½áĬ¥áĪį":6119,"ĠÃ³":6120,"ĠáĪĽáĪ¸áĮĬáĭ«":6121,"Ġbuit":6122,"osp":6123,"áĭ³áī³":6124,"Ġooreen":6125,"alleer":6126,"Ġáĭ¨áĭļáĪħ":6127,"ta":6128,"Ġtree":6129,"Ġimm":6130,"Ġdaarmee":6131,"Ġáīłáī°áĪĺáĪĪáĬ¨áī°":6132,"Ġáĭķáĭį":6133,"ĠáĪĽáĭį":6134,"ĠáĪĿáĬ¥":6135,"áīłáĭļáĪħ":6136,"Ġáīłáī³áī½":6137,"ĠáĮ¥áĪª":6138,"Ġbeelde":6139,"atal":6140,"Ġins":6141,"áī¥áī¡":6142,"anklik":6143,"umb":6144,"áĪµáī°áĪŃ":6145,"Ġáī£áĬķ":6146,"Ġáī£áĪħáĪį":6147,"Ġáĭ³áĬķ":6148,"ĠáĭŃáī³áĭĪ":6149,"tels":6150,"ĠáĮĪáīłáĭ«":6151,"astiek":6152,"ĠáĪĺáĪ¬áīµ":6153,"ĠáĪłáĪ«":6154,"eh":6155,"ĠáĬ¥áĬķáĭ°áĮĪáĬĵ":6156,"áĪµáĪĬ":6157,"áĪĿáĪĭ":6158,"God":6159,"ĠáĮīáĭ³áīµ":6160,"Ġbereid":6161,"Ġkoper":6162,"Ġfis":6163,"áĪ¬áĬķ":6164,"ĠYou":6165,"band":6166,"Ġbyd":6167,"ĠGu":6168,"Ġdier":6169,"Ġversprei":6170,"áĬĸáĪĿ":6171,"ĠCon":6172,"Ġbedryf":6173,"Ġgekies":6174,"onie":6175,"Ġamp":6176,"vangel":6177,"oning":6178,"Ġgelowige":6179,"standighede":6180,"áīĢáĪŃáī¥":6181,"áĭ°áĪ¨áĮĥ":6182,"oogle":6183,"Ġdrome":6184,"Ġgewerk":6185,"Ġglas":6186,"ĠThis":6187,"ĠCl":6188,"ÑħÑħÑħÑħÑħÑħÑħÑħÑħÑħÑħÑħÑħÑħÑħÑħ":6189,"Ġseis":6190,"áĬĲáĪ£":6191,"Ġáī°áĬķ":6192,"Ġwoonstel":6193,"Ġbesprek":6194,"Ġkoue":6195,"ĠáĪĪáĪĺáīĢ":6196,"áĬĴáīµ":6197,"ĠáĬĳ":6198,"Ġkwaliteit":6199,"Ġskrywers":6200,"Ġhalf":6201,"urr":6202,"ĠáĪĺáĪµáĪĺáĪŃ":6203,"Ġerken":6204,"order":6205,"áīłáĬŀáī½":6206,"áįĪáĪįáĮį":6207,"Ethiop":6208,"Ġtradis":6209,"áį¢âĢĿ":6210,"versk":6211,"ĠáĮłáĬķáĬ«áĪ«":6212,"elder":6213,"Ġonlang":6214,"Ñĭ":6215,"Ġgesondheid":6216,"Ġkarakters":6217,"vis":6218,"áī³áī½":6219,"ĠTyd":6220,"Ġz":6221,"áĬº":6222,"ugde":6223,"ĠáĪĺáĪ£":6224,"Ġwho":6225,"aaier":6226,"AM":6227,"Ġregs":6228,"Subscribe":6229,"aham":6230,"oster":6231,"Ġáĭ«áĭį":6232,"Ġpotens":6233,"ĠNo":6234,"ska":6235,"áįĭáĬķ":6236,"Ġpeople":6237,"toe":6238,"Ġtitel":6239,"nie":6240,"ĠvoÃ«l":6241,"ĠTwitter":6242,"áĪ´áīµ":6243,"Ġnuut":6244,"ĠáīłáĭĵáĪĪáĪĿ":6245,"áĪ²áĬĸ":6246,"áĭ±áīµ":6247,"Ġkleiner":6248,"ĠáĬłáĮłáīĥáĪĭáĭŃ":6249,"Ġwinter":6250,"Ġef":6251,"áĪľáĪį":6252,"Ġáĭ¨áĬķ":6253,"ser":6254,"uip":6255,"Ġáī½áĪİ":6256,"Ġhonde":6257,"áĭ³áĭ³áĪª":6258,"Ġvenster":6259,"Ġtydskrif":6260,"áĬłáĭ´áĮį":6261,"ĠMeer":6262,"ĠOnder":6263,"sieke":6264,"áįįáĪį":6265,"Ġbene":6266,"ĠTV":6267,"ock":6268,"Ġdw":6269,"atte":6270,"áĮĢáĪĺáĪ¨":6271,"ĠáĬ®áĪĮáĮħ":6272,"ĠáĬłáīħáĪĿ":6273,"Ġakk":6274,"Ġmeest":6275,"Soos":6276,"ĠáĪĺáĪ«":6277,"áĬ¸áĭįáĬķ":6278,"Î»":6279,"Ġáī°áĬ¨áī³":6280,"ĠáĭµáĪŃáĮħáī¶áī½":6281,"áĪĬáĬŃ":6282,"áĬĸáĪ¨áĭį":6283,"Ter":6284,"Ġgepraat":6285,"Ġkunst":6286,"Ġoefen":6287,"Ġleser":6288,"Ġaspek":6289,"ĠáĮ¥áĬĵáīµ":6290,"ĠRuss":6291,"Ġbor":6292,"áĮĪáĭ³":6293,"Ġtroetel":6294,"ĠÃ":6295,"Blog":6296,"veld":6297,"ĠIntern":6298,"Ġvoorbeelde":6299,"Ġhttps":6300,"itter":6301,"Ne":6302,"ĠáĪĺáĪĺáĪªáĭ«":6303,"Ġbekommerd":6304,"Ġbedrag":6305,"hats":6306,"ĠáĮłáīħáĪĭáĭŃ":6307,"áĪĬáĭ«":6308,"Ġstories":6309,"Ġhardloop":6310,"Ġkern":6311,"Ġverval":6312,"áĭ©áĬķ":6313,"áĬŃáĬŃáĪį":6314,"Ġoopmaak":6315,"Ġskoot":6316,"Ġgebaseer":6317,"Ġáĭ¨áĪļáī³":6318,"Ġgedig":6319,"áĮĪáīł":6320,"ĠTante":6321,"Ġstadium":6322,"verk":6323,"ĠáĬ¨áĭŃ":6324,",+":6325,"áĮĢáĪĿ":6326,"moon":6327,"ĠáĮ½áĪĳáįį":6328,"áĪĺáĪ©":6329,"Ġfig":6330,"ĠáĪ±áĭ³áĬķ":6331,"Ġreguit":6332,"ĠáįĬáīµ":6333,"Ġweergawe":6334,"Ġgrade":6335,"bal":6336,"okke":6337,"IT":6338,"áĮ¥áįį":6339,"Ġteens":6340,"ĠáīµáĪĿáĪħáĪŃ":6341,"Ġáĭ«áĬķáī¥áī¡":6342,"Ġmass":6343,"áī»áī¸áĭįáĬķ":6344,"Ġmoeder":6345,"Ġhulself":6346,"Ġmate":6347,"áĪ«áī¢":6348,"áĪĺáĪĪáĬ¨":6349,"Ġspesial":6350,"struksies":6351,"Ġeffens":6352,"Ġongeloof":6353,"!!!!":6354,"áĬ«áĪĦáĭ°":6355,"áº¿":6356,"áĬķáĮįáĪĬáĭĿ":6357,"ĠÃ³f":6358,"kw":6359,"ĠKr":6360,"Ġgeweld":6361,"Ġprivaat":6362,"ĠáĬłáī¥áĭĽ":6363,"etse":6364,"ĠSam":6365,"Ġonafhank":6366,"ĠreÃ«n":6367,"iam":6368,"áĮŃáĪŃ":6369,"Ġbut":6370,"Ġindruk":6371,"ĠáĬ¥áĭĭáĬķ":6372,"Ġpros":6373,"áĭ«áĬĳ":6374,"awes":6375,"ĠNe":6376,"ĠRes":6377,"ĠáĪħáĭŃáĭĪáīµ":6378,"my":6379,"áī¢áĭŃ":6380,"myn":6381,"ĠCol":6382,"ĠáĪµáĬĲ":6383,"Ġhiervan":6384,"rain":6385,"áĭ°áī£":6386,"Ġvrede":6387,"áī¡áĬĵ":6388,"Ġgedra":6389,"áįĢáĪĿ":6390,"ĠSoms":6391,"Ġwind":6392,"ĠMon":6393,"gename":6394,"Een":6395,"áĪįáĪĽáīµ":6396,"My":6397,"85":6398,"ĠáĪĥáĭŃáĪĽáĬĸáīµ":6399,"ĠáĮħ":6400,"áĪ®áĬķ":6401,"Ġernstige":6402,"Ð¿":6403,"Ġsommer":6404,"Ġbegrip":6405,"áĮĲ":6406,"Ġskilder":6407,"Ġimp":6408,"df":6409,"ĠMag":6410,"Ġáĭ¨áĭįáĪĥ":6411,"Ġgedigte":6412,"Ġsake":6413,"ĠáĬ¥áĭ«áĪĪ":6414,"ĠáĪĿáĭµáĪŃ":6415,"áĬĸáī½áĬķ":6416,"ĠTrad":6417,"isto":6418,"ĠáīłáĪĺáī°":6419,"jarige":6420,"ĠDaarbenewens":6421,"áĮĪáĭĭáĪį":6422,"Ġly":6423,"áĪŃáī¶áĭ¶áĬŃáĪµ":6424,"áĮįáĬĻ":6425,"ĠáĪ³áĪĿáĬķáīµ":6426,"fe":6427,"Ġ''":6428,"Ġsc":6429,"Ġperfekte":6430,"áĪŃáĬĵ":6431,"Moenie":6432,"ĠáĬŃáĪ³áī¥":6433,"Ġtoes":6434,"Ġáĭ¨áįĮ":6435,"áĮĭáĪª":6436,"Ġvoorwerp":6437,"Ġtrou":6438,"ologiese":6439,"Ġpog":6440,"áīłáĪī":6441,"ĠáĪĽáĪ½":6442,"áīłáĪµ":6443,"áĪ®áĬĵ":6444,"ix":6445,"áĮ¥áįĭáīµ":6446,"ooie":6447,"Ġáĭ¨áīµáĮįáĪ«áĭŃ":6448,"Ġtoekom":6449,"drag":6450,"áī¡áīµ":6451,"odige":6452,"ĠáĪĺáĭµáĪ¨áĬŃ":6453,"you":6454,"ilip":6455,"Ġartic":6456,"wendig":6457,"áĬ¥áī²":6458,"Ġdienste":6459,"Ġáī¦áī³áĭİáī½":6460,"ĠSal":6461,"ĠáĮ¥áīĥáīµ":6462,"day":6463,"groot":6464,"Ġdaaglikse":6465,"ĠáĪĽáĪĪ":6466,"Ġgenade":6467,"Ġnat":6468,"neming":6469,"go":6470,"Ġbetrou":6471,"áī¥áĪªáĬ«":6472,"ĠIma":6473,"Ġáĭ¨áīģ":6474,"rekening":6475,"oy":6476,"Ġoptree":6477,"Ġmoontlike":6478,"ioneel":6479,"Ġtans":6480,"Ġreageer":6481,"program":6482,"Ġvolledige":6483,"Ġwaarvoor":6484,"ĠSatan":6485,"Ġlengte":6486,"ect":6487,"Ġsuur":6488,"áĮ¾áī½":6489,"abel":6490,"áĪĺáĬĵáĬķ":6491,"Ġáĭ¨áĬ¥áĬĽ":6492,"áĬĲáĭĪ":6493,"rywing":6494,"ÂŃ":6495,"ĠStu":6496,"áĭ«áĭŃ":6497,"ĠáĬĲáĭĭ":6498,"Ġnavorsing":6499,"gh":6500,"áįĭáĪį":6501,"Ġáĭ®áĪĲáĬķáĪµ":6502,"ĠáīłáīĢáĮ¥áī³":6503,"ĠMan":6504,"Ġuitstekende":6505,"áĮĪáĪ¨":6506,"Ġverniet":6507,"Ġdorp":6508,"ĠáĬłáĬķáī°":6509,"uide":6510,"AC":6511,"iver":6512,"ĠTagged":6513,"hout":6514,"ĠáĬ¥áĪµáĬ«":6515,"ĠáīłáĪĮáĪĭ":6516,"Ġmos":6517,"áĬ¨áĪĿ":6518,"áĪĺáī±":6519,"Toe":6520,"áĪ°áĭµ":6521,"Ġhieronder":6522,"iwiteite":6523,"ĠMiskien":6524,"Ġáĭ¨áĬłáĪĽáĪ«":6525,"Ġmelk":6526,"Ġáī°áĮĪáī¢":6527,"Ġroep":6528,"iá»":6529,"áĬ¥áĬĵ":6530,"áĬ«áĬķ":6531,"ĠáĪĿáĬŃáĬķáĭ«áī±áĪĿ":6532,"Ġabsol":6533,"Ġáī²":6534,"ĠáįĴ":6535,"uuk":6536,"Ġrek":6537,"Ġmaag":6538,"ĠOok":6539,"Ġklink":6540,"sh":6541,"áĪĭáīµáĬķ":6542,"Ġvinnige":6543,"vry":6544,"ĠáīģáĮ¥áĮ¥áĪŃ":6545,"Ġplak":6546,"ĠáĭĿáīħ":6547,"áĬĴáī¨áĪŃáĪ²áī²áĭį":6548,"ĠáĬ¥áĬĵáĪĿ":6549,"áīłáĪ«":6550,"versek":6551,"Ġkwaad":6552,"Ġbehoeftes":6553,"etting":6554,"Ġnuttig":6555,"Ġpan":6556,"Ġáī°áĪ³":6557,"ĠáįĸáĪĬáĪµ":6558,"Ġáī°áī¥":6559,"ĠáĬłáĪµáī°áĭĭ":6560,"ĠáĭŃáįĪ":6561,"air":6562,"Ġskuif":6563,"áį³áį":6564,"ĠáĪĺáĪµáīĢáĪį":6565,"áīħáĪ¨":6566,"Ġeienaar":6567,"oskoop":6568,"ĠGer":6569,"Ġfyn":6570,"ĠTest":6571,"Ġsedert":6572,"stil":6573,"áĪµáī´áĪŃ":6574,"Ġáĭ¨áĬ¢áĬķ":6575,"ĠgeÃ«":6576,"eland":6577,"ĠáĬ¥áĬķáĭ³áĪį":6578,"ĠáįĪáĮ£áĬķ":6579,"áĮĭáĬĵ":6580,"áīłáĬ¥":6581,"Ġgoedkoop":6582,"ĠáĬłáĭįáĪ®":6583,"ĠáĪ¬":6584,"Ġklik":6585,"stens":6586,"itcoin":6587,"ĠBrit":6588,"Twe":6589,"Ġskyn":6590,"ĠAbraham":6591,"ates":6592,"Ġaansien":6593,"inasie":6594,"Ġáĭ¨áĪļáī½áĪį":6595,"áĪ¡":6596,"Ġpolit":6597,"ĠáĬ£áī¥áī²":6598,"dier":6599,"ĠáĪĥáĭŃ":6600,"Ġáĭ¨áĪ¥áĪ«":6601,"ĠáĬłáĪµáī³áĭį":6602,"ĠHaar":6603,"áīªáĭµ":6604,"ĠáĪ¥áĬĲ":6605,"ĠvroeÃ«r":6606,"áĪ»áĪ»áĪį":6607,"áĭ²áĪ±":6608,"nee":6609,"erf":6610,"ĠáĬŃáī¥áĪŃ":6611,"Ġsuksesvol":6612,"Ġgang":6613,"wyse":6614,"Ġuiters":6615,"Ġomstandighede":6616,"Ġvertrek":6617,"Ġbeur":6618,"áĪĺáĬĲ":6619,"egin":6620,"ĠáĮ¾":6621,"áĭ«áī¸áĭį":6622,"áĬłáĭ²áĪµ":6623,"ĠáĮ¦áĪŃ":6624,"Ġgesonde":6625,"Ġdoelwit":6626,"Ġhof":6627,"áĬ¦áĪ®áĪļáĭ«":6628,"glo":6629,"Ġáĭ¨áī°áĪ»áĪĪ":6630,"Ġsir":6631,"Ġvoorstel":6632,"Jou":6633,"áĪļáĬĴ":6634,"ĠWil":6635,"breaking":6636,"rawe":6637,"Ġáī¥áĭ¬":6638,"Ġbos":6639,"áĬŃáĪĪ":6640,"Ġstudie":6641,"Ġverkeerde":6642,"áĮ¦áī½":6643,"áĮĪáĪ©":6644,"Ġáī°áĬ¨áīµ":6645,"lees":6646,"able":6647,"ĠáĭŃáĪĨáĬķ":6648,"PLF":6649,"ĠáīłáīĤ":6650,"à¤¾":6651,"dae":6652,"ĠáĮįáĭ´":6653,"Ġdes":6654,"Ġdom":6655,"áĪĥáī¥":6656,"toon":6657,"ĠJap":6658,"Ġtwyfel":6659,"68":6660,"ax":6661,"à¦¾":6662,"imlag":6663,"Ġoutom":6664,"Ġsimp":6665,"brief":6666,"ĠáĬ¨áīĢ":6667,"Ġáĭ°áī¡áī¥":6668,"ĠKoninkryk":6669,"ĠáĮĭáĭľáĮ£":6670,"Ġsoorte":6671,"ĠáĭĿáī¥áĪį":6672,"Ġáī¦áĪŃáĭµ":6673,"Ġstappe":6674,"Ġvreugde":6675,"áĪ³áĪ°áī¥":6676,"ĠáĬłáīµáĪĮ":6677,"41":6678,"ĠSa":6679,"Ġwol":6680,"ĠáĪįáĭķáĪĬ":6681,"ĠáĬŃáįįáĭ«":6682,"áĭ°áĬĵ":6683,"Ġbetrek":6684,"Ġbehulp":6685,"áĪįáĭ©":6686,"áĬĵáįĬ":6687,"Ġeil":6688,"ĠáĬ£áĪĺ":6689,"Sy":6690,"Ġgerus":6691,"Ġskerm":6692,"ĠOmdat":6693,"ĠGregoriaanse":6694,"ĠáĪĿáĬ½":6695,"Ġverandering":6696,"Publ":6697,"yp":6698,"áĪ±áīµ":6699,"áĭ®áĪŃ":6700,"ung":6701,"áĮĵáĪį":6702,"ĠOnthou":6703,"Ġband":6704,"áĭ°áĮĭáĮĭáĪļ":6705,"âĢĿ.":6706,"Ġlid":6707,"Ġgebrek":6708,"Ġvaardighede":6709,"ĠáĪĥáĪ³áī¥":6710,"terk":6711,"Äį":6712,"Ġpm":6713,"ĠáĪĺáĮĭ":6714,"ĠáĪĿáĪķ":6715,"áĪµáī°áĭĭ":6716,"áĬłáĪį":6717,"enter":6718,"Ġob":6719,"Ġloopbaan":6720,"Ġáīħáĭ±áĪ³áĬķ":6721,"ĠBinÃªre":6722,"AL":6723,"áĪ½áĬ¨áĪŃ":6724,"Ġsens":6725,"Ġáĭ¨áĮ¨":6726,"slae":6727,"ĠCO":6728,"Ġskr":6729,"áī¿":6730,"áĮ«áĭį":6731,"áī´áīµ":6732,"ĠChinese":6733,"áī°áĮ¨áĪĽáĪª":6734,"Ġvenn":6735,"Ġvoortd":6736,"prys":6737,"áĪĿáĪ¨áīµ":6738,"ĠBos":6739,"Ġáĭ¨áĪµáĪ«":6740,"áĬŃáĪįáĪī":6741,"ĠBlog":6742,"áĭ«áĮŃ":6743,"Ġáĭ³áĭĬáīµ":6744,"jare":6745,"ound":6746,"ĠáĪ´áīµ":6747,"ĠáĬ¨áī£áĭµ":6748,"áĬ¨áī£":6749,"PS":6750,"Ġáĭī":6751,"Ġstyl":6752,"ĠáĬ¥áĭįáĬĲáīµ":6753,"áĭĭáĪļ":6754,"Ġagtergrond":6755,"isasie":6756,"áĪ¥áĪŃ":6757,"ĠáĭķáĭµáĪį":6758,"áĪ³áĭŃáĬķáĪµ":6759,"Ġterme":6760,")áį¢":6761,"Ġfant":6762,"75":6763,"daag":6764,"ual":6765,"theid":6766,"anese":6767,"Ġverhandeling":6768,"Ġje":6769,"áĬķáĬĲáīµ":6770,"Ġdrank":6771,"uth":6772,"ĠáĬłáīĭ":6773,"ĠáĭĪáĭŃáĬķáĪĿ":6774,"ĠSwe":6775,"ĠMoet":6776,"ĠSeun":6777,"middels":6778,"Ġsuksesvolle":6779,"ĠáīµáĬķáĪ½":6780,"iveer":6781,"Ġáĭ¨áĪ½":6782,"ĠáīģáĪ³áīģ":6783,"áī¥áīħ":6784,"ĠáĪĪáĪĿáĪ³áĪĮ":6785,"alth":6786,"áī¶áī½áĬĵ":6787,"Ö´":6788,"áĪĪáĮ¥":6789,"uff":6790,"overn":6791,"ĠEngelse":6792,"áĭ«áīĤ":6793,"kyk":6794,"ikip":6795,"Ġsowat":6796,"áĮĪáĭĿ":6797,"Ġstruktuur":6798,"Ġtake":6799,"Ġáī°áĪµáĪĽ":6800,"Ġsen":6801,"ĠOk":6802,"ĠáĬ¥áĬķáĭ²áĪĨáĬķ":6803,"houding":6804,"áīłáĪ©áīµ":6805,"áĪŃáĪĽ":6806,"ĠOost":6807,"ĠKl":6808,"beh":6809,"áĬķáī³":6810,"áīłáīħ":6811,"Ġwegge":6812,"Ġteenstelling":6813,"idings":6814,"Ġáĭ¨áĬłáĬķáĭµ":6815,"300":6816,"áī³áī½áĬķáĬķ":6817,"ĠáĮĮáī³":6818,"OO":6819,"Ð¾Ð½":6820,"otel":6821,"áĭĵáĭĬ":6822,"mag":6823,"Ġys":6824,"Ġbadkamer":6825,"ĠáĭľáĮİáī½":6826,"ĠáĪµáĪĿáĪĿáĬĲáīµ":6827,"áįįáĪªáīĥ":6828,"Ġwebwerwe":6829,"Ġbepaalde":6830,"ĠWel":6831,"ĠáīłáĪļáĭ«":6832,"ĠáĬ«áĪŃáī³":6833,"ani":6834,"Ġreaksie":6835,"ĠáĬłáĪĪáī£áī¸áĭį":6836,"Ġplaasvind":6837,"áĬ¥áĬĶ":6838,"Ġass":6839,"ollow":6840,"áĬĲáĬĽ":6841,"ĠUS":6842,"Ġgehoorsaam":6843,"Ġstryd":6844,"ĠáĮįáī¥áĪ¨":6845,"ryse":6846,"Ġjuis":6847,"etty":6848,"Ġaddis":6849,"Ġvoorraad":6850,"ĠáĪĬáīĢ":6851,"iker":6852,"Ġskad":6853,"Ġacc":6854,"oede":6855,"ieur":6856,"áĮ¥áĭ«áīĦ":6857,"ĠWees":6858,"ĠáĪĽáĮ£":6859,"Afrikaanse":6860,"ĠáĬłáĪīáīµ":6861,"arian":6862,"Ġskuld":6863,"áįĲ":6864,"ĠáĬĲáĮĭ":6865,"ĠáĬłáĪĿáĪ«":6866,"ĠáīµáĮįáĪŃáĬĽ":6867,"Ġsomer":6868,"ĠáĪĺáĪ³áĪªáĭ«áĭİáī½":6869,"mon":6870,"áĬĵáĭŃáīµ":6871,"usie":6872,"Ġskielik":6873,"aÃ":6874,"Ġoorbly":6875,"urch":6876,"aand":6877,"ĠáĪĺáĬ¨áĪ«":6878,"kings":6879,"áĭĺáĭį":6880,"alwe":6881,"gewe":6882,"Ġnek":6883,"Ġsimbol":6884,"áīĥáĭĪ":6885,"ĠáĪĿáĪįáĬŃáīµ":6886,"Ġelemente":6887,"áŁ":6888,"appe":6889,"ĠáĬ¥áĭ®áĪĿ":6890,"Ġvaste":6891,"Ġmediese":6892,"Ġskade":6893,"Ġindividuele":6894,"Ġnaak":6895,"Ġmaks":6896,"Ġgeraak":6897,"ĠáĬ¨áĭį":6898,"ĠseÃ«n":6899,"Ġáīłáĭļáĭ«":6900,"Ġkommentaar":6901,"Ġáĭ¨áĪļáĪĪáĭįáĬķ":6902,"Ġwerknem":6903,"ĠAnder":6904,"Ġvoldoen":6905,"Ġsimb":6906,"áĬ«áĪĦáĭµ":6907,"ĠáĪĽáĪµáī³áĭĪáīĤáĭ«":6908,"ĠáĮĪáĪįáįĢ":6909,"ethiop":6910,"ĠáĪĺáįįáīµáĪĦ":6911,"Ġlaer":6912,"Ġáĭ¨áĮł":6913,"Ġopw":6914,"Ġlog":6915,"uba":6916,"Ġsout":6917,"This":6918,"Ġáĭ¨áĭķ":6919,"áĪĺáĪĿ":6920,"áĪ°áĮ¡":6921,"ĠáĪ¶áĪµáīµ":6922,"Ġinteressante":6923,"Äįina":6924,"iÃ«r":6925,"Ġstandaard":6926,"Ġbestand":6927,"aadjie":6928,"Ġpark":6929,"ĠTPLF":6930,"Ġnad":6931,"Ġtradisionele":6932,"Ġdak":6933,"áĪĿáī£":6934,"Ġits":6935,"áĭ³áī¤":6936,"Ġep":6937,"áĬĵáĭ³":6938,"ä¸":6939,"aj":6940,"Ð¹":6941,"feer":6942,"Ġáĭ³áĬķáĬ¤áĪį":6943,"undel":6944,"Ġnegatiewe":6945,"papier":6946,"ĠbelÃª":6947,"áĪĺáĪĪáĬ¨áīµ":6948,"ĠáĪĿáĪŃáĪĺáĪ«":6949,"imes":6950,"kry":6951,"ĠáĬ¥áĪµáĬª":6952,"ĠFl":6953,"moont":6954,"verf":6955,"Ġskepp":6956,"áįįáĬĵ":6957,"bestuur":6958,"oading":6959,"Ġáī¥áĪĪáĬķ":6960,"ĠVry":6961,"áĪ¨áĪŃ":6962,"azon":6963,"Ġbeskrywende":6964,"Ġgepubliseer":6965,"Ġfisiese":6966,"loos":6967,"tions":6968,"ĠáįĪáī°áĬĵ":6969,"Ġtre":6970,"Ġkamera":6971,"Ġlyf":6972,"ĠáĭĪáĮª":6973,"ĠáįĸáĪĪáī²áĬ«áĭĬ":6974,"ĠState":6975,"Ġvloei":6976,"Ġherhaal":6977,"Ġgroente":6978,"áĪīáīµáĬķ":6979,"Ġemail":6980,"draai":6981,"ĠáĪĺáĬķáįĪáĪ³áĭĬ":6982,"Un":6983,"áī¸áĭī":6984,"ĠáĪĺáĬĸ":6985,"Ġáī°áĮ½":6986,"week":6987,"Ġewige":6988,"Ġtaak":6989,"ĠVolgens":6990,"Ġgelei":6991,"áĬ¨áĬĵáĭĪ":6992,"bat":6993,"Ġwes":6994,"Ġblou":6995,"ĠLaw":6996,"ĠáĭĪáĮĪáĬĸáī½":6997,"ĠáĬ¥áĬĲáĭļáĪħáĬķ":6998,".âĢĻ":6999,"Ġ....":7000,"Ġhelf":7001,"dress":7002,"werke":7003,"ife":7004,"ĠTestament":7005,"Ġlewende":7006,"?\"":7007,"Ġáĭ¨áĬłáĪľáĪªáĬ«":7008,"produk":7009,"ĠáĭįáĭµáĭµáĪŃ":7010,"Ġpap":7011,"Ġrot":7012,"áĭ«áī½áĬķ":7013,"ikipedia":7014,"áĬķáĮįáī°áĬķ":7015,"áĬķáįĥ":7016,"áĬ¨áīłáĪŃ":7017,"ĠáīłáĭļáĪħáĪĿ":7018,"Ġvolwass":7019,"ĠGl":7020,"so":7021,"Ġbevestig":7022,"skryf":7023,"áī»áĪĪ":7024,"áĬĲáĪŃ":7025,"Ġaanwys":7026,"Ethiopia":7027,"Ġroman":7028,"den":7029,"urger":7030,"ĠáĪµáī¥áĪ°áī£":7031,"Ġáĭ¨áĮ¤áĬĵ":7032,"ĠáĪ°áĭĵ":7033,"ĠáĮīáĭµ":7034,"ĠáĭĪáĭ³":7035,"Ġáĭ¨áĪĿáĪŃáīµ":7036,"ĠáĬłáĪĿáĪµáīµ":7037,"oest":7038,"Ġinvloed":7039,"ĠáĪĺáĪµáĮłáīµ":7040,"ĠImages":7041,"ĠWie":7042,"Ġbymekaar":7043,"yds":7044,"Ġgenees":7045,"áĬłáĭĬ":7046,"ĠInst":7047,"áĪķáįįáīµ":7048,"verh":7049,"ÑĮ":7050,"365":7051,"Ġolie":7052,"Ġvy":7053,"projek":7054,"Ġverdwyn":7055,"Ġwhich":7056,"áįı":7057,"ministr":7058,"ĠáĬ¥áĬ®":7059,"ĠáĪĺáĬĵ":7060,"áĭ®áĬĵ":7061,"ĠáĬĲáĮ¥áī¦áī½":7062,"Ġresultate":7063,"Ġbehalwe":7064,"Ġmoed":7065,"Ġaandele":7066,"Ġmid":7067,"Ġlike":7068,"Ġáī°áī£":7069,"Ġáī¥áĭĽ":7070,"men":7071,"Ġtoekomstige":7072,"ĠgeÃ¯":7073,"Ġgekoop":7074,"ĠUniversiteit":7075,"lyke":7076,"ĠNaam":7077,"spraak":7078,"Ġáĭ¨áįĵ":7079,"Gr":7080,"ĠáĪĺáĬ¨áĪĭáĬ¨áĭ«":7081,"Ġfas":7082,"Ġplane":7083,"Ġbabas":7084,"Ġerg":7085,"Ġhoofsaaklik":7086,"ĠáĪĺáĬĲáĪ»":7087,"ĠáĬ¥áĪ±":7088,"áī¦áĪĿ":7089,"ĠáīµáĪ«":7090,"ĠáīłáįĪ":7091,"enryk":7092,"You":7093,"itek":7094,"ä¸Ń":7095,"áĭ©áīµ":7096,"áĭ¨áĪļ":7097,"delike":7098,"ĠáīłáĪµáī°":7099,"áĪħáĬłáĭ´áĮį":7100,"Ġdraad":7101,",\"":7102,"uus":7103,"áĬĵáĪįáī£áīµ":7104,"Ġthem":7105,"Ð¸Ðº":7106,"ĠáīłáĪĺáĮłáīĢáĪĿ":7107,"ĠáĬ¥áĬķáĭµáīµ":7108,"boom":7109,"dertyd":7110,"Ġafdeling":7111,"erself":7112,"ĠáĬłáĪĺáĪ«áĪŃ":7113,"51":7114,"ĠGel":7115,"oting":7116,"Ġkoff":7117,"æĸ":7118,"New":7119,"ĠáĬłáĪ«áīµ":7120,"áĪľáĭŃáĪį":7121,"áĬĵáī½áĬķ":7122,"inkels":7123,"Ġspreek":7124,"ĠáĪįáĮĨ":7125,"Ġáĭ¨áī¤áīµ":7126,"ĠáĮįáī¥áĪŃ":7127,"Ġkoninkryk":7128,"áĭ®áīµ":7129,"Ġà®":7130,"à®¿":7131,"Ġáĭ°áĪµ":7132,"à©":7133,"áĮ¸áīµ":7134,"ĠáĬķáĮįáĭµ":7135,"áĮįáī£áīµ":7136,"ĠFebruarie":7137,"áĪĦáĭ±":7138,"ĠáĪ°áĪĪ":7139,"Ġdefin":7140,"Ġvet":7141,"áĬĲáī³áī¸áĭį":7142,"áĭ®áĪŃáĮĬ":7143,"ĠOl":7144,"Ġáī³áĪĭáīħ":7145,"Ġspoed":7146,"English":7147,"skappye":7148,"ĠáĭµáĪŃáĮĬ":7149,"Ġinkomste":7150,"iáº¿":7151,"áīħáĪŃáī¡":7152,"ĠAfrika":7153,"ĠPaulus":7154,"áĭŃáĭµ":7155,"ĠáĪ´áī¶áī½":7156,"æĸĩ":7157,"áĪ²áĭ«":7158,"lewe":7159,"Ġmee":7160,"Ġtoegelaat":7161,"Ġgeheim":7162,"Ġáīłáīģ":7163,"ĠáĪļáĬĴáĪµáī´áĪŃ":7164,"à²¨":7165,"ĠáīµáĪŃáĮīáĪĿ":7166,"Ġplas":7167,"Ġsim":7168,"áĭŃáĪĿ":7169,"sal":7170,"Ð´":7171,"Ġdub":7172,"Ġgehalte":7173,"lyking":7174,"áī»áĭŃáĬĵ":7175,"ĠSm":7176,"áįĦ":7177,"Ġsays":7178,"ĠáīłáĬ¢áĭ¨áĪ±áĪµ":7179,"Ġmoeilike":7180,"Ġgeheel":7181,"Ġáĭ¨áĪĺáĮ£":7182,"rigting":7183,"Ġgewilde":7184,"ĠáīłáĮĪ":7185,"ize":7186,"ĠKar":7187,"à¶":7188,"sn":7189,"ĠáĭĪáĬķáīłáĪŃ":7190,"ĠáĭµáĪķáĪª":7191,"ĠBek":7192,"za":7193,"tim":7194,"iÃ©":7195,"áī§áĪį":7196,"ĠáĬ¥áĬķáĭ°áĬĲáīłáĪŃ":7197,"ĠLou":7198,"áĪĭáĬ©":7199,"Ġáĭ¨áĭµ":7200,"ĠáĭĪáĪĭ":7201,"ading":7202,"vir":7203,"Ġspring":7204,"ĠáĭĪáī³áĭ°":7205,"áĭ°áĪ¨áĮīáīµ":7206,"enb":7207,"leef":7208,"Ġfoute":7209,"Ġáĭ°áĮĭ":7210,"dor":7211,"Ġgaste":7212,"ĠáĪĺáĪįáĭķ":7213,"ĠáĭŃáĪµ":7214,"Sl":7215,"áĪ¾áī½":7216,"ĠáĮ¥áĪ¨áīµ":7217,"Ġeks":7218,"App":7219,"Ġáĭ±":7220,"Ġtoepassing":7221,"Ġunieke":7222,"ows":7223,"erselfdertyd":7224,"ĠLa":7225,"ĠáĬłáįį":7226,"ä¸Ńæĸĩ":7227,"Ġáĭ¨áĪĿáĬĵ":7228,"ĠVol":7229,"Ã¼r":7230,"Ġáī¥áĪ¨áīµ":7231,"ĠáĬ¨áĭĪ":7232,"ĠáĬłáĪĪáĪĿ":7233,"Ġenigiets":7234,"Ġplante":7235,"Ġheg":7236,"áĭŃáĪ¨áĪµ":7237,"Ġkomm":7238,"Ġáĭ«áĪµáī°":7239,"ĠáĬ¢áĬķáĭ±áĪµáīµáĪª":7240,"bele":7241,"Ġvermaak":7242,"áĭŃáĪ©":7243,"ĠáĭĪáĪĪ":7244,"ulu":7245,"áĬĲáī³áīµ":7246,"Ġverst":7247,"trede":7248,"ĠáĭŃáī£":7249,"Ġsus":7250,"lyf":7251,"ĠáĮ¨áĭĭáī³áĭİáī½":7252,"blik":7253,"áī³áĭĪáīĢ":7254,"Ġáī¥áĪĵ":7255,"Ġopvoed":7256,"ĠáīħáĬķ":7257,"Ġgespeel":7258,"ĠNog":7259,"ĠáĬ©áĪī":7260,"Ġamb":7261,"ĠáĪģáĪį":7262,"Ġmiljoen":7263,"ahili":7264,"Ġlok":7265,"Ġwhat":7266,"ban":7267,"áĪŃáĪĺáĬķ":7268,"ĠâĢĶ":7269,"Ġernstig":7270,"gekom":7271,"áĬ¦áĪ®áĪĿ":7272,"ĠáĪĺáĮłáīĢáĪĿ":7273,"ĠáĪĪáĬ¢áīµáĭ®áĮµáĭ«":7274,"áĪµáī¶":7275,"áĪĪáī¥":7276,"moedig":7277,"ĠâĢĿ":7278,"Dis":7279,"áĪ©áĪĿ":7280,"agram":7281,"Ġáĭ¨áĮī":7282,"ias":7283,"áĭİáī³áĪį":7284,"uig":7285,"ĠáĪµáĪľáīµ":7286,"ives":7287,"Het":7288,"ĠáĬłáĪĭáī¸áĭį":7289,"Ġvee":7290,"essies":7291,"Ġherinner":7292,"Ġdryf":7293,"Ġverlies":7294,"áĬ¢áĬķ":7295,"ĠáĪįáĪĿáĭµ":7296,"TA":7297,"wig":7298,"áįįáĮłáĪŃ":7299,"Ġtoepas":7300,"Ġopleiding":7301,"Ġmure":7302,"Ġáīłáĭ©":7303,"Ġmyself":7304,"áĮ´":7305,"ĠáĬłáī£áīµ":7306,"Ġrand":7307,"ĠáĪĺáįĪ":7308,"leerde":7309,"à±ģ":7310,"ĠGal":7311,"Ġmetaal":7312,"Ġgeglo":7313,"Ġkrit":7314,"Ġvertoon":7315,"ĠGriek":7316,"Ã´":7317,"Pl":7318,"Ġáī¤áī°áĬŃáĪŃáĪµáī²áĭ«áĬķ":7319,"ĠAugustus":7320,"ĠáīłáĬĥ":7321,"áĭĭáĪŃáĭ«":7322,"ĠáĮ»":7323,"áĮ£áĮ«":7324,"Ġkrediet":7325,"Ġtwe":7326,"áĪĿáįķ":7327,"________________":7328,"Ġvinniger":7329,"oniese":7330,"Ġnoodsaaklik":7331,"Ġklassieke":7332,"daad":7333,"Ġoore":7334,"Ġuitgevoer":7335,"áĭİáī½áĬĵ":7336,"borg":7337,"Ġskerp":7338,"ĠBitcoin":7339,"ĠáīłáīĢáĪĭáĪī":7340,"ĠáĬ¨áĪĿáĭĺ":7341,"ĠOostenryk":7342,"iddelde":7343,"Ġáī£áĪĪáī¤áīµ":7344,"áĬ¥áĮįáĭļáĬłáī¥áĪĶáĪŃ":7345,"ĠáīµáĬĵáĬķ":7346,"Ġdun":7347,"Ġpen":7348,"osof":7349,"áįĸáĪĬ":7350,"áĪ«áĪª":7351,"áĬķáĮ»":7352,"Ġopmerk":7353,"Ġvoorberei":7354,"kers":7355,"Ġhelfte":7356,"Ġaanbod":7357,"ĠáĬ«áĪ²áĬĸ":7358,"ĠpoÃ«":7359,"ĠRome":7360,"ĠÂ©":7361,"Ġekonom":7362,"Ġure":7363,"iografie":7364,"ras":7365,"ĠáĬłáĪĪáĬķ":7366,"Ġonmiddellik":7367,"Ġverdeel":7368,"inding":7369,"Ġmod":7370,"ible":7371,"uc":7372,"ukking":7373,"Ġáĭ¨áī°áĪĺ":7374,"ĠáĬłáĭµáĪ«áĪ»":7375,"aders":7376,"ĠHoekom":7377,"ĠliterÃªre":7378,"El":7379,"Ġvari":7380,"áĭ³áĪ´":7381,"Ġvertroue":7382,"Ġfunksies":7383,"Ġvasge":7384,"áĬ¨áĬķ":7385,"Ġagt":7386,"ĠáĬ¥áĬķáĭ°áĪĽáĭŃ":7387,"à«":7388,"Ġresensies":7389,"):":7390,"ĠáĬłáī¡áĬĲ":7391,"ĠáĪĽáĭ¨áīµ":7392,"sters":7393,"Ġgas":7394,"aatse":7395,"Ġseuns":7396,"Ġáĭ¨áī´":7397,"wyd":7398,"rem":7399,"áĬ«áī£áī¢áĭį":7400,"áĮ¸áĬķ":7401,"arings":7402,"áĬ«áĬ¤áĪį":7403,"Ġhis":7404,"áĪ¨áī±":7405,"áĬķáĮįáĪį":7406,"Ġveg":7407,"Ġverbond":7408,"ze":7409,"áĪ¨áī³":7410,"áĭķáĪį":7411,"Ġspyte":7412,"Ġáĭ¨áī°áĬĲáĪ³":7413,"ĠáĪĺáĪ°áĪį":7414,"Ġáĭ¨áĪĽáĪħ":7415,"Ġbuig":7416,"Ġvoorheen":7417,"Ġafgelope":7418,"ĠáĪĽáĪ¨":7419,"Ġsodra":7420,"Ġâ":7421,"ĠVers":7422,"áĪ¸áīµ":7423,"ĠáĬłáĪĽáĬ«":7424,"lein":7425,"áīĢáĭ°":7426,"áĪħáĪŃ":7427,"áĮ¹áĪĿ":7428,"Afrikaans":7429,"Ġáĭ¨áĪ¶":7430,"vangelie":7431,"áĬĵáĭŃáīµáĭµ":7432,"Ġbeantwoord":7433,"Ġprentjie":7434,"Ġáī½áĮįáĪ®áī½":7435,"Ġooreenste":7436,"áĬĲáĮĪáĪŃ":7437,"ĠEnglish":7438,"Ġáī°áĪ³áīµ":7439,"DF":7440,"Ġstat":7441,"Ġsondes":7442,"áĮĬáĭľáĭį":7443,"áĪµáįĭ":7444,"Ġup":7445,"Ġáĭ¨áĪķáĭĿáī¥":7446,"won":7447,"Ġseisoen":7448,"ĠGaan":7449,"Ġoorw":7450,"ags":7451,"ĠÄĳ":7452,"áĪ«áĪµ":7453,"Ġbelof":7454,"áĬ¼":7455,"hip":7456,"ĠáĪĪáīµ":7457,"ĠáīłáĪĽáĬķ":7458,"Ġgewys":7459,"Ġend":7460,"áĭ«áĭ¨":7461,"Ġvuil":7462,"ĠáĪĺáīģ":7463,"áĮ£áī¢áĭ«":7464,"Ġlag":7465,"áĮįáĭ³":7466,"ĠJohn":7467,"áĪ°áĮł":7468,"wen":7469,"ĠForex":7470,"Cont":7471,"Ġgered":7472,"ĠáĬłáĪ»":7473,"Ġgevoelens":7474,"ĠáĮĪáĪįáĮ¸áĭĭáĪį":7475,"ĠáĪĺáĪªáĭİáī½":7476,"áĬ¤áĪµ":7477,"ĠáĮłáī¥":7478,"Ġáĭ¨áĬłáĭ¨áĪŃ":7479,"ĠáĮĪáī¢":7480,"va":7481,"áĮłáĪĺ":7482,"oper":7483,"tp":7484,"Ġáĭ¨áĮįáĬķ":7485,"áĪµáī°áĭ³áĭ°áĪŃ":7486,"ĠáĪĺáĮĢáĪĺáĪªáĭ«":7487,"âĨĳ":7488,"Ġverlig":7489,"Ġbehandeling":7490,"ĠNatuurlik":7491,"Kyk":7492,"áĭįáĬĲáīµ":7493,"ging":7494,"áĪ°áĪĪ":7495,"Ġhosp":7496,"Ġlin":7497,"áīłáīµáĪĿ":7498,"Ġáī°áĭĭáĪķáĭ¶":7499,"ĠáĪĨáī´áĪį":7500,"áĬ¥áĪµ":7501,"ĠáĬłáĪĺáĪ«áĪ®áī½":7502,"ĠáĪŀáīµ":7503,"sye":7504,"Ġduidelike":7505,"ĠáĪĺáĪĪáĭ«":7506,"Ġmeub":7507,"áĪĭáĪħ":7508,"ĠáĬ¨áĬłáĬķáĭµ":7509,"áĬĲáīłáĪ©":7510,"Ġáī£áĪī":7511,"Ġondervind":7512,"ĠáĪĽáĬķáĬĽáĭįáĪĿ":7513,"áĭ¨áĪĽ":7514,"Ġsekond":7515,"estasie":7516,"ĠáĪĺáĪ¸":7517,"IR":7518,"Ġelement":7519,"atform":7520,"ĠáĪµáĭ°áī°áĬĽ":7521,"áĮ»áĪļ":7522,"Ġhartseer":7523,"gewer":7524,"Ñĩ":7525,"ĠáĪĢáī¥":7526,"Ġwinkel":7527,"ĠáĭĺáĪĺáī»":7528,"Ġtoneel":7529,"bach":7530,"Ġáĭ¨áĭ«áĭĺ":7531,"ĠáīĥáĪĪ":7532,"ott":7533,"ĠáĬ¢áĭ©":7534,"ĠáĬ¥áĪŃáĪ±":7535,"áĮįáĪª":7536,"áĪĲáĪ´":7537,"Ġmeestal":7538,"ĠáīłáĬ®":7539,"Ġunder":7540,"Ġáĭ¨áĪļáĬ¨áī°":7541,"Ġáĭ°áĪħáĬķáĬĲáīµ":7542,"reat":7543,"Ġvergewe":7544,"gawes":7545,"ĠáĬ£áĪµ":7546,"áīłáĪ¨áī³":7547,"áī£áī¸áĭįáĬķ":7548,"áĪİáĪµ":7549,"nam":7550,"áĬ¨áĪĽ":7551,"ctor":7552,"áĮĮáĪį":7553,"wÃªreld":7554,"ĠáĪĿáĭĥáĬĳ":7555,"angs":7556,"oonlik":7557,"áĪ¥áĬĲ":7558,"Fe":7559,"ĠáĪ°áĪ«áĭĬáīµ":7560,"ĠEgip":7561,"áĬĴáĬŃ":7562,"ĠáĬĲáĭļ":7563,"Ġgelees":7564,"PR":7565,"Oor":7566,"áī²áĬŃáĪµ":7567,"ĠJer":7568,"Ġberei":7569,"eelding":7570,"Ġverplig":7571,"waardes":7572,"áīĥáĪī":7573,"ĠStud":7574,"ĠáĬŃáĪµ":7575,"fess":7576,"ĠáĮ¥áĪĭ":7577,"ĠáĬłáĮįáĬĿ":7578,"eplan":7579,"áĪķáī²":7580,"Ab":7581,"áįĪáĪĪáĮī":7582,"olge":7583,"ĠáĪĺáĭµáĬĥ":7584,"Kom":7585,"ĠáĪķáĭŃáĭĪ":7586,"imeter":7587,"âĢ¹âĢ¹":7588,"ĠBinary":7589,"ito":7590,"Ġwerf":7591,"ĠBar":7592,"OM":7593,"ume":7594,"áĪĺáĬķáĮį":7595,"áĪĪáīĢ":7596,"sak":7597,"ĠAfrica":7598,"ĠáĬ©áĬª":7599,"rie":7600,"fil":7601,"áīĢáĭĿáīĢ":7602,"ĠáĬłáĮĪáĪ®áī½":7603,"Ġáīłáĭĺ":7604,"dheid":7605,"uses":7606,"Ġfunksie":7607,"Joh":7608,"áĭĿáĪŃáĭĿáĪŃ":7609,"áīĢáĭĿáīĢáĭ£":7610,"pies":7611,"ĠáĬłáĭŃáī½áĪįáĪĿ":7612,"Ġáīłáī¥áĭĻ":7613,"áįīáĬķ":7614,"Ġpred":7615,"áĭ®áĪŃáĮĬáĪµ":7616,"Ġgebeurtenis":7617,"áĬ¨áĭį":7618,"ĠáĪĪáĪĺáĪµáĮłáīµ":7619,"áī·áĬķ":7620,"áĬ¥áĪĿáĪ®":7621,"ĠáĬ£áĪĺáĪªáĬ«":7622,"ĠáĭĿáĬĲáīłáĪ¨":7623,"ĠáĪļáĬĵ":7624,"Ġáĭ¨áĪĺáĮ¨áĪ¨áĪ»":7625,"ĠáĭĿáĮįáĮħáīµ":7626,"áĭ°áĬķáīµ":7627,"owwe":7628,"âľŀ":7629,"Ġverwerk":7630,"ĠáĮĪáī¥áĪ¨":7631,"Ġbehoefte":7632,"Ġkonsep":7633,"áĪ«áī±":7634,"88":7635,"ĠáĪµáĪŃáĭĵ":7636,"enning":7637,"Ġáī¥áĪŃáĪĥáĬķ":7638,"áĪ³áī¢":7639,"áĬŃáĪ²":7640,"ĠáīłáĪ½áī³":7641,"Ġvloe":7642,"Categor":7643,"Ġbroer":7644,"slaan":7645,"ĠáĬłáīħáĮ£áĮ«":7646,"termyn":7647,"itor":7648,"Ġlesers":7649,"Ġir":7650,"áīģáĪĿ":7651,"ĠáĪĽáĭĪáīħ":7652,"ĠGoogle":7653,"datum":7654,"ondig":7655,"áĮ¥áĪ©":7656,"ĠWÃªreld":7657,"Ġlaai":7658,"Ġáī¥áĭĽáĭķáī£":7659,"Ġáĭ«áĭµáĪŃ":7660,"ĠáĬ£áī¥áĭļ":7661,"áĪĪáĪĿáĬķ":7662,"Ġáĭ¨áĪħáĭĿáī¥":7663,"ĠPetr":7664,"ĠáīłáĭŃáįĭ":7665,"amb":7666,"ĠáĬ¥áī¶áĪĿ":7667,"ĠáĪĿáĪ³áĪĮ":7668,"ĠáĭĪáĪ«áīµ":7669,"ĠáĭľáĮĭ":7670,"72":7671,"Ġcl":7672,"Ġuitvind":7673,"Ġslot":7674,"tuie":7675,"gevind":7676,"áĪĭáĪĪáįį":7677,"Ġstok":7678,"Ġmal":7679,"áĭĪáĭµ":7680,"Ġonderwyser":7681,"Published":7682,"Ġover":7683,"95":7684,"Ġhoewel":7685,"stuur":7686,"perd":7687,"Ġgeken":7688,"Ġeindig":7689,"ĠNadat":7690,"ĠAangesien":7691,"áĬłáĪŃ":7692,"ĠáĭĪáĭŃáĪµ":7693,"áĮĪáĪ«áī¸áĭį":7694,"Ġáĭ¨áī°áĬĵáĮĪ":7695,"Ġáĭ¨áĪĿáĮįáī¥":7696,"ĠWet":7697,"Ġáī°áĪ¸":7698,"áĭ¶áī½áĬķ":7699,"áĭ³áĪĽ":7700,"Ġtoen":7701,"Ġmaal":7702,"áī½áĪĭáĪĪáĬķ":7703,"ĠáĭŃáĪ°áĮ£áĪį":7704,"ĠáĬłáĬĵ":7705,"haric":7706,"rol":7707,"Ġáĭ«áĬĲ":7708,"Ġblok":7709,"ĠáĬłáĮĪáĪįáĮįáĪİáī¶áī½":7710,"Ġboonste":7711,"Ġgedetail":7712,"áī½áĪģáĬķ":7713,"Ġáĭ°áĪ¨":7714,"ĠáĬ¨áĪĨáĬĳ":7715,"Ġáī°áĪį":7716,"Ġprov":7717,"Ġif":7718,"ĠAmazon":7719,"ĠSkrif":7720,"ios":7721,"ĠáīłáĬ¨áįįáī°áĬĽ":7722,"ĠáīłáĬłáĪģáĬĳ":7723,"ĠáĪħáĬŃáĪĿáĬĵ":7724,"Ġtemperatuur":7725,"ais":7726,"Ġvergadering":7727,"ĠáĬ¥áĬķáī½áĪĭáĪĪáĬķ":7728,"ĠDesember":7729,"áĮĭáĭľ":7730,"Ġnoodwendig":7731,"áĭ°áĪ°":7732,"tinge":7733,"Ġvergelyking":7734,"'t":7735,"ĠáĭŃáĪĺáĪį":7736,"ĠáĪķáĮĪ":7737,"ĠHol":7738,"áĮĪáĪĪáĮ¸":7739,"áĪģáīµ":7740,"Ġáįĭáī¥áĪªáĬ«":7741,"Ġdokument":7742,"áī°áĪ¨":7743,"moontlik":7744,"áĪŀáĪĭ":7745,"ĠáĮ¥áīĤáīµ":7746,"Er":7747,"ĠMel":7748,"plant":7749,"ĠáĬ®áĭŃáĬĳ":7750,"Ġáĭ¨áĭĪáĬķ":7751,"ĠáĪĺáĭ°áīłáĬĽ":7752,"arde":7753,"ĠáĬłáĭµáĪŃáĮĪáĭį":7754,"áĪ«áĭį":7755,"cy":7756,"ĠáĪĻáĬ¨áĪ«":7757,"ĠáĬłáĪĽáĪ«áĮŃ":7758,"ĠáĬħ":7759,"Ġingesluit":7760,"Ġblare":7761,"ĠáĪĺáĪµáĬ¨áĪ¨áĪĿ":7762,"ĠáĬłáĭįáī¶":7763,"ĠáĭŃáīĢ":7764,"ove":7765,"áįĪáĮ¸áĪĿ":7766,"ĠáĪĪáĪµ":7767,"áĬ¥áĬĽ":7768,"gend":7769,"ursus":7770,"ĠSloven":7771,"áīµáĪª":7772,"bank":7773,"ĠáĪĺáĪ¨áĮĥáĭİáī½":7774,"Ġskoonheid":7775,"verhaal":7776,"ĠáĭŃáīħáĪŃ":7777,"Ġáī°áĬĲ":7778,"och":7779,"Ġondersteuning":7780,"ights":7781,"áĭĺáĮĭáĮĢáĭį":7782,"abor":7783,"ype":7784,"anke":7785,"ĠTwee":7786,"akte":7787,"áĪŀáī½áĬķ":7788,"ĠEngels":7789,"áĪİáĬķ":7790,"áĬĿáĪĿ":7791,"Ġáįİáī¶":7792,"ĠáĬ¥áĬ©áĪį":7793,"áį©":7794,"ĠHuman":7795,"anks":7796,"Ġáĭ¨áĬ¦áĪ®áĪŀ":7797,"Ġliedjie":7798,"áĪłáĪ©":7799,"áĪĺáĪ³áĪ³áĭŃ":7800,"istelike":7801,"mie":7802,"Ġswanger":7803,"hosa":7804,"Ġwaarna":7805,"Ġspasie":7806,"Ġrukkie":7807,"Ġbykomende":7808,"Ġglimlag":7809,"Ġáĭ°áī¥áĭ³áī¤":7810,"illig":7811,"65":7812,"Ġden":7813,"dan":7814,"ĠáĬ¤áĪŃáīµáĪ«áĭįáĭ«áĬķ":7815,"ĠáĪĺáĮ¨áĪ¨áĪ»":7816,"ĠWill":7817,"áīĢáĭĭáĪį":7818,"Ġdankie":7819,"Ġsoortgelyke":7820,"áīĨáĮ£áĮł":7821,"ĠáĪĺáī¥áī¶áī½":7822,"áĬŃáī°":7823,"estaur":7824,"áĪĿáĪĮ":7825,"ĠáĪĽáĪµáĪ¨áĮĥ":7826,"ĠáĪµáī³":7827,"Ġbv":7828,"ĠKaapstad":7829,"Ġadr":7830,"Ġwyn":7831,"ĠáĬłáī£áĪį":7832,"Ġrespek":7833,"Ġteenwoord":7834,"Ġfinale":7835,"ĠáĬķáĮįáĮįáĪŃ":7836,"Ġáī£áĪĪáĪĻáĭ«áĭİáī½":7837,"áĬ¨áĪĺ":7838,"ĠáĪ«áĪµ":7839,"que":7840,"Ġhonder":7841,"Ġregver":7842,"stryd":7843,"Ġáī°áīĭáĪĿ":7844,"Ġoordeel":7845,"Ġwye":7846,"ĠáįįáĪŃ":7847,"Ġoond":7848,"upp":7849,"áīłáĭŃ":7850,")áį£":7851,"áĮ«áĭĪáīµ":7852,"áĬ¤áĪĿ":7853,"Ġhers":7854,"áĭĪáĪĥáīµ":7855,"iá»ĩ":7856,"Ġpdf":7857,"áĬ®áĪŃ":7858,"áĭĪáĪį":7859,"ĠáĪģáĪĪáī°áĬĽ":7860,"nel":7861,"ades":7862,"ĠáĭĺáĪŃáįį":7863,"áĬ¦áīµ":7864,"ĠáĪĿáīµ":7865,"tref":7866,"Ġ..":7867,"Phone":7868,"iger":7869,"Ġhuise":7870,"Ġtalle":7871,"Ġáĭ³áĭŃáĪ¬áĬŃáī°áĪŃ":7872,"adres":7873,"Ġbuitel":7874,"ĠGetty":7875,"áĭ³áī¸áĭį":7876,"ĠáĬ¨áĬ¢áīµáĭ®áĮµáĭ«":7877,"Ġáī°áĮįáī£áĪ«áĭĬ":7878,"áī¥áĪī":7879,"ĠáĪĮáĪĭáĭį":7880,"Ġgedetailleerde":7881,"treff":7882,"62":7883,"gelukkig":7884,"Ġplastiek":7885,"Ġvereistes":7886,"asy":7887,"ĠáĬ¥áĭ«áĪī":7888,"Ġgemiddelde":7889,"Ġnogal":7890,"Gebruik":7891,"áĪĭáĪ³":7892,"ĠáĮįáĬķáī£áī³":7893,"Ġáīłáī°áĮ¨áĪĽáĪªáĪĿ":7894,"áĬ¨áĪī":7895,"hi":7896,"Ġáī³áĭĭáīĤ":7897,"Ġkwal":7898,"ĠáĭŃáĪĺ":7899,"Ġduim":7900,"Ġtev":7901,"ĠMo":7902,"áĪĬáĬķ":7903,"ican":7904,"Ġgeleenthede":7905,"Ġdop":7906,"ĠáĭĿáĬ¾áĬĲ":7907,"ĠáĪ¥áĪįáĮ£áĬķ":7908,"ĠáĪĿáĬķáĭµáĬķ":7909,"ĠáĬłáĭ¨áĪĪ":7910,"Ġáĭ¨áĬłáįįáĪªáĬ«":7911,"Ġgesterf":7912,"VID":7913,"áĪĪáĪµ":7914,"áĪįáĪį":7915,"Dan":7916,"elect":7917,"Ġaktiwiteite":7918,"Ġáĭ¨áī°áī£áĪĪ":7919,"urrent":7920,"ĠáĮįáĭĽáīµ":7921,"ĠáĬ¥áĪŃáĪµ":7922,"ĠáĬłáī¥áĪ®":7923,"áĮłáĬĲ":7924,"áĪŃáīħ":7925,"Ġitems":7926,"Ġwese":7927,"ĠIS":7928,"Ġple":7929,"Ġkultuur":7930,"áĪ¨áĭ±":7931,"Ġgevorm":7932,"ĠáĬĲáĭī":7933,"Ġaktiwiteit":7934,"Ġongew":7935,"Ġverlore":7936,"Ġáī¥áĪĦ":7937,"Ã¢":7938,"áĬĶáīµ":7939,"ĠLig":7940,"We":7941,"estemming":7942,"ĠáįįáĪ¬":7943,"Ġvrye":7944,"aksies":7945,"áĭŃáī¶":7946,"ĠáĬĲáĭįáĬĵ":7947,"Ġweerst":7948,"Ġknop":7949,"ending":7950,"ĠáĬłáīħáĪ«áī¢":7951,"Sh":7952,"Ġmik":7953,"son":7954,"ĠáĬ®áĪŃ":7955,"ethiopia":7956,"ÛĮ":7957,"ĠáĬ¦áĪŃáī¶áĭ¶áĬŃáĪµ":7958,"ĠáĪģáĬĶáī³áĭİáī½":7959,"Ġáĭ¨áĪĺáĬķáĮįáĪµáīµ":7960,"áī³áĪī":7961,"Ġprosed":7962,"Ġvryheid":7963,"Hoekom":7964,"Ġkonstruksie":7965,"Ġgereedskap":7966,"ĠKersfees":7967,"áĪ°áĪį":7968,"Ġsagteware":7969,"áĭµáĭ«":7970,"ĠAbiy":7971,"áĪĢáĮĪáĪŃ":7972,"isering":7973,"áĭ¨áīĢ":7974,"overnment":7975,"áĭķáĬĵ":7976,"enteer":7977,"oreer":7978,"áĭ¨áĭµ":7979,"Ġmeisies":7980,"Ġstraf":7981,"ĠLoading":7982,"ĠáĭĭáĪµáīµáĬĵ":7983,"áĭĪáĮį":7984,"ĠWorld":7985,"Ġáĭ«áĪĭáī¸áĭįáĬķ":7986,"ieurontwerp":7987,"ĠáĭįáĪŃ":7988,"ateriaal":7989,"Ġáī°áĬ¨áīµáĪİ":7990,"Ġwaardeer":7991,"Ġáĭ¨áĪĪáĭįáĪĿ":7992,"áĭĽáĪ¬áĭį":7993,"ules":7994,"69":7995,"ran":7996,"Ġmaklike":7997,"ĠLees":7998,"ĠáĬłáĬĲ":7999,"Ġaanhang":8000,"Ġkoer":8001,"atter":8002,"gegaan":8003,"Ġemosies":8004,"get":8005,"Ġeier":8006,"une":8007,"Ġáī£áĪĪáĪµ":8008,"iáº¿ng":8009,"áĬ¤áĪŃáīµáĪ«":8010,"ĠáĬ®áĪļáī´":8011,"ĠMens":8012,"ĠáĬķáĭĿ":8013,"Ġvolwasse":8014,"áĪªáĬ«áĭĬ":8015,"Ġoorlog":8016,"ĠáĬłáĪ°áĪ«":8017,"Â«":8018,"Ġideaal":8019,"Ġstoor":8020,"groep":8021,"Ġkomplek":8022,"Ġmaksimum":8023,"áįª":8024,"áĬ©áĬķ":8025,"Ġoffer":8026,"81":8027,"ĠáĬłáī¥áĭŃ":8028,"áĭĭáĪŃ":8029,"Ġewe":8030,"ĠáĪĿáĪŃáĪĿáĪŃ":8031,"Ġprim":8032,"ĠComm":8033,"áĬ¨áĪĭáĬ¨áĪį":8034,"ĠPret":8035,"ĠEx":8036,"áĪįáĮłáĬĵ":8037,"Ġáĭ«áĪīáīµáĬķ":8038,"380":8039,"Ġakkur":8040,"áĪŁáĪį":8041,"pan":8042,"Ġporn":8043,"áīĢáĪ³":8044,"leep":8045,"Ġáĭ¨áī°áĪĺáĪ°":8046,"ves":8047,"'''":8048,"áĬ¨áĭļáĪħ":8049,"Ġtime":8050,"ĠáĬ¥áĭ«áĬķáĭ³áĬķáĭ±":8051,"Ġveiligheid":8052,"Ġargitek":8053,"Ġfiguur":8054,"gebruik":8055,"Ġnormale":8056,"inste":8057,"ĠáĬĴ":8058,"áī£áĬķ":8059,"áĭ³áĭŃ":8060,"ful":8061,"Ġdetail":8062,"Ġindividu":8063,"Ġmoo":8064,"same":8065,"ĠáĬłáĬķáĭ³áĬķ":8066,"Ġvang":8067,"áĪĿáīłáĪŃ":8068,"Ġskiet":8069,"Ġbeskrywing":8070,"naam":8071,"áĮ£áī¸áĭį":8072,"Ġx":8073,"Ġáī°áĮĪáĬĿ":8074,"Ġtroeteldier":8075,"leur":8076,"ĠMaria":8077,"ĠKerk":8078,"ĠWerk":8079,"eilig":8080,"onies":8081,"assings":8082,"Ġterugkeer":8083,"à¤¨":8084,"Ġeiland":8085,"áīłáĬķ":8086,"December":8087,"anto":8088,"áĭİáī¹áĬķ":8089,"Ġáĭ¨áĪĽáĪµ":8090,"ĠMidd":8091,"ĠáĬ³áĪµ":8092,"Ġveranderinge":8093,"Ġskak":8094,"ĠáĭĺáĪĭ":8095,"Ġlinks":8096,"áīħáĭ±áĪµ":8097,"ĠáĮ¸áĪİáīµ":8098,"ĠWh":8099,"ific":8100,"ĠáĪĨáĬĸáĪĿ":8101,"Ġkenmerk":8102,"Ġkonte":8103,"Wie":8104,"hoor":8105,"ĠáĪĢáī¥áīµ":8106,"áīĥáī¸áĭį":8107,"ĠáĪķáĬŃáĪĿáĬĵ":8108,"onger":8109,"ĠáĬĲáĮ¥áī¥":8110,"ĠáĭĪáĪµ":8111,"Ġsj":8112,"ilet":8113,"Ġsuk":8114,"áĭ³áĬĵ":8115,"áĭķáīµ":8116,"áĬĲáĮĭáĮĪáĪŃ":8117,"ĠáĪĿáĬķáĮŃ":8118,"gebou":8119,"Ġvreemde":8120,"áĪĺáĪįáĬ¨áīµ":8121,"à¸²":8122,"áī¬":8123,"metode":8124,"áĪĽáī½áĬķ":8125,"ĠáĬ¨áĪµ":8126,"áī°áĬĿáĬĲáīµ":8127,"sek":8128,"ĠâĨ":8129,"ature":8130,"ĠáĪĺáīĨ":8131,"áĬ®áīµ":8132,"áĮ¥áīħ":8133,"Ġáĭ¨áĪļáī½áĪī":8134,"ĠPres":8135,"ĠJulie":8136,"Ġbate":8137,"áĭµáĪ¨áĪµ":8138,"iseerde":8139,"Ġbehoorlik":8140,"ĠáĬ¡":8141,"Ġgat":8142,"ĠáĭµáĬķáĮĭ":8143,"diens":8144,"ĠáīłáĪĺáĮ¨áĪ¨áĪ»":8145,"ĠáĪµáĪįáĬŃ":8146,"áĪ·áĪį":8147,"ĠáīłáĪĺáīĢ":8148,"áĭķáĬĸ":8149,"IC":8150,"áĪķáĮį":8151,"ĠáĬ¥áĪµáĬ«áĪģáĬķ":8152,"ĠAlle":8153,"ĠáĬķáĭµ":8154,"Ġmisl":8155,"Ġgesit":8156,"Jesus":8157,"Ġkantoor":8158,"Ġspoor":8159,"stukke":8160,"Ġstroom":8161,"gebore":8162,"iklus":8163,"isensie":8164,"áĪĽáĬķáĬĽáĭįáĪĿ":8165,"ĠáĬłáĪįáī£":8166,"ĠHaw":8167,"Nou":8168,"Ġsewe":8169,"raft":8170,"ĠNoord":8171,"oroskoop":8172,"ĠVr":8173,"Ġwonderlik":8174,"Ġnoord":8175,"áĪĪáīłáīµ":8176,"Ġbon":8177,"Ġadvert":8178,"Ġáĭ¨áī°áĪ³":8179,"Ġsukkel":8180,"Ġgereelde":8181,"iaan":8182,"oria":8183,"Ġstreng":8184,"áĮĭáī¸áĭį":8185,"orge":8186,"offer":8187,"ĠáĬłáĭĭáĮħ":8188,"ĠáīłáĭļáĪģ":8189,"Ġáī£áĪĪáįĪáĭį":8190,"ĠNeem":8191,"Ġbegeerte":8192,"ĠáĭĪáĭ²áĭ«":8193,"ĠáĬłáĪįáįİ":8194,"Ġbeginners":8195,"ĠáĮ¥áĪŃ":8196,"ĠáīģáĪŃ":8197,"ji":8198,"ĠAz":8199,"ĠáĪĿáĬĵáĪįáī£áīµ":8200,"ĠáĬłáĪĺáĪį":8201,"ĠEuropa":8202,"Ġgram":8203,"pret":8204,"gies":8205,"td":8206,"ĠGeen":8207,".[":8208,"telike":8209,"netiese":8210,"Ġáĭ¨áĪĿáĪµ":8211,"ana":8212,"Categories":8213,"bum":8214,"ĠáĬłáĬķáīĢáĮ½":8215,"ĠAnt":8216,"áĭİáī»áī½áĬķ":8217,"77":8218,"Ġharte":8219,"Õ¥":8220,"trekking":8221,"entoe":8222,"áĬ£áīµ":8223,"áĭµáĪ©":8224,"ĠáīµáĮįáĪį":8225,"Ġblomme":8226,"ĠáĮŃáĪĿáĪŃ":8227,"rewe":8228,"áįĪáĪ¨":8229,"ĠáīłáĮĭáĪ«":8230,"Ġtal":8231,"ĠáĬłáĪłáĪ«":8232,"ĠáīĢáĭŃ":8233,"EM":8234,"ĠáĪİáĪļ":8235,"Na":8236,"Ġfot":8237,"uwee":8238,"ĠáĪĪáĪħ":8239,"Ġvennoot":8240,"áĪŀáĬķ":8241,"Ġáĭ¨áĭĪáĮ£":8242,"tuele":8243,"Ġongeluk":8244,"Ġinteressant":8245,"áĪ¸áĪ«":8246,"áĮħáī±":8247,"Ġlas":8248,"ĠOktober":8249,"oda":8250,"bok":8251,"ning":8252,"isis":8253,"ĠáĪµáĪ«áĭİáī½":8254,"ĠáĭįáĪį":8255,"ĠáĬ¢áĬķáī°áĪŃ":8256,"urend":8257,"diere":8258,"Ġáĭ¨áĬĲáīłáĪ¨áĭįáĬķ":8259,"che":8260,"Ġkategorie":8261,"Ġvooruit":8262,"Ġwens":8263,"ĠOnt":8264,"aÃ±":8265,"ĠFor":8266,"áĮ¡áĬķ":8267,"ĠáīħáĭµáĪµáīµ":8268,"ĠáĬłáĬ«áī£áī¢áĭİáī½":8269,"Ġáī¥áīµ":8270,"bert":8271,"Ġáĭ¨áī°áĪ°áĪ«":8272,"áī²áĬķ":8273,"Ġvernietig":8274,"Ġbrein":8275,"Ġgids":8276,"Ġfaktore":8277,"2006":8278,"Ġsil":8279,"ĠáĪĽáĪŃ":8280,"64":8281,"áĪĽáĪ½":8282,"dent":8283,"ĠáĮĬáĭ®áĪŃáĮĬáĪµ":8284,"áĬĲáīłáĪ¨áĭį":8285,"áĮĪáī£áĭį":8286,"Ġlede":8287,"áĪ¨áĬĽ":8288,"spreek":8289,"ĠTen":8290,"the":8291,"ĠPetrus":8292,"mot":8293,"Ġáĭķáīħáĭµ":8294,"ĠáĮįáĭ´áī³":8295,"áĬ«áĪĦáĭ°áĭį":8296,"ĠHer":8297,"ĠáĬ¨áīµ":8298,"áī³áĭĪáīħ":8299,"ĠáĪĽáĬķáĪĿ":8300,"back":8301,"ibla":8302,"Ġgewoond":8303,"Ġtipes":8304,"lyne":8305,"Ġvanuit":8306,"Ġstukke":8307,"áĮłáīģ":8308,"Ġklank":8309,"ĠAdam":8310,"ĠMos":8311,"ĠáĮįáĪįáĮ½":8312,"ĠáĪĺáĪĨáĬĵáī¸áĭįáĬķ":8313,"áī´áĬķ":8314,"áī³áĪŃ":8315,"Ġbord":8316,"áĮĮáī³":8317,"Ġáĭ¨áĪĺáĪ³áĪ°":8318,"Ġnodige":8319,"Ġopdrag":8320,"ĠTrading":8321,"Ġaangaan":8322,"ĠkliÃ«nt":8323,"ĠLewe":8324,"ERE":8325,"lex":8326,"ĠáĬłáĪĿáĪĭ":8327,"ital":8328,"ĠáĬłáī¥áĪ¨":8329,"aya":8330,"duseer":8331,"ĠáĪĽáīĢáĭĿáīĢáĭ£":8332,"oefen":8333,"ures":8334,"Ġbereken":8335,"áĪ¶áī½áĬķ":8336,"ĠáĭŃáĭį":8337,"áĭ°áĪ«áĪį":8338,"ĠáīłáĪĺáĪĨáĬķ":8339,"Ġáīłáĭ°áĬķ":8340,"áĪĽáī²áĬŃ":8341,"ĠáĪįáĬķ":8342,"áĪĪáĭ«áĭ¨":8343,"áī¥áī»":8344,"Ġany":8345,"áĬ¥áĬĲáĭļáĪħ":8346,"anguage":8347,"ĠáĪĺáīħ":8348,"ĠáĪĢáĪ³áī¥":8349,"ĠáĬ¨áīł":8350,"Ġopenbaar":8351,"gedra":8352,"ĠáĪĺáĪ°áĪ¨áī³áĭĬ":8353,"beelde":8354,"Ġverhoudings":8355,"áĪķáĬķ":8356,"Ð¾Ð¾Ð¾Ð¾":8357,"pre":8358,"ĠáĪĨáĬĹáĪį":8359,"áĮ½áĪĳ":8360,"Ġáĭ¨áĪĨáĬĲáĭįáĬķ":8361,"Ġvloeisto":8362,"Ġsand":8363,"ĠMaart":8364,"ict":8365,"Ġwerks":8366,"áĪ°áĮłáĭį":8367,"áįįáĮ¨":8368,"Ġverstand":8369,"ĠáįĭáĭŃ":8370,"uma":8371,"trent":8372,"ĠAll":8373,"Ġáĭ¨áĮ¦áĪŃ":8374,"fs":8375,"áĭ«áĭ«áĭĺ":8376,"Ġakteur":8377,"jin":8378,"Ġáĭ«áĪµáįĪáĪįáĮĭáĪį":8379,"ĠteÃ«ls":8380,"Ġintel":8381,"Ġstres":8382,"ĠUs":8383,"RL":8384,"ices":8385,"kre":8386,"rop":8387,"Ġáĭ²áĭ«":8388,"ĠDaniel":8389,"ĠáĬĥáĭŃáĪİáī½":8390,"nag":8391,"ĠIt":8392,"áĮłáĪĭ":8393,"uter":8394,"Ġstudent":8395,"urf":8396,"ĠáĬ¥áĬķáĭµáĬķ":8397,"Ġker":8398,"itale":8399,"áī¶áĬķ":8400,"kan":8401,"áĪ¦áĪµáīµ":8402,"Ġpop":8403,"áĪ³áĭį":8404,"áĮĪáĮ½":8405,"Ġáĭ¨áĪĽáĭ«":8406,"áīłáī³":8407,"reÃ«ls":8408,"Ġref":8409,"Ġwaaroor":8410,"Ġslaag":8411,"ĠáĪĪáĪĽáĭĪáīħ":8412,"Ġnasionale":8413,"áīłáĭĿ":8414,"tering":8415,"áĪ¬áĪ½áĬķ":8416,"ĠáĮİáĬķ":8417,"áĬ¥áĪ°":8418,"ĠáĬłáĪįáĬĲáīłáĪ¨":8419,"hatsApp":8420,"ĠáĬłáĪĽáĪŃáĬĽ":8421,"Ġras":8422,"ĠáĪĺáĬŃ":8423,"bb":8424,"áī½áĬĭ":8425,"áĪŃáĪĿ":8426,"ĠFin":8427,"Ġnaamlik":8428,"ĠáĬ¥áĭŃáī³":8429,"Ġgebeure":8430,"Ġopstel":8431,"Ġantwoorde":8432,"geval":8433,"áĭ¶áĪĿ":8434,"kontrak":8435,"Ġáĭ¨áĬĥ":8436,"ĠáįķáĪ¬áĭĿáĭ³áĬķáīµ":8437,"ðŁĶ":8438,"Ġáĭ¨áĭ°áĪ¨":8439,"aith":8440,"ammer":8441,"ĠMore":8442,"Ð°Ð·":8443,"èª":8444,"èªŀ":8445,"Ġspesifiek":8446,"2000":8447,"ized":8448,"áĭª":8449,"áįķáĪİ":8450,"Ġoefening":8451,"Ġtyds":8452,"áĭŀáĪĿ":8453,"ĠáĪĥáĭŃáĪį":8454,"zbek":8455,"áł":8456,"ĠáĬłáĪµáī°áĪ³áĪ°áī¥":8457,"hard":8458,"áĪ¦":8459,"uch":8460,"ĠVl":8461,"áįķáĪĭ":8462,"ĠáĪµáįįáĪ«":8463,"Ġrestaur":8464,"ĠáĪ¥áĪŃáĭĵ":8465,"ĠáīłáĪĺáī°áī£áīłáĪŃ":8466,"Ġcm":8467,"Ġgeslag":8468,"Ġverde":8469,"ĠáĭįáĮª":8470,"Ġengel":8471,"Ġdemo":8472,"Ġbome":8473,"Ġpolisie":8474,"velop":8475,"ĠáĬ¨áĭļáĭ«áĪĿ":8476,"áĭ°áīħ":8477,"Ùı":8478,"áĪµáīµáĪ«":8479,"áįĬáĭį":8480,"ĠáĪħáĭŃáĭĪ":8481,"ĠáĪµáī´áīµ":8482,"skep":8483,"Call":8484,"Ġaandui":8485,"Ġskaars":8486,"ĠáĬĶ":8487,"ĠCo":8488,"Ġsuper":8489,"Ġáĭ¨áī°áĮłáīłáīĢ":8490,"Ġáī´áĪĮ":8491,"áĪ«áīħ":8492,"áĮłáīĥáīĢáĪĿ":8493,"áīĥáĬķ":8494,"Ġkoffie":8495,"ĠáĪĬáĮį":8496,"ĠáīĢáĪĪáĪĿ":8497,"ieÃ«l":8498,"Ġverdere":8499,"ĠSien":8500,"ĠMac":8501,"oender":8502,"Ġdigter":8503,"stellings":8504,"Ġbenadering":8505,"boeke":8506,"Ġsamele":8507,"erd":8508,"Ġ?":8509,"Ġáĭļ":8510,"aÃ±ol":8511,"áĪĻáĪµ":8512,"apper":8513,"Ġareas":8514,"áĪĲáĭŃ":8515,"ĠáĪ°áĭŃ":8516,"ĠGoeie":8517,"onte":8518,"Ġversterk":8519,"ĠJunie":8520,"Ġonlangs":8521,"gewers":8522,"ibr":8523,"ĠpoÃ«sie":8524,"áĭįáĮ£áīµ":8525,"áĮłáĪĪ":8526,"Ġáī£áĪĪáĪĺ":8527,"halwe":8528,"dish":8529,"Ġtra":8530,"ĠáĪĺáĪµáįĪáĪŃ":8531,"ience":8532,"abil":8533,"Ġtw":8534,"Ġneus":8535,"áĭĪáĮĪáĭµ":8536,"Ġbetref":8537,"áĪĺáĪĪáĬ«":8538,"Br":8539,"hart":8540,"ĠáĪĺáī¼":8541,"áĮ´áĭĽ":8542,"ĠWind":8543,"yr":8544,"áĭĪáīµ":8545,"ĠSond":8546,"áĭ«áĬķáĪµ":8547,"Ġonmoontlik":8548,"Ġspanning":8549,"Ġkoel":8550,"Ġverklaar":8551,"Ġklomp":8552,"click":8553,"bin":8554,"ĠáĪĴ":8555,"alem":8556,"Ġmeet":8557,"Bes":8558,"ited":8559,"áĪŃáĭķ":8560,"aks":8561,"ĠáĪĿáĪįáĬŃ":8562,"áĪµáī¡":8563,"ĠArab":8564,"Ġongemak":8565,"ĠRus":8566,"ĠáĭĪáĮ£áī¶áī½":8567,"Ġáĭ¨áĮĪáĬķáĭĺáī¥":8568,"Ġvervul":8569,"Ġvoortdurend":8570,"Ġheilige":8571,"Laat":8572,"ĠProbeer":8573,"ĠáīłáĪĮ":8574,"platform":8575,"omi":8576,"Ġbehels":8577,"ube":8578,"Ġáī¥áĪıáĪį":8579,"ĠáĬłáĭ°áĪ¨áĮĪ":8580,"ĠlÃªers":8581,"ducat":8582,"ritten":8583,"Ġhotel":8584,"ĠáĪĺáĬĸáĪŃ":8585,"áīłáĭĭáĪį":8586,"ĠGes":8587,"ĠSer":8588,"itz":8589,"ĠáĪ°áĪĭáĪĽáĭĬ":8590,"iwer":8591,"áĮłáīħáĪĭáĭŃ":8592,"xe":8593,"Ġspeler":8594,"Ġnormaal":8595,"Ġáĭ¨áĪħáĬŃáĪĿáĬĵ":8596,"Ġinsk":8597,"Ġgodsdienstige":8598,"Ġáī°áĪµáĪĽáĪļ":8599,"áĮĢáĪĺáĪ©":8600,"Ġáĭ¨áĪĮáĪĪáĭį":8601,"Ñĸ":8602,"78":8603,"ĠAk":8604,"áĪĻáĬĵ":8605,"ĠPortugu":8606,"áĪıáī¸áĭį":8607,"Ġbesprekings":8608,"áĪķáĭĿ":8609,"isse":8610,"Ġtegniese":8611,"Ġveilige":8612,"Ġáī¥áĪŃáĪĥ":8613,"Ġtoerusting":8614,"ĠáĭŃáįĭ":8615,"ĠMart":8616,"Ġ}":8617,"Ġleiers":8618,"áĭ³áĭ°":8619,"Ġcr":8620,"ĠáĭĺáĪĺáĬĵáĭĬ":8621,"ĠáĭŃáĬĸáĪŃ":8622,"indig":8623,"Ġáĭ¨áĪļáĭ«áĪ³":8624,"Ġáĭ«áĭµáĪŃáĮī":8625,"ĠáĬ¥áĬķáĭ°áĪĿ":8626,"áĭ°áĪŃáĮĪáĭį":8627,"Ġáī¥áĭĽáīµ":8628,"Ġinstrument":8629,"áĬłáĪµáī°":8630,"ĠáĪªáįĸáĪŃáīµ":8631,"ĠáīłáĪĿáĪŃ":8632,"ĠáĮĪáī£":8633,"groei":8634,"Ġáĭ«áĪĪáīłáīµ":8635,"ĠáĪĿáĪģ":8636,"áĪĪáīħ":8637,"Ġstam":8638,"ĠáĮįáĬķáĭĽáī¤":8639,"Ġsame":8640,"ĠáĪĬáĭ«áĪµ":8641,"Bl":8642,"Ġperd":8643,"US":8644,"áĪĽáĪī":8645,"ankie":8646,"Ġweier":8647,"Ġbundel":8648,"ÙĲ":8649,"ĠáĬ¥áĭļáĭ«":8650,"Ã¤":8651,"ĠáĪ¥áĮĭ":8652,"áĪ¨áĮį":8653,"Ġore":8654,"áī½áĪĪáĭį":8655,"ĠáįķáĪ¬áĭļáĭ³áĬķáīµ":8656,"Search":8657,"ulture":8658,"áīłáĪ¬áī³":8659,"Ġalhoewel":8660,"Ġidentifiseer":8661,"Ġwysig":8662,"ĠáĮĦ":8663,"istreer":8664,"ĠáĪ°áĪ«áī°áĬŀáī½":8665,"ĠáĮłáĪĭáīµ":8666,"Ġáį¥":8667,"áĪĿáĪ«":8668,"ĠáīłáĪĮáĪİáī½":8669,"Ġáĭ¨áĪĺáĮĢáĪĺáĪªáĭ«áĭį":8670,"ĠáīłáĮįáĪįáĮ½":8671,"ĠáįķáĪ®áĮĢáĬŃáīµ":8672,"áīĳ":8673,"ĠWar":8674,"Ġáĭ¨áįĭ":8675,"tome":8676,"Ġaller":8677,"Ġoptrede":8678,"áĮĵáĭ´":8679,"Ġtou":8680,"bronne":8681,"Ġkante":8682,"TC":8683,"áĬ¹áĬķ":8684,"Ġselfoon":8685,"áĮįáĪ«áĪĿ":8686,"áĮĪáī£áīµ":8687,"EB":8688,"ĠáĬ®áĬķ":8689,"Ġáĭ¨áĪĺáĪµáĪĺáĪŃ":8690,"Ġteles":8691,"ĠáĪĿáĭķáĪ«áįį":8692,"Ġáī°áĮ«áĭĭáī¾áī½":8693,"Ġadres":8694,"ĠáĪĺáĪĿáĪħ":8695,"Ġtande":8696,"Ġopgew":8697,"ĠáĬ¨áĪį":8698,"áĮ½áĬķ":8699,"UR":8700,"ĠáĬĥáĮ¢":8701,"onian":8702,"Ġmening":8703,"ĠáĪĺáĮ»áĪķáįįáīµ":8704,"Ges":8705,"áĮ«áĭİáī½":8706,"ĠVra":8707,"Ġmoeg":8708,"Ġweers":8709,"idelik":8710,"ĠáīłáĪģáĪĪ":8711,"Ġáī°áĮ¨":8712,"bord":8713,"bewus":8714,"astiese":8715,"arg":8716,"ĠFranse":8717,"áīĤáĭİáī½":8718,"otho":8719,"Ġsing":8720,"ĠáĪĺáĭĵáĪį":8721,"ĠKor":8722,"ĠáīłáĬķ":8723,"áĭĭáĪĪáĪģ":8724,"²àº":8725,"àº²àº":8726,"ĠáĭŃáĮĪáĪį":8727,"ĠBer":8728,"Ġfir":8729,"ukkige":8730,"Ġverloop":8731,"wn":8732,"Ġraam":8733,"ĠstrategieÃ«":8734,"Ġáĭĳ":8735,"mit":8736,"ĠáĮįáĪ«áĬĿ":8737,"áĭĪáĪ°áĬĲ":8738,"Ġbeker":8739,"áĬ£áĭĬ":8740,"áĭĶ":8741,"áĪ¨áįį":8742,"ĠArtik":8743,"áī°áĪĺ":8744,"áĪĺáĬķáīµ":8745,"Ġomge":8746,"Ġweens":8747,"lemtoon":8748,"Ġpryse":8749,"ĠJanuarie":8750,"Ġontsp":8751,"Ġáī»áĭŃáĬĵ":8752,"ĠlÃªer":8753,"Ġprote":8754,"Ġáĭ¨áĬ¥áĬķ":8755,"ĠáĪĽáĭ³":8756,"Ġáĭ¨áĮĭáĪ«":8757,"áĮłáĬĿ":8758,"April":8759,"ified":8760,"ĠáĮ¥áĪ«áĭŃ":8761,"áĬĵáĪ½":8762,"oere":8763,"****":8764,"skas":8765,"áĭ°áĬĽáĭį":8766,"áĭ¨áĪ©":8767,"Ġkunstenaar":8768,"Ġsimbool":8769,"ĠáĪĻáĪµáĪĬ":8770,"Ġáī°áĮįáī£áĪ«áīµ":8771,"ĠáĪĺáī°áĮįáīł":8772,"áĮĪáĪĪáĮį":8773,"Ġáī°áĬŃáĪĪ":8774,"áĭ«áī°":8775,"Ġáī¥áĭĺáĭŃ":8776,"Ġáĭ¶áĬŃáī°áĪŃ":8777,"Gew":8778,"Ġblom":8779,"vent":8780,"Ġbestaande":8781,"beperk":8782,"ĠáĮ¥áīłáī¥":8783,"Ġstaal":8784,"Ġdoelwitte":8785,"liggende":8786,"aming":8787,"áĭĪáĪ«":8788,"Ġrele":8789,"Ja":8790,"áĪŃáĪ³":8791,"áī¥áĪ©":8792,"ĠáĮłáĪĭ":8793,"Ġáīłáĭĭ":8794,"ĠáĬ¥áĬķáĪµ":8795,"áĬĸáĪµ":8796,"Ġáĭ«áĪĭ":8797,"Ġent":8798,"áĪµáĬŃ":8799,"Ġophou":8800,"ĠáĬłáĪ«":8801,"besk":8802,"áĪ¨áĬķáĮĵáĭ´":8803,"reig":8804,"Ġbevind":8805,"Ġáĭ¨áĬłáĭ²áĪµ":8806,"Ġskat":8807,"ĠáĬ®áĪļáĪ½áĬķ":8808,"Ġarms":8809,"áĭĪáīħáī±":8810,"400":8811,"kens":8812,"MA":8813,"Ġdu":8814,"áĪ³áĭ«áĪµ":8815,"ĠáĬŃáįī":8816,"ĠwÃªreldreis":8817,"Ġhospitaal":8818,"Ġdans":8819,"Ġbehou":8820,"Ġgerief":8821,"áĮłáī£":8822,"ĠáĪįáĭ©áĬĲáīµ":8823,"Ġbelegging":8824,"áĬ©áī£áĬķáĭ«":8825,"Ġáīłáī¤áī°":8826,"Net":8827,"Ġáī¥áĪ«":8828,"atr":8829,"inee":8830,"63":8831,"Ġpredik":8832,"áĪĺáĪµáĪį":8833,"ĠáĬ¥áĭµáĪį":8834,"Ġgoud":8835,"Ġteenwoordigheid":8836,"Ġkombinasie":8837,"Ġhistoriese":8838,"Ġáĭ¨áĬ«áī²áīµ":8839,"ĠáĬ¨áĪĿáĬ¡":8840,"ĠáĮ£áĪį":8841,"ĠáĭįáĮ¤áī³áĪĽ":8842,"Ġkil":8843,"apen":8844,"ory":8845,"Ġsla":8846,"ĠáĬªáĭ³áĬķ":8847,"ĠáĬ¨áĪĭáĭŃ":8848,"ĠáĬ¥áĮįáĪŃ":8849,"ookies":8850,"ĠChristelike":8851,"ĠáĪĥáĭŃáĪĽáĬĸ":8852,"áĭ¥áĬķ":8853,"etiese":8854,"Ġeenheid":8855,"Ġtrots":8856,"Ġstraat":8857,"Ġáĭ¨áĬłáĬ«áĪį":8858,"ĠNee":8859,"Ġseine":8860,"áĭĪáĪ¨":8861,"ĠáĪµáĪĿáĪĿ":8862,"Ġregering":8863,"ipe":8864,"Ġgelowiges":8865,"ĠáĪ°áĭİáī½áĬķ":8866,"Ġberoep":8867,"áĮĪáĬĵáĬĿ":8868,"ĠáĪĺáĭ°áī¥":8869,"Ġmengsel":8870,"ĠáīłáīħáĪŃáī¡":8871,"Ġafhangende":8872,"Ġontle":8873,"Ġaspekte":8874,"Ġáīłáĭ²áĪĭ":8875,"Ġmeubels":8876,"ĠTog":8877,"áĮ»áĮ¸":8878,"áĭ³áĭį":8879,"áĪ¨áĮħáĪĿ":8880,"ĠáĬ¢áĬĵ":8881,"Ġheld":8882,"Ġgraad":8883,"ĠáĪįáĪĽ":8884,"ĠdroÃ«":8885,"áĭĪáĮ£áĭį":8886,"Ġsoortgelyk":8887,"toning":8888,"Ġgebly":8889,"Ġregoor":8890,"vul":8891,"esier":8892,"Ġoproep":8893,"organ":8894,"crip":8895,"ĠMed":8896,"Ġmake":8897,"Ġtier":8898,"ĠáĭŃáĪĺáĪįáĬ¨áī±":8899,"à®®":8900,"ĠáĭĪáĪ³":8901,"ĠBas":8902,"Ġáĭ¨áĮ¸":8903,"ution":8904,"Ġeiers":8905,"Pre":8906,"áĭĺáĮĭáĮģ":8907,"Ġrad":8908,"Ġgegewe":8909,"winkel":8910,"ĠÐľ":8911,"Ġáĭ¨áĪ°áī¥":8912,"OS":8913,"ĠáĮįáĬķáī£áĪŃ":8914,"vrou":8915,"ĠMei":8916,"áĭµáĬĵ":8917,"áĬĳáīµ":8918,"Sim":8919,"Ġáĭ¨áĭ²":8920,"áĬķáĭ³áĬķáĭµ":8921,"ĠáĪĿáĬŃáīµáĪį":8922,"ĠáĬĥáĪĭáįĬáĬĲáīµ":8923,"áĮįáĬĻáĬķ":8924,"áĪĪáĬĽáĪį":8925,"áįĨ":8926,"áī°áĬĵáĪį":8927,"áĬķáĪ²":8928,"Ġáĭ«áĭ°áĪ¨áĮĪ":8929,"ĠáĭĪáĪ¨áīĢáīµ":8930,"Ġmilit":8931,"Ġhoogste":8932,"áī£áī¸áĭĭáĪį":8933,"ĠNasionale":8934,"Ġtegnologie":8935,"Ġmaatskappye":8936,"vious":8937,"Ġstoel":8938,"Ġbestanddele":8939,"áĪŃáĪ½":8940,"Ġinform":8941,"iens":8942,"Ġgras":8943,"áīĢáįį":8944,"ĠáĮ³áĮ³":8945,"áĪįáĪĽ":8946,"oring":8947,"ĠáĪĺáĮ¨":8948,"ĠáĪĺáĪĢ":8949,"ĠáĬĲáĪĲáĪ´":8950,"ĠáĪĽáĪ°":8951,"áī³áĪĿ":8952,"matige":8953,"áĮīáĬķ":8954,"Ġgevang":8955,"Ġspeletjie":8956,"áĪŃáī¥":8957,"Ġverhoed":8958,"Ġpraktiese":8959,"áīĢáĪŃáī¡":8960,"ĠáĮĨáĪ®":8961,"Ġelektriese":8962,"ĠáĮīáĪį":8963,"ĠHawai":8964,"igers":8965,"ĠáĭĿáī°áįĪ":8966,"Ġbladsye":8967,"Ġonsself":8968,"materiaal":8969,"ĠLeave":8970,"Ġsekondes":8971,"arts":8972,"ping":8973,"Ġgevolge":8974,"waarde":8975,"----":8976,"áĪĨáĬĲáĭį":8977,"ilipino":8978,"tom":8979,"áĭļáĬĸ":8980,"ĠáĬ¥áĪŃáĮį":8981,"Ġbinnekort":8982,"usa":8983,"Ġhiervoor":8984,"Ġpolitieke":8985,"uriteit":8986,"Ġskrik":8987,"áĭįáĭį":8988,"ĠáĭŃáĪĺáĪµáĪĭáĪį":8989,"Ġstrand":8990,"ĠáĬłáī¥áĭ®áīµ":8991,"Hou":8992,"ĠáīłáĪĺáĪµáĮłáīµ":8993,"Ġáĭįáĭµáĭµ":8994,"ĠáīĢáĭ³":8995,"ĠTurk":8996,"79":8997,"usk":8998,"ĠáĪĺáĬªáĬĵ":8999,"ĠáĬ¨áĪĮ":9000,"Ġdatum":9001,"Ġvliegtuig":9002,"Sodra":9003,"ĠáĭŃáī£áĪĭáĪį":9004,"ĠáĪ°áĪĭ":9005,"ĠMark":9006,"Ġblik":9007,"Ġaflaai":9008,"rekenaar":9009,"Ġsamelewing":9010,"ĠáĪ«áĪ±áĬķ":9011,"iÃ«rs":9012,"Ġanalise":9013,"áĬĴáĪįáĬŃ":9014,"Ġáī«áĭŃáĪ¨áĪµ":9015,"Ġáī¥áīĥáīµ":9016,"Dr":9017,"Ġsok":9018,"ĠGed":9019,"áĪįáĬĿ":9020,"ĠáĭĺáĮĭ":9021,"Ġnoodsaak":9022,"acy":9023,"mense":9024,"ĠDep":9025,"Ġkonf":9026,"ĠáĪ¦":9027,"gewend":9028,"ĠRights":9029,"áĭ¨áīħ":9030,"áĪĽáĪªáĭİáī½":9031,"ĠáĬ¥áī£áĬŃ":9032,"ðŁĺ":9033,"ĠFrank":9034,"áĭ°áī¡áī¥":9035,"ĠáĬ¥áĬĲáĪŃáĪ±":9036,"ĠWilliam":9037,"Ġáī°áĭ°áĪ«":9038,"Ġgesag":9039,"ĠáĬłáĪ¸áĬĵáįĬ":9040,"áĪĿáįĵ":9041,"Ġtekens":9042,"Ġgeur":9043,"Ġbestel":9044,"webwebwebwebwebwebwebwebwebwebwebwebwebwebwebwebwebwebwebwebwebwebwebwebwebwebwebwebwebwebwebwebwebwebwebwebwebwebwebwebwebwebwebwebwebwebwebwebwebwebwebwebwebwebwebwebwebwebwebwebwebwebwebwebwebwebwebwebwebwebwebwebwebwebwebwebwebwebwebwebwebwebwebwebwebwebwebwebwebwebwebwebwebwebwebwebwebwebwebwebwebwebwebwebwebwebwebwebwebwebwebwebwebwebwebwebwebwebwebwebwebwebwebwebwebwebwebweb":9045,"ĠpotensiÃ«le":9046,"ĠáĪłáĪ«áī°áĬŀáī½":9047,"áĢ¬":9048,"áĮ¿":9049,"bar":9050,"ioen":9051,"áĪĿáĪµ":9052,"Ġáĭĺáĭį":9053,"word":9054,"áī³áĪ¨":9055,"áĮłáĪ¨áĭį":9056,"conom":9057,"ocide":9058,"Ġtotale":9059,"ĠáĬŃáĪħáĬĲáīµ":9060,"Ġinwon":9061,"ĠEritrea":9062,"ensy":9063,"Ġsuiwer":9064,"áī°áĪĿ":9065,"Ġother":9066,"Ġsogenaam":9067,"Ġsuiker":9068,"áĬ¨áī£áī¢":9069,"áĪİáī¹":9070,"Ġatmos":9071,"iano":9072,"ĠáĪĪáīł":9073,"speranto":9074,"ĠáĮĮáī³áī¸áĭį":9075,"áī£áī£":9076,"áįĭáĪŃ":9077,"ĠHERE":9078,"ĠSom":9079,"ĠáĬ¥áĭµáĮĪáīµ":9080,"ĠáĭĽáĪ¬áĪĿ":9081,"Ġáīłáĭļ":9082,"ĠáĭĪáīħáī³áĭĬ":9083,"Ġpersoonlik":9084,"âĢ¦]":9085,"ĠáĬ¨áĪĮáĪİáī½":9086,"ĠáīĢáĪ¨":9087,"ĠDink":9088,"ĠáĭĪáĭ°áįĬáīµ":9089,"ĠáĪµáįĸáĪŃáīµ":9090,"ĠHealth":9091,"áĭĽáī¥":9092,"Ġsaid":9093,"kuns":9094,"áĬ®áĬĲáĬķ":9095,"iÃ«nt":9096,"Ġvoorkeur":9097,"áĭļáīĥ":9098,"áīĥáĪļ":9099,"áĬ£áĭŃ":9100,"Ġsogenaamde":9101,"anish":9102,"Ġáī¢áĭ«":9103,"Ġáĭ¨áĪļáīĨáĮłáĪ©":9104,"áįįáĪŃ":9105,"mong":9106,"ĠAt":9107,"ĠáīħáĭµáĪĺ":9108,"ĠáīłáīĢáĮ£áĭŃ":9109,"ĠvoÃ«ls":9110,"Ġáī°áĪ³áīµáįİ":9111,"Ġvoorwerpe":9112,"Ġbetroubare":9113,"áĬ¾áĬĳ":9114,"oernal":9115,"ĠáĮįáĬĵ":9116,"Ġduiwel":9117,"áĬ«áī°":9118,"áĪĽáĪ©":9119,"Ġáĭ¨áĬ¢áīµáĭ®áĮµáĭ«áĬķ":9120,"Ġbreed":9121,"Ġkas":9122,"áĭŁ":9123,"bay":9124,"agasy":9125,"Ġimmers":9126,"Ġomtrent":9127,"Terwyl":9128,"Ġverlos":9129,"Ġpassie":9130,"áī°áĪĵ":9131,"Ġingew":9132,"Ġleier":9133,"tock":9134,"Ġfunksion":9135,"Deel":9136,"ĠáĪĺáĮĪáĪĪ":9137,"ĠáĮ½áĭ®áĬķ":9138,"Ġverwysings":9139,"Ġnavig":9140,"Ġáī°áīĥáĭĭáĪļ":9141,"tese":9142,"áĪĨáĬķáĪĿ":9143,"Ġáī°áĪ°áĮ¥":9144,"âĺĨ":9145,"ĠComments":9146,"ĠHebre":9147,"áīĢáĪĺáĮ¥":9148,"ĠAh":9149,"áįĥáĬĵáīµ":9150,"áĭĿáĮį":9151,"tanje":9152,"Ġáīªáĭ²áĭ®":9153,"ountry":9154,"Ġoral":9155,"ĠáīłáĪ«áĪµ":9156,"Ġaanb":9157,"Ġverdedig":9158,"ĠáĪĵáīłáĪ¬áī³":9159,"áīłáĪįáĮ¥":9160,"Ġgewees":9161,"Sommige":9162,"Ġspesiaal":9163,"toets":9164,"ĠáīĢáĪĪ":9165,"!\"":9166,"ss":9167,"utsch":9168,"Ġjag":9169,"ĠáĬ¢áĬ®áĬĸáĪļ":9170,"Ġbind":9171,"áĪĻáĪŃ":9172,"can":9173,"ĠáĪĺáĪ£áĪªáĭ«":9174,"ĠáĪĺáĮĪ":9175,"ĠáĬ«áĪįáĬ¥":9176,"ĠTeken":9177,"NA":9178,"RE":9179,"ĠáĪ°áĬĲáĭµ":9180,"ĠáĪĿáĭķ":9181,"Ġgeliefde":9182,"laat":9183,"Ġverslag":9184,"Ġserv":9185,"ĠDire":9186,"Ġpresident":9187,"áĭ´áĪ«áĪį":9188,"Ġáĭ°áīĤáīĥ":9189,"Ġáĭ¨áĪļáĭ«áĪµáī½áĪį":9190,"áĪ«áĬĴ":9191,"Ġduik":9192,"ĠáĬ¢áĪī":9193,"Ġáī¥áĪĶáĪ¨":9194,"ĠGro":9195,"Ġcomments":9196,"Ġbottel":9197,"orr":9198,"oa":9199,"Ġvark":9200,"ĠáĬ¨áī³":9201,"pleeg":9202,"huise":9203,"soos":9204,"Ġoorsk":9205,"Ġbelangstelling":9206,"áĪĽáĪŃáĭ«áĪĿ":9207,"ĠáĪµáĭ°áī°áĬĽáī³áīµ":9208,"áĪĺáĪ°áĮįáĬĵ":9209,"ingers":9210,"æľ":9211,"ĠáĬłáĮĭáĮ£áĪļ":9212,"áįĬáĭİáī½":9213,"prent":9214,"ĠáĪĪáĪĽáĬķ":9215,"ÐºÐ°":9216,"oan":9217,"isk":9218,"áĭĭáĭŃ":9219,"Ġbinnekant":9220,"oordeel":9221,"miese":9222,"Ġbestu":9223,"masjien":9224,"Ġmidd":9225,"ĠáīłáīµáĮįáĪ«áĭŃ":9226,"agn":9227,"89":9228,"ĠáĮĢáĪĺáĪ¨":9229,"áĭµáĪ®áĪµ":9230,"ĠáĮįáĮŃáīµ":9231,"ĠáĪĽáĭŃ":9232,"áĪĥáĭµ":9233,"Ġhouer":9234,"Ġbatter":9235,"Ġáī°áīĥáĭįáĪŀ":9236,"Ġur":9237,"Ġáĭ¨áīĢáĪ¨áīł":9238,"Uit":9239,"ĠáĪĺáĪĿáĪħáĪŃ":9240,"Ġabsoluut":9241,"spaÃ±ol":9242,"Ġnetwerk":9243,"pieÃ«l":9244,"áĪĭáĭĬáĬĲáīµ":9245,"Ã«rs":9246,"ikwels":9247,"Ġkreatiewe":9248,"áĭĮáĪŃ":9249,"ĠáĪħáĮįáĭ°áįį":9250,"áĥĲ":9251,"rom":9252,"ĠáĮłáīĥáĪļ":9253,"Ġboer":9254,"kar":9255,"ĠáĭµáĪĿáĮº":9256,"ĠAlles":9257,"Ġafgele":9258,"Nog":9259,"Ġáī¢áĪĬáĭ®áĬķ":9260,"amma":9261,"Äĥ":9262,"Ġáĭ¨áĪ²":9263,"Ã§ais":9264,"esotho":9265,"áĭĽáĬķ":9266,"Ġlus":9267,"ĠáīµáĪįáīģ":9268,"ĠáĪĽáĬŃ":9269,"áĪĽáĭį":9270,"ĠáĮ¥áĬĵ":9271,"ĠáĮīáī¥áĬĿ":9272,"ÑĥÑģ":9273,"Ġtoestemming":9274,"áĬłáĪµ":9275,"Ġáĭ¨áĭĭáĮĭ":9276,"Ġuitsonder":9277,"Ġdoeltreff":9278,"Ġopgeneem":9279,"Ġgevul":9280,"ĠáĬłáĬķáĭµáĬĲáīµ":9281,"áĭ¨áĪģ":9282,"Ġskoene":9283,"Ġteorie":9284,"ĠáĭĪáĭ«áĬĶ":9285,"ĠáĭµáĪĿáĮ½":9286,"ĠáĪ°áĪĿ":9287,"lopende":9288,"Ġáī°áĪĺáĪ«":9289,"Î½":9290,"áĪĺáĭĭáĪį":9291,"Ġuits":9292,"ĠJos":9293,"ĠáĬ¨áĪļáĭ«":9294,"Æ°":9295,"Ġgetrou":9296,"ĠáĪĿáĭĿ":9297,"oppel":9298,"ĠáĮĪáįħ":9299,"Ġvorentoe":9300,"Ġbeklemtoon":9301,"Ġáī¥áĬķ":9302,"Ġopenbare":9303,"Ġuite":9304,"SE":9305,"ĠgelÃª":9306,"reed":9307,"ds":9308,"ĠFaith":9309,"áĪ½áĬ¨áĪŃáĬ«áĪª":9310,"áĮĪáī¥áĪŃ":9311,"Ġsite":9312,"ĠáĪįáī¥áĪµ":9313,"ĠáįķáĪ®áįĮ":9314,"Ġchem":9315,"ĠCar":9316,"áĪĺáĪĪáĬ¨áī±":9317,"ĠáĪ°áĪį":9318,"áīħáĪŃáĮ¸áīµ":9319,"Ġáĭ°áī¥áĪ¨":9320,"ĠáĬĥáĭŃáĪĪ":9321,"001":9322,"ĠáĬŃáĪµáī°":9323,"ĠáĪįáĪĿ":9324,"Ġáī°áĭĺáĮĭáĮħ":9325,"eerder":9326,"Ġonse":9327,"ĠOff":9328,"Ġáĭ¨áīłáĪĭáĭŃ":9329,"Ġimpak":9330,"Ġideale":9331,"Ġáĭ¨áĮĪáĪĪ":9332,"oonop":9333,"Ġbeleef":9334,"Ġmetodes":9335,"áĭ°áĪŃáĪ±":9336,"áĪ°áī¢áĭ«":9337,"ĠáĪļáĬ«áĬ¤áĪį":9338,"áĮİáī¥":9339,"ĠáĪ¥áĪĭáĪ´":9340,"áī£áĭŃáĪį":9341,"Te":9342,"áĬĸáĪ«áī¸áĭį":9343,"aald":9344,"ĠáĭŃáĬ¸":9345,"gbo":9346,"ĠáĬ¥áĮįáĭļáĬłáī¥áĪĶáĪŃáĬķ":9347,"áĬ¹áĪĿ":9348,"Ġáĭ¨áī°áĭ°áĪ¨áĮĪ":9349,"Ġever":9350,"ING":9351,"ĠáīĨáĭŃ":9352,"Ġverken":9353,"ĠVoordat":9354,"Ġpatroon":9355,"Ġaanged":9356,"ĠáīłáĬ¥áĪŃáĮį":9357,"áĬķáįĪáĪµ":9358,"ĠáĪĵáĭµ":9359,"Ġ[âĢ¦]":9360,"ators":9361,"Ġáī°áĮłáĭ«áīĤ":9362,"íķ":9363,"áĮįáĪ©":9364,"No":9365,"áĭ°áĪµ":9366,"Ġprom":9367,"ĠVSA":9368,"áĪĽáĭįáĭ«áĬķ":9369,"ĠáīłáĪ«áĪ±":9370,"ĠVoeg":9371,"ĠáĪ½áĪįáĪĽáīµ":9372,"Ġplesier":9373,"76":9374,"Ġuitbre":9375,"Ġáĭ¨áĪļáī°":9376,"Ġáī°áĮĪáĪį":9377,"áĭĺáĮĭáĮĢáīµ":9378,"áĬĴáī¨áĪŃáĪµáī²":9379,"Ġboot":9380,"áĭĭáĭĪ":9381,"Ġáī½áĪ®":9382,"Ġáī¡áĬĵ":9383,"ĠáĪĽáĪ«":9384,"Huis":9385,"ĠáįĪáĮ½":9386,"ĠáĪĬáīĥ":9387,"Ġbegroting":9388,"fun":9389,"raag":9390,"ĠDus":9391,"ians":9392,"Ġskepping":9393,"ĠáĪĭáĪĪ":9394,"aph":9395,"ĠáīłáĬ¦":9396,"áĪµáī²áĬŃ":9397,"Ġáĭ¨áįķáĪ®":9398,"áĭ«áĭİáī½":9399,"âĢĿ,":9400,"ahasa":9401,"aps":9402,"anklike":9403,"ĠáĭŃáĮįáī£":9404,"Ġpersone":9405,"áĬłáī£":9406,"ĠMer":9407,"ĠTel":9408,"ĠChristen":9409,"erstens":9410,"add":9411,"Ãªs":9412,"graad":9413,"ekening":9414,"Ġhierbo":9415,"áĪįáĮ£áĬĵáīµ":9416,"áĬ¨áī°áĪį":9417,"áĪ½áĬĳ":9418,"ĠWit":9419,"iá»ĩt":9420,"olie":9421,"áĪĿáĪµáīµ":9422,"gro":9423,"ĠáīłáįįáĮ¥áĬĲáīµ":9424,"ĠCOVID":9425,"ĠáĪĿáī¹":9426,"áĪ®áī¹":9427,"grad":9428,"May":9429,"Ġopstand":9430,"Ġcomp":9431,"ĠStr":9432,"Ġminstens":9433,"pon":9434,"Wees":9435,"Ġmodelle":9436,"olk":9437,"ĠáĬķáĮīáĪ¥":9438,"Ġbestuurder":9439,"ouers":9440,"ĠáĭŃáī³áĭĪáīĥáĪį":9441,"Ġáĭ¨áĪĿáī³":9442,"inning":9443,"Ġgovernment":9444,"ĠHausa":9445,"ĠáĬłáĭ«áĪµ":9446,"ĠáĬ¥áĮ¥áĪ¨áīµ":9447,"Ġgekyk":9448,"Ġvervoer":9449,"Ġafhank":9450,"Ġbevorder":9451,"Ġalledaag":9452,"ĠáĪĺáĪįáĭķáĬŃáīµ":9453,"ĠáĭŃáĮłáīĢ":9454,"Ġnee":9455,"Kan":9456,"áĪ³áī½áĬķ":9457,"TH":9458,"ĠáĬłáĪĿáī£":9459,"ĠáĬ«áĪī":9460,"ĠáĮįáī¢":9461,"áĮĪáĬĻáīµ":9462,"ĠáĪĽáĬķáĬĲáīµ":9463,"ĠDuitse":9464,"ĠInf":9465,"ĠBeeld":9466,"Ġvoortgaan":9467,"weging":9468,"laag":9469,"Ġwar":9470,"ĠáĬ¥áīµ":9471,"áĭķáĭµ":9472,"tina":9473,"Ġagain":9474,"2005":9475,"áīĢáĭµáĪŀ":9476,"Rec":9477,"ĠQu":9478,"Ġsimptome":9479,"áĭ°áīł":9480,"stap":9481,"Ġhuil":9482,"Ġrit":9483,"Ġtref":9484,"áĪĺáĪįáĪµ":9485,"Ġverantwoordelikheid":9486,"ĠáĮ¥áīħáĪĿáīµ":9487,"ĠáĬ©áĬĲáī³áīµ":9488,"ÑģÐºÐ¸Ð¹":9489,"áĭĽáĪĽ":9490,"áīĭáĬķáīĭ":9491,"ĠáĬ¤áĪį":9492,"áĪ¸áĬķ":9493,"Ġknow":9494,"ĠAp":9495,"Ġarticle":9496,"Ġáī³áĭį":9497,"nodig":9498,"Ġvoedsel":9499,"ĠáĭŃáĮĪáĬĽáĪī":9500,"Ġáįī":9501,"Ġterugge":9502,"Ġsigbaar":9503,"Ġbehaal":9504,"Ġonderskei":9505,"Ġsituasies":9506,"stalleer":9507,"áīłáīµáĬĵ":9508,"Ġvoldoende":9509,"Ġavont":9510,"ĠáĪµáĪĪáĪĨáĬĲáĪĿ":9511,"kep":9512,"251":9513,"gewende":9514,"ĠáĭŃáĪĭáĪī":9515,"ward":9516,"ĠâĢ¢":9517,"áĪ¨áĮĭáĮĪáĮ«":9518,"lewer":9519,"ĠWikipedia":9520,"ĠáĪĽáĪĪáīµáĪĿ":9521,"áĪħáĪ¨":9522,"Web":9523,"ĠáĭĺáĪĪáĭİ":9524,"Ġáī¥áĪĶáĪŃ":9525,"Ġáĭ¨áī°áĪĪáĭ¨":9526,"ision":9527,"ĠáĭįáĮį":9528,"áĪ«áĪŃ":9529,"áĬŃáĪįáĪį":9530,"Ã¢n":9531,"Ġbokant":9532,"Ġbeginsels":9533,"ogen":9534,"Ġhoris":9535,"áĮ¥áĬĵ":9536,"Ġkoppel":9537,"opsies":9538,"Ġáī½áĪ®áī³áĭį":9539,"iness":9540,"âĢĻ,":9541,"Ġaddress":9542,"Ġrok":9543,"ĠáĪĺáįįáīµáĪĶ":9544,"Ġ×":9545,"ĠáĪļáĪĬ":9546,"Ġret":9547,"áĭµáīħ":9548,"vall":9549,"áĮ¿áĪį":9550,"ulasie":9551,"áĪĺáĭĺáĮĪáī¡":9552,"estande":9553,"saamheid":9554,"ĠPe":9555,"ĠáĪķáĮĤ":9556,"ĠáĬłáĪµáī¸":9557,"Ð°Ðº":9558,"Ġoutomaties":9559,"ĠáĬ¸":9560,"ĠáĪħáĭĪáĪĵáīµ":9561,"ÐµÐ»":9562,"áĭ®áī½áĬķ":9563,"ĠáĬµ":9564,"Ġáīłáī°áĭ°áĮĭáĮĭáĪļ":9565,"Top":9566,"áįĬáĪį":9567,"ĠáĭŃáĪĭáĬ©":9568,"Ġáĭ«áīĢáĪŃ":9569,"ĠSondag":9570,"gevoeg":9571,"Ġáĭ¨áīĢáĮ¥áī³":9572,"ĠáĮ¥áĪ«":9573,"Ġverwerp":9574,"Ġmoontlikheid":9575,"bestand":9576,"ĠGet":9577,"áĭ¨áĪĿáĪŃáīµ":9578,"ĠáĭĿáīħáī°áĬĽ":9579,"ĠáĬłáĪĺáĪĪáĬ«":9580,"ĠáīģáĪįáįį":9581,"Ġoptim":9582,"áĪĨáĬĳáĪĿ":9583,"cess":9584,"Ġáĭ¨áĭĵ":9585,"áĭŃáĭĺ":9586,"ĠáĪĢáĮĪáĪ«áīµ":9587,"áĪ»áĬķ":9588,"Ġtiener":9589,"áĪĿáĪĭáĬ½":9590,"áīĢáĬĲ":9591,"Ġstudeer":9592,"Ġaansienlik":9593,"onderstel":9594,"Ġgewaar":9595,"ĠPlaas":9596,"Ġsuid":9597,"Ġherken":9598,"stal":9599,"ĠáĭĺáĭŃáīµ":9600,"áĬ«áī¥":9601,"Ġomgee":9602,"Ġbates":9603,"»áį":9604,"ĠáĭŃáĪ°":9605,"áīĴ":9606,"ĠáĪĺáĪµáī°":9607,"Ġmes":9608,"Ġáĭ¨áĬĲáīłáĪ©áīµ":9609,"over":9610,"áĭ¬áĬķ":9611,"à¸¢":9612,"ĠáīłáĬ¥áĮħ":9613,"áĪ³áī°áįī":9614,"ĠGew":9615,"áīĥáīĦ":9616,"áĬ®áĬķ":9617,"let":9618,"ĠChristene":9619,"Ġáī°áĪ¨":9620,"Amerik":9621,"áĪ°áĪµ":9622,"maal":9623,"ĠáĭŃáĭĺáīµ":9624,"Ġáĭ¨áĭĺáĪŃ":9625,"áĪĽáĪ¨":9626,"Ġáĭ¨áĪļáĪĨáĬĳ":9627,"ĠHome":9628,"ĠJob":9629,"áĮİáĪį":9630,"ĠQibla":9631,"enaars":9632,"áĪĽáĪĿ":9633,"Tweet":9634,"Ġbesluite":9635,"Ġáī°áĪŀáĬŃ":9636,"weÃ«":9637,"Ġsuster":9638,"ĠáīłáĪĺáĮĢáĪĺáĪªáĭ«":9639,"Ġalledaagse":9640,"ĠDaarna":9641,"Ġvoertuig":9642,"Ġskakels":9643,"Ġtradisie":9644,"Ġsentimeter":9645,"Ġç":9646,"ĠáĪĺáĭ³":9647,"entrum":9648,"ĠGee":9649,"ll":9650,"Ġill":9651,"ĠDam":9652,"ĠáĪħáĭĿáī£áĭĬ":9653,"ĠLet":9654,"Ġáĭ¨áĪļáĪĺ":9655,"áĮ£áī±":9656,"ĠáĪħáĪį":9657,"ĠáĭĿáīł":9658,"ĠáĪ¹":9659,"áĪĿáĪķ":9660,"IM":9661,"telik":9662,"Ġáĭ¨áĪļáī£áĪį":9663,"........":9664,"Ġhersien":9665,"Ġaanbiedinge":9666,"Ġ!":9667,"Ġverj":9668,"Am":9669,"posito":9670,"ÑĥÑģÑģÐºÐ¸Ð¹":9671,"ĠVal":9672,"ĠLouw":9673,"ĠáīłáĬ«":9674,"ĠSin":9675,"ĠPinterest":9676,"áīĢáīłáĪį":9677,"ĠáĬ£áįįáĪªáīĥ":9678,"áīħáĪĿáīµ":9679,"áĭĿáĬķ":9680,"ĠáīĢáĪµ":9681,"ĠHuis":9682,"ĠCom":9683,"ĠáĪħáĮĭáĭĬ":9684,"Ġáĭ¨áĪĢáĮĪáĪŃ":9685,"ĠáĪĺáĪĭáĬ¥":9686,"Ġvloeistof":9687,"Ġáĭ¨áī°áĪĪáĪĺ":9688,"Ġbeskerming":9689,"Ġrelatief":9690,"Ġevangelie":9691,"áī±áīµ":9692,"Ġkenmerke":9693,"áįĪáĮ¸áĪĺ":9694,"Ġprosedure":9695,"áī¥áĪŃáĪĥ":9696,"Ġaankoop":9697,"Ġvlees":9698,"áī°áĭĭáĪķáĭ¶":9699,"Ġverrig":9700,"bels":9701,"Ġmassa":9702,"ĠáĬ¨áĪħ":9703,"ðŁĴ":9704,"ĠáįĪáĪ¨áĬķ":9705,"ĠRead":9706,"ĠáīłáĬłáĮłáīĥáĪĭáĭŃ":9707,"ĠáĬ¥áĪµáĪ«":9708,"ĠáĪµáī´áīµáĪµ":9709,"ommel":9710,"Ġvere":9711,"pektief":9712,"áĭįáĪİáĪµ":9713,"sterne":9714,"ĠáīłáĪģáĪĪáīµ":9715,"Af":9716,"ĠáĪµáĪĪáī°":9717,"teurs":9718,"áĪĮáĬŃáīµáĪ®":9719,"Ð°Ð°Ð°Ð°Ð°Ð°Ð°Ð°Ð°Ð°Ð°Ð°Ð°Ð°Ð°Ð°Ð°Ð°Ð°Ð°Ð°Ð°Ð°Ð°Ð°Ð°Ð°Ð°Ð°Ð°Ð°Ð°Ð°Ð°Ð°Ð°Ð°Ð°Ð°Ð°Ð°Ð°Ð°Ð°Ð°Ð°Ð°Ð°Ð°Ð°Ð°Ð°Ð°Ð°Ð°Ð°Ð°Ð°Ð°Ð°Ð°Ð°Ð°Ð°Ð°Ð°Ð°Ð°Ð°Ð°Ð°Ð°Ð°Ð°Ð°Ð°Ð°Ð°Ð°Ð°Ð°Ð°Ð°Ð°Ð°Ð°Ð°Ð°Ð°Ð°Ð°Ð°Ð°Ð°Ð°Ð°Ð°Ð°Ð°Ð°Ð°Ð°Ð°Ð°Ð°Ð°Ð°Ð°Ð°Ð°Ð°Ð°Ð°Ð°Ð°Ð°Ð°Ð°Ð°Ð°Ð°Ð°Ð°Ð°Ð°Ð°Ð°Ð°Ð°Ð°Ð°Ð°Ð°Ð°Ð°Ð°Ð°Ð°Ð°Ð°Ð°Ð°Ð°Ð°Ð°Ð°Ð°Ð°Ð°Ð°Ð°Ð°Ð°Ð°Ð°Ð°Ð°Ð°Ð°Ð°Ð°Ð°Ð°Ð°Ð°Ð°Ð°Ð°Ð°Ð°Ð°Ð°Ð°Ð°Ð°Ð°Ð°Ð°Ð°Ð°Ð°Ð°Ð°Ð°Ð°Ð°Ð°Ð°Ð°Ð°Ð°Ð°Ð°Ð°Ð°Ð°Ð°Ð°Ð°Ð°Ð°Ð°Ð°Ð°Ð°Ð°Ð°Ð°Ð°Ð°Ð°Ð°Ð°Ð°Ð°Ð°Ð°Ð°Ð°Ð°Ð°Ð°Ð°Ð°Ð°Ð°Ð°Ð°Ð°Ð°Ð°Ð°Ð°Ð°Ð°Ð°Ð°Ð°Ð°Ð°Ð°Ð°Ð°Ð°Ð°Ð°Ð°Ð°Ð°Ð°Ð°Ð°Ð°Ð°Ð°Ð°Ð°Ð°Ð°Ð°Ð°Ð°Ð°Ð°Ð°Ð°Ð°Ð°Ð°Ð°Ð°Ð°Ð°Ð°Ð°Ð°Ð°Ð°Ð°Ð°Ð°Ð°Ð°Ð°Ð°Ð°Ð°Ð°Ð°Ð°Ð°Ð°Ð°Ð°Ð°Ð°Ð°Ð°Ð°Ð°Ð°Ð°Ð°Ð°Ð°Ð°Ð°Ð°Ð°Ð°Ð°Ð°Ð°Ð°Ð°Ð°Ð°Ð°Ð°Ð°Ð°Ð°Ð°Ð°Ð°Ð°Ð°Ð°Ð°Ð°Ð°Ð°Ð°Ð°Ð°Ð°Ð°Ð°Ð°Ð°Ð°Ð°Ð°Ð°Ð°Ð°Ð°Ð°Ð°Ð°Ð°Ð°Ð°Ð°Ð°Ð°Ð°Ð°Ð°Ð°Ð°Ð°Ð°Ð°Ð°Ð°Ð°Ð°Ð°Ð°Ð°Ð°Ð°Ð°Ð°Ð°Ð°Ð°Ð°Ð°Ð°Ð°Ð°Ð°Ð°Ð°Ð°Ð°Ð°Ð°Ð°Ð°Ð°Ð°Ð°Ð°Ð°Ð°Ð°Ð°Ð°Ð°Ð°Ð°Ð°Ð°Ð°Ð°Ð°Ð°Ð°Ð°Ð°Ð°Ð°Ð°Ð°Ð°Ð°Ð°Ð°Ð°Ð°Ð°Ð°Ð°Ð°Ð°Ð°Ð°Ð°Ð°Ð°Ð°Ð°Ð°Ð°Ð°Ð°Ð°Ð°Ð°Ð°Ð°Ð°Ð°Ð°Ð°Ð°Ð°Ð°Ð°Ð°Ð°Ð°Ð°Ð°Ð°Ð°Ð°Ð°Ð°Ð°Ð°Ð°Ð°Ð°Ð°Ð°Ð°Ð°Ð°Ð°Ð°Ð°Ð°Ð°Ð°Ð°Ð°Ð°Ð°Ð°Ð°Ð°Ð°Ð°Ð°Ð°Ð°Ð°Ð°Ð°Ð°Ð°Ð°Ð°Ð°Ð°Ð°Ð°Ð°Ð°Ð°Ð°Ð°Ð°Ð°Ð°Ð°Ð°Ð°":9720,"tot":9721,"ĠáīłáĪµáī°áīĢáĪŃ":9722,"ÑģÑĮ":9723,"',":9724,"ĠbeÃ«":9725,"áĪĪáĪŃ":9726,"Hulle":9727,"Ġdorpie":9728,"Ġfiks":9729,"áĪĽáĮį":9730,"ĠâĨĴ":9731,"Ġáĭ°áĪµáī³":9732,"las":9733,"ÑĢÐ°Ñ":9734,"Ġgede":9735,"Ġbroers":9736,"áĮĵáĮĵ":9737,"Ġwyd":9738,"urele":9739,"Ġjeug":9740,"ĠMense":9741,"Ġlewend":9742,"ostig":9743,"Ġeis":9744,"Ġkaarte":9745,"ĠÎ":9746,"áĭĪáĪµáĭµ":9747,"áĭľáĪĽ":9748,"áĪ«áī´":9749,"800":9750,"Ġáĭ¨áĭ³":9751,"ĠáĬ«áĪįáī°":9752,"áĪĸ":9753,"áĪ¸áĬĲáįį":9754,"Ġáī³áĪªáĬ«áĭĬ":9755,"áĬ©áĪµ":9756,"íķľ":9757,"áĪĺáĪĪáĪ±":9758,"áĪ»áĮĪáĪŃ":9759,"ontak":9760,"ĠKe":9761,"Ġbewaar":9762,"Ġversameling":9763,"Ġbydra":9764,"versekering":9765,"áįĪáĭĭáĪį":9766,"áĪ°áĮ£áī¸áĭį":9767,"Ġmonth":9768,"ĠSim":9769,"áĬ«áī½":9770,"Tr":9771,"Ã·":9772,"ĠSelect":9773,"Ġcountry":9774,"ĠáĮ¥áĬķáī³áĭĬ":9775,"ĠApp":9776,"Ġinstruksies":9777,"2003":9778,"áĭĪáĪ°áĬķ":9779,"ĠáĬłáĪĪáĬĿ":9780,"Ġhoender":9781,"áĮĢáĬķáĭ³":9782,"Ġpoging":9783,"ĠáĬ¥áĬķáī³áĭŃ":9784,"rouens":9785,"Ġbus":9786,"okol":9787,"áĮĭáĭį":9788,"Ġverspre":9789,"ĠáĮ½áĪģáįį":9790,"ĠáīłáĪĲ":9791,"Ġáĭ¨áī°áī£":9792,"áĭ¥áĪĿ":9793,"tz":9794,"IA":9795,"áĮįáī£áī¥":9796,"êµ":9797,"Ġuitdr":9798,"ĠáĮĪáĪįáįĢáĭĭáĪį":9799,"ĠMalay":9800,"Ġáī¥áī¸":9801,"ĠáĭķáĭµáĪľ":9802,"regte":9803,"ĠáĪĤáĭ°":9804,"Gaan":9805,"omming":9806,"oorlog":9807,"Ġgeskenke":9808,"Ġverwysing":9809,"Home":9810,"Ġtevrede":9811,"ĠáīĢáĭµáĪŀ":9812,"Ġtoesig":9813,"áĪĭáī¸áĭįáĪĿ":9814,"ĠáĪµáĪĪáĪĺ":9815,"áīģáĬķ":9816,"ĠAbba":9817,"áĪ°áĪĭáĪĿ":9818,"ìĸ":9819,"Ġáīłáī°áĪĺáĪ³áĪ³áĭŃ":9820,"áĪĪáįĪ":9821,"áĭĪáĮĪ":9822,"Ġáī³áĪµ":9823,"TE":9824,"Ġmm":9825,"Kur":9826,"ĠáĪĽáĪħáīłáĪ«áĭĬ":9827,"iewers":9828,"Ġfilms":9829,"ĠáĪģáĪĪáī±áĪĿ":9830,"Ġwerkgewer":9831,"Ġáī½áĪİáī³":9832,"Ġnoukeur":9833,"Ġbedrog":9834,"à¸Ĺ":9835,"gere":9836,"ĠáĬłáĭĿ":9837,"áĬłáĭ²":9838,"áĪģáĭµ":9839,"iber":9840,"ĠáĮłáĪ¨":9841,"ĠLtd":9842,"áĮĪáĭįáĬķ":9843,"ĠBen":9844,"Ġdoll":9845,"Ġáī°áīĢáī£":9846,"Ġaddisethiopia":9847,"áĭµáĬ«":9848,"áĭĢ":9849,"usalem":9850,"Ġbelasting":9851,"Ġvals":9852,"Ġáī°áĪĪáĭĭ":9853,"áĬĵáĬķáī°":9854,"meester":9855,"ĠHar":9856,"Ġverbaas":9857,"ĠáįįáĮ¹áĪĿ":9858,"awa":9859,"Ġplanne":9860,"Ġgelde":9861,"ĠáĪĺáĬķáĮįáĪµáī³áīµ":9862,"Janu":9863,"ĠáīłáīµáĬŃáĬŃáĪį":9864,"Ġáĭķáīĥáĭİáī½":9865,"ĠáīħáĭµáĪļ":9866,"ĠParty":9867,"Ġdel":9868,"ĠáĬĸáĪ®":9869,"ĠáĭŃáīł":9870,"Ġáī¤áī°áĪ°áī¥":9871,"Ġoom":9872,"ĠáĮ¥áĪĿ":9873,"Ġáĭ¨áĪļáĮł":9874,"ĠspieÃ«l":9875,"moed":9876,"ĠáįĪáĮ£áĪª":9877,"ĠáĪĪáĪĽáĪ¨áĮĭáĮĪáĮ¥":9878,"tegn":9879,"Ġlot":9880,"Ãªrens":9881,"Ġopgel":9882,"Î¹":9883,"Ġgedruk":9884,"Ġgebiede":9885,"ĠAnders":9886,"Ġprestasie":9887,"áĪĿáĪ©":9888,"áĪŀáĬŃáĪ«áĪ²áĭ«áĭĬ":9889,"áī£áĪħ":9890,"wor":9891,"ips":9892,"Ġáīłáĭ°áĬķáī¥":9893,"cript":9894,"Ġáī°áĬ¨áī³áī³áĭŃ":9895,"áįĪáĪĪáĮį":9896,"ĠáĬ¨áī£áī¢":9897,"ĠáĮįáĪĪáĪ°áī¦áī½":9898,"ally":9899,"ĠáĭŃáĮ¨":9900,"ĠáĬ¥áĬķáĮįáĭ³":9901,"heers":9902,"Ġsakeplan":9903,"ĠáĬ¥áĪŃáĭ³áī³":9904,"ĠPer":9905,"duidelik":9906,"opsp":9907,"Ġdirekte":9908,"áĬķáĮįáĪĬáĭĿáĬĽ":9909,"ĠgeÃ«et":9910,"Ġwaaraan":9911,"brood":9912,"achew":9913,"ĠáīłáĪģáĪīáĪĿ":9914,"ĠKur":9915,"áĮłáĭŃáīħ":9916,"ĠáĪħáĮĪ":9917,"ĠPretoria":9918,"han":9919,"ancel":9920,"áī£áīł":9921,"Ġwebsite":9922,"Ġheen":9923,"ĠáīłáĬ¥áĮįáĭļáĬłáī¥áĪĶáĪŃ":9924,"áĭµáĪµ":9925,"ĠRSS":9926,"à¤¿":9927,"Arch":9928,"ĠáĬŃáĪįáĪİáī½":9929,"Ġmooiste":9930,"Ġeffektief":9931,"ĠáĮĪáĭ°":9932,"neeu":9933,"ĠWindows":9934,"Ġkursus":9935,"æĹ":9936,"Ġskyf":9937,"Ġmagnetiese":9938,"áįįáĮ¨áįĭ":9939,"Ġsentr":9940,"Ġsold":9941,"áĮįáĪ¬":9942,"áĮħáī¶áī½":9943,"Ġáī¢áĭ«áĬķáĪµ":9944,"lys":9945,"chnology":9946,"ĠáīłáĬłáĪľáĪªáĬ«":9947,"ĠKies":9948,"êµŃ":9949,"Ġáī¡áĭµáĬĸáī½":9950,"íķľêµŃ":9951,"Nie":9952,"Ġstrek":9953,"Ġresultaat":9954,"ĠNam":9955,"ohol":9956,"News":9957,"ired":9958,"áĪĿáĮ£áīµ":9959,"áįĪáĪįáĮĪáĭį":9960,"ĠáĮįáĭĽ":9961,"ĠáĪĽáĪ¨áįĬáĭ«":9962,"Ġáī°áĮłáīħ":9963,"ĠáĮłáĪŃ":9964,"wal":9965,"ĠáĪ°áĪįáįį":9966,"Ġaks":9967,"áĭĺáĪĺáĬķ":9968,"Ġinterpret":9969,"antiese":9970,"Ġaktief":9971,"hoof":9972,"Ġáĭ¨áĪĲ":9973,"ĠáĪĪáĪĺáĪĨáĬķ":9974,"kon":9975,"Ġgesluit":9976,"Ġkelder":9977,"áĮ£áĬĿ":9978,"ĠáĭµáĪĿáįħ":9979,"áĭĺáĪ¨":9980,"AD":9981,"ĠAhmed":9982,"æĹ¥":9983,"bere":9984,"áī¥áĪĶáĪ«áĭĬ":9985,"Ã¼rk":9986,"Ġáĭ¨áĪĨáĬĳáīµ":9987,"áįıáĪį":9988,"Ġbeginsel":9989,"ecraft":9990,"áĮħáĪĪ":9991,"yar":9992,"Ġgeel":9993,"ĠVeral":9994,"áīħáĬķ":9995,"Ġontspan":9996,"Ġheerlike":9997,"Ġdeeglik":9998,"Ġkollege":9999,"igting":10000,"gesit":10001,"áĭ«áĪĪáĪģ":10002,"ĠViá»ĩt":10003,"áĢĻ":10004,"ati":10005,"áĪģáĪī":10006,"Ġalk":10007,"ĠáĭĭáĬĵáĭį":10008,"Ġáĭ«áĪįáĪĨáĬĲ":10009,"IG":10010,"áĪªáĬķ":10011,"ider":10012,"ÑĬ":10013,"áĪ¥áĮ¢":10014,"eters":10015,"imb":10016,"ĠáĭķáĭįáīĢáīµ":10017,"Ġvyand":10018,"ĠáĪĺáĬķáĮĪáĭ¶áī½":10019,"áĪĥáīµ":10020,"ewa":10021,"Ġdwing":10022,"Ġthink":10023,"Ġvoorste":10024,"Ġkolleg":10025,"uer":10026,"ĠáįįáĮ¥áĬĲáīµ":10027,"Ġtermyn":10028,"vriend":10029,"Ġstate":10030,"ĠOpsies":10031,"Ġmotors":10032,"ĠáĬłáĪĪáī¥áĬķ":10033,"ĠPower":10034,"ĠáĬ¥áĪŃáĪµáĭİ":10035,"Ġthere":10036,"ĠáĮĪáĪĬ":10037,"ĠáĪħáĭ³áĪŃ":10038,"WhatsApp":10039,"Ġáī°áĮłáĬĵ":10040,"ĠJerusalem":10041,"áįĥáįĢáĪĿ":10042,"Ġsitplek":10043,"ĠáįĪáĬĲáĭĪ":10044,"orteer":10045,"áĪĽáĪµáī³áĭĪáīĤáĭ«":10046,"ĠWal":10047,"Alhoewel":10048,"geleent":10049,"Ġtoestelle":10050,"oelie":10051,"ĠII":10052,"Ġtempel":10053,"Ġay":10054,"Ġcont":10055,"áĬĵáīµáĬķ":10056,"Ġáī£áĪħáĪŃ":10057,"Ġáĭ¨áĬ¢áĬ®áĬĸáĪļ":10058,"ĠáĮįáĪĿáīµ":10059,"Ġhip":10060,"ues":10061,"áĪĿáĪ«áīµ":10062,"About":10063,"ĠMinecraft":10064,"ĠTot":10065,"áĭŃáĭŃ":10066,"æľ¬":10067,"Ġáĭ²áĭĽ":10068,"esseer":10069,"iester":10070,"Elke":10071,"Ġaangename":10072,"ĠPresident":10073,"sperim":10074,"áĪŁáĪĭ":10075,"Ġengele":10076,"ĠáīłáĪĿáĬķ":10077,"Voordat":10078,"ĠáĬ«áĪĪáĭį":10079,"áĪĿáĪį":10080,"áįįáĪ¨áīµ":10081,"ĠáĪĵáĭŃáĪį":10082,"Ġáĭ¨áĪĻáīĢáīµ":10083,"áĬłáĮįáĬĻáĬķ":10084,"áī¦áĬĵ":10085,"ĠáĪĺáĪ¥áĪ«áīµ":10086,"áĭŃáĬĵáĬķáĪµ":10087,"áĬŃáĪŃáĪµáī²áĭ«":10088,"áĪĪáĮĭ":10089,"orts":10090,"ĠáĪģáĪĪáī±":10091,"ĠáĪ¶áĪĽ":10092,"ĠáĪŃáīĢáīµ":10093,"áĮ§áĪį":10094,"ĠáĮīáĪŃáĪ»":10095,"Ġprofe":10096,"ueer":10097,"visie":10098,"Ġkonteks":10099,"Ġkragtige":10100,"Ġskaam":10101,"áĮ»áĪŃ":10102,"Ġmasjien":10103,"ĠáĬłáĪĺáī³áīµ":10104,"igeer":10105,"betaling":10106,"Ġorganisasie":10107,"istiek":10108,"æĹ¥æľ¬":10109,"áĭ¨áĪµ":10110,"íķľêµŃìĸ":10111,"áĪĬáĭ«áĬķ":10112,"ĠáĪĺáĪĪáĪµ":10113,"ĠRoman":10114,"áī£áīµáĬķ":10115,"Ð½ÑģÑĮ":10116,"Ġdieet":10117,"áī°áĪĽ":10118,"ĠáĬ¨áĮ¥":10119,"ĠNederlands":10120,"Ġgetu":10121,"Ø§Ø±Ø³":10122,"¤Ĵ":10123,"Ġáĭ«áĭ°áĪŃáĮĭáĪį":10124,"ĠáīµáĬĵáĬķáīµ":10125,"Ġwaarborg":10126,"Ġsekuriteit":10127,"Ġteik":10128,"â¤Ĵ":10129,"ðŁĶĹ":10130,"â¤ĴðŁĶĹ":10131,"Ġteenoorgestelde":10132,"ÐºÑĢÐ°Ñ":10133,"Ġbesoekers":10134,"ÐºÑĢÐ°ÑĹ":10135,"ingsk":10136,"Ġlat":10137,"ĠáĬłáĭįáī¶áĪĽáī²áĬŃ":10138,"bit":10139,"ĠáĪ²áī£áĪį":10140,"áĪŃáĬ«":10141,"áĪªáĭį":10142,"áĪĬáĬĵ":10143,"ĠKlein":10144,"áĮħáĬĲáīµ":10145,"ifik":10146,"ÐºÑĢÐ°ÑĹÐ½ÑģÑĮ":10147,"áĬ¨áī¡":10148,"Ġáĭ¨áĪļáĮĪáĬĺáĭį":10149,"82":10150,"Ġplaneet":10151,"ukkies":10152,"Ġkalm":10153,"Brit":10154,"Ġstyf":10155,"Ġskei":10156,"ĠáĬ¥áĬĲáĪ±":10157,"Ġsaad":10158,"Ġonttrek":10159,"Ġstofs":10160,"Ø§Ø±Ø³ÛĮ":10161,"áĬ¦áĪ®áĪĿáĭ«":10162,"Ġáī°áĪŀáĬŃáĪ®":10163,"ĠáĮ¾áĪĿ":10164,"ĠáĪĪáĮĪ":10165,"áĪĨáĬĵáī¸áĭį":10166,"ĠáĭĺáĭŃáĬ®":10167,"ĠáīłáĪ°áĭį":10168,"ÑĢÐ¿":10169,"áĬĽáĭįáĬķáĪĿ":10170,"onders":10171,"uiwer":10172,"ĠáĬ£áī£":10173,"Ġtoegepas":10174,"Ġvingers":10175,"áī¸áĭįáĪĿ":10176,"ĠáĬłáĭĺ":10177,"Ġkoe":10178,"áĬķáĭ±":10179,"ĠáĪĿáĬ¥áĪĺáĬĵáĬķ":10180,"Ġáī¥áįį":10181,"da":10182,"ĠáĭŃáĭĺáĭį":10183,"Ġkommunik":10184,"ĠYork":10185,"Ġalbum":10186,"ĠIndonesia":10187,"áī³áī½áĪģ":10188,"Ont":10189,"ĠáĮįáĭµáĭ«":10190,"Îº":10191,"áĬĵáī¥":10192,"áĪĽáĭķ":10193,"áĪĿáĪħáĪŃáī²":10194,"Sep":10195,"Ġáī°áĪŃ":10196,"oonlike":10197,"Ġkopie":10198,"Ġletterlik":10199,"reÃ«l":10200,"Ġstukkie":10201,"Ġbepl":10202,"oppervlak":10203,"Ġáīłáī²":10204,"ĠáĬĲáĮĪáĪ®áī½áĬķ":10205,"ĠáĬ¥áĪ³áīµ":10206,"Ġmult":10207,"ĠáĬłáĪµáī°áĭ«áĭ¨":10208,"vie":10209,"áĪķáįĪáīµ":10210,"Ġstort":10211,"áĮ½áĬ¥":10212,"Ġinstall":10213,"Ġmus":10214,"ĠáĮ¸áĮĭ":10215,"Ġewig":10216,"ĠÑ":10217,"Ġstede":10218,"ĠBo":10219,"wysings":10220,"Ġaanvanklik":10221,"áĪīáĭŃ":10222,"Ġwhen":10223,"Ġatmosfeer":10224,"itiewe":10225,"ĠáĬ¥áĬķáĭ°áĪĺ":10226,"Ġright":10227,"ordering":10228,"Ġbetrekking":10229,"Ġbose":10230,"à¤¦":10231,"Ġkoekies":10232,"ĠáĭĪáĮ£áīµ":10233,"ĠáĬŃáī¥áĭ°áīµ":10234,"ĠáĪ³áĭ«":10235,"áĮįáīłáĪŃ":10236,"ĠPar":10237,"ĠáĬłáĪĿáĪ«áī½":10238,"áĮĤáī³áĪį":10239,"ĠáĬ«áĪįáĪĨáĬĲ":10240,"ĠáĪľáĭ³":10241,"Ġáī£áĪĪáįīáīµ":10242,"ĠáīĥáĪĭáīµ":10243,"91":10244,"áĪµáī¶áī½":10245,"Ġshare":10246,"ometer":10247,"udaya":10248,"Ġdest":10249,"áĬĲáī³áī¸áĭįáĬķ":10250,"Ġskrif":10251,"stoot":10252,"Ġgehelp":10253,"Ġspelers":10254,"Ġkommunikasie":10255,"Kry":10256,"kier":10257,"telsel":10258,"genoemde":10259,"iode":10260,"ireer":10261,"Ġmanne":10262,"Ġbruin":10263,"ĠáĪĺáįħ":10264,"udayachn":10265,"áĪ´áĬķ":10266,"Ġáĭ¨áĮ½":10267,"Ġkm":10268,"Ġtoilet":10269,"áĪ³áī°áįį":10270,"ĠáĪ«áĪ±":10271,"æĹ¥æľ¬èªŀ":10272,"ĠáĬ¤áĪŃáīµáĪ«áĬķ":10273,"áĮłáĬĿáĬĲáīµ":10274,"nommer":10275,"ĠáĭŃáĪŃ":10276,"Ġsirkel":10277,"áīĢáĮ£":10278,"utch":10279,"ĠáĭŃáīĨ":10280,"98":10281,"Ġáī£áĪķáĪŃ":10282,"áįįáĭ«":10283,"Ġáī°áĭĪáĬ«áĭŃ":10284,"issie":10285,"Ġáĭ¨áĪļáĮĪáĬĿ":10286,"ced":10287,"Ġbaas":10288,"ael":10289,"áĪ¶áĪĿ":10290,"ongol":10291,"dering":10292,"ĠáīłáĭĭáĬĵ":10293,"âĢİ":10294,"Watter":10295,"Ġonderkant":10296,"aalde":10297,"ĠáįįáĪį":10298,"Ġnadele":10299,"ooreen":10300,"ĠáĬ¥áĬķáĭ°áĪļáī½áĪį":10301,"ĠáĬłáĪĭáĪĽ":10302,"Ġsoet":10303,"Ġminimum":10304,"áĬ³áĬķ":10305,"vere":10306,"áĬĺáĭį":10307,"ĠáĬ£áĭŃáĬ®áĬĲáĬķ":10308,"yen":10309,"ĠáīłáīłáĬ©":10310,"Ø±Ø¨":10311,"ĠáĮĲ":10312,"Ġalso":10313,"enings":10314,"Ġáĭ¨áī³áĪªáĬŃ":10315,"áīĥáĪĪáĬķ":10316,"áĭ¨áĪį":10317,"Ġáĭ¨áĪķáĮį":10318,"Ġlam":10319,"ĠáĬ¥áĬĵáĬķáī°":10320,"ĠStell":10321,"áī¥áĬĵ":10322,"ĠáĪĽáĭµáĪ¨":10323,"ĠSod":10324,"Ġontslae":10325,"ists":10326,"staande":10327,"ĠBoonop":10328,"ondheid":10329,"ĠáĬ¢áĪ³áĭ«áĪµ":10330,"Ġwaardeur":10331,"áīĨáĮ£áĮłáĪªáĭ«":10332,"ĠWatter":10333,"Ġhoud":10334,"Ġbraai":10335,"ĠáĬłáĮĪáĭĽáĭĿ":10336,"áĬļ":10337,"Ġskuur":10338,"Ġáĭ¨áĪļáįĪáĪįáĮī":10339,"ĠáĪ½áįĭáĬķ":10340,"âĨĲ":10341,"ĠáĪ¨áĮĪáĭµ":10342,"áīħáĭµáĪĺ":10343,"Ġáĭ¨áĪļáī£áĪĪáĭį":10344,"Ġáĭ°áĪħáĬĵ":10345,"mes":10346,"Ġlui":10347,"áįĪáĬĵ":10348,"áĪ¼":10349,"put":10350,"áĬķáĪ°":10351,"Ġáĭ°áĪ«áĪ²":10352,"Of":10353,"áĮ¨áīł":10354,"Ġvoorbereiding":10355,"Ġpublik":10356,"Ġgekoppel":10357,"Ġbaan":10358,"ĠgeÃ¯nstalleer":10359,"Ġbekostig":10360,"Ġplaasgevind":10361,"áĪĭáĪµ":10362,"ĠáĭĪáĬķáĮĢ":10363,"Ġáĭ¨áĪĺáĬķ":10364,"Chr":10365,"mmer":10366,"ooks":10367,"Ġdeposito":10368,"áĪķáĬĵ":10369,"áĪĭáī½áĬķáĪĿ":10370,"ĠáĬ¥áĭįáĬĲáī°áĬĽ":10371,"Ð°Ñı":10372,"ĠáĪĿáĬ½áĬķáĭ«":10373,"áĬĲáįĥ":10374,"Ġáĭ¨áĭ°áĬķ":10375,"wahili":10376,"áīĥáĭµ":10377,"Å¡tina":10378,"Î·":10379,"Ġáī£áĪħáĪªáĭ«":10380,"ley":10381,"ĠáĬŃáī¡áĪŃ":10382,"ÙĬØ©":10383,"áĭĭáĪ³":10384,"lim":10385,"velopment":10386,"ĠJak":10387,"ĠVrydag":10388,"ĠZulu":10389,"aande":10390,"Ġiewers":10391,"Ġáī°áĭĪáĪĭ":10392,"Ġdring":10393,"bladsy":10394,"ĠBritse":10395,"Ġmoeiliker":10396,"ĠáĪĪáĪĽáīħáĪ¨áī¥":10397,"ĠáĭŃáĪ°áĪĽ":10398,"ĠáĮ£áī¢áĭ«áĭİáī½":10399,"áĪ«áĪ¨áī¥":10400,"ogr":10401,"Ġáī³áĪĭ":10402,"áīĥáĪ½":10403,"Î¬":10404,"Ġser":10405,"Ġáī£áĪĪáĪ¥":10406,"ĠáĪ»áĪĿáįĴ":10407,"áĮ¦áĪŃáĬĲáīµ":10408,"áīĥáĭŃ":10409,"Ĥ¬":10410,"iolog":10411,"angrik":10412,"Nadat":10413,"ĠáĪĺáĭĽ":10414,"à¥į":10415,"isiteit":10416,"Ġkuier":10417,"ĠRob":10418,"ĠáĪĺáĪµáįĪáĪŃáī¶áī½":10419,"gesel":10420,"ĠEth":10421,"posadres":10422,"×¨":10423,"áĪĺáĪĪáĬŃ":10424,"Trad":10425,"ĠáĭĿáĪĺ":10426,"Ġdram":10427,"Ġáĭ¨áĬ¨áī°áĪĽ":10428,"ĠáĬłáĭŃáĮĪáī£":10429,"áĭ°áĭ±":10430,"Ġáīłáī´":10431,"Ġprior":10432,"Pinterest":10433,"61":10434,"áĭŀáī½":10435,"ĠDat":10436,"áĭ°áĭµ":10437,"Ġvolwassenes":10438,"Ġklub":10439,"Ġeendag":10440,"Ġsel":10441,"Ġsterker":10442,"ĠiPhone":10443,"ĠáĬĲáĮŃ":10444,"Ġbewegings":10445,"Ġklop":10446,"ÐµÐ´":10447,"Ġeerlik":10448,"Ġervarings":10449,"ĠCors":10450,"áī¤áī¶áī½":10451,"Ġterugvoer":10452,"ather":10453,"Ġign":10454,"áĬłáĪµáī°áĭ«áĭ¨áīµ":10455,"Ġsupp":10456,"Ġmiskr":10457,"ĠMedia":10458,"ĠIr":10459,"abr":10460,"ĠáĪĽáĪ¨áĮĭáĮĪáĮ«":10461,"áĬŃáī¶áĪ¬áīµ":10462,"áĪĭáįĬáĬĲáīµ":10463,"áĮ£áĪī":10464,"asino":10465,"Ġgef":10466,"ĠFran":10467,"ĠáĭĺáĮĪáī£":10468,"ĠáĬ¥áĭ¨áĪ°áĪ«":10469,"ely":10470,"Ġitem":10471,"2004":10472,"ĠáįĬáĪįáĪĿ":10473,"eÅ¡tina":10474,"áĬŃáĪŃáĪµáī¶áĪµ":10475,"ĠáĪĵáī¢":10476,"Ġgeske":10477,"Ġvog":10478,"ilj":10479,"ission":10480,"aanbod":10481,"Ġbeurt":10482,"Ġreuk":10483,"ĠáĬ¤áĪĿ":10484,"áĬĲáĪŃáĪ±":10485,"áīĢáĮ¥áĪį":10486,"ĠáĮłáĪ¨áĮ´áĭĽ":10487,"tand":10488,"áīĨáī½":10489,"ĠáĬ¾":10490,"Ġbef":10491,"Ġorde":10492,"Ġáĭ¨áĪļáĪĨáĬķ":10493,"ĠáīłáĪĢáĮĪáĪ«áī½áĬķ":10494,"áĪ¨áĮĭáĮĪáĮł":10495,"Ġgetroud":10496,"Ġáī°áĪ³áī³":10497,"Ġway":10498,"xemb":10499,"Ġenkel":10500,"ĠáĬ¥áīħáĭµ":10501,"skerm":10502,"ĠáĬĲáĮĪáĪ¨":10503,"Ġhonger":10504,"Ġáĭ«áĪ¨áĮĭáĮį":10505,"ĠweerspieÃ«l":10506,"ÐºÑĢÐ°ÑĹÐ½ÑģÑĮÐºÐ°":10507,"Ġstyg":10508,"Ġuitgebre":10509,"gerus":10510,"áīłáĪ³":10511,"Previous":10512,"ĠWyk":10513,"ĠJan":10514,"áĪĪáĪ½":10515,"áĪµáĪĪáĭļáĪħ":10516,"Ġgom":10517,"áĭ¨áīł":10518,"Ġáī¸":10519,"ĠWes":10520,"ĠáīłáĭĪáīħáī±":10521,"inale":10522,"ĠáĭĪáĪ³áĬĿ":10523,"gest":10524,"ĠSit":10525,"áĮīáĪŃ":10526,"áĪ¨áīĥ":10527,"áĪŃáĪĭáĪĽ":10528,"ĠáĬłáĭĪ":10529,"áī¥áĭİáīµ":10530,"ĠáĬ¥áī³":10531,"Ġsous":10532,"Ġáī°áĭ°áĪŃáĮİ":10533,"genoot":10534,"Qu":10535,"áĪ«áĬķáĪµ":10536,"áĬķáī£":10537,"Ġdif":10538,"Ġoperasie":10539,"ĠáĭĪáĪ¨áĪŃáĪ½":10540,"Ġheu":10541,"áĬ¨áĪĭáĭĬ":10542,"ĠRusland":10543,"ĠáĪĿáĬĵ":10544,"ĠVis":10545,"áĭĪáīµáĪŃ":10546,"áĭĭáĮŃ":10547,"ĠáĮįáįį":10548,"Ð¾Ð²":10549,"oets":10550,"ĠáĭįáĪ½":10551,"ĠáĪĺáĪµáĪ«áīµ":10552,"Ġhum":10553,"gryp":10554,"ĠDirector":10555,"ĠáĭµáĪŃáĪ»":10556,"Ġgesny":10557,"ĠVerder":10558,"wwe":10559,"Ġkorrekte":10560,"ĠáīłáĪ¶":10561,"Ġlap":10562,"ĠBegin":10563,"Ġáĭ¨áīĢáĭµáĪŀ":10564,"Ġmay":10565,"áīłáĪ°":10566,"áĪįáĬ«":10567,"Ġáĭ¨áī°áī£áĪĪáĭį":10568,"ĠáĭŃáĬ¹áĬķ":10569,"ĠEgipte":10570,"Ġskole":10571,"ĠáīłáĪ°áĪĭáĪĿ":10572,"áĬ«áĪĤ":10573,"áĪµáĪ«áĬ¤áĪį":10574,"blok":10575,"ĠáĪ°áĮł":10576,"áĭ¶áī¹":10577,"elo":10578,"vaar":10579,"Ġvele":10580,"Ġaanhangers":10581,"Ġverhale":10582,"Ġopstaan":10583,"hoog":10584,"ĠáĬ¥áĬķáĭ°áĪĮ":10585,"Ġnaaste":10586,"ĠDoen":10587,"Ġverbrand":10588,"iering":10589,"áĬ¨áĪ©":10590,"Ġregst":10591,"Ã§e":10592,"Ġáĭ¨áĪĿáĪµáĬŃáĪŃ":10593,"ĠáĪĺáĪįáĬ¥áĬŃáīµ":10594,"Ġdokumente":10595,"ĠChar":10596,"áĭķáĪĪáī±":10597,"Kurman":10598,"ĠáĭĿáĬ£":10599,"Î¹Îº":10600,"venska":10601,"Ġsome":10602,"áĬ¨áīłáĪ¨":10603,"ĠáĪĽáĪ»áĪ»":10604,"áĪµáī°áĭį":10605,"Ġstrate":10606,"ĠCatal":10607,"Ġton":10608,"ĠáĭĪáĪ²":10609,"Ġáīłáīĥ":10610,"ĠDem":10611,"Ġsinne":10612,"ĠleÃ«":10613,"Ġbeland":10614,"Ġgelukkige":10615,"Ġbeperkte":10616,"Ġopsigte":10617,"ĠáĬ¥áĬķáĭ³áĪĪáĭį":10618,"Ġlente":10619,"Ġongelukkig":10620,"utasie":10621,"Ġfliek":10622,"ĠáĪĽáĮį":10623,"Ġáĭ¨áĪĽáĬķ":10624,"áĭĭáĪª":10625,"áĪĻáĪĭáīµ":10626,"AS":10627,"struktuur":10628,"amilie":10629,"áīµáĪŃáĭ«":10630,"áĭĭáĪĪáĬķ":10631,"áĪ½áīµ":10632,"urig":10633,"Ġjust":10634,"Ġvery":10635,"ï¼":10636,"Ġkompon":10637,"kante":10638,"skaatse":10639,"ĠáĪĿáĮį":10640,"ĠHand":10641,"Indien":10642,"Ġproduseer":10643,"Ġtruuk":10644,"ĠáĪªáįĸáĪŃ":10645,"Ġáĭ¨áĮ¸áĪİáīµ":10646,"ĠHandel":10647,"vloer":10648,"bedryf":10649,"Ġleiding":10650,"Ġbeweer":10651,"Ġteleskoop":10652,"ÎĶ":10653,"Mag":10654,"iot":10655,"orsk":10656,"áīĢáĪī":10657,"ĠáĭµáĬķáĮįáĪį":10658,"cade":10659,"áįķáĪİáĪĽ":10660,"Ġinde":10661,"Ġbydrae":10662,"Ġwortel":10663,"Ġmeel":10664,"Ġonseker":10665,"ĠáĭĪáĭ²áĪħ":10666,"Ġterselfdertyd":10667,"Ġverhuur":10668,"enbos":10669,"Ġopgewonde":10670,"Ġaanspreek":10671,"ĠáĬķáĪµ":10672,"Ġroete":10673,"Ġcase":10674,"gebied":10675,"ĠáĪĺáĪ¨":10676,"ĠáĮłáĭŃ":10677,"ĠáĪĿáĬŃáĬķáĭ«áī¶áī½":10678,"áĭ°áīłáĬĽ":10679,"ĠáĬłáĪ°áĪ«áĪŃ":10680,"August":10681,"Ġvide":10682,"ĠáĮĪáĭĽ":10683,"Ġmedium":10684,"áĪĽáĮŃ":10685,"ĠáĬłáĬķáĭ²áīµ":10686,"Ġáĭ¨áĬ¤áĪĮáĬŃáīµáĪªáĬŃ":10687,"Ġinspir":10688,"Brittanje":10689,"ĠáĬłáĪµáĪĺáĪį":10690,"Ã¼rkÃ§e":10691,"stroom":10692,"ĠEst":10693,"Ġáĭ¨áĭĽáĪ¬":10694,"Ġinwoners":10695,"ikus":10696,"Ġtak":10697,"Ġtoeriste":10698,"áī¦áĬķ":10699,"inia":10700,"ĠáĮ¥áīģáĪŃ":10701,"vrye":10702,"áĪħáĬĲáīµ":10703,"Ġáĭ¨áĪļáĪī":10704,"ĠáĭŃáĪ¨áĭ³":10705,"Î½Î¹Îº":10706,"ĠáĬ¥áĬķáĭ³áĭ«":10707,"Î»Î·":10708,"Recent":10709,"áĪĺáĮ£áĪį":10710,"Vers":10711,"hande":10712,"áĬ°":10713,"ĠáĬ¥áĬķáĭ°áĭļáĪħ":10714,"áĮ¥áĮ¥áĪŃ":10715,"ĠTra":10716,"à®´":10717,"dren":10718,"Febru":10719,"vleis":10720,"Ġsleep":10721,"oeiende":10722,"ĠáĬ«áĪĿáįĵ":10723,"June":10724,"áįĪáĪµ":10725,"ĠÐĳ":10726,"Onder":10727,"grootte":10728,"Ġpersoneel":10729,"Ġgryp":10730,"ĠáĬ£áĪľáĪªáĬ«":10731,"Ġonbek":10732,"aamd":10733,"áī»áĪī":10734,"Å¡Äįina":10735,"ĠáĮ¥áīĥ":10736,"Ġ{":10737,"Ġrak":10738,"Î»Î»Î·":10739,"Î»Î»Î·Î½Î¹Îº":10740,"ĠáĭįáĪµ":10741,"74":10742,"áī°áĮĪ":10743,"Ġtend":10744,"ench":10745,"áī»áī½áĬķáĬķ":10746,"ror":10747,"fessor":10748,"Ġáĭ¨áĬĥáĭŃáĪį":10749,"ĠáĭĺáĪĪáĭī":10750,"Ġáī¥áĬ£":10751,"ĠáĮĪáĮ¾áī½":10752,"ĠáĬķáī¥áĪ¨":10753,"áĭ´áĪį":10754,"Ġbetaling":10755,"ĠáĭŃáīĢáĮ¥":10756,"Ġáĭ¨áĪ´áī¶áī½":10757,"Sien":10758,"Meer":10759,"Ġongelooflike":10760,"Ġseksuele":10761,"ĠáĪĥáĪ³":10762,"kure":10763,"Ġvorme":10764,"eens":10765,"raam":10766,"ĠáĬ¥áīĥáĭİáī½":10767,"Ġliefhet":10768,"Ġresepte":10769,"spl":10770,"Ġroom":10771,"asing":10772,"Ã¢nÄĥ":10773,"Ġhttp":10774,"ĠáĬłáĭįáĪ®áįĵ":10775,"ĠáĪĥáĮĪáĪ«áĭĬ":10776,"ĠáĪĿáĪµáĬŃáĪŃ":10777,"tro":10778,"ĠSol":10779,"ducation":10780,"Ġáĭ«áīĢáĪ¨":10781,"áĮĢáĪĺáĪŃáĭ«":10782,"ĠáīłáĮŃ":10783,"áī¥áī¥áĪŃ":10784,"ĠáĪĽáīħáĪ¨áī¥":10785,"ga":10786,"ĠMalagasy":10787,"ĠáĬ¥áĪĿáīłáĪŃ":10788,"Ġyem":10789,"ĠáĬłáīĭáĪĿ":10790,"ĠYor":10791,"Ġingestel":10792,"ĠShona":10793,"Ġáĭ¨áĪļáĬĸáĪ©":10794,"Ġuniversiteit":10795,"Ġtipies":10796,"Ġáĭ¨áĪĺáĬķáĮįáĪ¥áīµ":10797,"Ġbotter":10798,"Ø±Ø¨ÙĬØ©":10799,"Ġáī´áĭİ":10800,"Ġáī°áīĢáī£áĭŃáĬĲáīµ":10801,"áĬĲáī¥":10802,"Ġresearch":10803,"esse":10804,"ĠXhosa":10805,"łáĥ":10806,"áĥłáĥ":10807,"ÑĢÐ¿ÑģÐºÐ¸":10808,"oestyn":10809,"ietu":10810,"ĠáĪĺáĪµáĭĭ":10811,"à¹Ħ":10812,"áĭĺáĬĽ":10813,"geld":10814,"Ġklippe":10815,"aster":10816,"ĠAlmal":10817,"Ġworld":10818,"Ġsneeu":10819,"ĠVandag":10820,"áĭįáĬķáĪĿ":10821,"ĠáĬłáĪįáĬĲáīłáĪ¨áĪĿ":10822,"ligte":10823,"ĠáīĢáīł":10824,"ĠNik":10825,"hen":10826,"Î»Î»Î·Î½Î¹ÎºÎ¬":10827,"fers":10828,"ĠáĪĪáĪĺáĮłáīĢáĪĿ":10829,"ounc":10830,"ization":10831,"ĠáĬłáĬķáįĥ":10832,"ĠEN":10833,"baba":10834,"ĠáĪĿáĬķáĭµáĬĲáĭį":10835,"una":10836,"Ġaangepas":10837,"ĠáĪ°áī¥áĬ£áĭĬ":10838,"ĠArtikels":10839,"áį«":10840,"ĠMaat":10841,"Ġdwel":10842,"raak":10843,"Ġuitdaging":10844,"Ġrekord":10845,"amente":10846,"Ġkoppie":10847,"ĠáĮŃáįįáĮ¨áįĭ":10848,"Ġstokperd":10849,"ĠLatin":10850,"Ġmarkte":10851,"ĠáĬłáĬĲáĪµáī°áĬĽ":10852,"Ġfran":10853,"iete":10854,"anger":10855,"áĪķáĭĿáī¥":10856,"oin":10857,"ĠVerk":10858,"ĠðŁĳī":10859,"ative":10860,"ĠEsperanto":10861,"ÐµÐ»Ð°ÑĢ":10862,"Ġbespaar":10863,"ĠáįķáĪ®áĮĢáĬŃ":10864,"uf":10865,"ĠBul":10866,"Ġgeslaag":10867,"ÑĥÑģÐº":10868,"ÐµÐ»Ð°ÑĢÑĥÑģÐº":10869,"Ġvervaardiger":10870,"Ġaanbevel":10871,"Ġtoegerus":10872,"delings":10873,"áĪĭáĪĪáī½":10874,"Ġkeuses":10875,"Ġantieke":10876,"ĠáīłáĪŀ":10877,"áīħáĭ±":10878,"áī°áĬ®":10879,"Ġwere":10880,"ķÎ»Î»Î·Î½Î¹ÎºÎ¬":10881,"Ġgo":10882,"ĠAg":10883,"ayu":10884,"áĬ¤áĬķ":10885,"Ġáĭ³áĭŃáĪ¬áĬŃáī¶áĪ¬áīµ":10886,"iswahili":10887,"ĠáĪģáĪĪáī°áĬĽáĭį":10888,"eloos":10889,"áĪĺáĬĶ":10890,"áĬ³áĭŃ":10891,"Å³":10892,"uning":10893,"áīłáī£":10894,"urige":10895,"Ġfantasie":10896,"gy":10897,"Ġlaas":10898,"ÑĬÐ»":10899,"áĭŃáĪħáĬķ":10900,"Neem":10901,"áĪªáĭ«áĭį":10902,"ĠáĭįáĬĥ":10903,"cial":10904,"Ġdrama":10905,"áĪĤáī¥":10906,"áĪĺáĪįáĬ¨":10907,"áĬłáĬŃ":10908,"Ġáĭ¨áĬłáĬ«áī£áī¢":10909,"áĬ¤áī½":10910,"ĠáĪĮáĪİáī½áĪĿ":10911,"ĠGerman":10912,"áįĤ":10913,"âĢĻ.":10914,"ĠáĪĿáĮįáī£áĪŃ":10915,"NS":10916,"Ġborsvoed":10917,"á®":10918,"Ġonderwysers":10919,"ication":10920,"Ġspeelgoed":10921,"ĠáīłáĪĭ":10922,"Ġsiektes":10923,"Ġverskrik":10924,"Ġverlang":10925,"ĠáĬ¨áī°áĪŀáī½":10926,"Ġáĭķáīĥ":10927,"Ġvriendelik":10928,"Ġheelal":10929,"Ġbestudeer":10930,"malige":10931,"Ð³Ð°ÑĢ":10932,"Ġadvies":10933,"Ġverbeelding":10934,"Geb":10935,"Ã¶r":10936,"áī½áīłáīµ":10937,"ĠáĮ«áĪĽ":10938,"Ð³Ð°ÑĢÑģÐºÐ¸":10939,"ĠáĮ¥áĬķáĬ«":10940,"area":10941,"Ġáī³áĭ²áĭ«":10942,"áī°áĭĪ":10943,"Ġomvang":10944,"ĠáĪµáĪįáĮ£":10945,"áĭµáĬķáī½":10946,"par":10947,"ĠáĬ¥áĬĵáīµ":10948,"áĪļáĬĴáĭ¨áĪĿ":10949,"Ġtema":10950,"ĠáĭŃáĪĺáĪµáĪĪáĬĽáĪį":10951,"press":10952,"áĪ¬áĭµ":10953,"viÅ³":10954,"ĠAmerika":10955,"Ġ<":10956,"uthor":10957,"áĪĭáĪĪáĪģ":10958,"Ġruil":10959,"speel":10960,"Ġkeis":10961,"Ġverste":10962,"Ġaktiewe":10963,"Ġhaat":10964,"Ġooreenkoms":10965,"ĠStellenbos":10966,"Ġpubliek":10967,"taling":10968,"0043":10969,"âĢ¦.":10970,"ĠáĮīáī¥áĬĿáīµ":10971,"uring":10972,"aper":10973,"ÑĬÐ»Ð³Ð°ÑĢÑģÐºÐ¸":10974,"áĬĸáĪ¨":10975,"áĪŀáĬĳ":10976,"×ĳ":10977,"áĮĢáĬķáĪ²":10978,"ĠáĭĪáĮ»":10979,"áĬ«áĭĬ":10980,"aturday":10981,"áĮĪáĬĲáī£":10982,"Ġko":10983,"áĪħáĪĿ":10984,"ietuviÅ³":10985,"Ġblaas":10986,"ĠChich":10987,"Ġrivier":10988,"96":10989,"Ġsimboliseer":10990,"ĠáĬĲáĭŃáĪ©":10991,"Ġvaar":10992,"Leave":10993,"Nuwe":10994,"Ġjammer":10995,"Gen":10996,"áĪŃáįį":10997,"áīłáĬ¢áīµáĭ®áĮµáĭ«":10998,"áĪ«áī¥":10999,"Ġambagte":11000,"Ð°ÐºÐµÐ´":11001,"Ð°ÐºÐµÐ´Ð¾Ð½":11002,"ĠAir":11003,"áįĭáĭŃ":11004,"oors":11005,"ĠáĬŃáĪįáī°":11006,"uise":11007,"ĠSpr":11008,"ĠáĬķáĪĵ":11009,"ĠáĪĿáĪµáĮ¢":11010,"'.":11011,"yle":11012,"áĬ¨áĬĵáĭĪáĬķ":11013,"ĠáĪĿáĬĴáĪįáĬŃ":11014,"pels":11015,"áĬ«áĭ®áī½":11016,"Ġinsig":11017,"ĠáĬłáĪĬ":11018,"ĠáĭŃáĮĢáĪĿ":11019,"Ġrooster":11020,"ervaring":11021,"skaats":11022,"Ġáĭ¨áĬłáĪĪáĪĿ":11023,"Ġryp":11024,"ĠIgbo":11025,"ĠMaltese":11026,"Ġgewildste":11027,"tydig":11028,"open":11029,"Ġtik":11030,"artment":11031,"Ð°ÐºÐµÐ´Ð¾Ð½ÑģÐºÐ¸":11032,"Ġáĭ¨áĪļáĪ°áĪ«":11033,"Ġkers":11034,"Ġáĭ¨áĮįáī¥":11035,"áĥļ":11036,"January":11037,"Ð¼":11038,"Inter":11039,"port":11040,"Ġonafhanklike":11041,"Ġtransaksie":11042,"Ġáī°áīĵ":11043,"ĠáĬĵáĭŃáī²":11044,"Ġáī¥áĪ©":11045,"ĠáĪĪáĪĺáĪµáĪ«áīµ":11046,"Ġáĭ¨áĪĺáĮ¡":11047,"review":11048,"ĠáĬ¥áĭµáĪľ":11049,"Ġnoodsaaklike":11050,"bev":11051,"Ġwan":11052,"ĠáĪ°áĪľáĬķ":11053,"hele":11054,"Ġplaf":11055,"Ġreply":11056,"ject":11057,"Ġuitsig":11058,"Ġbetree":11059,"Ġrustig":11060,"ĠáĭŃáĭĪ":11061,"skaart":11062,"Rom":11063,"ĠáĮĭáĭľáĮłáĬĽ":11064,"áĪ³áĪī":11065,"ĠáĪĺáĪŃáĪĥ":11066,"áĬĵáĮĪáĪ©":11067,"ality":11068,"ÐµÐ»Ð°ÑĢÑĥÑģÐºÐ°Ñı":11069,"áĥļáĥ":11070,"andid":11071,"ĠáĬ¨áĬ¢":11072,"ĠáĭĪáĬķáĮĮáĪį":11073,"Ġâĸ":11074,"agina":11075,"áįĪáĮ¥áĪ®":11076,"áĮĢáĪĺáĪ¨áĭį":11077,"ĠáĮĬáĭľáĭ«áīµ":11078,"áĮ½áĪį":11079,"áĬ«áĭ¨áĭµ":11080,"áī¨áĪŃ":11081,"ĠáīłáīĢáĪĪ":11082,"Ġwerknemer":11083,"Ġsolank":11084,"Ġopgemerk":11085,"ĠáĪĪáĪĽáĭ¨áīµ":11086,"ĠáĪĺáĪµáĬŃ":11087,"áīłáĭ¨":11088,"áĬ¥áī³":11089,"melt":11090,"Ġnuutste":11091,"oeier":11092,"ĠDiÃ©":11093,"Ġgesondheids":11094,"áįĭáī¸áĭį":11095,"à®ķ":11096,"Ġakkuraat":11097,"ĠHmong":11098,"ĠRef":11099,"Ġáī°áĮ½áĭķáĬĸ":11100,"áĭ³áĪľ":11101,"ĠáĪĿáĪµáĮĭáĬĵ":11102,"Ġact":11103,"áĮĪáĬķáī£áīµ":11104,"ĠMad":11105,"Ġáī°áĪĵ":11106,"ĠáĬ¥áĮįáĭļ":11107,"TS":11108,"ĠáĬĲáĭĭáĪªáĭİáī½":11109,"ĠHind":11110,"ĠáīłáĪĽáĬķáĬĽáĭįáĪĿ":11111,"Cl":11112,"Follow":11113,"ĠTeen":11114,"áĬ¨áĪĭáĬ¨áĭ«":11115,"à¦¬":11116,"áĪħáĭĿ":11117,"top":11118,"plaat":11119,"Ġáĭ¨áĪļáĭ«áĭ°áĪŃáĮī":11120,"Ġgetrek":11121,"Volgens":11122,"Ġrestaurant":11123,"ografiese":11124,"artement":11125,"Ġstaar":11126,"ĠáĪĪáĭļáĪħáĪĿ":11127,"Ġgepas":11128,"Ġgeboue":11129,"etisie":11130,"iksie":11131,"áĭ²áĬķ":11132,"ĠáīłáĪĽáĭŃ":11133,"ĠáīłáĭĺáĪĺ":11134,"Ġáĭ¨áĭ°áĪ¨áĪ°":11135,"Ġáĭ¨áī°áĭĭ":11136,"qip":11137,"ĠáĬłáĮĢáĬķáĭ³":11138,"ĠOptions":11139,"Erena":11140,"à¸²à¸":11141,"ĠSesotho":11142,"ĠáĬķáĮ¹":11143,"omen":11144,"ĠáįĬáĪį":11145,"ines":11146,"Ġáĭ«áĬ«áīµ":11147,"áĪĦáĭ°":11148,"Ġadmin":11149,"áĮĪáĪĺ":11150,"áįĪáī³":11151,"ĠáĭŃáįį":11152,"áĭ°áĬĵáīĤ":11153,"Ġchurch":11154,"Ġbelowe":11155,"right":11156,"Ġaande":11157,"ĠáĬłáĬķáīĢáįħ":11158,"Ġveronderstel":11159,"Ġpasgemaakte":11160,"áįįáĪ¬":11161,"áĪ»áĪį":11162,"Ġpraktyk":11163,"áĪłáĪ¨áī°":11164,"Ġkoud":11165,"houer":11166,"Ġontstel":11167,"houdelike":11168,"Ġvermoed":11169,"ĠSoc":11170,"ado":11171,"Ġdenke":11172,"ĠáĪĺáĮ¡":11173,"Ġáĭ¨áĬŃáĪįáĪī":11174,"Ġáĭ¨áĪĿáĪŃáĮ«":11175,"áĥĲáĥłáĥ":11176,"à¦²":11177,"RA":11178,"orme":11179,"ĠáĬłáĭµáĪŃáĮĵáĪį":11180,"áī¥áĪĦáĪŃ":11181,"ĠáĬªáĪİ":11182,"ĠáĪłáĪ«áĭĬáīµ":11183,"áīĽ":11184,"áĪ°áĭĭáĪį":11185,"ĠJour":11186,"Ġáĭ©áĬĴáī¨áĪŃáĪµáī²":11187,"ify":11188,"Ġbeing":11189,"UM":11190,"Ġfees":11191,"ĠáĪĥáī¥":11192,"ĠáīłáĬĲáĮ»":11193,"Ġáī°áįĪáĮ¥áĪ®":11194,"meng":11195,"ĠSonder":11196,"Ġverbruik":11197,"Ġrykdom":11198,"ĠAarde":11199,"áĮ½áĮįáĬĵ":11200,"Ġemosionele":11201,"Ġtensy":11202,"steen":11203,"Ġtee":11204,"Ġoorsaak":11205,"áĬ¨áī³áī°áĪį":11206,"ĠMongol":11207,"Ġhouding":11208,"IK":11209,"di":11210,"ĠInstagram":11211,"áĪ¥áĪ«áīµ":11212,"ĠCV":11213,"ĠáīµáĭķáĭĽáĭĿ":11214,"ĠKen":11215,"Ġáī¥áĪĦáĪ«áĭĬ":11216,"ĠáīµáĪĿáĪħáĪŃáī²":11217,"Ġleg":11218,"ĠáĮłáī£":11219,"áĪµáī¡áĬŃ":11220,"ĠáĮ³áĭįáĪİáĪµ":11221,"áĬĲáī³áī½áĬķ":11222,"Ġpragtig":11223,"ĠLand":11224,"Ġgebruiker":11225,"Ġgelaat":11226,"Ġgeheime":11227,"Ġopwind":11228,"urm":11229,"Ġpresiese":11230,"Ġvolmaak":11231,"Ġoomblikke":11232,"Ġáĭ°áĬķáīłáĬŀáī½":11233,"Ġsamestel":11234,"fo":11235,"Ġskouer":11236,"Ġlewendige":11237,"ĠáĬłáĮĪáĪ«áīµ":11238,"slen":11239,"120":11240,"OP":11241,"inc":11242,"áĪĺáĪĪáĬ¨áī°áĭį":11243,"hara":11244,"ĠSC":11245,"áī¡áĪ«áīµ":11246,"haaf":11247,"uie":11248,"Wil":11249,"ĠMoses":11250,"arus":11251,"áĭķáĭĿ":11252,"áĭ°áĪŃáĮĭ":11253,"ĠáĬłáīµáĪĮáī²áĬŃáĪµ":11254,"áĬ¨áīł":11255,"ĠáĬłáĭŃáĪĺáĪµ":11256,"600":11257,"áĭĪáĭŃáĪĿ":11258,"áĬ¥áĭļ":11259,"skrywer":11260,"Ġmeerder":11261,"bleme":11262,"Ã¯ne":11263,"ekra":11264,"Ġdieper":11265,"ĠLeer":11266,"ĠSan":11267,"ĠáĪįáĭĳ":11268,"Å¡u":11269,"vieÅ¡u":11270,"Ġstilte":11271,"Ġwedstryd":11272,"Ġwaardes":11273,"moeder":11274,"Ġinstalleer":11275,"Ġnoukeurig":11276,"áīªáĭ²áĭ®":11277,"Ġshou":11278,"Ġprogramme":11279,"Ġvlek":11280,"Name":11281,"Ġ('":11282,"Ġáĭ¨áī°áĭĪáĪ°áĬĲ":11283,"ĠáĬłáĮłáīĥáīĢáĪĿ":11284,"Ġmode":11285,"Ø¹Ø±Ø¨ÙĬØ©":11286,"ĠáĬŃáĪŃáĪµáī²áĭ«áĬĸáī½":11287,"áĭĵáĪĺ":11288,"ĠSund":11289,"Ġáĥ":11290,"haling":11291,"ĠáīłáĭµáĮĭáĪļ":11292,"ĠáĬ¥áĬķáĭ´":11293,"ĠáĬ¥áĪħ":11294,"ĠáīłáĮī":11295,"Ġáī¢áĬĸáĪŃ":11296,"heil":11297,"ĠáĪµáĪŃáĮŃáīµ":11298,"ĠáĬłáĪ³áĭŃ":11299,"lood":11300,"likes":11301,"inse":11302,"Ġperspektief":11303,"Ġspesialiste":11304,"gewings":11305,"Ġeksperim":11306,"ĠteÃ«":11307,"Ġduisende":11308,"Ġswem":11309,"Ġvroulike":11310,"áĭ·áĪį":11311,"Ġverhit":11312,"Ġvergoed":11313,"ĠáĪģáĪįáĮĬáĭľ":11314,"Ġevery":11315,"à¦Ĥ":11316,"à¦¾à¦Ĥ":11317,"áĪ¨áĬ½":11318,"áī³áĭĪáīĢáĭį":11319,"obal":11320,"Ġáĭ¨áĮŃ":11321,"Ġatt":11322,"ĠáīµáĬ¥":11323,"áĪŃáĮĭ":11324,"Ġrou":11325,"Ġintens":11326,"spro":11327,"ĠRed":11328,"áīłáĪ«áīµ":11329,"ĠMatt":11330,"ĠáĪ£":11331,"Ġdem":11332,"Ġlim":11333,"áīłáĪ¨áĪ°áī¡":11334,"yt":11335,"áīĸ":11336,"Ġpersoonlikheid":11337,"Ġvrygestel":11338,"¥áĥĲáĥłáĥ":11339,"Ĺáĥ":11340,"Ġkamers":11341,"¥áĥĲáĥłáĥĹáĥ":11342,"Ġfeitlik":11343,"Ġkonsekw":11344,"sluiting":11345,"ĠDaw":11346,"ĠáĬ£áĪĿáĪĭáĬ½":11347,"redig":11348,"Ġtakke":11349,"Ġbeleggings":11350,"Ġáĭ«áīĢáĪŃáī£áĪį":11351,"Jul":11352,"Ġbar":11353,"ĠáĪĺáĭĭáīħáĪŃ":11354,"áī¤áī³áī½áĬķ":11355,"Ġwork":11356,"Ġáī£áīµáĪª":11357,"Ġregul":11358,"!)":11359,"ĠInter":11360,"áįĵáĬķ":11361,"ĠáīłáĭĪáĬķ":11362,"ĠáĭŃáĪ¸":11363,"ĠáįĪáĮłáĪ«":11364,"skik":11365,"bate":11366,"áĥļáĥĺ":11367,"áĭįáĪ°áĭµ":11368,"áĬĲáīħ":11369,"ĠáĬ«áĪįáĬ¦áīµ":11370,"ĠáĪĪáĪĽáĪĪáīµ":11371,"ĠOekra":11372,"ateer":11373,"koper":11374,"Ġteiken":11375,"Ġáī¥áĭĻáĪķ":11376,"Ġbuiteland":11377,"ogenoemde":11378,"ĠKlik":11379,"akteur":11380,"áĪĪáĭįáĮ¥":11381,"lank":11382,"áĪĪáĬĵ":11383,"ĠáĪĪáĪģáĪīáĪĿ":11384,"ĠáĬłáĭĺáĮĭáĮħ":11385,"Ġgh":11386,"ĠMess":11387,"maker":11388,"Reg":11389,"ĠáĪĺáĮįáĪĪáĮº":11390,"ĠáĪķáĮĭáĭĬ":11391,"inked":11392,"ĠáĪµáĭµáĪµáīµ":11393,"Press":11394,"Ġáī°áīĨ":11395,"opy":11396,"ĠáĪ¥áĪįáĮłáĬĵ":11397,"ĠLuxemb":11398,"Â°":11399,"áĪķáĪŃ":11400,"ĠáĬŃáĪŃáĪµáīµ":11401,"Ġsay":11402,"alego":11403,"ĠáĪĵáĭŃáĪįáī³áīµ":11404,"Ġáĭ«áĪ³áĭ«áĪį":11405,"ĠáĬłáī³":11406,"Natuurlik":11407,"ĠJode":11408,"ĠáĬ£áĪį":11409,"ĠMelayu":11410,"ĠáĪĿáĪ¥áĮ¢":11411,"Ġbalans":11412,"Ġhek":11413,"Ġbesigheids":11414,"weef":11415,"Ġstreek":11416,"Ġsentrale":11417,"sch":11418,"ĠáīłáĮĢáīµ":11419,"áī¤áĬķ":11420,"Ġbod":11421,"ĠáĭŃáįĪáĪįáĮĭáĪį":11422,"ĠáĬ¢áĪİáĪĿ":11423,"áĪ±áĭ³áĬķ":11424,"Ġáĭ²áĮįáĪª":11425,"-,":11426,"áįİáī½áĬķ":11427,"áĮ½áĬ¦":11428,"ĠáĪµáĪ«áĪķ":11429,"ĠáĪĺáĬķáĬ¥áĪ°":11430,"Ġtreff":11431,"áĪ³áĬ«":11432,"Ġgebreek":11433,"Ġgevestig":11434,"Ġkommunikeer":11435,"áĬĵáĪī":11436,"Ġvlakke":11437,"ĠáĮĪáĭ³":11438,"áŁĴ":11439,"Onthou":11440,"áĭ¨áīħáĪŃáĮ¸áīµ":11441,"áĭ¨áĬ«":11442,"áĭ°áĭŃ":11443,"ĠAlex":11444,"áĪĽáĪĽáĬĿ":11445,"áĬ¨áĬł":11446,"ĠMaori":11447,"Me":11448,"ĠáīłáĭįáĪµ":11449,"áŀļ":11450,"áįİáĪŃ":11451,"ĠEnige":11452,"oint":11453,"Ġáĭ¨áĬ¥áĪŃáĪµ":11454,"ĠáīłáĮ¾":11455,"Ten":11456,"áĭķáĬ®":11457,"EG":11458,"Ġtydelike":11459,"rip":11460,"Ġonaan":11461,"Ġterrein":11462,"vormige":11463,"rrr":11464,"Ġgodsdiens":11465,"Ġaangedui":11466,"áĪ°áĪ³":11467,"áīĭáĪ¨áĮ¥":11468,"Ġinternasionale":11469,"à¸Ĺà¸¢":11470,"à¹Ħà¸Ĺà¸¢":11471,"Ġalkohol":11472,"slenska":11473,"cted":11474,"video":11475,"ðŁĴŃ":11476,"Ġáī°áīł":11477,"Ġbem":11478,"Ġkam":11479,"ĠáĬ¥áĬĶáĪĿ":11480,"Ġwaters":11481,"ĠáĮ¥áĪĭáī»":11482,"ĠáĭŃáĮłáĭŃ":11483,"ĠáĪĪáī¥áĭĻ":11484,"nas":11485,"Ġgebr":11486,"Ġáī°áĭĪáĭ³áĭ³áĪª":11487,"HAN":11488,"oth":11489,"ĠáĬ¥áĬķáĭ°áĪĽ":11490,"ĠGB":11491,"ĠáįĪáĪŃ":11492,"Ġbattery":11493,"Ġdrupp":11494,"ĠPaar":11495,"Ġdaagliks":11496,"Deur":11497,"Ġtoepaslike":11498,"áįĭáĪµ":11499,"Ġreputasie":11500,"ĠáĪµáĮĭ":11501,"ava":11502,"Ġignoreer":11503,"Ġtrein":11504,"Ġuitr":11505,"Ġpast":11506,"áĪµáī°áĬ«áĬ¨áĪį":11507,"ĠUr":11508,"Ġverpligte":11509,"Ġwinste":11510,"ĠáĪĺáīĨáĮ£áĮłáĪªáĭ«":11511,"áĪªáĭĿáĪĿ":11512,"ĠEerste":11513,"ĠáĬłáĪµáĬ¨":11514,"ĠáĬķáĬ£":11515,"áĪĭáĪĪáĬķ":11516,"áī³áĬĶ":11517,"ĠáĬ¨áĮį":11518,"DA":11519,"ĠáĬ«áĭļáĬĸ":11520,"ĠáīłáĬłáĪĽáĪ«":11521,"Ġshould":11522,"áĭĺáĭĿ":11523,"ĠáĬĭ":11524,"ĠCam":11525,"enesis":11526,"áī¥áĬĵáĪį":11527,"ustral":11528,"pt":11529,"Ġdaai":11530,"kas":11531,"áīªáĭ¥áĬķ":11532,"Ġinterne":11533,"Ġdekor":11534,"Ġsekerlik":11535,"Ġaanhou":11536,"gaande":11537,"Ġvierkante":11538,"Ġsnaak":11539,"styd":11540,"aadjies":11541,"Ġspuit":11542,"Ġkaste":11543,"áīĢáĬĵ":11544,"derdaad":11545,"2002":11546,"ĠáĪĲáĪ³áī¥":11547,"áĮłáĭįáĬķ":11548,"2001":11549,"áĪµáī°áĬĽáĭį":11550,"áĭŃáĪĬ":11551,"áīłáĪŃáĬ«áī³":11552,"ĠáĬłáīħáĪŃáī¦áīµ":11553,"Ġáĭ¨áĬłáĪµáī°áĭ³áĭ°áĪŃ":11554,"ĠáĭįáĭµáĭµáĪ®áī½":11555,"áĭ¨áĬ¢":11556,"áĪĺáĬķáĮįáĪµáīµ":11557,"áĭįáĭµ":11558,"ĠáĬ¨áĮİ":11559,"ĠAddis":11560,"?âĢĻ":11561,"áĮĢáĪĿáĪŃ":11562,"à¤²":11563,"quired":11564,"abi":11565,"ĠáĬ¥áĮį":11566,"rvat":11567,"áĪ¨áįįáīµ":11568,"ĠáĪĽáĬķáĬĽáĭįáĬķáĪĿ":11569,"Ġáĭ¨áī°áĮ»":11570,"pect":11571,"áĮĪáĪµ":11572,"rvatski":11573,"Ġgese":11574,"áĪĽáĪħ":11575,"Ġáĭ¨áī£áĪĪ":11576,"oment":11577,"áĪĥáĭ°":11578,"erba":11579,"ĠáĪĽáĮ¥áįĭáīµ":11580,"áĭįáīģ":11581,"aardigheid":11582,"áīĥáī¤":11583,"Ġrolle":11584,"ĠJohannesburg":11585,"Ġgrense":11586,"Ġkonv":11587,"Ġruim":11588,"Ġnuttige":11589,"ĠUiteindelik":11590,"Ġoorblywende":11591,"Ġtrap":11592,"okolade":11593,"opspeen":11594,"áĬĲáĪħ":11595,"ĠáĬłáĭŃáī»":11596,"áĮģáĬķ":11597,"áįķáĪĭáĬķ":11598,"sc":11599,"áĪ®áĭį":11600,"ement":11601,"ato":11602,"gener":11603,"Stock":11604,"ĠáĪĲáĪĿáĪĮ":11605,"ĠáĮĮáī³áī½áĬķ":11606,"Ġcookies":11607,"áŀĺ":11608,"Ġáĭ¨áĪ°áĪĭáĪĿ":11609,"áįįáī³":11610,"Ġgrens":11611,"agter":11612,"posisie":11613,"gespreek":11614,"ĠOngelukkig":11615,"ĠTrouens":11616,"Ġgerig":11617,"aliseer":11618,"ĠáĪ¨áĮħáĪĿ":11619,"áĪ°áĬĵ":11620,"Ġgenaamd":11621,"Ġonderliggende":11622,"áĬłáī¶":11623,"Ġph":11624,"ĠPark":11625,"ĠáĬ¨áĬ¥áĬĽ":11626,"ĠRadio":11627,"à¤°":11628,"áŁĤ":11629,"ĠáįķáĪª":11630,"ĠHouse":11631,"áŀģ":11632,"áŀ¶":11633,"Next":11634,"ĠáīłáĬłáĪĪáĪĿ":11635,"Ġveer":11636,"áįĪáĬĲ":11637,"Ġdiepte":11638,"Ġlangtermyn":11639,"esh":11640,"Ġáĭ¨áĪĽáĪħáīłáĪ¨áĪ°áī¥":11641,"ĠKry":11642,"ĠáĬłáĪłáĪ«áĪŃ":11643,"wed":11644,"ĠáĬ¨áĬķ":11645,"gewoon":11646,"Tyd":11647,"spoed":11648,"usic":11649,"Ġrots":11650,"ĠTydens":11651,"ĠáĬłáĬķáįĥáĪŃ":11652,"áĬŃáĪŃáĪµáīµáĬĵ":11653,"jabl":11654,"ĠAff":11655,"ĠGriekse":11656,"ĠáĪ°áĬĶ":11657,"ĠKh":11658,"áĭįáīĢáīµ":11659,"iving":11660,"ĠáĪħáĮ»":11661,"ini":11662,"áĪŀáĪĿ":11663,"áĪŃáīµáĪ«áĭĬ":11664,"áĮ¸áĪį":11665,"ĠáĮįáĬķáī¦áīµ":11666,"Written":11667,"áĮ£áĭĬ":11668,"ĠáĪµáĪĪáĪļáĭ«":11669,"áĬłáī¥":11670,"¤à®®":11671,"âĿĸâĿĸ":11672,"ĠChina":11673,"Ġline":11674,"áĮĪáįį":11675,"ĠáĬĲáįĥáĬĲáīµ":11676,"ĠáĭĿáĮįáĮģ":11677,"Ġvoeding":11678,"verw":11679,"Ġvoorgestel":11680,"isties":11681,"ansies":11682,"Ġoortre":11683,"áĮ«áĬķ":11684,"Ġaanvanklike":11685,"£ÐºÑĢÐ°ÑĹÐ½ÑģÑĮÐºÐ°":11686,"áĬĲáĮĪáĪ¨":11687,"áĪ®áĬķáĪµ":11688,"ario":11689,"Ġáī°áĭĵ":11690,"Ġmiskraam":11691,"ĠáĬłáĭŃáĭ°áĪīáĪĿ":11692,"Ġáīº":11693,"ĠDag":11694,"Ð¾Ð»":11695,"à³":11696,"Ġlink":11697,"ĠáĪįáīµ":11698,"orde":11699,"ĠáĭŃáī°":11700,"ĠTrek":11701,"Ġáī°áĪ«áĪ«":11702,"áĬ»áĪį":11703,"Saturday":11704,"ĠáĬŃáĬ¸áĭįáĬķ":11705,"áĪ²áĪµ":11706,"isyen":11707,"áĪĪáī²":11708,"tube":11709,"à¤ª":11710,"September":11711,"ĠáĭįáĪ³áĬĶáĬĵ":11712,"dery":11713,"áĮħáĪĿáĪĭ":11714,"Ġáĭ«áĬķáĬķ":11715,"Ġbelofte":11716,"ÉĻ":11717,"×Ļ×ª":11718,"áĭİáĪµ":11719,"Ġekonomiese":11720,"ĠOekraÃ¯ne":11721,"airs":11722,"Ġmiddag":11723,"ĠáĬ¥áĪĺ":11724,"ĠJood":11725,"ĠáĬ«áĪ³":11726,"áĬ®áĪį":11727,"teland":11728,"vlug":11729,"Ġvreemd":11730,"áī£áĭĶ":11731,"Ġruk":11732,"Ġskouers":11733,"ĠáĪĪáĪį":11734,"ĠWater":11735,"uano":11736,"php":11737,"áĮłáĭ¨áīħ":11738,"ĠáĪĺáīĥ":11739,"ĠáĭĪáĬª":11740,"He":11741,"ĠáĪĢáĭŃ":11742,"ĠáĪŃáĭķáĪµ":11743,"ĠáĪ¥áĪįáĮ£":11744,"áĪŁáĪĭáīµ":11745,"IV":11746,"Ġáĭ¨áĬ¢áĬķáĭ±áĪµáīµáĪª":11747,"Ġwysheid":11748,"Ġáĭ¨áĪĭáīĢ":11749,"hof":11750,"Ġelektroniese":11751,"olgende":11752,"onteer":11753,"ĠáĬłáĪĪáĪĽ":11754,"Ġnab":11755,"Ġhieroor":11756,"Ġdaardeur":11757,"Ġonderrig":11758,"áī³áĭĪáīģ":11759,"Ġfunksioneer":11760,"Ġgewen":11761,"Ġgeveg":11762,"Ġtroue":11763,"Ġwis":11764,"áī¥áĮ»":11765,"ebuano":11766,"ĠáĬłáī£áī¶áī½":11767,"ĠáĬłáĪĺáĪĪáĬ«áĬ¨áīµ":11768,"ĠáĬ¥áĭįáīĢáīµ":11769,"ĠáĬķáĬ½":11770,"áĭĺáĪĿ":11771,"place":11772,"vo":11773,"áĭįáĭ«áĬķáĬķ":11774,"Ġáī£áĪħáĪª":11775,"áĭ©áī¥":11776,"áĮįáĪĪáĮ½":11777,"Ġâĸª":11778,"ĠLond":11779,"Ġáĭ¨áīģáĪĽáĪŃ":11780,"Ġven":11781,"Ġnews":11782,"Ġlinker":11783,"ĠáĪµáĪĪáĭĿ":11784,"Ġáĭ¨áĪļáĭĪ":11785,"Kor":11786,"Ġáī°áįħ":11787,"Ġhef":11788,"áĮįáī£áī¡":11789,"toom":11790,"Ġmededing":11791,"Ġput":11792,"Ġoorsprong":11793,"Ġskud":11794,"Ġáĭ«áĭ°áĪŃáĮĪáĭĭáĪį":11795,"ĠáīłáĪħáĮį":11796,"Ġverleng":11797,"untjie":11798,"áĮĭáĪĿ":11799,"breng":11800,"ĠáĭµáĪŃáĮĬáīµ":11801,"áĪ·áĬķ":11802,"ĠáĭįáĪŃáĪŃáĭµ":11803,"ĠáĭįáĮįáĬ¥":11804,"áī£áĪ¨":11805,"ĠáĮĵáĭ°áĬĽ":11806,"meld":11807,"áĬŃáĬŃáĪŃ":11808,"áĭįáĬĳ":11809,"ĠáĭĻáĪŃ":11810,"áĬłáĪĭáĪħ":11811,"Ġaggr":11812,"áĮĪáĪĪáįĢ":11813,"áĬ¾áĬķ":11814,"Ġjonger":11815,"ĠPubl":11816,"Ġik":11817,"doek":11818,"Ġvorms":11819,"Ġheers":11820,"Ġsmal":11821,"ĠáĪĺáĮ½áĪĲ":11822,"Ġstelsels":11823,"ĠSÃª":11824,"ulÃªre":11825,"ĠprimÃªre":11826,"akh":11827,"áĭ¨áĪ©áĪ³áĪĮ":11828,"Ġkool":11829,"Ġkontant":11830,"Ġswemb":11831,"Ġpaaie":11832,"Ġoorleef":11833,"ĠáĭĿáĪŃáĭĿ":11834,"Ġáĭ¨áī°áĬĵáĮĪáĪ©áīµ":11835,"áĬ«áī¤":11836,"ĠáĭĺáĪ¨":11837,"Wel":11838,"iep":11839,"ĠáĬłáĮł":11840,"áĮ¹áīµ":11841,"sku":11842,"EW":11843,"ĠáĪĽáĬ¥áĬ¨áĪį":11844,"ĠáĬłáĬķáī£áī¢":11845,"Ġuitgawe":11846,"Ġáĭ«áĪįáĪĨáĬĳ":11847,"ĠáĭĬ":11848,"ĠáĬ¥áĬķáĮįáĭ²áĪħ":11849,"à¥ĩ":11850,"Ġáĭ²áĪĭ":11851,"áĭ°áĮĪáįį":11852,"Ġgoue":11853,"ĠCor":11854,"áĪĺáĮ£áĭį":11855,"verhale":11856,"eniging":11857,"Ġverle":11858,"Ġondervinding":11859,"byt":11860,"mis":11861,"innige":11862,"ĠáĮİáĪį":11863,"Ġdob":11864,"tekening":11865,"Ġoopgemaak":11866,"Ġproduksie":11867,"áĭįáĬķáīµ":11868,"ĠFrankryk":11869,"Beeld":11870,"Ġwetenskaplike":11871,"áĬķáĪ°áĪŃ":11872,"ĠáĪĺáīģáĪ¨áĮ¥":11873,"áĭķáĪĪáī³áĭĬ":11874,"ĠáīĢáĮ¥áĪİ":11875,"rel":11876,"ĠáĮįáįĬáīµ":11877,"ĠáĪĪáĪĺáįįáĮłáĪŃ":11878,"Ġáī¥áĪĭ":11879,"ĠáĬłáĭįáī³áĪ¨":11880,"Ġáĭ¨áī¥áĪ¨áīµ":11881,"ĠáįĵáĪŃáī²áĭİáī½":11882,"à³į":11883,"ippe":11884,"ĠáīłáĬĥáĪĭ":11885,"Ġagainst":11886,"din":11887,"ĠáĪĪáĪĺáĬ¨áĪĭáĬ¨áĪį":11888,"áĪįáī£":11889,"ķà²¨":11890,"à²¡":11891,"à²ķà²¨":11892,"à²¨à²¡":11893,"ĠÐ¢":11894,"gereg":11895,"ĠáĬ¥áĭįáīħáĬĵ":11896,"ĠáĪĪáĬłáĬķáĭµ":11897,"yding":11898,"ences":11899,"áī¨áĪµáīµ":11900,"Ġangs":11901,"Ġbaar":11902,"OU":11903,"Ġprokure":11904,"Ġpogings":11905,"Ġvertaal":11906,"Ġherfs":11907,"Ġoorspronklik":11908,"Ġafhanklik":11909,"gorde":11910,"ĠáĭĪáĪŃáīħ":11911,"ĠáĬ¨áĪĿáĭļ":11912,"Su":11913,"ĠáĪĿáĮ½":11914,"ĠáĬķáĭµáįį":11915,"Ġtimes":11916,"áĪ¬áĭį":11917,"íķľêµŃìĸ´":11918,"Ġsm":11919,"áįĪáī°":11920,"áĭ¨áĮį":11921,"Ġpolitic":11922,"ĠSwit":11923,"ĠáĬłáĪµáĪĺáĪįáĬŃáī¶":11924,"ĠáĮ´":11925,"Ð°Ð·Ð°":11926,"ĠáĪµáĮĭáīµ":11927,"ĠáĬ¥áĬķáĭ°áĪļáī»áĪį":11928,"Ġlie":11929,"Ġperman":11930,"Ġtenk":11931,"Ġgebede":11932,"Ġbely":11933,"ĠPas":11934,"Ġaanpas":11935,"Ġáĭ¨áĭĪáĭ°":11936,"ĠáĮ¡":11937,"Ġonly":11938,"iteer":11939,"Ġpartye":11940,"Ġteenwoordig":11941,"áĬĶáĬķ":11942,"Ġsiklus":11943,"Ġkatte":11944,"Ġopvoedkundige":11945,"Ġbonus":11946,"muur":11947,"ĠáīłáĪķáĮį":11948,"Ġmateriale":11949,"Ã²":11950,"Ġáĭ¨áī°áįĪáĮ¥áĪ®":11951,"ĠáĮīáĮħáĪĪ":11952,"ĠáĬ©áī£áĬķáĭ«áĭİáī½":11953,"sit":11954,"áĪħáĬķáĬĲáīµ":11955,"Ġblink":11956,"ĠáĬłáįĪáįĥáįĢáĪĿ":11957,"ĠáĪµáĬĵ":11958,"Ġthan":11959,"ĠáĬłáĬķáĮ»áĪŃ":11960,"à·Ĵ":11961,"áĭ«áĪī":11962,"à·ĥ":11963,"à·Ħ":11964,"ĠáĭĪáī³áĭ°áĪ«áĭĬ":11965,"ĠáīłáįĮ":11966,"Ġáĭ¨áįĬ":11967,"à·Ħà¶":11968,"ĠáĬ¨áĪĥ":11969,"ĠáĬłáĪµáī³áĭĪáīĢ":11970,"à¶Ĥ":11971,"à·Ĵà¶Ĥ":11972,"à·Ħà¶½":11973,"Ġáĭ¨áĪļáĪīáīµ":11974,"ĠáĪģáĪīáĬķ":11975,"ÒĽ":11976,"skou":11977,"áĪĪáī²áĬ¨":11978,"Ġomskep":11979,"Ġenigiemand":11980,"Ġtoestande":11981,"Ġbuur":11982,"Ġsodoende":11983,"indes":11984,"Ġbygevoeg":11985,"Ġwerknemers":11986,"¡ÑĢÐ¿ÑģÐºÐ¸":11987,"áĭįáĬĲ":11988,"Ġáĭ¨áĬłáĬķ":11989,"Ġhaarself":11990,"Ġgeskied":11991,"bad":11992,"Ġknoppie":11993,"Ġbanke":11994,"áĬ¨áĪĪáĬĽ":11995,"ĠMiddele":11996,"Ġwaaruit":11997,"ĠáĪĪáĪĺáĮį":11998,"Ġfopspeen":11999,"áĭĭáī¸áĭį":12000,"ĠáĪļáĪį":12001,"atest":12002,"uke":12003,"áĬ¨áĪ°áīµ":12004,"áĬĢ":12005,"áĬ¨áī°áĪĪáĭį":12006,"ĠTop":12007,"ĠáĮ«áĬĵ":12008,"ietnam":12009,"áĬ£áĪį":12010,"icha":12011,"ĠáīłáīĢáĪŃ":12012,"áĭ©áĪĿ":12013,"ĠáĭĪáĮį":12014,"áī¦áĪŃ":12015,"ĠĠ":12016,"ĠáīĢáĮ£":12017,"áĬħáīłáĪ«áĭĬ":12018,"Ġoorvloed":12019,"ĠáĬłáĪ»áĪ«":12020,"linge":12021,"Ġrec":12022,"Selfs":12023,"ĠáĪķáī¶":12024,"Ġvestig":12025,"Ġwinkels":12026,"áĭįáĭ«áĬĳ":12027,"ĠáĪ°áĪļ":12028,"elfde":12029,"Ġnuuskier":12030,"estiging":12031,"Ġtegniek":12032,"Ġongelooflik":12033,"ĠáĬªáĭ³":12034,"Ġlisensie":12035,"ĠáĪµáī¥áĪµáī¥":12036,"urn":12037,"verb":12038,"ĠáĮĪáĬķáĭĺ":12039,"ĠáīłáĪĢáĮĪáĪŃ":12040,"arge":12041,"ikale":12042,"ĠáĬłáĪ³áĪį":12043,"kap":12044,"skyn":12045,"lee":12046,"áĭµáĪ«":12047,"Ġgevaarlik":12048,"Ġnaald":12049,"ĠHoroskoop":12050,"Begin":12051,"Ġ@":12052,"Ġverdr":12053,"Stel":12054,"betaal":12055,"®à´":12056,"²à´":12057,"Ġáīłáĭ¨áĬł":12058,"à´³":12059,"à´¾":12060,"à´Ĥ":12061,"à´®à´":12062,"²à´¯":12063,"à´®à´²à´¯":12064,"ĠáĬ¥áĬķáĭ³áĪĪáīłáīµ":12065,"iÃ«nte":12066,"ĠâĤ¬":12067,"Ġgeleidelik":12068,"ĠáĭĺáĪĭáīĤ":12069,"Ġslaapkamer":12070,"ĠmilitÃªre":12071,"ĠáĬĲáī¶áĪĿ":12072,"Gl":12073,"áĪĭáįį":12074,"ĠáĮĪáī¥áĪŃ":12075,"áĪľáĪ«":12076,"áĮ¥áĪį":12077,"áĮįáĮįáĪŃ":12078,"ĠáĪµáĪĽ":12079,"ĠáĬ¤áĮĢáĬķáĪ²":12080,"ĠáĪĺáĪĿáĪħáĪ«áĬķ":12081,"áĪ¯áī¸áĭį":12082,"Ġmost":12083,"omer":12084,"uel":12085,"arium":12086,"ĠáĬ®áĪŃáįĸ":12087,"Ġok":12088,"áĭĭáĮĭ":12089,"ĠáĭŃáĮłáī¥":12090,"ĠáĬ£áĬķ":12091,"ommers":12092,"vin":12093,"à¨ª":12094,"à¨¬":12095,"à¨¾":12096,"à¨ľ":12097,"à©°":12098,"à©Ģ":12099,"ĠSpel":12100,"ĠáĪĺáĪĲ":12101,"ĠáĪĿáĭį":12102,"Ġáĭ¨áĮĮ":12103,"Ġdeurs":12104,"áĮłáĬķáīĢ":12105,"áĪ´áįį":12106,"Ġluuk":12107,"Ġeksterne":12108,"anski":12109,"Ġtest":12110,"Ġkwessie":12111,"Ġáīµáī½":12112,"Ġáĭ¨áĪħáĮį":12113,"geskiedenis":12114,"Ġless":12115,"áĭ¨áĭ°":12116,"Ġboodskappe":12117,"Ġáĭ¨áĭįáĭµ":12118,"ĠNep":12119,"ĠáĪµáĬ¬":12120,"®à¤°":12121,"à¤ł":12122,"áĬ®áĬĸáĪļáĭ«":12123,"180":12124,"1000":12125,"ĠáĪĺáįįáĮłáĪŃ":12126,"ĠáīłáīħáĪŃáī¥":12127,"ĠáįĪáĮ½áĪŀ":12128,"Ġáĭ°áĪĺ":12129,"ĠáĭĪáĪ°":12130,"ukas":12131,"Ġáĭ«áĮĪáĬĽ":12132,"áįįáī³áīµ":12133,"pa":12134,"Ġáĭ¨áĪĭ":12135,"ĠáĪĽáī¥áĪ«":12136,"Ġprosa":12137,"ĠSaul":12138,"Ġbitter":12139,"Ġdep":12140,"áĬĽáĭİáī¹":12141,"ĠOut":12142,"Ġteleur":12143,"Ġburg":12144,"Ġsodan":12145,"à°¤":12146,"à°²":12147,"à°Ĺ":12148,"à±Ĩ":12149,"ĠModer":12150,"Ġsterrek":12151,"dorf":12152,"Ġvolledig":12153,"ĠDikwels":12154,"Ġtydskrifte":12155,"Contact":12156,"Ġregverdig":12157,"Ġuitges":12158,"Ġroer":12159,"Ã´re":12160,"ĠCan":12161,"ĠáĬŃáįįáīµ":12162,"ĠáĪ°áĮª":12163,"ĠáĪĺáĪ¨áĮĥáĭİáī½áĬķ":12164,"Ġnam":12165,"áī¥áĪµ":12166,"ĠáĭīáĪµáĮ¥":12167,"áĭ¶áĪĽáĭįáĭ«áĬķ":12168,"ĠáĬłáĬķáĭµáĪĿ":12169,"áīĨáĬķ":12170,"omo":12171,"ĠáīłáĭĭáĬĵáĬĲáīµ":12172,"áĪ®áī¹áĬķ":12173,"áĬŃáįĪ":12174,"áĭµáĭ®":12175,"bron":12176,"ehov":12177,"ĠLog":12178,"Ġáĭ«áĭ°áĪ¨áĮī":12179,"vanese":12180,"lease":12181,"áĭķáī¥":12182,"ĠáĬ«áįĴ":12183,"Ġvisuele":12184,"ĠáĪĻáĭ«":12185,"spir":12186,"Ġtroos":12187,"Ġ.....":12188,"Ġongeag":12189,"ĠMaatskappy":12190,"Ġáĭ¨áĬłáīµ":12191,"ĠáĬłáĬķáĭ°áĬĽ":12192,"Ġbepalings":12193,"asties":12194,"oopbaan":12195,"wyser":12196,"skut":12197,"Ġbevol":12198,"inhoud":12199,"ĠáĮ½áĪķáįĪáīµ":12200,"Ġagterkant":12201,"Ġáĭ¨áī°áĮĪáĬĺ":12202,"Ġáī£áĪ»áĮĪáĪŃ":12203,"ĠáĬłáĪĽáĬ«áĬĿáĬĲáīµ":12204,"ĠáĪĨáĬĵ":12205,"¹ģ":12206,"ĠáīłáĭµáĪŃ":12207,"ĠáĬłáĪĽáĪ«áĮ®áī½":12208,"áĮİáĬķ":12209,"ti":12210,"EP":12211,"endel":12212,"Ġáī°áĭ«áĭŃ":12213,"Ã®":12214,"áį¬":12215,"áĮĭáĪŃ":12216,"ĠiStock":12217,"áĪĽáĮįáĪĮ":12218,"ĠáĬ¥áĪŀ":12219,"Ġgif":12220,"ĠáĬ«áĪŃáĭµ":12221,"âľŀâľŀ":12222,"áīĢáĪ±":12223,"loops":12224,"ĠNiemand":12225,"áī£áī½áĬķ":12226,"Ġcomm":12227,"Ġinterpretasie":12228,"áĮĢáĪŃáĪĺáĬķ":12229,"Ġhemelse":12230,"ĠStellenbosch":12231,"Ġkompas":12232,"Ġbenader":12233,"Ġdoeltreffend":12234,"sake":12235,"Ġreflek":12236,"Ġafsonder":12237,"essiewe":12238,"Newer":12239,"knapp":12240,"áĪļáĬķ":12241,"ĠáĭŃáĭ°áĪ¨":12242,"áĪ¨áīł":12243,"ĠReply":12244,"ĠáīłáĬ¤":12245,"Ġáīłáĭ°áī¡áī¥":12246,"áĪĿáĪ¨áĮ¡":12247,"ĠáĬĲáĮĭáĭ´":12248,"ĠáĭĿáĮ¸áĬķ":12249,"ĠáĬ¹":12250,"ĠáĬ£áįį":12251,"áī°áĬ©":12252,"Ġáĭ¨áĮ¨áĭĭáī³":12253,"Ġimplem":12254,"ĠÐ¼":12255,"áĮĪáĬĵáĬĻ":12256,"áĭ°áī£áī£áĭŃ":12257,"ĠáĪķáĭĿáī¦áī½":12258,"Tube":12259,"ĠáĭĪáĬķáīł":12260,"Inhoud":12261,"Posts":12262,"ĠáĬ¥áĮĪáĭĽ":12263,"ĠáĬłáī¤áī±":12264,"áĭµáĪľ":12265,"Ġgenes":12266,"Â©":12267,"Ġdade":12268,"ĠáĪĺáĪįáĪ¶":12269,"áĪµáįĸáĪŃáīµ":12270,"oordele":12271,"ĠáĪĲáĭĭáĪŃáĭ«":12272,"usiness":12273,"ľàª":12274,"Ġkombineer":12275,"àª¤":12276,"àª¾":12277,"àªĹ":12278,"àªľàª":12279,"à«Ģ":12280,"à«ģ":12281,"àªľàª°":12282,"Ġgetuig":12283,"ĠáĬłáĪķ":12284,"áĪħáĬĵáīµ":12285,"ĠáĬŃáĪŃáĬŃáĪŃ":12286,"ĠHel":12287,"atie":12288,"ĠáĭĺáĮį":12289,"ĠáĪĽáĪħáīłáĪŃ":12290,"áįİáī¶":12291,"áĪ«áī¸áĭįáĬķ":12292,"ĠáĪµáīµáĪ«áī´":12293,"Ġáĭ¨áĪ«áĪ±áĬķ":12294,"Ġáī°áĭĺ":12295,"ĠáĬłáĪµáīĢáĭµáĪŀ":12296,"áĬ¨áĪĭáĭŃ":12297,"áĪ®áīµ":12298,"áĪªáĪµ":12299,"ÉĻr":12300,"áĪµáĪĽ":12301,"Ġáĭ°áĬķáīł":12302,"áĭĽáĪĽáĮħ":12303,"Ġtelevisie":12304,"Ġalternatiewe":12305,"Ġoul":12306,"áįĪáĮłáĪŃ":12307,"ĠáĪ°áĪĽáĭŃ":12308,"Ġakade":12309,"áĪĿáĬķáĪĿ":12310,"ĠáĪ¨áĭ³":12311,"ĠInternet":12312,"«Ķ":12313,"é«Ķ":12314,"¹ģé«Ķ":12315,"ĠMonth":12316,"rus":12317,"mens":12318,"áĪ¨áįĪ":12319,"sa":12320,"odel":12321,"Ġtelef":12322,"Ġvolume":12323,"aeil":12324,"Ġáĭ¨áĪļáĪ¸":12325,"Ġáĭ¨áĪļáĪ°áĮ¥":12326,"ĠDel":12327,"ĠBur":12328,"onds":12329,"baycan":12330,"ÉĻrbaycan":12331,"ĠáĬ©áĬªáĭİáī½":12332,"ĠáĬłáĮłáĬĵ":12333,"ota":12334,"ensionele":12335,"ko":12336,"Ġwerking":12337,"Ð°Ð·Ð°ÒĽ":12338,"áĭķáĬķ":12339,"Ġpubliseer":12340,"Ġsly":12341,"rywe":12342,"Ġmisluk":12343,"Ġvergif":12344,"ĠáĬłáĭ²áĪ±":12345,"Ġopger":12346,"Ġbeskadig":12347,"ĠáĬ¥áĬķáĬŃáī¥":12348,"Ġpower":12349,"Ġaanduid":12350,"Ġheelwat":12351,"áĮłáĭ¨áīģ":12352,"Ġusing":12353,"áīĢáĪ°":12354,"áĭ´áĬ¦":12355,"áĬķáĭ¶":12356,"áĪĪáĭī":12357,"Ġwww":12358,"ĠAlban":12359,"ham":12360,"Ġ'''":12361,"195":12362,"gesig":12363,"Ġáĭ¨áĪįáĪĽáīµ":12364,"ĠáĪ³áĪĿáĬķ":12365,"ĠáĬ©áī£áĬķáĭ«áĭį":12366,"ydenis":12367,"ĠInternational":12368,"ĠáīĥáĪįáĪ²":12369,"ĠPosts":12370,"Æ°á»":12371,"Ġeienaars":12372,"ĠKn":12373,"ĠDeutsch":12374,"áĮ¥áīłáī¥":12375,"¹ģé«Ķä¸Ńæĸĩ":12376,"Ġaanbid":12377,"Ġuitkom":12378,"Ġheerlikheid":12379,"esfin":12380,"ĠáĪĪáĪĺáĮłáīłáīħ":12381,"wige":12382,"Ġkus":12383,"ĠFrench":12384,"ĠMc":12385,"Ġáī°áĪĪáĭĭáĭĭáĮŃ":12386,"âĨĲâ¤ĴðŁĶĹ":12387,"okkies":12388,"legs":12389,"Ġvertoning":12390,"Ġronde":12391,"ĠKinders":12392,"olasie":12393,"ĠSpanish":12394,"Ġbogenoemde":12395,"áĪĿáĮįáī£áĪŃ":12396,"ĠáĭµáĬķáĮĭáĮĮ":12397,"Ġbronne":12398,"Ġvinger":12399,"ĠáĪĪáĪĽáĪ»áĪ»áĪį":12400,"ĠáĬ®áĭµ":12401,"Ġvoorwaardes":12402,"áĪľáīµ":12403,"Ġgelyken":12404,"mmm":12405,"spul":12406,"UI":12407,"ĠáĮĢáĪŃáĪĺáĬķ":12408,"ĠáīłáĪ¥":12409,"áĮĵáĭĿ":12410,"áī£áĪĪáĬķ":12411,"uskara":12412,"áįĪáĮ¸áĪĻ":12413,"áĪįáĭµ":12414,"ĠáĮįáĪĪáĪ°áī¥":12415,"Ê»":12416,"ĠáĬ¥áĬķáĮįáĪĬáĭĿ":12417,"Ġáĭ¨áĭŃ":12418,"ĠSj":12419,"EK":12420,"October":12421,"ĠáĪĪáĪ«":12422,"ifikasie":12423,"pot":12424,"Ġáī°áĮłáĪŃ":12425,"ĠáĬŃáĪĿ":12426,"gelyk":12427,"Ġwaarnem":12428,"Ġmegan":12429,"ovak":12430,"dienste":12431,"Ġplasings":12432,"Ġamptelike":12433,"ĠMara":12434,"Ġafwy":12435,"ĠáĭĪáĮ»áĬ¢":12436,"Ġopged":12437,"Ġhoofstad":12438,"Ġgesins":12439,"Ġáĭ¨áĭµáĪ¨":12440,"ĠáĬĲáī½":12441,"áĬ¬áĪ½áĬķ":12442,"áī¦áī³áĭį":12443,"Ġáī³áĪĽ":12444,"ĠáĮįáĭ¢":12445,"Ġáĭ¨áĪļáĭ«áĪµáī°":12446,"Ġáīłáī°áĭ«áĭ«áĭĺ":12447,"áī¢áĪµ":12448,"BA":12449,"ĠáīłáĪĺáĪĨáĬĳáĪĿ":12450,"ĠáĬ¥áĪį":12451,"Ġobjek":12452,"áī¥áĪİáĪµ":12453,"áĮ£áĭį":12454,"ĠEd":12455,"áĪ¨áĭļ":12456,"ĠáĪ¥áĪ«áĭİáī½":12457,"ĠáĪĺáĭµáĪĥ":12458,"LC":12459,"Ġáĭ«áĪĪáĬķ":12460,"ĠáĮĭáĭľáĮł":12461,"ĠBiografie":12462,"teloos":12463,"ticles":12464,"Ġmensdom":12465,"ĠáįķáĪ®áĮįáĪ«áĪŀáī½":12466,"Ġgemeng":12467,"áĬ«áĪĭáīµ":12468,"Ġdaaruit":12469,"Ġstoot":12470,"Ġvloed":12471,"halings":12472,"Ġtalent":12473,"Ġavontuur":12474,"Ġstoom":12475,"Ġáĭ³áĮį":12476,"Ġfietsry":12477,"ĠáĪĺáĭĵáĪįáī²":12478,"Ġswaai":12479,"ĠáĬłáĭ«áĭ«áĭĿ":12480,"áĭķáĪĪáīµ":12481,"ĠWith":12482,"aner":12483,"Ġintellig":12484,"abes":12485,"Ġarbe":12486,"ago":12487,"Ġpocket":12488,"ĠáĭĿáĬ¸":12489,"Ġgeregtigheid":12490,"Ġbakter":12491,"tuin":12492,"ehovah":12493,"áĪ«áīµáĬķ":12494,"Ġago":12495,"Mar":12496,"Ġmaandelik":12497,"Ġáĭ¨áĭįáĪµáĮ¥":12498,"ĠGelukkig":12499,"Ã½":12500,"Ġyskas":12501,"Ġwould":12502,"Ġgeroep":12503,"Ġsoliede":12504,"Ġopening":12505,"Ġaart":12506,"Ġskaduwee":12507,"Ġrook":12508,"Ġredelike":12509,"Ġyster":12510,"ĠWest":12511,"ĠáĪ²áĪ°":12512,"annings":12513,"appie":12514,"Ġburger":12515,"Ġgeskikte":12516,"vermoÃ«":12517,"ĠáĬ£áĭĿ":12518,"geleenthede":12519,"Ġuitgawes":12520,"Ġáī½áĪİáīµ":12521,"MS":12522,"áĭķáĪ«áī¥":12523,"áĪħáĬĲáĮį":12524,"73":12525,"ĠáĪļáĬĴáĪµáīµáĪ©":12526,"áĭŃáĪ¨":12527,"ĠáĬ¥áĬķáĮħ":12528,"ĠáĮįáĪŃ":12529,"ĠOffice":12530,"ux":12531,"áĪ®áĪµ":12532,"áĪ°áĪĿ":12533,"Ġwild":12534,"ĠáĬłáĭįáĮ¥":12535,"Ġáĭ¨áĪĿáĪŃáĪĿáĪŃ":12536,"áįĪáĬĲáĭĪ":12537,"Ġspe":12538,"erskool":12539,"ĠáĭĲáī¢áĭŃ":12540,"Ġlyne":12541,"appels":12542,"ÙĴ":12543,"ĠGeorg":12544,"áĪ®áĭµáĬ«":12545,"Ġoorsig":12546,"Ġoorgedra":12547,"February":12548,"Ġknie":12549,"áĪĪáĬĵáĪį":12550,"Ġstukkies":12551,"Ġstab":12552,"ussing":12553,"Ġalgehele":12554,"Ġgeheue":12555,"aturbate":12556,"áįĪáĪĪáĮĪ":12557,"dring":12558,"ĠáĪįáĬ¡":12559,"dam":12560,"áĮĪáĪįáĮ½":12561,"ĠáĪļáĪľ":12562,"Ġlem":12563,"ĠáĪĺáĪµáĪĺ":12564,"nh":12565,"ĠáīłáĭĺáĪŃ":12566,"Ġáĭ¨áĪ»":12567,"Ġdeb":12568,"ĠáĪĪáĪļáĭ«":12569,"áĪĽáĪĺáĮ¥":12570,"Ġbedr":12571,"ĠáīłáĬ¥áĬķ":12572,"Ġáĭ¨áĪ¥":12573,"áĭ«áĭ£":12574,"Ander":12575,"Ġwoestyn":12576,"ĠáĬ²":12577,"Ġáĭ¨áī°áīĥ":12578,"áīĢáīµáĬķ":12579,"Ġbeloof":12580,"Ġfoon":12581,"ĠáĬŃáĪŃáĪµáīµáĬĵ":12582,"ĠsÃ³":12583,"áĪ°áī¥áĪ°áī¥":12584,"Ġweeg":12585,"estelike":12586,"osieer":12587,"Ġfilosof":12588,"Ġallerhande":12589,"Afr":12590,"Ġáĭ¨áī°áīĢáĪĺ":12591,"įslenska":12592,"Ġmer":12593,"imin":12594,"Ġáĭ¨áĭ©áĬĴáī¨áĪŃáĪ²áī²áĭį":12595,"ĠLED":12596,"âĢ¦âĢĿ":12597,"ĠáĮİáĪ¨":12598,"ĠáĬłáĮįáī£áī¥":12599,"musiek":12600,"áĪĺáī»":12601,"Ġfund":12602,"áĪīáĬ¥":12603,"ĠAreg":12604,"ettings":12605,"ĠáĪķáī¡áĪ«áīµ":12606,"ĠáĪĺáĬ¨áĪĭáĬ¨áĪį":12607,"pol":12608,"Ġthese":12609,"ros":12610,"ĠFacebookShare":12611,"ml":12612,"áĪĮáĭ³":12613,"ĠWeer":12614,"1980":12615,"áįĸáĪĬáĪµ":12616,"Ġmeld":12617,"áīĨáĪµ":12618,"OD":12619,"Ġáĭ¨áĬłáĮĪáĪįáĮįáĪİáīµ":12620,"Ġsein":12621,"Ġsketse":12622,"ĠáĪĺáĪĺáĪŃ":12623,"Ġliefdes":12624,"Ġgeestelik":12625,"Ġselde":12626,"toer":12627,"vertr":12628,"trol":12629,"áĬ©áĪĭ":12630,"gemene":12631,"aseerde":12632,"ustreer":12633,"Ġtipiese":12634,"ĠáĬ¥áĬĽáĬķ":12635,"Ġbesondere":12636,"rywings":12637,"Ġbewonder":12638,"Ġidentiteit":12639,"ydse":12640,"ĠáĬ¨áĭļáĪħáĪĿ":12641,"ĠáĭķáĭµáĮĪáīµ":12642,"ĠáĬ¨áī°áĪĪáĭ«áĭ©":12643,"ĠáĪĺáī°áĮįáīłáĪªáĭ«":12644,"More":12645,"ĠLiter":12646,"Ġrein":12647,"ĠáĮĪáīłáĪ¬":12648,"ĠáĭĪáĪ¨áĪŃáĪ½áĬĿ":12649,"esa":12650,"ĠáĪµáĪĻ":12651,"Ġread":12652,"ition":12653,"áĪĮáĬķ":12654,"áĪ°áī¦":12655,"ĠKind":12656,"Ġmill":12657,"ĠCre":12658,"Ġhuman":12659,"ĠáīłáĭĽáĪ¬áĭį":12660,"odox":12661,"áĪĺáĪ«áĭį":12662,"ĠArmen":12663,"áĭĭáĪĿ":12664,"ateur":12665,"ĠáĬ¤áĪĮáĬŃáīµáĪªáĬŃ":12666,"ney":12667,"ĠBulg":12668,"ĠáĬłáĪµáī¸áĮĭáĪª":12669,"ontein":12670,"áīĥáĪĪáĪģ":12671,"Ġgenre":12672,"ĠáĪªáįĮ":12673,"ĠPot":12674,"Ġkleut":12675,"ĠAmharic":12676,"Fr":12677,"Ġarticles":12678,"ĠCro":12679,"Ġáĭ«áĮĪáĬĺ":12680,"Ġleeg":12681,"aners":12682,"apie":12683,"eme":12684,"Ġafhang":12685,"ĠJakob":12686,"Ġontsn":12687,"Ġoorskry":12688,"Ġwoede":12689,"ĠEerstens":12690,"Ġhoogs":12691,"ĠáĪ²áĪĨáĬĳ":12692,"Ġhonderde":12693,"ieselfde":12694,"áĪŃáĪķ":12695,"ĠáĭµáĬķáīħ":12696,"áĬªáĭį":12697,"Red":12698,"Ġkere":12699,"Ġgetoon":12700,"ĠáĪªáįĮáĪ«áĪį":12701,"Ġstatus":12702,"ĠDon":12703,"Ġfirst":12704,"áĪŃáĭķáĪ°":12705,"roid":12706,"ĠáīłáĪ°áĪĽ":12707,"Ġáī¥áįįáĪĭáĭŃ":12708,"ĠBER":12709,"Ã¹":12710,"ĠLew":12711,"ĠáĪĺáĮįáī£":12712,"ĠáĬłáĭ°áĪ¨áĮĥ":12713,"Ġyears":12714,"pg":12715,"áīłáĭ²áĪĭ":12716,"áĮłáĬĵáīĢáīĢ":12717,"Ġparag":12718,"ienaar":12719,"ĠÂ·":12720,"Ġgroepe":12721,"áĭ²áĪģ":12722,"Ġheilig":12723,"maatskappy":12724,"Ġinterieurontwerp":12725,"Ġdanksy":12726,"otiese":12727,"bedek":12728,"ĠNow":12729,"Ġverlief":12730,"appies":12731,"skrifte":12732,"ĠbreÃ«":12733,"raking":12734,"Ġkompleks":12735,"Ġgeantwoord":12736,"alog":12737,"Ġprofiel":12738,"83":12739,"áĭ®áĪµ":12740,"áĪ»áĭį":12741,"Ġáī°áĪįáĭķáĬ®":12742,"ļÐ°Ð·Ð°ÒĽ":12743,"áĭĪáĪŃáīħ":12744,"ĠáĪħáī¥áĪ¨áīµ":12745,"Ġsjokolade":12746,"áĪ¨áī¡":12747,"áĭĪáĮ£áīµ":12748,"ÒļÐ°Ð·Ð°ÒĽ":12749,"Ġáĭ¨áī¢":12750,"áĮ¥áĭ«áīĦáĭĿáĪŃáĭĿáĪŃ":12751,"Ġáĭ¨áĪļáĭ°áĪ¨áĮį":12752,"Ġáĭ¨áĭĺáĪĺ":12753,"TM":12754,"áĭµáĮį":12755,"Bel":12756,"áĮīáīµ":12757,"¥àº²àº":12758,"¥àº²àº§":12759,"áī¢áĪ²":12760,"ĠáĪļáĪµáīµ":12761,"Ġpatr":12762,"replace":12763,"fiel":12764,"stowwe":12765,"áįĭáįĭáīµ":12766,"mpl":12767,"ĠBad":12768,"Ð¾Ð²Ð°":12769,"Ġdankbaar":12770,"áĭ²áĪ«":12771,"ĠBut":12772,"Ġuitdrukking":12773,"Ġskop":12774,"roete":12775,"Ġteor":12776,"ĠáĬ¥áĬķáĭ°áĪļáĭ«áĪµ":12777,"ĠáīłáĬ¥áĬĽ":12778,"áĪªáī±":12779,"Ġprins":12780,"gemeen":12781,"trip":12782,"áĮĪáĪ«áī½áĬķáĬķ":12783,"áĬ«áĪŃ":12784,"Plaas":12785,"Ġlood":12786,"áĮĭáĬķáĭ³":12787,"Ġáĭ¨áī°áĪ³áĪ³áī°":12788,"áī½áĪīáĪĿ":12789,"áįĥáĪļ":12790,"Ġáī´áĬŃ":12791,"71":12792,"Ġáĭ¨áĮĪáī£":12793,"áīĢáĬĳ":12794,"LO":12795,"emand":12796,"ĠáĪĿáĭĿáĮĪáī£":12797,"ĠáĬłáĪŃáĪ¶":12798,"ĠáĬ¥áĬĽáĪĿ":12799,"ĠáīłáĬłáĬķáĭµáĬĲáīµ":12800,"ĠStel":12801,"áįĪáĪĭáĮĬ":12802,"asien":12803,"etine":12804,"ĠCancel":12805,"Ġáĭ°áĪ¨áĮĥáĭİáī½":12806,"Ġsem":12807,"áĬ®áĪĿ":12808,"áĬ¨áīłáĪ©":12809,"áī£áĮŃ":12810,"Ġverblyf":12811,"ĠáīłáĬłáĮįáī£áī¡":12812,"taal":12813,"aktiese":12814,"Ġsentrum":12815,"ĠáĪŃáĭķáĪ°":12816,"áĬ®áĬĸáĪļáĭ«áĭĬ":12817,"oggend":12818,"betalings":12819,"ĠáĬĳáĪ®":12820,"Ġonderhou":12821,"Ġbeleid":12822,"Ġopbreng":12823,"áī¤áĪį":12824,"edert":12825,"Ġtent":12826,"ĠResearch":12827,"ĠKal":12828,"ĠWol":12829,"Ġáĭ¨áĪļáĪĨáĬĲáĭį":12830,"onster":12831,"áī±áĬĵ":12832,"ĠCommons":12833,"áĪ¨áĪĿáīµ":12834,"ĠáĬ¥áĪµáĪ«áĬ¤áĪį":12835,"ita":12836,"Ġáĭ«áĭ°áĪ¨áĮīáīµ":12837,"áĭ¨áĪħ":12838,"ĠáīłáĪĿáĭµáĪŃ":12839,"ĠVind":12840,"Ġlist":12841,"áĮ¥áīħáĪĿáīµ":12842,"ĠComp":12843,"áĭĽáĪį":12844,"Ġoffice":12845,"Ġnaar":12846,"áĭİáī»áī¸áĭį":12847,"1987":12848,"ĠáĪĪáĪ°":12849,"Ġprivate":12850,"Ġáī°áĭ°áĪ«áĪ½":12851,"Ġáĭ¨áĪ¸":12852,"ĠáĬ°":12853,"ĠáĬ¥áĬĲáĪĨ":12854,"ĠáĭŃáĪĿáĪ¨áĮ¡":12855,"Ġáī°áĬ«áĪĦáĭ°":12856,"ĠáĪ°áĬķáīłáīµ":12857,"áī¥áĭĽáĬĽáĭį":12858,"Ġspre":12859,"ĠáĬ¨áĪĺáĪµ":12860,"ĠáĬ£áĭį":12861,"ĠáĬ¨áĬ¥áĬĲáĭļáĪħ":12862,"áĪ¨áĮĭáĮĭ":12863,"ĠáĪĪáĪ¨áĮħáĪĿ":12864,"NC":12865,"uks":12866,"enner":12867,"Kaap":12868,"Ġmoedig":12869,"ĠáĬłáĬ³":12870,"Ġgegooi":12871,"Ġtelefonies":12872,"vaardighede":12873,"Ġmedis":12874,"Ġonth":12875,"ĠwÃªreldwyd":12876,"Ġdigitale":12877,"Ġbetyds":12878,"Ġgewenste":12879,"áī¥áĪ¨áī°áĪ°áī¡":12880,"passings":12881,"Ġáĭ¨áĪ¥áĬĲ":12882,"ĠáĬłáĮŃáĪŃ":12883,"strategie":12884,"Ġflits":12885,"Ġeffektiewe":12886,"oup":12887,"áĮĪáĭĻ":12888,"ĠAss":12889,"ĠáĪĺáĪĪáĬªáĭ«":12890,"tien":12891,"ĠáĪĪáĪĺáĪĪ":12892,"áĬŃáĪ½áĬķ":12893,"áĭ¨áĭļáĪħ":12894,"áĭįáĬķáĭµ":12895,"ĠáĬłáĮĭáĪŃ":12896,"áĭŃáĬĲ":12897,"yg":12898,"Ġáĭ¨áĭĲ":12899,"áĭĿáĬĲáĪµ":12900,"Ġáĭ¨áī°áĬĲ":12901,"ĠáĮįáĮŃ":12902,"uck":12903,"ĠáīłáĪĽáĪħ":12904,"ites":12905,"Ġberge":12906,"1970":12907,"Ġromans":12908,"áĪŃáĪ¶":12909,"itional":12910,"Ġbewerk":12911,"Ġdeure":12912,"lende":12913,"Ġverhe":12914,"ĠKort":12915,"kaarte":12916,"ĠáĮłáīħáĪĭáĪĭ":12917,"istrik":12918,"Ġbehoorlike":12919,"Ġvolgorde":12920,"Ġwortels":12921,"ĠáĪ°áĪĻ":12922,"bestuurder":12923,"omas":12924,"gers":12925,"lok":12926,"Ġstudies":12927,"ĠáĪµáī¥áĬ¨áīµ":12928,"ĠáĭĪáĮĪáĬĸ":12929,"stilte":12930,"ĠáĬ¥áĬķáĬ¨":12931,"GIR":12932,"eper":12933,"ĠáĪĽáĪµáī³áĭĪ":12934,"ĠáĪĺáĭĵ":12935,"áĭ°áĪĭ":12936,"Ġáī°áīĢáī¥":12937,"Ġáī°áĪĺáĪµ":12938,"Radio":12939,"áĮłáĭĭáĪį":12940,"Ġkalk":12941,"ĠáĬłáĪ°áĮ£":12942,"áĪĬáĬķáĮįáī°áĬķ":12943,"áĮ¨áĪ¨áī³":12944,"ollabor":12945,"Ġbyt":12946,"thodox":12947,"Ġtale":12948,"áĮİáī½áĬķ":12949,"ĠáīłáĪĻ":12950,"ĠáĪĪáĭĺ":12951,"Ġkonst":12952,"ĠáĪĽáĮ£áĪªáĭ«":12953,"ĠáĬłáī¥áĪ¨áĭį":12954,"party":12955,"ĠPan":12956,"Ġgode":12957,"ĠáīłáĭĽ":12958,"ĠáĬ¥áĬķáĭ³áĪµ":12959,"Ġà¤¹":12960,"ĠNederlandse":12961,"ĠáĮłáįį":12962,"ĠArega":12963,"Ġdoop":12964,"ĠáĪĿáĪŃáī¶áī½áĬķ":12965,"Ġvryw":12966,"Ġterugkom":12967,"Ġuiteen":12968,"handeling":12969,"Ġtand":12970,"Ġweerstaan":12971,"wintig":12972,"Ġáī¥áĪ«áĬķáĭµ":12973,"Ġvisie":12974,"salm":12975,"ĠáĪĺáĪŀ":12976,"ĠLeg":12977,"ĠáĬ«áī¥áī²":12978,"ĠDilla":12979,"ĠáĬ£áĪķ":12980,"raeg":12981,"ĠSon":12982,"ract":12983,"áĮĪáĮ¥":12984,"áĪĭáī¸áĭĭáĪį":12985,"Ġáĭ¨áĪļáĭį":12986,"Ġhow":12987,"áįķáĪ«áĭŃ":12988,"ĠáĮ¥áĬķáĬ«áĪ¬":12989,"ĠáĮ¥áįĭáīµ":12990,"ĠáĪĪáĬ¥áĪŃáĪµáĭİ":12991,"áĬ¥áĬĸ":12992,"Ġinfek":12993,"yer":12994,"ĠáĬ¨áĭ¨áīµ":12995,"uins":12996,"known":12997,"Ġáĭ²áĭĽáĭŃáĬķ":12998,"Ġbewyse":12999,"lement":13000,"áī¶áī¹áĬķ":13001,"Ġeeue":13002,"ubai":13003,"Ġepis":13004,"ness":13005,"Ġliggies":13006,"Ġonwet":13007,"ĠáĮ¥áĮĪáĬĵ":13008,"eldig":13009,"Ġáī¦áĪŃáĪ³":13010,"Ġoorge":13011,"selleer":13012,"Ġmoeilikheid":13013,"Ġbuiten":13014,"áī¥áĪŃáĪĥáĬķ":13015,"Ġslotte":13016,"ĠáĭĿáĪŃáĭ«":13017,"imal":13018,"Ġáī°áīĢáĪĿ":13019,"ĠáĬ¨áĪĨáĬĳáīµ":13020,"Ġverspreiding":13021,"Ġregistreer":13022,"áĬ³áĪŃ":13023,"ĠDawid":13024,"ĠSek":13025,"áĭ¨áĪ©áĪ³áĪĮáĪĿ":13026,"Ġinformation":13027,"ĠCal":13028,"ĠáīłáĭįáĮŃ":13029,"ĠRo":13030,"áĮłáĪĿ":13031,"áĪµáī³áĬķ":13032,"ĠáĬĭáĪĭ":13033,"Ġáĭ¨áĪļáĬĲ":13034,"irk":13035,"áįĪáĪ»":13036,"sver":13037,"áĮįáĭļáĬłáī¥áĪĦáĪŃ":13038,"HANU":13039,"ĠBERHANU":13040,"ĠTo":13041,"GIRMA":13042,"áĮĭáī¢":13043,"áĪµáī¸":13044,"ĠáĪĺáĭ°áī£áīµ":13045,"ĠáĪĽáĪµáī°áĬ«":13046,"wings":13047,"ienis":13048,"Ġgeste":13049,"ĠáĬ¨áī¢":13050,"áĮłáĬĵáĬ¨áĪŃ":13051,"Ġgesinne":13052,"ush":13053,"ymraeg":13054,"stoel":13055,"Ġuniek":13056,"Ġteater":13057,"unch":13058,"ĠáĪ°áĭĵáī³áīµ":13059,"Ġpublikasie":13060,"Ġeetle":13061,"ĠTwitterShare":13062,"Ġsalaris":13063,"Ġdominee":13064,"oeÃ«":13065,"ĠRussiese":13066,"Ġáĭ¨áĪļáĭ«áĭ°áĪŃáĮį":13067,"áī³áĭįáĬķ":13068,"ĠáĭĪáĭµ":13069,"rysk":13070,"ĠÙģØ§Ø±Ø³ÛĮ":13071,"Ġáĭ³áĮįáĪĿ":13072,"ĠáĭŃáīłáĪįáĮ¥":13073,"haus":13074,"áĭ¨áĭĪ":13075,"tew":13076,"áĪģáĪĪáī±":13077,"áĮįáĪ®":13078,"Ġdiffer":13079,"ĠDirectorate":13080,"Ġrente":13081,"ĠáĬ¥áĬķáĭ°áĪĨáĬĳ":13082,"model":13083,"ĠJehovah":13084,"edig":13085,"ĠáīĭáĪļ":13086,"áĮĪáĪĭ":13087,"Ġgord":13088,"áīĢáīħ":13089,"ĠáĪĽáĪ¨áĮĭáĮĪáĮ¥":13090,"Ġáī£áĪħáĪĭáĭĬ":13091,"Ġbespreking":13092,"Ġvereiste":13093,"okkie":13094,"Ġonderwerpe":13095,"áīĨáīµ":13096,"agete":13097,"Ġprettige":13098,"Ġgholf":13099,"Ġkaal":13100,"áĭ°áĪ©":13101,"Ġbevredig":13102,"Ġsielkundige":13103,"Ġtong":13104,"áĮ¥áĪ¨áĭį":13105,"iety":13106,"ĠáĬłáĪįáī»":13107,"ä½":13108,"áįĬáī±":13109,"ĠáĪĺáĭµáĬĥáĬĴ":13110,"ĠáĮ¸áĪİ":13111,"ĠáĬłáĭĽ":13112,"ĠáĭŃáī³áĭ«áĪį":13113,"áĮĨáī¹":13114,"Ġbeloftes":13115,"áĮĤáĬķ":13116,"ĠFeder":13117,"ĠOos":13118,"ĠAustral":13119,"ĠThisBlog":13120,"ĠThisBlogThis":13121,"Ġáī¥áĪİáĪĿ":13122,"Ġgladde":13123,"Ġafwes":13124,"Ġklam":13125,"ĠáĭķáĪŃ":13126,"Ġáĭ¨áĪ©":13127,"Ġkortverhaal":13128,"wekkende":13129,"Ġgoedkoper":13130,"Beste":13131,"áīłáĭĽ":13132,"epte":13133,"ĠSkryf":13134,"ĠPersoonlike":13135,"Soek":13136,"Ġwapen":13137,"ĠTiáº¿ng":13138,"skynlik":13139,"Ġopsomming":13140,"Ġáĭ¨áī°áĪŀáĪĭ":13141,"Ġbevolking":13142,"Ġnooi":13143,"Ġskaap":13144,"proke":13145,"Ġerger":13146,"Ġenjin":13147,"ĠáĪĿáĬŀ":13148,"Ġmobiele":13149,"áĪĽáī½":13150,"stry":13151,"ĠAmhara":13152,"Ġsuch":13153,"Ġpass":13154,"ĠAdministr":13155,"ĠáĪĺáĪ¬":13156,"Ġáĭ¨áĪĺáĪ°":13157,"áĮĪáĪĪáĮįáĪį":13158,"Ġoffers":13159,"áĪµáĬ®":13160,"ĠAbaba":13161,"Ġagent":13162,"áĬŃáĪįáīµ":13163,"ĠáĪĺáĬķáĮİ":13164,"inkedIn":13165,"ĠáĬ¢áĪľáĪį":13166,
[...]
